{
  "version": "1.0",
  "truncation": null,
  "padding": null,
  "added_tokens": [
    {
      "id": 1998,
      "content": "<think>",
      "single_word": false,
      "lstrip": false,
      "rstrip": false,
      "normalized": false,
      "special": true
    },
    {
      "id": 1999,
      "content": "<undo>",
      "single_word": false,
      "lstrip": false,
      "rstrip": false,
      "normalized": false,
      "special": true
    }
  ],
  "normalizer": null,
  "pre_tokenizer": {
    "type": "ByteLevel",
    "add_prefix_space": false,
    "trim_offsets": true,
    "use_regex": true
  },
  "post_processor": {
    "type": "ByteLevel",
    "add_prefix_space": true,
    "trim_offsets": false,
    "use_regex": true
  },
  "decoder": {
    "type": "ByteLevel",
    "add_prefix_space": true,
    "trim_offsets": true,
    "use_regex": true
  },
  "model": {
    "type": "BPE",
    "dropout": null,
    "unk_token": null,
    "continuing_subword_prefix": null,
    "end_of_word_suffix": null,
    "fuse_unk": false,
    "byte_fallback": false,
    "ignore_merges": false,
    "vocab": {
      "\n": 0,
      " ": 1,
      "\"": 2,
      "'": 3,
      "(": 4,
      ")": 5,
      ",": 6,
      "-": 7,
      ".": 8,
      "0": 9,
      "1": 10,
      "2": 11,
      "3": 12,
      "4": 13,
      "5": 14,
      "6": 15,
      "7": 16,
      "8": 17,
      "9": 18,
      ":": 19,
      ";": 20,
      "a": 21,
      "b": 22,
      "c": 23,
      "d": 24,
      "e": 25,
      "f": 26,
      "g": 27,
      "h": 28,
      "i": 29,
      "j": 30,
      "k": 31,
      "l": 32,
      "m": 33,
      "n": 34,
      "o": 35,
      "p": 36,
      "q": 37,
      "r": 38,
      "s": 39,
      "t": 40,
      "u": 41,
      "v": 42,
      "w": 43,
      "x": 44,
      "y": 45,
      "z": 46,
      "Ċ": 47,
      "Ġ": 48,
      "Ġt": 49,
      "Ġa": 50,
      "he": 51,
      "in": 52,
      "Ġthe": 53,
      "Ġ.": 54,
      "Ġs": 55,
      "Ġo": 56,
      "er": 57,
      "Ġw": 58,
      "re": 59,
      "is": 60,
      "Ġc": 61,
      "Ġ,": 62,
      "on": 63,
      "an": 64,
      "Ġb": 65,
      "it": 66,
      "Ġf": 67,
      "ed": 68,
      "Ġin": 69,
      "Ġp": 70,
      "en": 71,
      "or": 72,
      "Ġm": 73,
      "at": 74,
      "Ġof": 75,
      "al": 76,
      "ar": 77,
      "es": 78,
      "as": 79,
      "Ġan": 80,
      "Ġ1": 81,
      "Ġd": 82,
      "ro": 83,
      "Ġh": 84,
      "Ġ0": 85,
      "Ġis": 86,
      "Ġand": 87,
      "Ġl": 88,
      "ic": 89,
      "Ġ2": 90,
      "Ġn": 91,
      "Ġto": 92,
      "ing": 93,
      "ion": 94,
      "le": 95,
      "ou": 96,
      "Ġg": 97,
      "Ġth": 98,
      "Ġ9": 99,
      "am": 100,
      "us": 101,
      "ent": 102,
      "Ġwas": 103,
      "Ġe": 104,
      "il": 105,
      "Ġit": 106,
      "om": 107,
      "Ġon": 108,
      "Ġre": 109,
      "Ġbe": 110,
      "the": 111,
      "Ġhe": 112,
      "ad": 113,
      "un": 114,
      "ve": 115,
      "Ġfor": 116,
      "Ġst": 117,
      "ol": 118,
      "ct": 119,
      "st": 120,
      "ay": 121,
      "ver": 122,
      "ĠĠ": 123,
      "id": 124,
      "ot": 125,
      "ly": 126,
      "et": 127,
      "ur": 128,
      "ce": 129,
      "ch": 130,
      "im": 131,
      "Ġal": 132,
      "ow": 133,
      "Ġ-": 134,
      "ir": 135,
      "ation": 136,
      "Ġas": 137,
      "ig": 138,
      "ter": 139,
      "Ġfro": 140,
      "Ġ8": 141,
      "Ġ\"": 142,
      "Ġare": 143,
      "Ġj": 144,
      "Ġr": 145,
      "ut": 146,
      "el": 147,
      "Ġk": 148,
      "Ġat": 149,
      "Ġch": 150,
      "op": 151,
      "and": 152,
      "Ġby": 153,
      "Ġ)": 154,
      "Ġ(": 155,
      "Ġ3": 156,
      "um": 157,
      "Ġmo": 158,
      "Ġ7": 159,
      "Ġse": 160,
      "Ġ5": 161,
      "Ġfrom": 162,
      "Ġ'": 163,
      "th": 164,
      "Ġthat": 165,
      "Ġor": 166,
      "Ġ6": 167,
      "ge": 168,
      "Ġ4": 169,
      "ber": 170,
      "Ġde": 171,
      "ith": 172,
      "Ġwh": 173,
      "ist": 174,
      "ia": 175,
      "all": 176,
      "art": 177,
      "ul": 178,
      "Ġwith": 179,
      "Ġpl": 180,
      "ies": 181,
      "Ġv": 182,
      "if": 183,
      "Ġcom": 184,
      "oun": 185,
      "ain": 186,
      "est": 187,
      "em": 188,
      "ac": 189,
      "os": 190,
      "Ġun": 191,
      "Ġne": 192,
      "iv": 193,
      "ap": 194,
      "Ġpro": 195,
      "ity": 196,
      "ld": 197,
      "Ġcon": 198,
      "Ġy": 199,
      "ers": 200,
      "ther": 201,
      "Ġus": 202,
      "ak": 203,
      "ame": 204,
      "so": 205,
      "ian": 206,
      "od": 207,
      "ill": 208,
      "Ġwor": 209,
      "res": 210,
      "Ġthey": 211,
      "up": 212,
      "Ġcan": 213,
      "Ġle": 214,
      "Ġhas": 215,
      "Ġsp": 216,
      "ate": 217,
      "Ġhis": 218,
      "ave": 219,
      "tr": 220,
      "Ġalso": 221,
      "Ġpe": 222,
      "ag": 223,
      "igh": 224,
      "Ġen": 225,
      "ud": 226,
      "se": 227,
      "ary": 228,
      "Ġsh": 229,
      "Ġthis": 230,
      "Ġro": 231,
      "ich": 232,
      "ied": 233,
      "ong": 234,
      "Ġnot": 235,
      "ople": 236,
      "ive": 237,
      "ub": 238,
      "ant": 239,
      "Ġtr": 240,
      "ie": 241,
      "ip": 242,
      "oc": 243,
      "ard": 244,
      "ment": 245,
      "ome": 246,
      "Ġpeople": 247,
      "ort": 248,
      "ab": 249,
      "Ġman": 250,
      "Ġar": 251,
      "Ġhave": 252,
      "ish": 253,
      "Ġte": 254,
      "qu": 255,
      "ere": 256,
      "orn": 257,
      "Ġab": 258,
      "ast": 259,
      "Ġpart": 260,
      "Ġone": 261,
      "Ġex": 262,
      "ug": 263,
      "ear": 264,
      "ial": 265,
      "ated": 266,
      "Ġwhe": 267,
      "Ġplay": 268,
      "Ġwere": 269,
      "Ġbec": 270,
      "land": 271,
      "Ġaf": 272,
      "Ġwhich": 273,
      "ess": 274,
      "ore": 275,
      "Ġgo": 276,
      "Ġnew": 277,
      "Ġshe": 278,
      "our": 279,
      "ide": 280,
      "rit": 281,
      "own": 282,
      "Ġmar": 283,
      "ight": 284,
      "iver": 285,
      "ang": 286,
      "Ġcomp": 287,
      "ade": 288,
      "ure": 289,
      "ire": 290,
      "der": 291,
      "ine": 292,
      "Ġyear": 293,
      "Ġother": 294,
      "ok": 295,
      "out": 296,
      "Ġcl": 297,
      "ational": 298,
      "ction": 299,
      "Ġ:": 300,
      "ical": 301,
      "man": 302,
      "ond": 303,
      "ack": 304,
      "aus": 305,
      "Ġused": 306,
      "ell": 307,
      "Ġtheir": 308,
      "ater": 309,
      "Ġsc": 310,
      "Ġtw": 311,
      "ke": 312,
      "age": 313,
      "ren": 314,
      "Ġits": 315,
      "Ġthere": 316,
      "Ġkn": 317,
      "ime": 318,
      "Ġap": 319,
      "Ġbut": 320,
      "Ġcall": 321,
      "Ġpr": 322,
      "ree": 323,
      "ect": 324,
      "og": 325,
      "ric": 326,
      "Ġall": 327,
      "Ġborn": 328,
      "Ġhad": 329,
      "Ġmany": 330,
      "amp": 331,
      "uc": 332,
      "ans": 333,
      "fer": 334,
      "Ġmade": 335,
      "Ġser": 336,
      "Ġafter": 337,
      "ib": 338,
      "Ġworld": 339,
      "av": 340,
      "Ġele": 341,
      "Ġad": 342,
      "Ġme": 343,
      "Ġcalled": 344,
      "Ġnor": 345,
      "pt": 346,
      "Ġmost": 347,
      "ue": 348,
      "Ġcol": 349,
      "Ġno": 350,
      "ice": 351,
      "end": 352,
      "Ġwho": 353,
      "Ġcity": 354,
      "ass": 355,
      "ust": 356,
      "ace": 357,
      "mer": 358,
      "Ġco": 359,
      "Ġag": 360,
      "Ġsome": 361,
      "iz": 362,
      "Ġcoun": 363,
      "ased": 364,
      "Ġabout": 365,
      "cl": 366,
      "Ġtwo": 367,
      "Ġdied": 368,
      "Ġrep": 369,
      "Ġher": 370,
      "Ġgro": 371,
      "Ġmay": 372,
      "tern": 373,
      "ous": 374,
      "are": 375,
      "wn": 376,
      "ions": 377,
      "one": 378,
      "Ġcomm": 379,
      "Ġind": 380,
      "und": 381,
      "ound": 382,
      "ra": 383,
      "Ġfe": 384,
      "ec": 385,
      "ally": 386,
      "per": 387,
      "Ġeng": 388,
      "ord": 389,
      "ild": 390,
      "Ġfrog": 391,
      "ach": 392,
      "uary": 393,
      "Ġsou": 394,
      "Ġver": 395,
      "Ġknown": 396,
      "ake": 397,
      "Ġcent": 398,
      "ivers": 399,
      "Ġbeen": 400,
      "we": 401,
      "her": 402,
      "Ġwhen": 403,
      "ts": 404,
      "Ġbo": 405,
      "mber": 406,
      "Ġpres": 407,
      "ause": 408,
      "act": 409,
      "Ġmov": 410,
      "to": 411,
      "Ġnational": 412,
      "Ġdo": 413,
      "Ġdis": 414,
      "ince": 415,
      "Ġnum": 416,
      "Ġwork": 417,
      "ory": 418,
      "ten": 419,
      "Ġtime": 420,
      "Ġfo": 421,
      "ubl": 422,
      "Ġli": 423,
      "Ġpar": 424,
      "ustr": 425,
      "ould": 426,
      "Ġteam": 427,
      "Ġnumber": 428,
      "Ġmus": 429,
      "Ġbr": 430,
      "te": 431,
      "Ġac": 432,
      "Ġsy": 433,
      "ember": 434,
      "Ġunivers": 435,
      "Ġfr": 436,
      "port": 437,
      "aw": 438,
      "ign": 439,
      "Ġstud": 440,
      "Ġmore": 441,
      "pe": 442,
      "Ġfl": 443,
      "ident": 444,
      "hed": 445,
      "Ġrele": 446,
      "ings": 447,
      "Ġliv": 448,
      "Ġfir": 449,
      "ult": 450,
      "uch": 451,
      "vern": 452,
      "Ġper": 453,
      "Ġim": 454,
      "Ġup": 455,
      "Ġdif": 456,
      "ics": 457,
      "Ġcountr": 458,
      "Ġgr": 459,
      "Ġoff": 460,
      "ence": 461,
      "ind": 462,
      "gh": 463,
      "Ġso": 464,
      "Ġfirst": 465,
      "Ġgovern": 466,
      "Ġsec": 467,
      "Ġpol": 468,
      "Ġbet": 469,
      "Ġbl": 470,
      "uring": 471,
      "ball": 472,
      "Ġuniversity": 473,
      "ath": 474,
      "Ġbecause": 475,
      "io": 476,
      "les": 477,
      "ations": 478,
      "Ġaw": 479,
      "Ġyears": 480,
      "Ġev": 481,
      "ance": 482,
      "ugh": 483,
      "ail": 484,
      "vel": 485,
      "Ġwe": 486,
      "br": 487,
      "ite": 488,
      "Ġout": 489,
      "ms": 490,
      "Ġact": 491,
      "Ġstate": 492,
      "ry": 493,
      "Ġbu": 494,
      "Ġlar": 495,
      "ost": 496,
      "Ġdiffer": 497,
      "Ġrec": 498,
      "ays": 499,
      "Ġmin": 500,
      "Ġgen": 501,
      "Ġwar": 502,
      "Ġcar": 503,
      "Ġonly": 504,
      "ne": 505,
      "Ġsong": 506,
      "mp": 507,
      "Ġreleased": 508,
      "Ġaustr": 509,
      "Ġcont": 510,
      "Ġph": 511,
      "Ġsouth": 512,
      "ition": 513,
      "ks": 514,
      "Ġalb": 515,
      "ase": 516,
      "Ġi": 517,
      "Ġreg": 518,
      "clud": 519,
      "gan": 520,
      "Ġgre": 521,
      "Ġinto": 522,
      "imes": 523,
      "ital": 524,
      "Ġstart": 525,
      "Ġfound": 526,
      "ween": 527,
      "Ġover": 528,
      "Ġinclud": 529,
      "Ġres": 530,
      "Ġqu": 531,
      "Ġear": 532,
      "ough": 533,
      "for": 534,
      "Ġpre": 535,
      "Ġpop": 536,
      "Ġjo": 537,
      "Ġsm": 538,
      "Ġbetween": 539,
      "Ġdifferent": 540,
      "ames": 541,
      "ose": 542,
      "Ġlike": 543,
      "Ġmet": 544,
      "Ġsing": 545,
      "Ġcre": 546,
      "Ġwhere": 547,
      "ton": 548,
      "als": 549,
      "Ġalbum": 550,
      "ient": 551,
      "Ġbro": 552,
      "Ġfam": 553,
      "Ġage": 554,
      "Ġsch": 555,
      "Ġthan": 556,
      "Ġgroup": 557,
      "old": 558,
      "Ġfoot": 559,
      "Ġnorth": 560,
      "Ġthem": 561,
      "ool": 562,
      "Ġwill": 563,
      "Ġbecame": 564,
      "iss": 565,
      "Ġend": 566,
      "ors": 567,
      "Ġname": 568,
      "ved": 569,
      "Ġdist": 570,
      "pen": 571,
      "Ġjan": 572,
      "Ġthese": 573,
      "Ġu": 574,
      "Ġcap": 575,
      "ix": 576,
      "Ġhow": 577,
      "Ġplayed": 578,
      "Ġter": 579,
      "Ġduring": 580,
      "ists": 581,
      "ublic": 582,
      "ep": 583,
      "ft": 584,
      "Ġlong": 585,
      "Ġspec": 586,
      "Ġform": 587,
      "Ġpresident": 588,
      "Ġking": 589,
      "Ġvery": 590,
      "hip": 591,
      "Ġmed": 592,
      "Ġbel": 593,
      "ict": 594,
      "Ġmon": 595,
      "Ġfootball": 596,
      "ces": 597,
      "ced": 598,
      "omet": 599,
      "ile": 600,
      "Ġapp": 601,
      "erson": 602,
      "Ġelect": 603,
      "urn": 604,
      "Ġshow": 605,
      "Ġaward": 606,
      "ision": 607,
      "Ġsecond": 608,
      "Ġthree": 609,
      "Ġjanuary": 610,
      "Ġgame": 611,
      "Ġsa": 612,
      "ually": 613,
      "une": 614,
      "Ġaustral": 615,
      "ons": 616,
      "ff": 617,
      "Ġmusic": 618,
      "Ġmain": 619,
      "ale": 620,
      "ents": 621,
      "Ġwrit": 622,
      "fore": 623,
      "ular": 624,
      "Ġchar": 625,
      "Ġlang": 626,
      "Ġ;": 627,
      "Ġprov": 628,
      "Ġgovernment": 629,
      "Ġbrit": 630,
      "tain": 631,
      "Ġsup": 632,
      "Ġold": 633,
      "uro": 634,
      "Ġlangu": 635,
      "ork": 636,
      "Ġseries": 637,
      "Ġschool": 638,
      "che": 639,
      "til": 640,
      "ited": 641,
      "Ġfour": 642,
      "Ġz": 643,
      "Ġcal": 644,
      "Ġperson": 645,
      "Ġrel": 646,
      "Ġdr": 647,
      "Ġmake": 648,
      "Ġger": 649,
      "Ġdep": 650,
      "Ġlater": 651,
      "ick": 652,
      "ress": 653,
      "ood": 654,
      "Ġdes": 655,
      "Ġmarch": 656,
      "apan": 657,
      "Ġwon": 658,
      "Ġunder": 659,
      "ates": 660,
      "oth": 661,
      "Ġam": 662,
      "Ġlo": 663,
      "ife": 664,
      "Ġjapan": 665,
      "Ġwater": 666,
      "Ġsame": 667,
      "Ġstr": 668,
      "Ġpo": 669,
      "Ġeuro": 670,
      "Ġsmall": 671,
      "Ġchild": 672,
      "Ġwould": 673,
      "Ġuse": 674,
      "Ġsept": 675,
      "Ġuntil": 676,
      "ily": 677,
      "Ġed": 678,
      "eral": 679,
      "amed": 680,
      "Ġagain": 681,
      "low": 682,
      "vember": 683,
      "Ġmovie": 684,
      "round": 685,
      "Ġnovember": 686,
      "Ġair": 687,
      "ative": 688,
      "Ġoften": 689,
      "Ġseptember": 690,
      "Ġfin": 691,
      "Ġju": 692,
      "Ġoct": 693,
      "Ġwom": 694,
      "ens": 695,
      "Ġsuch": 696,
      "Ġgerman": 697,
      "cer": 698,
      "Ġdece": 699,
      "Ġintern": 700,
      "able": 701,
      "Ġdecember": 702,
      "lish": 703,
      "Ġaug": 704,
      "Ġloc": 705,
      "Ġma": 706,
      "ium": 707,
      "ina": 708,
      "ister": 709,
      "ober": 710,
      "Ġoctober": 711,
      "ury": 712,
      "stem": 713,
      "Ġaugust": 714,
      "Ġprod": 715,
      "int": 716,
      "Ġhigh": 717,
      "Ġjune": 718,
      "Ġarea": 719,
      "olog": 720,
      "Ġann": 721,
      "Ġthro": 722,
      "cess": 723,
      "Ġsw": 724,
      "gest": 725,
      "Ġsystem": 726,
      "Ġisland": 727,
      "Ġsince": 728,
      "ph": 729,
      "Ġmat": 730,
      "ines": 731,
      "Ġif": 732,
      "ional": 733,
      "ished": 734,
      "Ġthen": 735,
      "Ġjuly": 736,
      "son": 737,
      "Ġcountry": 738,
      "Ġenglish": 739,
      "Ġsomet": 740,
      "Ġatt": 741,
      "ril": 742,
      "Ġeurope": 743,
      "Ġbefore": 744,
      "Ġbook": 745,
      "Ġgu": 746,
      "Ġsub": 747,
      "Ġbest": 748,
      "Ġhel": 749,
      "Ġhome": 750,
      "Ġtown": 751,
      "Ġusually": 752,
      "ble": 753,
      "Ġchamp": 754,
      "Ġstarted": 755,
      "ĠĊ": 756,
      "ier": 757,
      "Ġlaw": 758,
      "Ġhist": 759,
      "Ġbritish": 760,
      "Ġapril": 761,
      "ird": 762,
      "ouse": 763,
      "Ġplace": 764,
      "bruary": 765,
      "ck": 766,
      "ange": 767,
      "Ġget": 768,
      "Ġfebruary": 769,
      "ower": 770,
      "Ġdistric": 771,
      "Ġbeing": 772,
      "Ġsoc": 773,
      "Ġlive": 774,
      "Ġcommon": 775,
      "Ġche": 776,
      "Ġparty": 777,
      "Ġeach": 778,
      "Ġcons": 779,
      "form": 780,
      "Ġwest": 781,
      "ger": 782,
      "Ġoffic": 783,
      "ll": 784,
      "Ġthrough": 785,
      "iam": 786,
      "iet": 787,
      "ants": 788,
      "Ġsim": 789,
      "Ġgames": 790,
      "Ġdiv": 791,
      "thern": 792,
      "air": 793,
      "lo": 794,
      "Ġever": 795,
      "Ġengland": 796,
      "ys": 797,
      "Ġfol": 798,
      "Ġret": 799,
      "Ġday": 800,
      "Ġmarr": 801,
      "Ġhum": 802,
      "Ġlead": 803,
      "ank": 804,
      "gr": 805,
      "ism": 806,
      "Ġdeath": 807,
      "Ġelection": 808,
      "Ġexamp": 809,
      "co": 810,
      "Ġnamed": 811,
      "Ġsur": 812,
      "Ġwell": 813,
      "Ġinst": 814,
      "pl": 815,
      "ason": 816,
      "ah": 817,
      "ague": 818,
      "Ġart": 819,
      "Ġcapital": 820,
      "Ġlives": 821,
      "ather": 822,
      "Ġrecord": 823,
      "Ġwin": 824,
      "Ġwomen": 825,
      "Ġyork": 826,
      "Ġinternational": 827,
      "Ġtele": 828,
      "Ġcountries": 829,
      "ature": 830,
      "Ġcolle": 831,
      "ody": 832,
      "az": 833,
      "Ġimport": 834,
      "Ġmak": 835,
      "ann": 836,
      "igin": 837,
      "Ġbuild": 838,
      "uss": 839,
      "ondon": 840,
      "Ġhim": 841,
      "Ġcr": 842,
      "Ġback": 843,
      "Ġany": 844,
      "Ġnear": 845,
      "Ġcompan": 846,
      "Ġob": 847,
      "ley": 848,
      "ious": 849,
      "Ġlondon": 850,
      "uct": 851,
      "Ġword": 852,
      "ters": 853,
      "ink": 854,
      "ica": 855,
      "Ġset": 856,
      "Ġchildren": 857,
      "way": 858,
      "Ġfamily": 859,
      "Ġboth": 860,
      "dom": 861,
      "Ġdec": 862,
      "ific": 863,
      "Ġway": 864,
      "Ġcur": 865,
      "enn": 866,
      "Ġunited": 867,
      "iel": 868,
      "ever": 869,
      "ual": 870,
      "Ġcanad": 871,
      "Ġfollow": 872,
      "ities": 873,
      "Ġserv": 874,
      "Ġprof": 875,
      "tle": 876,
      "Ġent": 877,
      "Ġplayer": 878,
      "ures": 879,
      "Ġriver": 880,
      "Ġpolit": 881,
      "Ġhead": 882,
      "Ġrun": 883,
      "Ġorigin": 884,
      "Ġanim": 885,
      "Ġsaid": 886,
      "vision": 887,
      "ution": 888,
      "Ġconst": 889,
      "Ġleague": 890,
      "Ġpos": 891,
      "lymp": 892,
      "Ġolymp": 893,
      "Ġaround": 894,
      "rop": 895,
      "Ġlife": 896,
      "Ġgiv": 897,
      "Ġeast": 898,
      "Ġown": 899,
      "Ġimportant": 900,
      "Ġdistrict": 901,
      "red": 902,
      "Ġtrans": 903,
      "Ġsea": 904,
      "its": 905,
      "Ġhouse": 906,
      "aces": 907,
      "ages": 908,
      "Ġband": 909,
      "Ġnow": 910,
      "ral": 911,
      "Ġlanguage": 912,
      "Ġformer": 913,
      "Ġlarge": 914,
      "Ġvide": 915,
      "rent": 916,
      "Ġdef": 917,
      "Ġchampions": 918,
      "Ġinv": 919,
      "Ġstar": 920,
      "Ġhelp": 921,
      "af": 922,
      "other": 923,
      "Ġorgan": 924,
      "Ġchang": 925,
      "Ġke": 926,
      "Ġdid": 927,
      "min": 928,
      "Ġcreated": 929,
      "Ġfore": 930,
      "Ġmarried": 931,
      "ject": 932,
      "Ġcompet": 933,
      "Ġinter": 934,
      "Ġrem": 935,
      "Ġexample": 936,
      "Ġmember": 937,
      "Ġbased": 938,
      "Ġmil": 939,
      "Ġopen": 940,
      "Ġdire": 941,
      "ted": 942,
      "ounced": 943,
      "ating": 944,
      "ss": 945,
      "Ġaustralia": 946,
      "Ġsingle": 947,
      "Ġir": 948,
      "Ġrepublic": 949,
      "Ġsk": 950,
      "Ġlast": 951,
      "Ġkingdom": 952,
      "Ġregion": 953,
      "Ġtre": 954,
      "Ġsum": 955,
      "Ġprovince": 956,
      "Ġbus": 957,
      "Ġclub": 958,
      "Ġmeans": 959,
      "Ġtimes": 960,
      "Ġleg": 961,
      "hn": 962,
      "ientists": 963,
      "Ġbig": 964,
      "Ġtelevision": 965,
      "cy": 966,
      "osp": 967,
      "Ġcaus": 968,
      "ai": 969,
      "ural": 970,
      "ane": 971,
      "velop": 972,
      "Ġprofess": 973,
      "Ġminister": 974,
      "Ġbegan": 975,
      "Ġfil": 976,
      "Ġital": 977,
      "day": 978,
      "Ġright": 979,
      "Ġsever": 980,
      "Ġland": 981,
      "ins": 982,
      "Ġevery": 983,
      "Ġchr": 984,
      "Ġdevelop": 985,
      "Ġcentury": 986,
      "Ġannounced": 987,
      "ven": 988,
      "ilt": 989,
      "ired": 990,
      "Ġmill": 991,
      "Ġvideo": 992,
      "Ġge": 993,
      "Ġchampionship": 994,
      "iforn": 995,
      "there": 996,
      "Ġagainst": 997,
      "Ġty": 998,
      "ning": 999,
      "Ġhowever": 1000,
      "Ġsometimes": 1001,
      "bo": 1002,
      "Ġcaliforn": 1003,
      "Ġwent": 1004,
      "this": 1005,
      "Ġkill": 1006,
      "Ġcalifornia": 1007,
      "Ġseen": 1008,
      "Ġspe": 1009,
      "Ġlevel": 1010,
      "Ġofficial": 1011,
      "Ġmid": 1012,
      "Ġtak": 1013,
      "me": 1014,
      "ology": 1015,
      "con": 1016,
      "ese": 1017,
      "Ġdown": 1018,
      "Ġred": 1019,
      "artment": 1020,
      "Ġarm": 1021,
      "hing": 1022,
      "Ġfar": 1023,
      "Ġang": 1024,
      "Ġadd": 1025,
      "Ġspecies": 1026,
      "Ġbody": 1027,
      "Ġlargest": 1028,
      "Ġyou": 1029,
      "ible": 1030,
      "Ġem": 1031,
      "Ġeg": 1032,
      "Ġii": 1033,
      "Ġeas": 1034,
      "rest": 1035,
      "Ġpopular": 1036,
      "Ġgreat": 1037,
      "Ġheld": 1038,
      "Ġass": 1039,
      "osed": 1040,
      "Ġrepres": 1041,
      "cr": 1042,
      "ise": 1043,
      "Ġcompany": 1044,
      "hen": 1045,
      "Ġcare": 1046,
      "Ġoper": 1047,
      "Ġseason": 1048,
      "ket": 1049,
      "Ġthings": 1050,
      "Ġincluding": 1051,
      "estern": 1052,
      "Ġwal": 1053,
      "Ġseveral": 1054,
      "Ġdirect": 1055,
      "Ġsen": 1056,
      "Ġbar": 1057,
      "sh": 1058,
      "Ġpublic": 1059,
      "ting": 1060,
      "Ġacc": 1061,
      "ash": 1062,
      "Ġaut": 1063,
      "ful": 1064,
      "Ġrock": 1065,
      "Ġgood": 1066,
      "Ġmaj": 1067,
      "Ġvers": 1068,
      "ik": 1069,
      "alth": 1070,
      "Ġdem": 1071,
      "be": 1072,
      "Ġchur": 1073,
      "Ġcommun": 1074,
      "Ġgeneral": 1075,
      "Ġjust": 1076,
      "by": 1077,
      "xt": 1078,
      "ized": 1079,
      "Ġjohn": 1080,
      "Ġearly": 1081,
      "Ġdepartment": 1082,
      "Ġmoun": 1083,
      "Ġhap": 1084,
      "Ġstre": 1085,
      "ared": 1086,
      "hy": 1087,
      "Ġclass": 1088,
      "Ġpark": 1089,
      "Ġcurrent": 1090,
      "Ġwritten": 1091,
      "ty": 1092,
      "atic": 1093,
      "Ġmembers": 1094,
      "Ġbre": 1095,
      "ows": 1096,
      "Ġep": 1097,
      "Ġhistory": 1098,
      "anc": 1099,
      "omin": 1100,
      "Ġel": 1101,
      "ull": 1102,
      "ield": 1103,
      "Ġthough": 1104,
      "ats": 1105,
      "Ġsix": 1106,
      "Ġsu": 1107,
      "Ġterm": 1108,
      "Ġinf": 1109,
      "Ġthird": 1110,
      "Ġcour": 1111,
      "amm": 1112,
      "Ġmajor": 1113,
      "Ġsign": 1114,
      "Ġwhat": 1115,
      "Ġtop": 1116,
      "Ġpower": 1117,
      "Ġcharact": 1118,
      "Ġplaces": 1119,
      "ove": 1120,
      "cc": 1121,
      "Ġamer": 1122,
      "Ġcro": 1123,
      "Ġpass": 1124,
      "iew": 1125,
      "Ġstill": 1126,
      "ark": 1127,
      "Ġvar": 1128,
      "ute": 1129,
      "ains": 1130,
      "Ġshort": 1131,
      "Ġsummer": 1132,
      "Ġhar": 1133,
      "Ġruss": 1134,
      "Ġscot": 1135,
      "Ġanother": 1136,
      "Ġlight": 1137,
      "Ġsol": 1138,
      "ians": 1139,
      "Ġx": 1140,
      "Ġmuch": 1141,
      "Ġgiven": 1142,
      "Ġwhile": 1143,
      "arch": 1144,
      "Ġlit": 1145,
      "ode": 1146,
      "ock": 1147,
      "ling": 1148,
      "Ġdoes": 1149,
      "Ġpa": 1150,
      "Ġpubl": 1151,
      "Ġchrist": 1152,
      "Ġproble": 1153,
      "Ġphil": 1154,
      "ung": 1155,
      "Ġcould": 1156,
      "vent": 1157,
      "Ġblack": 1158,
      "Ġval": 1159,
      "Ġbuilt": 1160,
      "Ġstation": 1161,
      "Ġindia": 1162,
      "Ġfive": 1163,
      "Ġla": 1164,
      "Ġhuman": 1165,
      "ison": 1166,
      "Ġfrance": 1167,
      "Ġneed": 1168,
      "Ġstudio": 1169,
      "Ġleft": 1170,
      "Ġdise": 1171,
      "Ġafric": 1172,
      "Ġcup": 1173,
      "Ġparts": 1174,
      "sc": 1175,
      "ived": 1176,
      "Ġattack": 1177,
      "Ġhosp": 1178,
      "Ġcor": 1179,
      "rench": 1180,
      "ony": 1181,
      "ams": 1182,
      "ulation": 1183,
      "Ġmove": 1184,
      "Ġwhite": 1185,
      "Ġyoun": 1186,
      "Ġemp": 1187,
      "Ġbas": 1188,
      "Ġwestern": 1189,
      "ci": 1190,
      "Ġcontro": 1191,
      "bs": 1192,
      "uction": 1193,
      "Ġcollege": 1194,
      "ax": 1195,
      "Ġtit": 1196,
      "elf": 1197,
      "she": 1198,
      "Ġline": 1199,
      "Ġprot": 1200,
      "Ġprogr": 1201,
      "Ġeven": 1202,
      "Ġmonth": 1203,
      "ches": 1204,
      "Ġaged": 1205,
      "Ġcentral": 1206,
      "Ġgermany": 1207,
      "Ġamerica": 1208,
      "ney": 1209,
      "Ġliving": 1210,
      "Ġinc": 1211,
      "Ġchurch": 1212,
      "Ġsport": 1213,
      "Ġfrench": 1214,
      "Ġvol": 1215,
      "eng": 1216,
      "Ġes": 1217,
      "ew": 1218,
      "istan": 1219,
      "Ġrepresent": 1220,
      "ined": 1221,
      "Ġhy": 1222,
      "Ġlos": 1223,
      "Ġtook": 1224,
      "rap": 1225,
      "ont": 1226,
      "ple": 1227,
      "Ġhappen": 1228,
      "Ġabove": 1229,
      "ize": 1230,
      "Ġforest": 1231,
      "Ġuk": 1232,
      "ided": 1233,
      "Ġhospital": 1234,
      "Ġroman": 1235,
      "Ġarr": 1236,
      "Ġfem": 1237,
      "Ġfamous": 1238,
      "ner": 1239,
      "augh": 1240,
      "side": 1241,
      "ster": 1242,
      "Ġmillion": 1243,
      "Ġearth": 1244,
      "Ġheart": 1245,
      "Ġlook": 1246,
      "Ġlot": 1247,
      "Ġcancer": 1248,
      "Ġprofessional": 1249,
      "Ġhol": 1250,
      "Ġest": 1251,
      "uced": 1252,
      "ator": 1253,
      "Ġaustralian": 1254,
      "ience": 1255,
      "Ġorder": 1256,
      "Ġsl": 1257,
      "Ġspecial": 1258,
      "Ġrece": 1259,
      "Ġmountain": 1260,
      "Ġnorthern": 1261,
      "ered": 1262,
      "Ġrail": 1263,
      "Ġevent": 1264,
      "Ġtem": 1265,
      "Ġbat": 1266,
      "Ġbelie": 1267,
      "eter": 1268,
      "sp": 1269,
      "gin": 1270,
      "ones": 1271,
      "Ġconf": 1272,
      "Ġcer": 1273,
      "ets": 1274,
      "Ġmoved": 1275,
      "Ġfilm": 1276,
      "Ġscientists": 1277,
      "Ġdisease": 1278,
      "Ġexp": 1279,
      "Ġrul": 1280,
      "most": 1281,
      "let": 1282,
      "Ġbecome": 1283,
      "Ġprime": 1284,
      "na": 1285,
      "ham": 1286,
      "Ġeuropean": 1287,
      "key": 1288,
      "Ġcaused": 1289,
      "Ġport": 1290,
      "Ġpublished": 1291,
      "Ġfounded": 1292,
      "after": 1293,
      "iod": 1294,
      "cept": 1295,
      "els": 1296,
      "aced": 1297,
      "Ġchem": 1298,
      "Ġgovernor": 1299,
      "Ġchange": 1300,
      "ues": 1301,
      "ago": 1302,
      "Ġcenter": 1303,
      "gen": 1304,
      "led": 1305,
      "Ġsuc": 1306,
      "ocr": 1307,
      "ected": 1308,
      "gether": 1309,
      "Ġsold": 1310,
      "Ġfif": 1311,
      "Ġsee": 1312,
      "Ġrev": 1313,
      "Ġcult": 1314,
      "Ġra": 1315,
      "Ġcamp": 1316,
      "Ġlived": 1317,
      "Ġop": 1318,
      "ama": 1319,
      "soci": 1320,
      "Ġsay": 1321,
      "Ġmen": 1322,
      "Ġdeb": 1323,
      "Ġcontin": 1324,
      "Ġrad": 1325,
      "ices": 1326,
      "ying": 1327,
      "Ġawards": 1328,
      "Ġmass": 1329,
      "Ġhig": 1330,
      "Ġsupport": 1331,
      "Ġstand": 1332,
      "Ġassoci": 1333,
      "Ġcat": 1334,
      "ases": 1335,
      "Ġchina": 1336,
      "Ġpopulation": 1337,
      "Ġmod": 1338,
      "Ġdesign": 1339,
      "Ġstudied": 1340,
      "Ġgrow": 1341,
      "ward": 1342,
      "epend": 1343,
      "Ġcame": 1344,
      "Ġmean": 1345,
      "Ġtogether": 1346,
      "Ġperiod": 1347,
      "Ġque": 1348,
      "Ġmag": 1349,
      "Ġgold": 1350,
      "Ġson": 1351,
      "erg": 1352,
      "ae": 1353,
      "Ġfew": 1354,
      "Ġill": 1355,
      "ement": 1356,
      "Ġegg": 1357,
      "Ġput": 1358,
      "ilar": 1359,
      "Ġcanada": 1360,
      "Ġbuilding": 1361,
      "Ġnat": 1362,
      "Ġpolitical": 1363,
      "Ġside": 1364,
      "Ġfollowing": 1365,
      "Ġoffice": 1366,
      "Ġlanguages": 1367,
      "Ġsal": 1368,
      "ised": 1369,
      "ments": 1370,
      "Ġav": 1371,
      "Ġwant": 1372,
      "ford": 1373,
      "Ġmy": 1374,
      "Ġunion": 1375,
      "Ġbor": 1376,
      "Ġrepl": 1377,
      "verage": 1378,
      "Ġworked": 1379,
      "Ġindepend": 1380,
      "Ġversion": 1381,
      "ron": 1382,
      "Ġstor": 1383,
      "Ġthink": 1384,
      "Ġfed": 1385,
      "Ġide": 1386,
      "Ġtal": 1387,
      "Ġequ": 1388,
      "Ġdemocr": 1389,
      "Ġcomple": 1390,
      "inc": 1391,
      "Ġfather": 1392,
      "Ġconstit": 1393,
      "Ġolympics": 1394,
      "ides": 1395,
      "liam": 1396,
      "Ġocc": 1397,
      "erv": 1398,
      "Ġvot": 1399,
      "Ġint": 1400,
      "Ġcolor": 1401,
      "Ġmiss": 1402,
      "Ġpal": 1403,
      "Ġcompu": 1404,
      "Ġsocial": 1405,
      "Ġvict": 1406,
      "oney": 1407,
      "Ġmaking": 1408,
      "Ġparliam": 1409,
      "bur": 1410,
      "Ġkind": 1411,
      "Ġlist": 1412,
      "Ġsimilar": 1413,
      "Ġfun": 1414,
      "ives": 1415,
      "Ġstop": 1416,
      "Ġelected": 1417,
      "ov": 1418,
      "Ġusing": 1419,
      "Ġtake": 1420,
      "Ġvill": 1421,
      "Ġvir": 1422,
      "Ġpartic": 1423,
      "idge": 1424,
      "Ġparliament": 1425,
      "ior": 1426,
      "Ġdays": 1427,
      "Ġaverage": 1428,
      "Ġecon": 1429,
      "ille": 1430,
      "Ġteams": 1431,
      "ald": 1432,
      "Ġgreen": 1433,
      "Ġproblems": 1434,
      "Ġyoung": 1435,
      "Ġnomin": 1436,
      "Ġeconom": 1437,
      "adem": 1438,
      "ump": 1439,
      "Ġlet": 1440,
      "Ġze": 1441,
      "rom": 1442,
      "Ġlocated": 1443,
      "Ġchanged": 1444,
      "Ġtyp": 1445,
      "Ġpat": 1446,
      "Ġroy": 1447,
      "Ġcounc": 1448,
      "Ġwrest": 1449,
      "Ġgot": 1450,
      "Ġcond": 1451,
      "sy": 1452,
      "ograp": 1453,
      "tal": 1454,
      "Ġsouthern": 1455,
      "Ġinclude": 1456,
      "Ġfood": 1457,
      "Ġfemale": 1458,
      "Ġanimals": 1459,
      "Ġwind": 1460,
      "rote": 1461,
      "itary": 1462,
      "Ġkilled": 1463,
      "ret": 1464,
      "dle": 1465,
      "Ġfinal": 1466,
      "ctions": 1467,
      "Ġgod": 1468,
      "ino": 1469,
      "bert": 1470,
      "Ġrole": 1471,
      "Ġnext": 1472,
      "Ġfrogs": 1473,
      "Ġsound": 1474,
      "Ġitaly": 1475,
      "lic": 1476,
      "Ġmal": 1477,
      "Ġgener": 1478,
      "istr": 1479,
      "Ġimp": 1480,
      "Ġmoder": 1481,
      "Ġvi": 1482,
      "Ġbir": 1483,
      "uck": 1484,
      "Ġbur": 1485,
      "Ġoriginal": 1486,
      "Ġchic": 1487,
      "Ġwrote": 1488,
      "Ġended": 1489,
      "ipp": 1490,
      "Ġafrica": 1491,
      "Ġtree": 1492,
      "Ġground": 1493,
      "Ġgl": 1494,
      "Ġbill": 1495,
      "Ġrest": 1496,
      "Ġspeak": 1497,
      "Ġve": 1498,
      "Ġplants": 1499,
      "Ġangel": 1500,
      "Ġcharacter": 1501,
      "Ġresp": 1502,
      "ler": 1503,
      "Ġstat": 1504,
      "aving": 1505,
      "Ġcouncil": 1506,
      "Ġhal": 1507,
      "Ġalong": 1508,
      "Ġjapanese": 1509,
      "Ġaway": 1510,
      "Ġhealth": 1511,
      "Ġacadem": 1512,
      "Ġgeor": 1513,
      "Ġadmin": 1514,
      "Ġciv": 1515,
      "Ġref": 1516,
      "Ġepis": 1517,
      "Ġcourt": 1518,
      "Ġtrad": 1519,
      "ness": 1520,
      "Ġsent": 1521,
      "Ġaff": 1522,
      "Ġgrand": 1523,
      "Ġtour": 1524,
      "Ġeggs": 1525,
      "Ġdescr": 1526,
      "Ġmoney": 1527,
      "Ġdel": 1528,
      "Ġnet": 1529,
      "Ġcover": 1530,
      "Ġpak": 1531,
      "aint": 1532,
      "Ġarch": 1533,
      "Ġappear": 1534,
      "Ġchicago": 1535,
      "aland": 1536,
      "Ġfree": 1537,
      "Ġreturn": 1538,
      "Ġcy": 1539,
      "gress": 1540,
      "Ġfre": 1541,
      "Ġthose": 1542,
      "Ġstory": 1543,
      "au": 1544,
      "Ġdue": 1545,
      "Ġreal": 1546,
      "Ġmovies": 1547,
      "Ġmust": 1548,
      "Ġplays": 1549,
      "Ġmakes": 1550,
      "Ġsuccess": 1551,
      "Ġkore": 1552,
      "Ġformed": 1553,
      "Ġcareer": 1554,
      "Ġlab": 1555,
      "Ġanc": 1556,
      "ization": 1557,
      "Ġeff": 1558,
      "Ġsym": 1559,
      "Ġmodern": 1560,
      "par": 1561,
      "iness": 1562,
      "Ġvis": 1563,
      "Ġmiddle": 1564,
      "Ġcivil": 1565,
      "Ġmeters": 1566,
      "Ġislands": 1567,
      "Ġhistor": 1568,
      "Ġwee": 1569,
      "Ġer": 1570,
      "Ġchemical": 1571,
      "Ġreceived": 1572,
      "Ġcoast": 1573,
      "ways": 1574,
      "Ġplan": 1575,
      "Ġtest": 1576,
      "Ġroyal": 1577,
      "ana": 1578,
      "aster": 1579,
      "Ġant": 1580,
      "chn": 1581,
      "Ġindian": 1582,
      "Ġzealand": 1583,
      "Ġdon": 1584,
      "Ġless": 1585,
      "ief": 1586,
      "lands": 1587,
      "Ġsuper": 1588,
      "Ġservice": 1589,
      "Ġmot": 1590,
      "ves": 1591,
      "Ġgroups": 1592,
      "Ġeastern": 1593,
      "ata": 1594,
      "ls": 1595,
      "itions": 1596,
      "adu": 1597,
      "Ġareas": 1598,
      "Ġdia": 1599,
      "ival": 1600,
      "ula": 1601,
      "Ġroad": 1602,
      "when": 1603,
      "Ġsun": 1604,
      "Ġsqu": 1605,
      "read": 1606,
      "Ġhand": 1607,
      "Ġmilitary": 1608,
      "por": 1609,
      "Ġarmy": 1610,
      "ri": 1611,
      "Ġste": 1612,
      "Ġlocal": 1613,
      "yn": 1614,
      "Ġdead": 1615,
      "Ġterrit": 1616,
      "aves": 1617,
      "Ġadministr": 1618,
      "Ġlat": 1619,
      "Ġleader": 1620,
      "ored": 1621,
      "Ġhot": 1622,
      "Ġscience": 1623,
      "Ġce": 1624,
      "Ġmostly": 1625,
      "Ġrelig": 1626,
      "Ġempire": 1627,
      "Ġnatural": 1628,
      "Ġhard": 1629,
      "raz": 1630,
      "Ġcanadian": 1631,
      "Ġdescrib": 1632,
      "Ġdebut": 1633,
      "Ġtotal": 1634,
      "Ġgree": 1635,
      "Ġmother": 1636,
      "Ġpresent": 1637,
      "iety": 1638,
      "Ġpost": 1639,
      "ars": 1640,
      "Ġhon": 1641,
      "lect": 1642,
      "Ġeduc": 1643,
      "Ġber": 1644,
      "Ġworks": 1645,
      "Ġthought": 1646,
      "gn": 1647,
      "umb": 1648,
      "raft": 1649,
      "emb": 1650,
      "rod": 1651,
      "Ġfield": 1652,
      "ape": 1653,
      "Ġindustr": 1654,
      "Ġpakistan": 1655,
      "Ġwithout": 1656,
      "Ġenter": 1657,
      "ids": 1658,
      "ified": 1659,
      "anger": 1660,
      "Ġmult": 1661,
      "Ġreport": 1662,
      "ially": 1663,
      "Ġothers": 1664,
      "hor": 1665,
      "Ġcrit": 1666,
      "Ġpoint": 1667,
      "Ġturn": 1668,
      "Ġstates": 1669,
      "Ġshows": 1670,
      "Ġhur": 1671,
      "ament": 1672,
      "Ġsongs": 1673,
      "hes": 1674,
      "Ġbooks": 1675,
      "ency": 1676,
      "Ġox": 1677,
      "que": 1678,
      "Ġallow": 1679,
      "ene": 1680,
      "Ġrefer": 1681,
      "Ġbad": 1682,
      "ued": 1683,
      "Ġperform": 1684,
      "Ġtechn": 1685,
      "Ġspace": 1686,
      "ma": 1687,
      "Ġfall": 1688,
      "ically": 1689,
      "Ġangeles": 1690,
      "aper": 1691,
      "Ġforests": 1692,
      "Ġdone": 1693,
      "Ġlost": 1694,
      "Ġadv": 1695,
      "Ġcomes": 1696,
      "Ġarrond": 1697,
      "Ġarrondiss": 1698,
      "Ġcomputer": 1699,
      "Ġire": 1700,
      "Ġdies": 1701,
      "Ġknow": 1702,
      "Ġphys": 1703,
      "ility": 1704,
      "Ġsex": 1705,
      "Ġwords": 1706,
      "Ġfact": 1707,
      "xic": 1708,
      "Ġbusiness": 1709,
      "Ġsports": 1710,
      "Ġlim": 1711,
      "Ġbroad": 1712,
      "Ġconn": 1713,
      "zer": 1714,
      "ount": 1715,
      "Ġolympic": 1716,
      "ped": 1717,
      "Ġext": 1718,
      "ead": 1719,
      "Ġsan": 1720,
      "ences": 1721,
      "Ġacademy": 1722,
      "Ġcam": 1723,
      "Ġhall": 1724,
      "Ġtrain": 1725,
      "Ġconsid": 1726,
      "some": 1727,
      "Ġsinger": 1728,
      "pos": 1729,
      "olution": 1730,
      "Ġfind": 1731,
      "Ġtoday": 1732,
      "Ġserved": 1733,
      "eth": 1734,
      "Ġtaken": 1735,
      "Ġireland": 1736,
      "lu": 1737,
      "Ġinform": 1738,
      "Ġgir": 1739,
      "Ġoce": 1740,
      "Ġmale": 1741,
      "Ġtoo": 1742,
      "Ġtypes": 1743,
      "ob": 1744,
      "Ġsn": 1745,
      "Ġobject": 1746,
      "Ġbi": 1747,
      "Ġopened": 1748,
      "Ġplaying": 1749,
      "Ġposs": 1750,
      "Ġnever": 1751,
      "Ġshould": 1752,
      "oms": 1753,
      "Ġcentre": 1754,
      "Ġflag": 1755,
      "ked": 1756,
      "Ġcop": 1757,
      "Ġcome": 1758,
      "Ġsecret": 1759,
      "not": 1760,
      "Ġappe": 1761,
      "ends": 1762,
      "Ġhit": 1763,
      "Ġstrong": 1764,
      "Ġdivision": 1765,
      "Ġexpl": 1766,
      "Ġwood": 1767,
      "hem": 1768,
      "Ġfire": 1769,
      "Ġdaugh": 1770,
      "Ġlate": 1771,
      "urs": 1772,
      "ieved": 1773,
      "Ġsomething": 1774,
      "Ġincludes": 1775,
      "lin": 1776,
      "arn": 1777,
      "Ġhost": 1778,
      "ogn": 1779,
      "med": 1780,
      "Ġcontr": 1781,
      "ze": 1782,
      "Ġcompeted": 1783,
      "Ġfail": 1784,
      "Ġwales": 1785,
      "go": 1786,
      "Ġproduced": 1787,
      "yle": 1788,
      "Ġrese": 1789,
      "ects": 1790,
      "Ġrights": 1791,
      "ots": 1792,
      "Ġsil": 1793,
      "Ġnon": 1794,
      "Ġchann": 1795,
      "urb": 1796,
      "work": 1797,
      "ergy": 1798,
      "Ġbird": 1799,
      "Ġdanger": 1800,
      "ended": 1801,
      "Ġcommit": 1802,
      "Ġvillage": 1803,
      "Ġclose": 1804,
      "Ġbirth": 1805,
      "Ġbrother": 1806,
      "Ġcell": 1807,
      "Ġassociation": 1808,
      "ming": 1809,
      "line": 1810,
      "Ġjew": 1811,
      "Ġlow": 1812,
      "Ġleast": 1813,
      "Ġsit": 1814,
      "Ġmuse": 1815,
      "Ġhalf": 1816,
      "bc": 1817,
      "Ġseven": 1818,
      "Ġtrave": 1819,
      "Ġplayers": 1820,
      "Ġcand": 1821,
      "Ġblue": 1822,
      "anch": 1823,
      "Ġretired": 1824,
      "Ġtitle": 1825,
      "Ġhill": 1826,
      "Ġnight": 1827,
      "Ġprim": 1828,
      "Ġlittle": 1829,
      "Ġdeveloped": 1830,
      "lor": 1831,
      "Ġjud": 1832,
      "Ġdev": 1833,
      "ured": 1834,
      "Ġcurrently": 1835,
      "cle": 1836,
      "Ġeight": 1837,
      "Ġdeg": 1838,
      "Ġmuseum": 1839,
      "Ġcard": 1840,
      "Ġbase": 1841,
      "Ġprocess": 1842,
      "ched": 1843,
      "Ġevents": 1844,
      "Ġprem": 1845,
      "Ġretr": 1846,
      "hest": 1847,
      "Ġath": 1848,
      "Ġtrack": 1849,
      "Ġten": 1850,
      "ey": 1851,
      "ky": 1852,
      "ania": 1853,
      "avy": 1854,
      "Ġfourth": 1855,
      "ring": 1856,
      "Ġmic": 1857,
      "Ġchart": 1858,
      "Ġcast": 1859,
      "Ġdam": 1860,
      "Ġsepar": 1861,
      "Ġinstead": 1862,
      "Ġstreet": 1863,
      "Ġtemper": 1864,
      "Ġled": 1865,
      "ges": 1866,
      "rain": 1867,
      "Ġcath": 1868,
      "ockey": 1869,
      "Ġnumbers": 1870,
      "Ġprogram": 1871,
      "Ġengine": 1872,
      "cast": 1873,
      "fect": 1874,
      "Ġhor": 1875,
      "olic": 1876,
      "ission": 1877,
      "ike": 1878,
      "Ġcut": 1879,
      "Ġcause": 1880,
      "Ġview": 1881,
      "Ġfri": 1882,
      "Ġbrown": 1883,
      "aff": 1884,
      "Ġcir": 1885,
      "Ġmem": 1886,
      "Ġenergy": 1887,
      "Ġvo": 1888,
      "Ġmich": 1889,
      "Ġmedal": 1890,
      "ument": 1891,
      "Ġstudents": 1892,
      "here": 1893,
      "Ġradio": 1894,
      "Ġstudy": 1895,
      "Ġitalian": 1896,
      "Ġhockey": 1897,
      "Ġqual": 1898,
      "Ġwat": 1899,
      "Ġstad": 1900,
      "Ġlou": 1901,
      "Ġeat": 1902,
      "Ġpur": 1903,
      "Ġrelated": 1904,
      "Ġrecogn": 1905,
      "Ġbraz": 1906,
      "Ġinformation": 1907,
      "Ġretrieved": 1908,
      "Ġforce": 1909,
      "Ġexper": 1910,
      "Ġactor": 1911,
      "Ġrich": 1912,
      "Ġexec": 1913,
      "Ġancient": 1914,
      "Ġfight": 1915,
      "Ġmatch": 1916,
      "Ġuses": 1917,
      "Ġspok": 1918,
      "burg": 1919,
      "Ġsat": 1920,
      "Ġread": 1921,
      "Ġasia": 1922,
      "Ġdoct": 1923,
      "Ġhaving": 1924,
      "Ġwilliam": 1925,
      "Ġpict": 1926,
      "Ġwife": 1927,
      "Ġcontrol": 1928,
      "Ġbrazil": 1929,
      "Ġhighest": 1930,
      "Ġtur": 1931,
      "Ġonce": 1932,
      "Ġmanag": 1933,
      "Ġelectric": 1934,
      "omb": 1935,
      "Ġindependent": 1936,
      "Ġfederal": 1937,
      "uk": 1938,
      "asons": 1939,
      "Ġcross": 1940,
      "Ġtv": 1941,
      "ither": 1942,
      "Ġgradu": 1943,
      "ades": 1944,
      "Ġworking": 1945,
      "cover": 1946,
      "Ġrain": 1947,
      "Ġround": 1948,
      "Ġpolice": 1949,
      "Ġtreat": 1950,
      "Ġvictor": 1951,
      "Ġwide": 1952,
      "isl": 1953,
      "anish": 1954,
      "Ġpie": 1955,
      "Ġprison": 1956,
      "Ġjoined": 1957,
      "Ġscotland": 1958,
      "ander": 1959,
      "Ġdirector": 1960,
      "Ġbeh": 1961,
      "Ġmight": 1962,
      "ston": 1963,
      "Ġpay": 1964,
      "Ġinstit": 1965,
      "Ġcle": 1966,
      "Ġnews": 1967,
      "ule": 1968,
      "Ġcov": 1969,
      "Ġwashing": 1970,
      "Ġmedia": 1971,
      "Ġmountains": 1972,
      "Ġestab": 1973,
      "Ġstadium": 1974,
      "Ġgal": 1975,
      "rael": 1976,
      "Ġactiv": 1977,
      "Ġdemocratic": 1978,
      "Ġconsidered": 1979,
      "during": 1980,
      "ta": 1981,
      "viet": 1982,
      "Ġappeared": 1983,
      "Ġwrestling": 1984,
      "Ġplat": 1985,
      "oint": 1986,
      "Ġrussian": 1987,
      "Ġlake": 1988,
      "Ġarg": 1989,
      "Ġauthor": 1990,
      "ellow": 1991,
      "Ġden": 1992,
      "Ġshown": 1993,
      "Ġarab": 1994,
      "Ġocean": 1995,
      "Ġresearch": 1996,
      "ba": 1997
    },
    "merges": [
      [
        "Ġ",
        "t"
      ],
      [
        "Ġ",
        "a"
      ],
      [
        "h",
        "e"
      ],
      [
        "i",
        "n"
      ],
      [
        "Ġt",
        "he"
      ],
      [
        "Ġ",
        "."
      ],
      [
        "Ġ",
        "s"
      ],
      [
        "Ġ",
        "o"
      ],
      [
        "e",
        "r"
      ],
      [
        "Ġ",
        "w"
      ],
      [
        "r",
        "e"
      ],
      [
        "i",
        "s"
      ],
      [
        "Ġ",
        "c"
      ],
      [
        "Ġ",
        ","
      ],
      [
        "o",
        "n"
      ],
      [
        "a",
        "n"
      ],
      [
        "Ġ",
        "b"
      ],
      [
        "i",
        "t"
      ],
      [
        "Ġ",
        "f"
      ],
      [
        "e",
        "d"
      ],
      [
        "Ġ",
        "in"
      ],
      [
        "Ġ",
        "p"
      ],
      [
        "e",
        "n"
      ],
      [
        "o",
        "r"
      ],
      [
        "Ġ",
        "m"
      ],
      [
        "a",
        "t"
      ],
      [
        "Ġo",
        "f"
      ],
      [
        "a",
        "l"
      ],
      [
        "a",
        "r"
      ],
      [
        "e",
        "s"
      ],
      [
        "a",
        "s"
      ],
      [
        "Ġa",
        "n"
      ],
      [
        "Ġ",
        "1"
      ],
      [
        "Ġ",
        "d"
      ],
      [
        "r",
        "o"
      ],
      [
        "Ġ",
        "h"
      ],
      [
        "Ġ",
        "0"
      ],
      [
        "Ġ",
        "is"
      ],
      [
        "Ġan",
        "d"
      ],
      [
        "Ġ",
        "l"
      ],
      [
        "i",
        "c"
      ],
      [
        "Ġ",
        "2"
      ],
      [
        "Ġ",
        "n"
      ],
      [
        "Ġt",
        "o"
      ],
      [
        "in",
        "g"
      ],
      [
        "i",
        "on"
      ],
      [
        "l",
        "e"
      ],
      [
        "o",
        "u"
      ],
      [
        "Ġ",
        "g"
      ],
      [
        "Ġt",
        "h"
      ],
      [
        "Ġ",
        "9"
      ],
      [
        "a",
        "m"
      ],
      [
        "u",
        "s"
      ],
      [
        "en",
        "t"
      ],
      [
        "Ġw",
        "as"
      ],
      [
        "Ġ",
        "e"
      ],
      [
        "i",
        "l"
      ],
      [
        "Ġ",
        "it"
      ],
      [
        "o",
        "m"
      ],
      [
        "Ġo",
        "n"
      ],
      [
        "Ġ",
        "re"
      ],
      [
        "Ġb",
        "e"
      ],
      [
        "t",
        "he"
      ],
      [
        "Ġ",
        "he"
      ],
      [
        "a",
        "d"
      ],
      [
        "u",
        "n"
      ],
      [
        "v",
        "e"
      ],
      [
        "Ġf",
        "or"
      ],
      [
        "Ġs",
        "t"
      ],
      [
        "o",
        "l"
      ],
      [
        "c",
        "t"
      ],
      [
        "s",
        "t"
      ],
      [
        "a",
        "y"
      ],
      [
        "v",
        "er"
      ],
      [
        "Ġ",
        "Ġ"
      ],
      [
        "i",
        "d"
      ],
      [
        "o",
        "t"
      ],
      [
        "l",
        "y"
      ],
      [
        "e",
        "t"
      ],
      [
        "u",
        "r"
      ],
      [
        "c",
        "e"
      ],
      [
        "c",
        "h"
      ],
      [
        "i",
        "m"
      ],
      [
        "Ġa",
        "l"
      ],
      [
        "o",
        "w"
      ],
      [
        "Ġ",
        "-"
      ],
      [
        "i",
        "r"
      ],
      [
        "at",
        "ion"
      ],
      [
        "Ġa",
        "s"
      ],
      [
        "i",
        "g"
      ],
      [
        "t",
        "er"
      ],
      [
        "Ġf",
        "ro"
      ],
      [
        "Ġ",
        "8"
      ],
      [
        "Ġ",
        "\""
      ],
      [
        "Ġa",
        "re"
      ],
      [
        "Ġ",
        "j"
      ],
      [
        "Ġ",
        "r"
      ],
      [
        "u",
        "t"
      ],
      [
        "e",
        "l"
      ],
      [
        "Ġ",
        "k"
      ],
      [
        "Ġa",
        "t"
      ],
      [
        "Ġc",
        "h"
      ],
      [
        "o",
        "p"
      ],
      [
        "an",
        "d"
      ],
      [
        "Ġb",
        "y"
      ],
      [
        "Ġ",
        ")"
      ],
      [
        "Ġ",
        "("
      ],
      [
        "Ġ",
        "3"
      ],
      [
        "u",
        "m"
      ],
      [
        "Ġm",
        "o"
      ],
      [
        "Ġ",
        "7"
      ],
      [
        "Ġs",
        "e"
      ],
      [
        "Ġ",
        "5"
      ],
      [
        "Ġfro",
        "m"
      ],
      [
        "Ġ",
        "'"
      ],
      [
        "t",
        "h"
      ],
      [
        "Ġth",
        "at"
      ],
      [
        "Ġo",
        "r"
      ],
      [
        "Ġ",
        "6"
      ],
      [
        "g",
        "e"
      ],
      [
        "Ġ",
        "4"
      ],
      [
        "b",
        "er"
      ],
      [
        "Ġd",
        "e"
      ],
      [
        "it",
        "h"
      ],
      [
        "Ġw",
        "h"
      ],
      [
        "is",
        "t"
      ],
      [
        "i",
        "a"
      ],
      [
        "al",
        "l"
      ],
      [
        "ar",
        "t"
      ],
      [
        "u",
        "l"
      ],
      [
        "Ġw",
        "ith"
      ],
      [
        "Ġp",
        "l"
      ],
      [
        "i",
        "es"
      ],
      [
        "Ġ",
        "v"
      ],
      [
        "i",
        "f"
      ],
      [
        "Ġc",
        "om"
      ],
      [
        "ou",
        "n"
      ],
      [
        "a",
        "in"
      ],
      [
        "es",
        "t"
      ],
      [
        "e",
        "m"
      ],
      [
        "a",
        "c"
      ],
      [
        "o",
        "s"
      ],
      [
        "Ġ",
        "un"
      ],
      [
        "Ġn",
        "e"
      ],
      [
        "i",
        "v"
      ],
      [
        "a",
        "p"
      ],
      [
        "Ġp",
        "ro"
      ],
      [
        "it",
        "y"
      ],
      [
        "l",
        "d"
      ],
      [
        "Ġc",
        "on"
      ],
      [
        "Ġ",
        "y"
      ],
      [
        "er",
        "s"
      ],
      [
        "the",
        "r"
      ],
      [
        "Ġ",
        "us"
      ],
      [
        "a",
        "k"
      ],
      [
        "am",
        "e"
      ],
      [
        "s",
        "o"
      ],
      [
        "i",
        "an"
      ],
      [
        "o",
        "d"
      ],
      [
        "il",
        "l"
      ],
      [
        "Ġw",
        "or"
      ],
      [
        "re",
        "s"
      ],
      [
        "Ġthe",
        "y"
      ],
      [
        "u",
        "p"
      ],
      [
        "Ġc",
        "an"
      ],
      [
        "Ġl",
        "e"
      ],
      [
        "Ġh",
        "as"
      ],
      [
        "Ġs",
        "p"
      ],
      [
        "at",
        "e"
      ],
      [
        "Ġh",
        "is"
      ],
      [
        "a",
        "ve"
      ],
      [
        "t",
        "r"
      ],
      [
        "Ġal",
        "so"
      ],
      [
        "Ġp",
        "e"
      ],
      [
        "a",
        "g"
      ],
      [
        "ig",
        "h"
      ],
      [
        "Ġ",
        "en"
      ],
      [
        "u",
        "d"
      ],
      [
        "s",
        "e"
      ],
      [
        "ar",
        "y"
      ],
      [
        "Ġs",
        "h"
      ],
      [
        "Ġth",
        "is"
      ],
      [
        "Ġ",
        "ro"
      ],
      [
        "ic",
        "h"
      ],
      [
        "i",
        "ed"
      ],
      [
        "on",
        "g"
      ],
      [
        "Ġn",
        "ot"
      ],
      [
        "op",
        "le"
      ],
      [
        "i",
        "ve"
      ],
      [
        "u",
        "b"
      ],
      [
        "an",
        "t"
      ],
      [
        "Ġt",
        "r"
      ],
      [
        "i",
        "e"
      ],
      [
        "i",
        "p"
      ],
      [
        "o",
        "c"
      ],
      [
        "ar",
        "d"
      ],
      [
        "m",
        "ent"
      ],
      [
        "om",
        "e"
      ],
      [
        "Ġpe",
        "ople"
      ],
      [
        "or",
        "t"
      ],
      [
        "a",
        "b"
      ],
      [
        "Ġm",
        "an"
      ],
      [
        "Ġa",
        "r"
      ],
      [
        "Ġh",
        "ave"
      ],
      [
        "is",
        "h"
      ],
      [
        "Ġt",
        "e"
      ],
      [
        "q",
        "u"
      ],
      [
        "er",
        "e"
      ],
      [
        "or",
        "n"
      ],
      [
        "Ġa",
        "b"
      ],
      [
        "as",
        "t"
      ],
      [
        "Ġp",
        "art"
      ],
      [
        "Ġon",
        "e"
      ],
      [
        "Ġe",
        "x"
      ],
      [
        "u",
        "g"
      ],
      [
        "e",
        "ar"
      ],
      [
        "i",
        "al"
      ],
      [
        "at",
        "ed"
      ],
      [
        "Ġw",
        "he"
      ],
      [
        "Ġpl",
        "ay"
      ],
      [
        "Ġw",
        "ere"
      ],
      [
        "Ġbe",
        "c"
      ],
      [
        "l",
        "and"
      ],
      [
        "Ġa",
        "f"
      ],
      [
        "Ġwh",
        "ich"
      ],
      [
        "es",
        "s"
      ],
      [
        "o",
        "re"
      ],
      [
        "Ġg",
        "o"
      ],
      [
        "Ġne",
        "w"
      ],
      [
        "Ġs",
        "he"
      ],
      [
        "ou",
        "r"
      ],
      [
        "id",
        "e"
      ],
      [
        "r",
        "it"
      ],
      [
        "ow",
        "n"
      ],
      [
        "Ġm",
        "ar"
      ],
      [
        "igh",
        "t"
      ],
      [
        "i",
        "ver"
      ],
      [
        "an",
        "g"
      ],
      [
        "Ġcom",
        "p"
      ],
      [
        "ad",
        "e"
      ],
      [
        "u",
        "re"
      ],
      [
        "i",
        "re"
      ],
      [
        "d",
        "er"
      ],
      [
        "in",
        "e"
      ],
      [
        "Ġy",
        "ear"
      ],
      [
        "Ġo",
        "ther"
      ],
      [
        "o",
        "k"
      ],
      [
        "ou",
        "t"
      ],
      [
        "Ġc",
        "l"
      ],
      [
        "ation",
        "al"
      ],
      [
        "ct",
        "ion"
      ],
      [
        "Ġ",
        ":"
      ],
      [
        "ic",
        "al"
      ],
      [
        "m",
        "an"
      ],
      [
        "on",
        "d"
      ],
      [
        "ac",
        "k"
      ],
      [
        "a",
        "us"
      ],
      [
        "Ġus",
        "ed"
      ],
      [
        "el",
        "l"
      ],
      [
        "Ġthe",
        "ir"
      ],
      [
        "at",
        "er"
      ],
      [
        "Ġs",
        "c"
      ],
      [
        "Ġt",
        "w"
      ],
      [
        "k",
        "e"
      ],
      [
        "a",
        "ge"
      ],
      [
        "re",
        "n"
      ],
      [
        "Ġit",
        "s"
      ],
      [
        "Ġthe",
        "re"
      ],
      [
        "Ġk",
        "n"
      ],
      [
        "im",
        "e"
      ],
      [
        "Ġa",
        "p"
      ],
      [
        "Ġb",
        "ut"
      ],
      [
        "Ġc",
        "all"
      ],
      [
        "Ġp",
        "r"
      ],
      [
        "re",
        "e"
      ],
      [
        "e",
        "ct"
      ],
      [
        "o",
        "g"
      ],
      [
        "r",
        "ic"
      ],
      [
        "Ġal",
        "l"
      ],
      [
        "Ġb",
        "orn"
      ],
      [
        "Ġh",
        "ad"
      ],
      [
        "Ġman",
        "y"
      ],
      [
        "am",
        "p"
      ],
      [
        "u",
        "c"
      ],
      [
        "an",
        "s"
      ],
      [
        "f",
        "er"
      ],
      [
        "Ġm",
        "ade"
      ],
      [
        "Ġs",
        "er"
      ],
      [
        "Ġaf",
        "ter"
      ],
      [
        "i",
        "b"
      ],
      [
        "Ġwor",
        "ld"
      ],
      [
        "a",
        "v"
      ],
      [
        "Ġe",
        "le"
      ],
      [
        "Ġa",
        "d"
      ],
      [
        "Ġm",
        "e"
      ],
      [
        "Ġcall",
        "ed"
      ],
      [
        "Ġn",
        "or"
      ],
      [
        "p",
        "t"
      ],
      [
        "Ġmo",
        "st"
      ],
      [
        "u",
        "e"
      ],
      [
        "Ġc",
        "ol"
      ],
      [
        "Ġn",
        "o"
      ],
      [
        "ic",
        "e"
      ],
      [
        "en",
        "d"
      ],
      [
        "Ġwh",
        "o"
      ],
      [
        "Ġc",
        "ity"
      ],
      [
        "as",
        "s"
      ],
      [
        "us",
        "t"
      ],
      [
        "a",
        "ce"
      ],
      [
        "m",
        "er"
      ],
      [
        "Ġc",
        "o"
      ],
      [
        "Ġa",
        "g"
      ],
      [
        "Ġs",
        "ome"
      ],
      [
        "i",
        "z"
      ],
      [
        "Ġc",
        "oun"
      ],
      [
        "as",
        "ed"
      ],
      [
        "Ġab",
        "out"
      ],
      [
        "c",
        "l"
      ],
      [
        "Ġtw",
        "o"
      ],
      [
        "Ġd",
        "ied"
      ],
      [
        "Ġre",
        "p"
      ],
      [
        "Ġhe",
        "r"
      ],
      [
        "Ġg",
        "ro"
      ],
      [
        "Ġm",
        "ay"
      ],
      [
        "ter",
        "n"
      ],
      [
        "ou",
        "s"
      ],
      [
        "a",
        "re"
      ],
      [
        "w",
        "n"
      ],
      [
        "ion",
        "s"
      ],
      [
        "on",
        "e"
      ],
      [
        "Ġcom",
        "m"
      ],
      [
        "Ġin",
        "d"
      ],
      [
        "un",
        "d"
      ],
      [
        "oun",
        "d"
      ],
      [
        "r",
        "a"
      ],
      [
        "Ġf",
        "e"
      ],
      [
        "e",
        "c"
      ],
      [
        "al",
        "ly"
      ],
      [
        "p",
        "er"
      ],
      [
        "Ġen",
        "g"
      ],
      [
        "or",
        "d"
      ],
      [
        "il",
        "d"
      ],
      [
        "Ġfro",
        "g"
      ],
      [
        "a",
        "ch"
      ],
      [
        "u",
        "ary"
      ],
      [
        "Ġs",
        "ou"
      ],
      [
        "Ġ",
        "ver"
      ],
      [
        "Ġkn",
        "own"
      ],
      [
        "ak",
        "e"
      ],
      [
        "Ġc",
        "ent"
      ],
      [
        "iver",
        "s"
      ],
      [
        "Ġbe",
        "en"
      ],
      [
        "w",
        "e"
      ],
      [
        "he",
        "r"
      ],
      [
        "Ġwhe",
        "n"
      ],
      [
        "t",
        "s"
      ],
      [
        "Ġb",
        "o"
      ],
      [
        "m",
        "ber"
      ],
      [
        "Ġp",
        "res"
      ],
      [
        "aus",
        "e"
      ],
      [
        "a",
        "ct"
      ],
      [
        "Ġmo",
        "v"
      ],
      [
        "t",
        "o"
      ],
      [
        "Ġn",
        "ational"
      ],
      [
        "Ġd",
        "o"
      ],
      [
        "Ġd",
        "is"
      ],
      [
        "in",
        "ce"
      ],
      [
        "Ġn",
        "um"
      ],
      [
        "Ġwor",
        "k"
      ],
      [
        "or",
        "y"
      ],
      [
        "t",
        "en"
      ],
      [
        "Ġt",
        "ime"
      ],
      [
        "Ġf",
        "o"
      ],
      [
        "ub",
        "l"
      ],
      [
        "Ġl",
        "i"
      ],
      [
        "Ġp",
        "ar"
      ],
      [
        "us",
        "tr"
      ],
      [
        "ou",
        "ld"
      ],
      [
        "Ġte",
        "am"
      ],
      [
        "Ġnum",
        "ber"
      ],
      [
        "Ġm",
        "us"
      ],
      [
        "Ġb",
        "r"
      ],
      [
        "t",
        "e"
      ],
      [
        "Ġa",
        "c"
      ],
      [
        "Ġs",
        "y"
      ],
      [
        "em",
        "ber"
      ],
      [
        "Ġun",
        "ivers"
      ],
      [
        "Ġf",
        "r"
      ],
      [
        "p",
        "ort"
      ],
      [
        "a",
        "w"
      ],
      [
        "ig",
        "n"
      ],
      [
        "Ġst",
        "ud"
      ],
      [
        "Ġmo",
        "re"
      ],
      [
        "p",
        "e"
      ],
      [
        "Ġf",
        "l"
      ],
      [
        "id",
        "ent"
      ],
      [
        "he",
        "d"
      ],
      [
        "Ġre",
        "le"
      ],
      [
        "ing",
        "s"
      ],
      [
        "Ġl",
        "iv"
      ],
      [
        "Ġf",
        "ir"
      ],
      [
        "ul",
        "t"
      ],
      [
        "u",
        "ch"
      ],
      [
        "ver",
        "n"
      ],
      [
        "Ġp",
        "er"
      ],
      [
        "Ġ",
        "im"
      ],
      [
        "Ġ",
        "up"
      ],
      [
        "Ġd",
        "if"
      ],
      [
        "ic",
        "s"
      ],
      [
        "Ġcoun",
        "tr"
      ],
      [
        "Ġg",
        "r"
      ],
      [
        "Ġof",
        "f"
      ],
      [
        "en",
        "ce"
      ],
      [
        "in",
        "d"
      ],
      [
        "g",
        "h"
      ],
      [
        "Ġs",
        "o"
      ],
      [
        "Ġfir",
        "st"
      ],
      [
        "Ġgo",
        "vern"
      ],
      [
        "Ġse",
        "c"
      ],
      [
        "Ġp",
        "ol"
      ],
      [
        "Ġbe",
        "t"
      ],
      [
        "Ġb",
        "l"
      ],
      [
        "ur",
        "ing"
      ],
      [
        "b",
        "all"
      ],
      [
        "Ġunivers",
        "ity"
      ],
      [
        "at",
        "h"
      ],
      [
        "Ġbec",
        "ause"
      ],
      [
        "i",
        "o"
      ],
      [
        "l",
        "es"
      ],
      [
        "ation",
        "s"
      ],
      [
        "Ġa",
        "w"
      ],
      [
        "Ġyear",
        "s"
      ],
      [
        "Ġe",
        "v"
      ],
      [
        "an",
        "ce"
      ],
      [
        "ug",
        "h"
      ],
      [
        "a",
        "il"
      ],
      [
        "ve",
        "l"
      ],
      [
        "Ġw",
        "e"
      ],
      [
        "b",
        "r"
      ],
      [
        "it",
        "e"
      ],
      [
        "Ġo",
        "ut"
      ],
      [
        "m",
        "s"
      ],
      [
        "Ġa",
        "ct"
      ],
      [
        "Ġst",
        "ate"
      ],
      [
        "r",
        "y"
      ],
      [
        "Ġb",
        "u"
      ],
      [
        "Ġl",
        "ar"
      ],
      [
        "o",
        "st"
      ],
      [
        "Ġdif",
        "fer"
      ],
      [
        "Ġre",
        "c"
      ],
      [
        "ay",
        "s"
      ],
      [
        "Ġm",
        "in"
      ],
      [
        "Ġg",
        "en"
      ],
      [
        "Ġw",
        "ar"
      ],
      [
        "Ġc",
        "ar"
      ],
      [
        "Ġon",
        "ly"
      ],
      [
        "n",
        "e"
      ],
      [
        "Ġs",
        "ong"
      ],
      [
        "m",
        "p"
      ],
      [
        "Ġrele",
        "ased"
      ],
      [
        "Ġa",
        "ustr"
      ],
      [
        "Ġcon",
        "t"
      ],
      [
        "Ġp",
        "h"
      ],
      [
        "Ġsou",
        "th"
      ],
      [
        "it",
        "ion"
      ],
      [
        "k",
        "s"
      ],
      [
        "Ġal",
        "b"
      ],
      [
        "as",
        "e"
      ],
      [
        "Ġ",
        "i"
      ],
      [
        "Ġre",
        "g"
      ],
      [
        "cl",
        "ud"
      ],
      [
        "g",
        "an"
      ],
      [
        "Ġg",
        "re"
      ],
      [
        "Ġin",
        "to"
      ],
      [
        "im",
        "es"
      ],
      [
        "it",
        "al"
      ],
      [
        "Ġst",
        "art"
      ],
      [
        "Ġf",
        "ound"
      ],
      [
        "we",
        "en"
      ],
      [
        "Ġo",
        "ver"
      ],
      [
        "Ġin",
        "clud"
      ],
      [
        "Ġre",
        "s"
      ],
      [
        "Ġ",
        "qu"
      ],
      [
        "Ġe",
        "ar"
      ],
      [
        "ou",
        "gh"
      ],
      [
        "f",
        "or"
      ],
      [
        "Ġp",
        "re"
      ],
      [
        "Ġp",
        "op"
      ],
      [
        "Ġj",
        "o"
      ],
      [
        "Ġs",
        "m"
      ],
      [
        "Ġbet",
        "ween"
      ],
      [
        "Ġdiffer",
        "ent"
      ],
      [
        "am",
        "es"
      ],
      [
        "os",
        "e"
      ],
      [
        "Ġli",
        "ke"
      ],
      [
        "Ġm",
        "et"
      ],
      [
        "Ġs",
        "ing"
      ],
      [
        "Ġc",
        "re"
      ],
      [
        "Ġwhe",
        "re"
      ],
      [
        "t",
        "on"
      ],
      [
        "al",
        "s"
      ],
      [
        "Ġalb",
        "um"
      ],
      [
        "i",
        "ent"
      ],
      [
        "Ġb",
        "ro"
      ],
      [
        "Ġf",
        "am"
      ],
      [
        "Ġa",
        "ge"
      ],
      [
        "Ġs",
        "ch"
      ],
      [
        "Ġth",
        "an"
      ],
      [
        "Ġgro",
        "up"
      ],
      [
        "ol",
        "d"
      ],
      [
        "Ġfo",
        "ot"
      ],
      [
        "Ġnor",
        "th"
      ],
      [
        "Ġthe",
        "m"
      ],
      [
        "o",
        "ol"
      ],
      [
        "Ġw",
        "ill"
      ],
      [
        "Ġbec",
        "ame"
      ],
      [
        "is",
        "s"
      ],
      [
        "Ġen",
        "d"
      ],
      [
        "or",
        "s"
      ],
      [
        "Ġn",
        "ame"
      ],
      [
        "v",
        "ed"
      ],
      [
        "Ġd",
        "ist"
      ],
      [
        "p",
        "en"
      ],
      [
        "Ġj",
        "an"
      ],
      [
        "Ġthe",
        "se"
      ],
      [
        "Ġ",
        "u"
      ],
      [
        "Ġc",
        "ap"
      ],
      [
        "i",
        "x"
      ],
      [
        "Ġh",
        "ow"
      ],
      [
        "Ġplay",
        "ed"
      ],
      [
        "Ġt",
        "er"
      ],
      [
        "Ġd",
        "uring"
      ],
      [
        "ist",
        "s"
      ],
      [
        "ubl",
        "ic"
      ],
      [
        "e",
        "p"
      ],
      [
        "f",
        "t"
      ],
      [
        "Ġl",
        "ong"
      ],
      [
        "Ġsp",
        "ec"
      ],
      [
        "Ġfor",
        "m"
      ],
      [
        "Ġpres",
        "ident"
      ],
      [
        "Ġk",
        "ing"
      ],
      [
        "Ġver",
        "y"
      ],
      [
        "h",
        "ip"
      ],
      [
        "Ġm",
        "ed"
      ],
      [
        "Ġbe",
        "l"
      ],
      [
        "ic",
        "t"
      ],
      [
        "Ġm",
        "on"
      ],
      [
        "Ġfoot",
        "ball"
      ],
      [
        "c",
        "es"
      ],
      [
        "c",
        "ed"
      ],
      [
        "om",
        "et"
      ],
      [
        "i",
        "le"
      ],
      [
        "Ġap",
        "p"
      ],
      [
        "ers",
        "on"
      ],
      [
        "Ġele",
        "ct"
      ],
      [
        "ur",
        "n"
      ],
      [
        "Ġsh",
        "ow"
      ],
      [
        "Ġaw",
        "ard"
      ],
      [
        "is",
        "ion"
      ],
      [
        "Ġsec",
        "ond"
      ],
      [
        "Ġth",
        "ree"
      ],
      [
        "Ġjan",
        "uary"
      ],
      [
        "Ġg",
        "ame"
      ],
      [
        "Ġs",
        "a"
      ],
      [
        "u",
        "ally"
      ],
      [
        "un",
        "e"
      ],
      [
        "Ġaustr",
        "al"
      ],
      [
        "on",
        "s"
      ],
      [
        "f",
        "f"
      ],
      [
        "Ġmus",
        "ic"
      ],
      [
        "Ġm",
        "ain"
      ],
      [
        "al",
        "e"
      ],
      [
        "ent",
        "s"
      ],
      [
        "Ġw",
        "rit"
      ],
      [
        "f",
        "ore"
      ],
      [
        "ul",
        "ar"
      ],
      [
        "Ġch",
        "ar"
      ],
      [
        "Ġl",
        "ang"
      ],
      [
        "Ġ",
        ";"
      ],
      [
        "Ġpro",
        "v"
      ],
      [
        "Ġgovern",
        "ment"
      ],
      [
        "Ġb",
        "rit"
      ],
      [
        "t",
        "ain"
      ],
      [
        "Ġs",
        "up"
      ],
      [
        "Ġo",
        "ld"
      ],
      [
        "u",
        "ro"
      ],
      [
        "Ġlang",
        "u"
      ],
      [
        "or",
        "k"
      ],
      [
        "Ġser",
        "ies"
      ],
      [
        "Ġsch",
        "ool"
      ],
      [
        "c",
        "he"
      ],
      [
        "t",
        "il"
      ],
      [
        "it",
        "ed"
      ],
      [
        "Ġf",
        "our"
      ],
      [
        "Ġ",
        "z"
      ],
      [
        "Ġc",
        "al"
      ],
      [
        "Ġp",
        "erson"
      ],
      [
        "Ġre",
        "l"
      ],
      [
        "Ġd",
        "r"
      ],
      [
        "Ġm",
        "ake"
      ],
      [
        "Ġg",
        "er"
      ],
      [
        "Ġde",
        "p"
      ],
      [
        "Ġl",
        "ater"
      ],
      [
        "ic",
        "k"
      ],
      [
        "res",
        "s"
      ],
      [
        "o",
        "od"
      ],
      [
        "Ġd",
        "es"
      ],
      [
        "Ġmar",
        "ch"
      ],
      [
        "ap",
        "an"
      ],
      [
        "Ġw",
        "on"
      ],
      [
        "Ġun",
        "der"
      ],
      [
        "at",
        "es"
      ],
      [
        "ot",
        "h"
      ],
      [
        "Ġa",
        "m"
      ],
      [
        "Ġl",
        "o"
      ],
      [
        "if",
        "e"
      ],
      [
        "Ġj",
        "apan"
      ],
      [
        "Ġw",
        "ater"
      ],
      [
        "Ġs",
        "ame"
      ],
      [
        "Ġst",
        "r"
      ],
      [
        "Ġp",
        "o"
      ],
      [
        "Ġe",
        "uro"
      ],
      [
        "Ġsm",
        "all"
      ],
      [
        "Ġch",
        "ild"
      ],
      [
        "Ġw",
        "ould"
      ],
      [
        "Ġus",
        "e"
      ],
      [
        "Ġse",
        "pt"
      ],
      [
        "Ġun",
        "til"
      ],
      [
        "il",
        "y"
      ],
      [
        "Ġ",
        "ed"
      ],
      [
        "er",
        "al"
      ],
      [
        "am",
        "ed"
      ],
      [
        "Ġag",
        "ain"
      ],
      [
        "l",
        "ow"
      ],
      [
        "ve",
        "mber"
      ],
      [
        "Ġmov",
        "ie"
      ],
      [
        "ro",
        "und"
      ],
      [
        "Ġno",
        "vember"
      ],
      [
        "Ġa",
        "ir"
      ],
      [
        "at",
        "ive"
      ],
      [
        "Ġof",
        "ten"
      ],
      [
        "Ġsept",
        "ember"
      ],
      [
        "Ġf",
        "in"
      ],
      [
        "Ġj",
        "u"
      ],
      [
        "Ġo",
        "ct"
      ],
      [
        "Ġw",
        "om"
      ],
      [
        "en",
        "s"
      ],
      [
        "Ġs",
        "uch"
      ],
      [
        "Ġger",
        "man"
      ],
      [
        "c",
        "er"
      ],
      [
        "Ġde",
        "ce"
      ],
      [
        "Ġin",
        "tern"
      ],
      [
        "ab",
        "le"
      ],
      [
        "Ġdece",
        "mber"
      ],
      [
        "l",
        "ish"
      ],
      [
        "Ġa",
        "ug"
      ],
      [
        "Ġl",
        "oc"
      ],
      [
        "Ġm",
        "a"
      ],
      [
        "i",
        "um"
      ],
      [
        "in",
        "a"
      ],
      [
        "is",
        "ter"
      ],
      [
        "o",
        "ber"
      ],
      [
        "Ġoct",
        "ober"
      ],
      [
        "ur",
        "y"
      ],
      [
        "st",
        "em"
      ],
      [
        "Ġaug",
        "ust"
      ],
      [
        "Ġpro",
        "d"
      ],
      [
        "in",
        "t"
      ],
      [
        "Ġh",
        "igh"
      ],
      [
        "Ġj",
        "une"
      ],
      [
        "Ġare",
        "a"
      ],
      [
        "ol",
        "og"
      ],
      [
        "Ġan",
        "n"
      ],
      [
        "Ġth",
        "ro"
      ],
      [
        "c",
        "ess"
      ],
      [
        "Ġs",
        "w"
      ],
      [
        "g",
        "est"
      ],
      [
        "Ġsy",
        "stem"
      ],
      [
        "Ġis",
        "land"
      ],
      [
        "Ġs",
        "ince"
      ],
      [
        "p",
        "h"
      ],
      [
        "Ġm",
        "at"
      ],
      [
        "in",
        "es"
      ],
      [
        "Ġ",
        "if"
      ],
      [
        "ion",
        "al"
      ],
      [
        "is",
        "hed"
      ],
      [
        "Ġthe",
        "n"
      ],
      [
        "Ġju",
        "ly"
      ],
      [
        "s",
        "on"
      ],
      [
        "Ġcountr",
        "y"
      ],
      [
        "Ġeng",
        "lish"
      ],
      [
        "Ġs",
        "omet"
      ],
      [
        "Ġat",
        "t"
      ],
      [
        "r",
        "il"
      ],
      [
        "Ġeuro",
        "pe"
      ],
      [
        "Ġbe",
        "fore"
      ],
      [
        "Ġbo",
        "ok"
      ],
      [
        "Ġg",
        "u"
      ],
      [
        "Ġs",
        "ub"
      ],
      [
        "Ġb",
        "est"
      ],
      [
        "Ġhe",
        "l"
      ],
      [
        "Ġh",
        "ome"
      ],
      [
        "Ġto",
        "wn"
      ],
      [
        "Ġus",
        "ually"
      ],
      [
        "b",
        "le"
      ],
      [
        "Ġch",
        "amp"
      ],
      [
        "Ġstart",
        "ed"
      ],
      [
        "Ġ",
        "Ċ"
      ],
      [
        "i",
        "er"
      ],
      [
        "Ġl",
        "aw"
      ],
      [
        "Ġh",
        "ist"
      ],
      [
        "Ġbrit",
        "ish"
      ],
      [
        "Ġap",
        "ril"
      ],
      [
        "ir",
        "d"
      ],
      [
        "ou",
        "se"
      ],
      [
        "Ġpl",
        "ace"
      ],
      [
        "br",
        "uary"
      ],
      [
        "c",
        "k"
      ],
      [
        "an",
        "ge"
      ],
      [
        "Ġg",
        "et"
      ],
      [
        "Ġfe",
        "bruary"
      ],
      [
        "ow",
        "er"
      ],
      [
        "Ġdist",
        "ric"
      ],
      [
        "Ġbe",
        "ing"
      ],
      [
        "Ġs",
        "oc"
      ],
      [
        "Ġl",
        "ive"
      ],
      [
        "Ġcomm",
        "on"
      ],
      [
        "Ġc",
        "he"
      ],
      [
        "Ġpart",
        "y"
      ],
      [
        "Ġe",
        "ach"
      ],
      [
        "Ġcon",
        "s"
      ],
      [
        "for",
        "m"
      ],
      [
        "Ġw",
        "est"
      ],
      [
        "g",
        "er"
      ],
      [
        "Ġoff",
        "ic"
      ],
      [
        "l",
        "l"
      ],
      [
        "Ġthro",
        "ugh"
      ],
      [
        "i",
        "am"
      ],
      [
        "i",
        "et"
      ],
      [
        "ant",
        "s"
      ],
      [
        "Ġs",
        "im"
      ],
      [
        "Ġg",
        "ames"
      ],
      [
        "Ġd",
        "iv"
      ],
      [
        "ther",
        "n"
      ],
      [
        "a",
        "ir"
      ],
      [
        "l",
        "o"
      ],
      [
        "Ġe",
        "ver"
      ],
      [
        "Ġeng",
        "land"
      ],
      [
        "y",
        "s"
      ],
      [
        "Ġf",
        "ol"
      ],
      [
        "Ġre",
        "t"
      ],
      [
        "Ġd",
        "ay"
      ],
      [
        "Ġmar",
        "r"
      ],
      [
        "Ġh",
        "um"
      ],
      [
        "Ġle",
        "ad"
      ],
      [
        "an",
        "k"
      ],
      [
        "g",
        "r"
      ],
      [
        "is",
        "m"
      ],
      [
        "Ġde",
        "ath"
      ],
      [
        "Ġele",
        "ction"
      ],
      [
        "Ġex",
        "amp"
      ],
      [
        "c",
        "o"
      ],
      [
        "Ġn",
        "amed"
      ],
      [
        "Ġs",
        "ur"
      ],
      [
        "Ġw",
        "ell"
      ],
      [
        "Ġin",
        "st"
      ],
      [
        "p",
        "l"
      ],
      [
        "as",
        "on"
      ],
      [
        "a",
        "h"
      ],
      [
        "ag",
        "ue"
      ],
      [
        "Ġar",
        "t"
      ],
      [
        "Ġcap",
        "ital"
      ],
      [
        "Ġliv",
        "es"
      ],
      [
        "at",
        "her"
      ],
      [
        "Ġrec",
        "ord"
      ],
      [
        "Ġw",
        "in"
      ],
      [
        "Ġwom",
        "en"
      ],
      [
        "Ġy",
        "ork"
      ],
      [
        "Ġintern",
        "ational"
      ],
      [
        "Ġte",
        "le"
      ],
      [
        "Ġcountr",
        "ies"
      ],
      [
        "at",
        "ure"
      ],
      [
        "Ġcol",
        "le"
      ],
      [
        "od",
        "y"
      ],
      [
        "a",
        "z"
      ],
      [
        "Ġim",
        "port"
      ],
      [
        "Ġm",
        "ak"
      ],
      [
        "an",
        "n"
      ],
      [
        "ig",
        "in"
      ],
      [
        "Ġbu",
        "ild"
      ],
      [
        "us",
        "s"
      ],
      [
        "ond",
        "on"
      ],
      [
        "Ġh",
        "im"
      ],
      [
        "Ġc",
        "r"
      ],
      [
        "Ġb",
        "ack"
      ],
      [
        "Ġan",
        "y"
      ],
      [
        "Ġne",
        "ar"
      ],
      [
        "Ġcomp",
        "an"
      ],
      [
        "Ġo",
        "b"
      ],
      [
        "le",
        "y"
      ],
      [
        "i",
        "ous"
      ],
      [
        "Ġl",
        "ondon"
      ],
      [
        "u",
        "ct"
      ],
      [
        "Ġwor",
        "d"
      ],
      [
        "ter",
        "s"
      ],
      [
        "in",
        "k"
      ],
      [
        "ic",
        "a"
      ],
      [
        "Ġs",
        "et"
      ],
      [
        "Ġchild",
        "ren"
      ],
      [
        "w",
        "ay"
      ],
      [
        "Ġfam",
        "ily"
      ],
      [
        "Ġb",
        "oth"
      ],
      [
        "d",
        "om"
      ],
      [
        "Ġde",
        "c"
      ],
      [
        "if",
        "ic"
      ],
      [
        "Ġw",
        "ay"
      ],
      [
        "Ġc",
        "ur"
      ],
      [
        "en",
        "n"
      ],
      [
        "Ġun",
        "ited"
      ],
      [
        "i",
        "el"
      ],
      [
        "e",
        "ver"
      ],
      [
        "u",
        "al"
      ],
      [
        "Ġcan",
        "ad"
      ],
      [
        "Ġfol",
        "low"
      ],
      [
        "it",
        "ies"
      ],
      [
        "Ġser",
        "v"
      ],
      [
        "Ġpro",
        "f"
      ],
      [
        "t",
        "le"
      ],
      [
        "Ġ",
        "ent"
      ],
      [
        "Ġplay",
        "er"
      ],
      [
        "u",
        "res"
      ],
      [
        "Ġr",
        "iver"
      ],
      [
        "Ġpol",
        "it"
      ],
      [
        "Ġhe",
        "ad"
      ],
      [
        "Ġr",
        "un"
      ],
      [
        "Ġor",
        "igin"
      ],
      [
        "Ġan",
        "im"
      ],
      [
        "Ġsa",
        "id"
      ],
      [
        "v",
        "ision"
      ],
      [
        "ut",
        "ion"
      ],
      [
        "Ġcon",
        "st"
      ],
      [
        "Ġle",
        "ague"
      ],
      [
        "Ġp",
        "os"
      ],
      [
        "ly",
        "mp"
      ],
      [
        "Ġo",
        "lymp"
      ],
      [
        "Ġa",
        "round"
      ],
      [
        "ro",
        "p"
      ],
      [
        "Ġl",
        "ife"
      ],
      [
        "Ġg",
        "iv"
      ],
      [
        "Ġe",
        "ast"
      ],
      [
        "Ġo",
        "wn"
      ],
      [
        "Ġimport",
        "ant"
      ],
      [
        "Ġdistric",
        "t"
      ],
      [
        "re",
        "d"
      ],
      [
        "Ġtr",
        "ans"
      ],
      [
        "Ġse",
        "a"
      ],
      [
        "it",
        "s"
      ],
      [
        "Ġh",
        "ouse"
      ],
      [
        "ac",
        "es"
      ],
      [
        "ag",
        "es"
      ],
      [
        "Ġb",
        "and"
      ],
      [
        "Ġn",
        "ow"
      ],
      [
        "r",
        "al"
      ],
      [
        "Ġlangu",
        "age"
      ],
      [
        "Ġfor",
        "mer"
      ],
      [
        "Ġlar",
        "ge"
      ],
      [
        "Ġv",
        "ide"
      ],
      [
        "ren",
        "t"
      ],
      [
        "Ġde",
        "f"
      ],
      [
        "Ġchamp",
        "ions"
      ],
      [
        "Ġin",
        "v"
      ],
      [
        "Ġst",
        "ar"
      ],
      [
        "Ġhel",
        "p"
      ],
      [
        "a",
        "f"
      ],
      [
        "o",
        "ther"
      ],
      [
        "Ġor",
        "gan"
      ],
      [
        "Ġch",
        "ang"
      ],
      [
        "Ġk",
        "e"
      ],
      [
        "Ġd",
        "id"
      ],
      [
        "m",
        "in"
      ],
      [
        "Ġcre",
        "ated"
      ],
      [
        "Ġf",
        "ore"
      ],
      [
        "Ġmarr",
        "ied"
      ],
      [
        "j",
        "ect"
      ],
      [
        "Ġcomp",
        "et"
      ],
      [
        "Ġin",
        "ter"
      ],
      [
        "Ġre",
        "m"
      ],
      [
        "Ġexamp",
        "le"
      ],
      [
        "Ġm",
        "ember"
      ],
      [
        "Ġb",
        "ased"
      ],
      [
        "Ġm",
        "il"
      ],
      [
        "Ġo",
        "pen"
      ],
      [
        "Ġd",
        "ire"
      ],
      [
        "t",
        "ed"
      ],
      [
        "oun",
        "ced"
      ],
      [
        "at",
        "ing"
      ],
      [
        "s",
        "s"
      ],
      [
        "Ġaustral",
        "ia"
      ],
      [
        "Ġsing",
        "le"
      ],
      [
        "Ġ",
        "ir"
      ],
      [
        "Ġrep",
        "ublic"
      ],
      [
        "Ġs",
        "k"
      ],
      [
        "Ġl",
        "ast"
      ],
      [
        "Ġking",
        "dom"
      ],
      [
        "Ġreg",
        "ion"
      ],
      [
        "Ġt",
        "re"
      ],
      [
        "Ġs",
        "um"
      ],
      [
        "Ġprov",
        "ince"
      ],
      [
        "Ġb",
        "us"
      ],
      [
        "Ġcl",
        "ub"
      ],
      [
        "Ġme",
        "ans"
      ],
      [
        "Ġt",
        "imes"
      ],
      [
        "Ġle",
        "g"
      ],
      [
        "h",
        "n"
      ],
      [
        "ient",
        "ists"
      ],
      [
        "Ġb",
        "ig"
      ],
      [
        "Ġtele",
        "vision"
      ],
      [
        "c",
        "y"
      ],
      [
        "os",
        "p"
      ],
      [
        "Ġc",
        "aus"
      ],
      [
        "a",
        "i"
      ],
      [
        "ur",
        "al"
      ],
      [
        "an",
        "e"
      ],
      [
        "vel",
        "op"
      ],
      [
        "Ġprof",
        "ess"
      ],
      [
        "Ġmin",
        "ister"
      ],
      [
        "Ġbe",
        "gan"
      ],
      [
        "Ġf",
        "il"
      ],
      [
        "Ġit",
        "al"
      ],
      [
        "d",
        "ay"
      ],
      [
        "Ġr",
        "ight"
      ],
      [
        "Ġse",
        "ver"
      ],
      [
        "Ġl",
        "and"
      ],
      [
        "in",
        "s"
      ],
      [
        "Ġever",
        "y"
      ],
      [
        "Ġch",
        "r"
      ],
      [
        "Ġde",
        "velop"
      ],
      [
        "Ġcent",
        "ury"
      ],
      [
        "Ġann",
        "ounced"
      ],
      [
        "v",
        "en"
      ],
      [
        "il",
        "t"
      ],
      [
        "ire",
        "d"
      ],
      [
        "Ġm",
        "ill"
      ],
      [
        "Ġvide",
        "o"
      ],
      [
        "Ġg",
        "e"
      ],
      [
        "Ġchampions",
        "hip"
      ],
      [
        "if",
        "orn"
      ],
      [
        "the",
        "re"
      ],
      [
        "Ġagain",
        "st"
      ],
      [
        "Ġt",
        "y"
      ],
      [
        "n",
        "ing"
      ],
      [
        "Ġhow",
        "ever"
      ],
      [
        "Ġsomet",
        "imes"
      ],
      [
        "b",
        "o"
      ],
      [
        "Ġcal",
        "iforn"
      ],
      [
        "Ġw",
        "ent"
      ],
      [
        "th",
        "is"
      ],
      [
        "Ġk",
        "ill"
      ],
      [
        "Ġcaliforn",
        "ia"
      ],
      [
        "Ġse",
        "en"
      ],
      [
        "Ġsp",
        "e"
      ],
      [
        "Ġle",
        "vel"
      ],
      [
        "Ġoffic",
        "ial"
      ],
      [
        "Ġm",
        "id"
      ],
      [
        "Ġt",
        "ak"
      ],
      [
        "m",
        "e"
      ],
      [
        "olog",
        "y"
      ],
      [
        "c",
        "on"
      ],
      [
        "es",
        "e"
      ],
      [
        "Ġd",
        "own"
      ],
      [
        "Ġre",
        "d"
      ],
      [
        "art",
        "ment"
      ],
      [
        "Ġar",
        "m"
      ],
      [
        "h",
        "ing"
      ],
      [
        "Ġf",
        "ar"
      ],
      [
        "Ġan",
        "g"
      ],
      [
        "Ġad",
        "d"
      ],
      [
        "Ġspec",
        "ies"
      ],
      [
        "Ġb",
        "ody"
      ],
      [
        "Ġlar",
        "gest"
      ],
      [
        "Ġy",
        "ou"
      ],
      [
        "ib",
        "le"
      ],
      [
        "Ġe",
        "m"
      ],
      [
        "Ġe",
        "g"
      ],
      [
        "Ġi",
        "i"
      ],
      [
        "Ġe",
        "as"
      ],
      [
        "re",
        "st"
      ],
      [
        "Ġpop",
        "ular"
      ],
      [
        "Ġgre",
        "at"
      ],
      [
        "Ġhe",
        "ld"
      ],
      [
        "Ġas",
        "s"
      ],
      [
        "os",
        "ed"
      ],
      [
        "Ġrep",
        "res"
      ],
      [
        "c",
        "r"
      ],
      [
        "is",
        "e"
      ],
      [
        "Ġcompan",
        "y"
      ],
      [
        "he",
        "n"
      ],
      [
        "Ġc",
        "are"
      ],
      [
        "Ġo",
        "per"
      ],
      [
        "Ġse",
        "ason"
      ],
      [
        "k",
        "et"
      ],
      [
        "Ġth",
        "ings"
      ],
      [
        "Ġinclud",
        "ing"
      ],
      [
        "es",
        "tern"
      ],
      [
        "Ġw",
        "al"
      ],
      [
        "Ġsever",
        "al"
      ],
      [
        "Ġdire",
        "ct"
      ],
      [
        "Ġs",
        "en"
      ],
      [
        "Ġb",
        "ar"
      ],
      [
        "s",
        "h"
      ],
      [
        "Ġp",
        "ublic"
      ],
      [
        "t",
        "ing"
      ],
      [
        "Ġac",
        "c"
      ],
      [
        "as",
        "h"
      ],
      [
        "Ġa",
        "ut"
      ],
      [
        "f",
        "ul"
      ],
      [
        "Ġro",
        "ck"
      ],
      [
        "Ġgo",
        "od"
      ],
      [
        "Ġma",
        "j"
      ],
      [
        "Ġver",
        "s"
      ],
      [
        "i",
        "k"
      ],
      [
        "al",
        "th"
      ],
      [
        "Ġde",
        "m"
      ],
      [
        "b",
        "e"
      ],
      [
        "Ġch",
        "ur"
      ],
      [
        "Ġcomm",
        "un"
      ],
      [
        "Ġgen",
        "eral"
      ],
      [
        "Ġj",
        "ust"
      ],
      [
        "b",
        "y"
      ],
      [
        "x",
        "t"
      ],
      [
        "iz",
        "ed"
      ],
      [
        "Ġjo",
        "hn"
      ],
      [
        "Ġear",
        "ly"
      ],
      [
        "Ġdep",
        "artment"
      ],
      [
        "Ġm",
        "oun"
      ],
      [
        "Ġh",
        "ap"
      ],
      [
        "Ġst",
        "re"
      ],
      [
        "are",
        "d"
      ],
      [
        "h",
        "y"
      ],
      [
        "Ġcl",
        "ass"
      ],
      [
        "Ġpar",
        "k"
      ],
      [
        "Ġcur",
        "rent"
      ],
      [
        "Ġwrit",
        "ten"
      ],
      [
        "t",
        "y"
      ],
      [
        "at",
        "ic"
      ],
      [
        "Ġmember",
        "s"
      ],
      [
        "Ġb",
        "re"
      ],
      [
        "ow",
        "s"
      ],
      [
        "Ġe",
        "p"
      ],
      [
        "Ġhist",
        "ory"
      ],
      [
        "an",
        "c"
      ],
      [
        "om",
        "in"
      ],
      [
        "Ġe",
        "l"
      ],
      [
        "ul",
        "l"
      ],
      [
        "iel",
        "d"
      ],
      [
        "Ġth",
        "ough"
      ],
      [
        "at",
        "s"
      ],
      [
        "Ġs",
        "ix"
      ],
      [
        "Ġs",
        "u"
      ],
      [
        "Ġter",
        "m"
      ],
      [
        "Ġin",
        "f"
      ],
      [
        "Ġth",
        "ird"
      ],
      [
        "Ġc",
        "our"
      ],
      [
        "am",
        "m"
      ],
      [
        "Ġmaj",
        "or"
      ],
      [
        "Ġs",
        "ign"
      ],
      [
        "Ġwh",
        "at"
      ],
      [
        "Ġto",
        "p"
      ],
      [
        "Ġp",
        "ower"
      ],
      [
        "Ġchar",
        "act"
      ],
      [
        "Ġpl",
        "aces"
      ],
      [
        "o",
        "ve"
      ],
      [
        "c",
        "c"
      ],
      [
        "Ġa",
        "mer"
      ],
      [
        "Ġc",
        "ro"
      ],
      [
        "Ġp",
        "ass"
      ],
      [
        "ie",
        "w"
      ],
      [
        "Ġst",
        "ill"
      ],
      [
        "ar",
        "k"
      ],
      [
        "Ġv",
        "ar"
      ],
      [
        "ut",
        "e"
      ],
      [
        "ain",
        "s"
      ],
      [
        "Ġsh",
        "ort"
      ],
      [
        "Ġsum",
        "mer"
      ],
      [
        "Ġh",
        "ar"
      ],
      [
        "Ġr",
        "uss"
      ],
      [
        "Ġsc",
        "ot"
      ],
      [
        "Ġan",
        "other"
      ],
      [
        "Ġl",
        "ight"
      ],
      [
        "Ġs",
        "ol"
      ],
      [
        "ian",
        "s"
      ],
      [
        "Ġ",
        "x"
      ],
      [
        "Ġm",
        "uch"
      ],
      [
        "Ġgiv",
        "en"
      ],
      [
        "Ġwh",
        "ile"
      ],
      [
        "ar",
        "ch"
      ],
      [
        "Ġl",
        "it"
      ],
      [
        "od",
        "e"
      ],
      [
        "oc",
        "k"
      ],
      [
        "l",
        "ing"
      ],
      [
        "Ġdo",
        "es"
      ],
      [
        "Ġp",
        "a"
      ],
      [
        "Ġp",
        "ubl"
      ],
      [
        "Ġchr",
        "ist"
      ],
      [
        "Ġpro",
        "ble"
      ],
      [
        "Ġph",
        "il"
      ],
      [
        "un",
        "g"
      ],
      [
        "Ġc",
        "ould"
      ],
      [
        "v",
        "ent"
      ],
      [
        "Ġbl",
        "ack"
      ],
      [
        "Ġv",
        "al"
      ],
      [
        "Ġbu",
        "ilt"
      ],
      [
        "Ġst",
        "ation"
      ],
      [
        "Ġind",
        "ia"
      ],
      [
        "Ġf",
        "ive"
      ],
      [
        "Ġl",
        "a"
      ],
      [
        "Ġhum",
        "an"
      ],
      [
        "is",
        "on"
      ],
      [
        "Ġfr",
        "ance"
      ],
      [
        "Ġne",
        "ed"
      ],
      [
        "Ġstud",
        "io"
      ],
      [
        "Ġle",
        "ft"
      ],
      [
        "Ġdis",
        "e"
      ],
      [
        "Ġaf",
        "ric"
      ],
      [
        "Ġc",
        "up"
      ],
      [
        "Ġpart",
        "s"
      ],
      [
        "s",
        "c"
      ],
      [
        "iv",
        "ed"
      ],
      [
        "Ġatt",
        "ack"
      ],
      [
        "Ġh",
        "osp"
      ],
      [
        "Ġc",
        "or"
      ],
      [
        "ren",
        "ch"
      ],
      [
        "on",
        "y"
      ],
      [
        "am",
        "s"
      ],
      [
        "ul",
        "ation"
      ],
      [
        "Ġmo",
        "ve"
      ],
      [
        "Ġwh",
        "ite"
      ],
      [
        "Ġy",
        "oun"
      ],
      [
        "Ġe",
        "mp"
      ],
      [
        "Ġb",
        "as"
      ],
      [
        "Ġw",
        "estern"
      ],
      [
        "c",
        "i"
      ],
      [
        "Ġcont",
        "ro"
      ],
      [
        "b",
        "s"
      ],
      [
        "u",
        "ction"
      ],
      [
        "Ġcolle",
        "ge"
      ],
      [
        "a",
        "x"
      ],
      [
        "Ġt",
        "it"
      ],
      [
        "el",
        "f"
      ],
      [
        "s",
        "he"
      ],
      [
        "Ġl",
        "ine"
      ],
      [
        "Ġpro",
        "t"
      ],
      [
        "Ġpro",
        "gr"
      ],
      [
        "Ġev",
        "en"
      ],
      [
        "Ġmon",
        "th"
      ],
      [
        "che",
        "s"
      ],
      [
        "Ġag",
        "ed"
      ],
      [
        "Ġcent",
        "ral"
      ],
      [
        "Ġgerman",
        "y"
      ],
      [
        "Ġamer",
        "ica"
      ],
      [
        "ne",
        "y"
      ],
      [
        "Ġliv",
        "ing"
      ],
      [
        "Ġin",
        "c"
      ],
      [
        "Ġchur",
        "ch"
      ],
      [
        "Ġsp",
        "ort"
      ],
      [
        "Ġf",
        "rench"
      ],
      [
        "Ġv",
        "ol"
      ],
      [
        "en",
        "g"
      ],
      [
        "Ġ",
        "es"
      ],
      [
        "e",
        "w"
      ],
      [
        "ist",
        "an"
      ],
      [
        "Ġrepres",
        "ent"
      ],
      [
        "in",
        "ed"
      ],
      [
        "Ġh",
        "y"
      ],
      [
        "Ġl",
        "os"
      ],
      [
        "Ġto",
        "ok"
      ],
      [
        "r",
        "ap"
      ],
      [
        "on",
        "t"
      ],
      [
        "p",
        "le"
      ],
      [
        "Ġhap",
        "pen"
      ],
      [
        "Ġab",
        "ove"
      ],
      [
        "iz",
        "e"
      ],
      [
        "Ġfore",
        "st"
      ],
      [
        "Ġu",
        "k"
      ],
      [
        "id",
        "ed"
      ],
      [
        "Ġhosp",
        "ital"
      ],
      [
        "Ġro",
        "man"
      ],
      [
        "Ġar",
        "r"
      ],
      [
        "Ġf",
        "em"
      ],
      [
        "Ġfam",
        "ous"
      ],
      [
        "n",
        "er"
      ],
      [
        "a",
        "ugh"
      ],
      [
        "s",
        "ide"
      ],
      [
        "st",
        "er"
      ],
      [
        "Ġmill",
        "ion"
      ],
      [
        "Ġear",
        "th"
      ],
      [
        "Ġhe",
        "art"
      ],
      [
        "Ġlo",
        "ok"
      ],
      [
        "Ġl",
        "ot"
      ],
      [
        "Ġcan",
        "cer"
      ],
      [
        "Ġprofess",
        "ional"
      ],
      [
        "Ġh",
        "ol"
      ],
      [
        "Ġ",
        "est"
      ],
      [
        "uc",
        "ed"
      ],
      [
        "at",
        "or"
      ],
      [
        "Ġaustral",
        "ian"
      ],
      [
        "i",
        "ence"
      ],
      [
        "Ġor",
        "der"
      ],
      [
        "Ġs",
        "l"
      ],
      [
        "Ġspec",
        "ial"
      ],
      [
        "Ġre",
        "ce"
      ],
      [
        "Ġmoun",
        "tain"
      ],
      [
        "Ġnor",
        "thern"
      ],
      [
        "er",
        "ed"
      ],
      [
        "Ġr",
        "ail"
      ],
      [
        "Ġev",
        "ent"
      ],
      [
        "Ġt",
        "em"
      ],
      [
        "Ġb",
        "at"
      ],
      [
        "Ġbel",
        "ie"
      ],
      [
        "et",
        "er"
      ],
      [
        "s",
        "p"
      ],
      [
        "g",
        "in"
      ],
      [
        "on",
        "es"
      ],
      [
        "Ġcon",
        "f"
      ],
      [
        "Ġc",
        "er"
      ],
      [
        "et",
        "s"
      ],
      [
        "Ġmov",
        "ed"
      ],
      [
        "Ġfil",
        "m"
      ],
      [
        "Ġsc",
        "ientists"
      ],
      [
        "Ġdise",
        "ase"
      ],
      [
        "Ġex",
        "p"
      ],
      [
        "Ġr",
        "ul"
      ],
      [
        "m",
        "ost"
      ],
      [
        "le",
        "t"
      ],
      [
        "Ġbec",
        "ome"
      ],
      [
        "Ġpr",
        "ime"
      ],
      [
        "n",
        "a"
      ],
      [
        "h",
        "am"
      ],
      [
        "Ġeurope",
        "an"
      ],
      [
        "ke",
        "y"
      ],
      [
        "Ġcaus",
        "ed"
      ],
      [
        "Ġp",
        "ort"
      ],
      [
        "Ġpubl",
        "ished"
      ],
      [
        "Ġfound",
        "ed"
      ],
      [
        "af",
        "ter"
      ],
      [
        "i",
        "od"
      ],
      [
        "ce",
        "pt"
      ],
      [
        "el",
        "s"
      ],
      [
        "ac",
        "ed"
      ],
      [
        "Ġche",
        "m"
      ],
      [
        "Ġgovern",
        "or"
      ],
      [
        "Ġch",
        "ange"
      ],
      [
        "u",
        "es"
      ],
      [
        "ag",
        "o"
      ],
      [
        "Ġcent",
        "er"
      ],
      [
        "g",
        "en"
      ],
      [
        "l",
        "ed"
      ],
      [
        "Ġs",
        "uc"
      ],
      [
        "oc",
        "r"
      ],
      [
        "ect",
        "ed"
      ],
      [
        "ge",
        "ther"
      ],
      [
        "Ġs",
        "old"
      ],
      [
        "Ġf",
        "if"
      ],
      [
        "Ġse",
        "e"
      ],
      [
        "Ġre",
        "v"
      ],
      [
        "Ġc",
        "ult"
      ],
      [
        "Ġr",
        "a"
      ],
      [
        "Ġc",
        "amp"
      ],
      [
        "Ġliv",
        "ed"
      ],
      [
        "Ġo",
        "p"
      ],
      [
        "am",
        "a"
      ],
      [
        "so",
        "ci"
      ],
      [
        "Ġs",
        "ay"
      ],
      [
        "Ġm",
        "en"
      ],
      [
        "Ġde",
        "b"
      ],
      [
        "Ġcont",
        "in"
      ],
      [
        "Ġr",
        "ad"
      ],
      [
        "ic",
        "es"
      ],
      [
        "y",
        "ing"
      ],
      [
        "Ġaward",
        "s"
      ],
      [
        "Ġm",
        "ass"
      ],
      [
        "Ġh",
        "ig"
      ],
      [
        "Ġsup",
        "port"
      ],
      [
        "Ġst",
        "and"
      ],
      [
        "Ġas",
        "soci"
      ],
      [
        "Ġc",
        "at"
      ],
      [
        "as",
        "es"
      ],
      [
        "Ġch",
        "ina"
      ],
      [
        "Ġpop",
        "ulation"
      ],
      [
        "Ġmo",
        "d"
      ],
      [
        "Ġdes",
        "ign"
      ],
      [
        "Ġstud",
        "ied"
      ],
      [
        "Ġgro",
        "w"
      ],
      [
        "w",
        "ard"
      ],
      [
        "ep",
        "end"
      ],
      [
        "Ġc",
        "ame"
      ],
      [
        "Ġme",
        "an"
      ],
      [
        "Ġto",
        "gether"
      ],
      [
        "Ġper",
        "iod"
      ],
      [
        "Ġqu",
        "e"
      ],
      [
        "Ġm",
        "ag"
      ],
      [
        "Ġg",
        "old"
      ],
      [
        "Ġs",
        "on"
      ],
      [
        "er",
        "g"
      ],
      [
        "a",
        "e"
      ],
      [
        "Ġfe",
        "w"
      ],
      [
        "Ġ",
        "ill"
      ],
      [
        "em",
        "ent"
      ],
      [
        "Ġeg",
        "g"
      ],
      [
        "Ġp",
        "ut"
      ],
      [
        "il",
        "ar"
      ],
      [
        "Ġcanad",
        "a"
      ],
      [
        "Ġbuild",
        "ing"
      ],
      [
        "Ġn",
        "at"
      ],
      [
        "Ġpolit",
        "ical"
      ],
      [
        "Ġs",
        "ide"
      ],
      [
        "Ġfollow",
        "ing"
      ],
      [
        "Ġoff",
        "ice"
      ],
      [
        "Ġlangu",
        "ages"
      ],
      [
        "Ġs",
        "al"
      ],
      [
        "is",
        "ed"
      ],
      [
        "ment",
        "s"
      ],
      [
        "Ġa",
        "v"
      ],
      [
        "Ġw",
        "ant"
      ],
      [
        "f",
        "ord"
      ],
      [
        "Ġm",
        "y"
      ],
      [
        "Ġun",
        "ion"
      ],
      [
        "Ġb",
        "or"
      ],
      [
        "Ġrep",
        "l"
      ],
      [
        "ver",
        "age"
      ],
      [
        "Ġwork",
        "ed"
      ],
      [
        "Ġind",
        "epend"
      ],
      [
        "Ġvers",
        "ion"
      ],
      [
        "r",
        "on"
      ],
      [
        "Ġst",
        "or"
      ],
      [
        "Ġth",
        "ink"
      ],
      [
        "Ġf",
        "ed"
      ],
      [
        "Ġ",
        "ide"
      ],
      [
        "Ġt",
        "al"
      ],
      [
        "Ġe",
        "qu"
      ],
      [
        "Ġdem",
        "ocr"
      ],
      [
        "Ġcomp",
        "le"
      ],
      [
        "in",
        "c"
      ],
      [
        "Ġf",
        "ather"
      ],
      [
        "Ġconst",
        "it"
      ],
      [
        "Ġolymp",
        "ics"
      ],
      [
        "id",
        "es"
      ],
      [
        "l",
        "iam"
      ],
      [
        "Ġo",
        "cc"
      ],
      [
        "er",
        "v"
      ],
      [
        "Ġv",
        "ot"
      ],
      [
        "Ġin",
        "t"
      ],
      [
        "Ġcol",
        "or"
      ],
      [
        "Ġm",
        "iss"
      ],
      [
        "Ġp",
        "al"
      ],
      [
        "Ġcomp",
        "u"
      ],
      [
        "Ġsoc",
        "ial"
      ],
      [
        "Ġv",
        "ict"
      ],
      [
        "one",
        "y"
      ],
      [
        "Ġmak",
        "ing"
      ],
      [
        "Ġpar",
        "liam"
      ],
      [
        "b",
        "ur"
      ],
      [
        "Ġk",
        "ind"
      ],
      [
        "Ġl",
        "ist"
      ],
      [
        "Ġsim",
        "ilar"
      ],
      [
        "Ġf",
        "un"
      ],
      [
        "iv",
        "es"
      ],
      [
        "Ġst",
        "op"
      ],
      [
        "Ġelect",
        "ed"
      ],
      [
        "o",
        "v"
      ],
      [
        "Ġus",
        "ing"
      ],
      [
        "Ġt",
        "ake"
      ],
      [
        "Ġv",
        "ill"
      ],
      [
        "Ġv",
        "ir"
      ],
      [
        "Ġpart",
        "ic"
      ],
      [
        "id",
        "ge"
      ],
      [
        "Ġparliam",
        "ent"
      ],
      [
        "i",
        "or"
      ],
      [
        "Ġd",
        "ays"
      ],
      [
        "Ġa",
        "verage"
      ],
      [
        "Ġe",
        "con"
      ],
      [
        "il",
        "le"
      ],
      [
        "Ġteam",
        "s"
      ],
      [
        "al",
        "d"
      ],
      [
        "Ġgre",
        "en"
      ],
      [
        "Ġproble",
        "ms"
      ],
      [
        "Ġyoun",
        "g"
      ],
      [
        "Ġn",
        "omin"
      ],
      [
        "Ġecon",
        "om"
      ],
      [
        "ad",
        "em"
      ],
      [
        "um",
        "p"
      ],
      [
        "Ġl",
        "et"
      ],
      [
        "Ġz",
        "e"
      ],
      [
        "ro",
        "m"
      ],
      [
        "Ġloc",
        "ated"
      ],
      [
        "Ġchang",
        "ed"
      ],
      [
        "Ġty",
        "p"
      ],
      [
        "Ġp",
        "at"
      ],
      [
        "Ġro",
        "y"
      ],
      [
        "Ġcoun",
        "c"
      ],
      [
        "Ġw",
        "rest"
      ],
      [
        "Ġg",
        "ot"
      ],
      [
        "Ġcon",
        "d"
      ],
      [
        "s",
        "y"
      ],
      [
        "og",
        "rap"
      ],
      [
        "t",
        "al"
      ],
      [
        "Ġsou",
        "thern"
      ],
      [
        "Ġinclud",
        "e"
      ],
      [
        "Ġfo",
        "od"
      ],
      [
        "Ġfem",
        "ale"
      ],
      [
        "Ġanim",
        "als"
      ],
      [
        "Ġw",
        "ind"
      ],
      [
        "ro",
        "te"
      ],
      [
        "it",
        "ary"
      ],
      [
        "Ġkill",
        "ed"
      ],
      [
        "re",
        "t"
      ],
      [
        "d",
        "le"
      ],
      [
        "Ġfin",
        "al"
      ],
      [
        "ction",
        "s"
      ],
      [
        "Ġg",
        "od"
      ],
      [
        "in",
        "o"
      ],
      [
        "ber",
        "t"
      ],
      [
        "Ġro",
        "le"
      ],
      [
        "Ġne",
        "xt"
      ],
      [
        "Ġfrog",
        "s"
      ],
      [
        "Ġs",
        "ound"
      ],
      [
        "Ġital",
        "y"
      ],
      [
        "l",
        "ic"
      ],
      [
        "Ġm",
        "al"
      ],
      [
        "Ġgen",
        "er"
      ],
      [
        "ist",
        "r"
      ],
      [
        "Ġim",
        "p"
      ],
      [
        "Ġmo",
        "der"
      ],
      [
        "Ġv",
        "i"
      ],
      [
        "Ġb",
        "ir"
      ],
      [
        "uc",
        "k"
      ],
      [
        "Ġb",
        "ur"
      ],
      [
        "Ġorigin",
        "al"
      ],
      [
        "Ġch",
        "ic"
      ],
      [
        "Ġw",
        "rote"
      ],
      [
        "Ġend",
        "ed"
      ],
      [
        "ip",
        "p"
      ],
      [
        "Ġafric",
        "a"
      ],
      [
        "Ġt",
        "ree"
      ],
      [
        "Ġgro",
        "und"
      ],
      [
        "Ġg",
        "l"
      ],
      [
        "Ġb",
        "ill"
      ],
      [
        "Ġre",
        "st"
      ],
      [
        "Ġspe",
        "ak"
      ],
      [
        "Ġ",
        "ve"
      ],
      [
        "Ġpl",
        "ants"
      ],
      [
        "Ġang",
        "el"
      ],
      [
        "Ġcharact",
        "er"
      ],
      [
        "Ġres",
        "p"
      ],
      [
        "l",
        "er"
      ],
      [
        "Ġst",
        "at"
      ],
      [
        "av",
        "ing"
      ],
      [
        "Ġcounc",
        "il"
      ],
      [
        "Ġh",
        "al"
      ],
      [
        "Ġal",
        "ong"
      ],
      [
        "Ġjapan",
        "ese"
      ],
      [
        "Ġaw",
        "ay"
      ],
      [
        "Ġhe",
        "alth"
      ],
      [
        "Ġac",
        "adem"
      ],
      [
        "Ġge",
        "or"
      ],
      [
        "Ġad",
        "min"
      ],
      [
        "Ġc",
        "iv"
      ],
      [
        "Ġre",
        "f"
      ],
      [
        "Ġep",
        "is"
      ],
      [
        "Ġcour",
        "t"
      ],
      [
        "Ġtr",
        "ad"
      ],
      [
        "n",
        "ess"
      ],
      [
        "Ġs",
        "ent"
      ],
      [
        "Ġaf",
        "f"
      ],
      [
        "Ġgr",
        "and"
      ],
      [
        "Ġto",
        "ur"
      ],
      [
        "Ġegg",
        "s"
      ],
      [
        "Ġdes",
        "cr"
      ],
      [
        "Ġm",
        "oney"
      ],
      [
        "Ġd",
        "el"
      ],
      [
        "Ġn",
        "et"
      ],
      [
        "Ġco",
        "ver"
      ],
      [
        "Ġp",
        "ak"
      ],
      [
        "ain",
        "t"
      ],
      [
        "Ġar",
        "ch"
      ],
      [
        "Ġapp",
        "ear"
      ],
      [
        "Ġchic",
        "ago"
      ],
      [
        "al",
        "and"
      ],
      [
        "Ġf",
        "ree"
      ],
      [
        "Ġret",
        "urn"
      ],
      [
        "Ġc",
        "y"
      ],
      [
        "g",
        "ress"
      ],
      [
        "Ġf",
        "re"
      ],
      [
        "Ġth",
        "ose"
      ],
      [
        "Ġst",
        "ory"
      ],
      [
        "a",
        "u"
      ],
      [
        "Ġd",
        "ue"
      ],
      [
        "Ġre",
        "al"
      ],
      [
        "Ġmov",
        "ies"
      ],
      [
        "Ġm",
        "ust"
      ],
      [
        "Ġplay",
        "s"
      ],
      [
        "Ġmak",
        "es"
      ],
      [
        "Ġsuc",
        "cess"
      ],
      [
        "Ġk",
        "ore"
      ],
      [
        "Ġform",
        "ed"
      ],
      [
        "Ġcare",
        "er"
      ],
      [
        "Ġl",
        "ab"
      ],
      [
        "Ġan",
        "c"
      ],
      [
        "iz",
        "ation"
      ],
      [
        "Ġe",
        "ff"
      ],
      [
        "Ġsy",
        "m"
      ],
      [
        "Ġmoder",
        "n"
      ],
      [
        "p",
        "ar"
      ],
      [
        "in",
        "ess"
      ],
      [
        "Ġv",
        "is"
      ],
      [
        "Ġmid",
        "dle"
      ],
      [
        "Ġciv",
        "il"
      ],
      [
        "Ġmet",
        "ers"
      ],
      [
        "Ġisland",
        "s"
      ],
      [
        "Ġhist",
        "or"
      ],
      [
        "Ġwe",
        "e"
      ],
      [
        "Ġ",
        "er"
      ],
      [
        "Ġchem",
        "ical"
      ],
      [
        "Ġrece",
        "ived"
      ],
      [
        "Ġco",
        "ast"
      ],
      [
        "w",
        "ays"
      ],
      [
        "Ġpl",
        "an"
      ],
      [
        "Ġt",
        "est"
      ],
      [
        "Ġroy",
        "al"
      ],
      [
        "an",
        "a"
      ],
      [
        "as",
        "ter"
      ],
      [
        "Ġan",
        "t"
      ],
      [
        "ch",
        "n"
      ],
      [
        "Ġind",
        "ian"
      ],
      [
        "Ġze",
        "aland"
      ],
      [
        "Ġd",
        "on"
      ],
      [
        "Ġl",
        "ess"
      ],
      [
        "ie",
        "f"
      ],
      [
        "land",
        "s"
      ],
      [
        "Ġsup",
        "er"
      ],
      [
        "Ġserv",
        "ice"
      ],
      [
        "Ġm",
        "ot"
      ],
      [
        "v",
        "es"
      ],
      [
        "Ġgroup",
        "s"
      ],
      [
        "Ġeas",
        "tern"
      ],
      [
        "at",
        "a"
      ],
      [
        "l",
        "s"
      ],
      [
        "it",
        "ions"
      ],
      [
        "ad",
        "u"
      ],
      [
        "Ġare",
        "as"
      ],
      [
        "Ġd",
        "ia"
      ],
      [
        "iv",
        "al"
      ],
      [
        "ul",
        "a"
      ],
      [
        "Ġro",
        "ad"
      ],
      [
        "w",
        "hen"
      ],
      [
        "Ġs",
        "un"
      ],
      [
        "Ġs",
        "qu"
      ],
      [
        "re",
        "ad"
      ],
      [
        "Ġh",
        "and"
      ],
      [
        "Ġmil",
        "itary"
      ],
      [
        "p",
        "or"
      ],
      [
        "Ġarm",
        "y"
      ],
      [
        "r",
        "i"
      ],
      [
        "Ġst",
        "e"
      ],
      [
        "Ġloc",
        "al"
      ],
      [
        "y",
        "n"
      ],
      [
        "Ġde",
        "ad"
      ],
      [
        "Ġter",
        "rit"
      ],
      [
        "av",
        "es"
      ],
      [
        "Ġadmin",
        "istr"
      ],
      [
        "Ġl",
        "at"
      ],
      [
        "Ġlead",
        "er"
      ],
      [
        "ore",
        "d"
      ],
      [
        "Ġh",
        "ot"
      ],
      [
        "Ġsc",
        "ience"
      ],
      [
        "Ġc",
        "e"
      ],
      [
        "Ġmost",
        "ly"
      ],
      [
        "Ġrel",
        "ig"
      ],
      [
        "Ġemp",
        "ire"
      ],
      [
        "Ġnat",
        "ural"
      ],
      [
        "Ġh",
        "ard"
      ],
      [
        "ra",
        "z"
      ],
      [
        "Ġcanad",
        "ian"
      ],
      [
        "Ġdescr",
        "ib"
      ],
      [
        "Ġdeb",
        "ut"
      ],
      [
        "Ġto",
        "tal"
      ],
      [
        "Ġg",
        "ree"
      ],
      [
        "Ġmo",
        "ther"
      ],
      [
        "Ġpres",
        "ent"
      ],
      [
        "iet",
        "y"
      ],
      [
        "Ġp",
        "ost"
      ],
      [
        "ar",
        "s"
      ],
      [
        "Ġh",
        "on"
      ],
      [
        "le",
        "ct"
      ],
      [
        "Ġed",
        "uc"
      ],
      [
        "Ġb",
        "er"
      ],
      [
        "Ġwork",
        "s"
      ],
      [
        "Ġthough",
        "t"
      ],
      [
        "g",
        "n"
      ],
      [
        "um",
        "b"
      ],
      [
        "ra",
        "ft"
      ],
      [
        "em",
        "b"
      ],
      [
        "ro",
        "d"
      ],
      [
        "Ġf",
        "ield"
      ],
      [
        "ap",
        "e"
      ],
      [
        "Ġind",
        "ustr"
      ],
      [
        "Ġpak",
        "istan"
      ],
      [
        "Ġwith",
        "out"
      ],
      [
        "Ġent",
        "er"
      ],
      [
        "id",
        "s"
      ],
      [
        "if",
        "ied"
      ],
      [
        "ang",
        "er"
      ],
      [
        "Ġm",
        "ult"
      ],
      [
        "Ġrep",
        "ort"
      ],
      [
        "ial",
        "ly"
      ],
      [
        "Ġother",
        "s"
      ],
      [
        "h",
        "or"
      ],
      [
        "Ġc",
        "rit"
      ],
      [
        "Ġpo",
        "int"
      ],
      [
        "Ġt",
        "urn"
      ],
      [
        "Ġst",
        "ates"
      ],
      [
        "Ġshow",
        "s"
      ],
      [
        "Ġh",
        "ur"
      ],
      [
        "am",
        "ent"
      ],
      [
        "Ġsong",
        "s"
      ],
      [
        "he",
        "s"
      ],
      [
        "Ġbook",
        "s"
      ],
      [
        "en",
        "cy"
      ],
      [
        "Ġo",
        "x"
      ],
      [
        "qu",
        "e"
      ],
      [
        "Ġall",
        "ow"
      ],
      [
        "en",
        "e"
      ],
      [
        "Ġre",
        "fer"
      ],
      [
        "Ġb",
        "ad"
      ],
      [
        "u",
        "ed"
      ],
      [
        "Ġper",
        "form"
      ],
      [
        "Ġte",
        "chn"
      ],
      [
        "Ġsp",
        "ace"
      ],
      [
        "m",
        "a"
      ],
      [
        "Ġf",
        "all"
      ],
      [
        "ical",
        "ly"
      ],
      [
        "Ġangel",
        "es"
      ],
      [
        "ap",
        "er"
      ],
      [
        "Ġforest",
        "s"
      ],
      [
        "Ġd",
        "one"
      ],
      [
        "Ġl",
        "ost"
      ],
      [
        "Ġad",
        "v"
      ],
      [
        "Ġcom",
        "es"
      ],
      [
        "Ġarr",
        "ond"
      ],
      [
        "Ġarrond",
        "iss"
      ],
      [
        "Ġcompu",
        "ter"
      ],
      [
        "Ġ",
        "ire"
      ],
      [
        "Ġd",
        "ies"
      ],
      [
        "Ġkn",
        "ow"
      ],
      [
        "Ġph",
        "ys"
      ],
      [
        "il",
        "ity"
      ],
      [
        "Ġse",
        "x"
      ],
      [
        "Ġword",
        "s"
      ],
      [
        "Ġf",
        "act"
      ],
      [
        "x",
        "ic"
      ],
      [
        "Ġbus",
        "iness"
      ],
      [
        "Ġsport",
        "s"
      ],
      [
        "Ġl",
        "im"
      ],
      [
        "Ġbro",
        "ad"
      ],
      [
        "Ġcon",
        "n"
      ],
      [
        "z",
        "er"
      ],
      [
        "oun",
        "t"
      ],
      [
        "Ġolymp",
        "ic"
      ],
      [
        "p",
        "ed"
      ],
      [
        "Ġex",
        "t"
      ],
      [
        "e",
        "ad"
      ],
      [
        "Ġs",
        "an"
      ],
      [
        "en",
        "ces"
      ],
      [
        "Ġacadem",
        "y"
      ],
      [
        "Ġc",
        "am"
      ],
      [
        "Ġh",
        "all"
      ],
      [
        "Ġtr",
        "ain"
      ],
      [
        "Ġcons",
        "id"
      ],
      [
        "s",
        "ome"
      ],
      [
        "Ġsing",
        "er"
      ],
      [
        "p",
        "os"
      ],
      [
        "ol",
        "ution"
      ],
      [
        "Ġf",
        "ind"
      ],
      [
        "Ġto",
        "day"
      ],
      [
        "Ġser",
        "ved"
      ],
      [
        "et",
        "h"
      ],
      [
        "Ġtak",
        "en"
      ],
      [
        "Ġire",
        "land"
      ],
      [
        "l",
        "u"
      ],
      [
        "Ġin",
        "form"
      ],
      [
        "Ġg",
        "ir"
      ],
      [
        "Ġo",
        "ce"
      ],
      [
        "Ġm",
        "ale"
      ],
      [
        "Ġto",
        "o"
      ],
      [
        "Ġtyp",
        "es"
      ],
      [
        "o",
        "b"
      ],
      [
        "Ġs",
        "n"
      ],
      [
        "Ġob",
        "ject"
      ],
      [
        "Ġb",
        "i"
      ],
      [
        "Ġopen",
        "ed"
      ],
      [
        "Ġplay",
        "ing"
      ],
      [
        "Ġpos",
        "s"
      ],
      [
        "Ġne",
        "ver"
      ],
      [
        "Ġsh",
        "ould"
      ],
      [
        "om",
        "s"
      ],
      [
        "Ġcent",
        "re"
      ],
      [
        "Ġfl",
        "ag"
      ],
      [
        "k",
        "ed"
      ],
      [
        "Ġc",
        "op"
      ],
      [
        "Ġcom",
        "e"
      ],
      [
        "Ġsec",
        "ret"
      ],
      [
        "n",
        "ot"
      ],
      [
        "Ġap",
        "pe"
      ],
      [
        "end",
        "s"
      ],
      [
        "Ġh",
        "it"
      ],
      [
        "Ġstr",
        "ong"
      ],
      [
        "Ġdiv",
        "ision"
      ],
      [
        "Ġex",
        "pl"
      ],
      [
        "Ġw",
        "ood"
      ],
      [
        "he",
        "m"
      ],
      [
        "Ġf",
        "ire"
      ],
      [
        "Ġd",
        "augh"
      ],
      [
        "Ġl",
        "ate"
      ],
      [
        "ur",
        "s"
      ],
      [
        "ie",
        "ved"
      ],
      [
        "Ġsomet",
        "hing"
      ],
      [
        "Ġinclud",
        "es"
      ],
      [
        "l",
        "in"
      ],
      [
        "ar",
        "n"
      ],
      [
        "Ġh",
        "ost"
      ],
      [
        "og",
        "n"
      ],
      [
        "m",
        "ed"
      ],
      [
        "Ġcon",
        "tr"
      ],
      [
        "z",
        "e"
      ],
      [
        "Ġcompet",
        "ed"
      ],
      [
        "Ġf",
        "ail"
      ],
      [
        "Ġwal",
        "es"
      ],
      [
        "g",
        "o"
      ],
      [
        "Ġprod",
        "uced"
      ],
      [
        "y",
        "le"
      ],
      [
        "Ġre",
        "se"
      ],
      [
        "ect",
        "s"
      ],
      [
        "Ġright",
        "s"
      ],
      [
        "ot",
        "s"
      ],
      [
        "Ġs",
        "il"
      ],
      [
        "Ġn",
        "on"
      ],
      [
        "Ġch",
        "ann"
      ],
      [
        "ur",
        "b"
      ],
      [
        "w",
        "ork"
      ],
      [
        "erg",
        "y"
      ],
      [
        "Ġb",
        "ird"
      ],
      [
        "Ġd",
        "anger"
      ],
      [
        "end",
        "ed"
      ],
      [
        "Ġcomm",
        "it"
      ],
      [
        "Ġvill",
        "age"
      ],
      [
        "Ġcl",
        "ose"
      ],
      [
        "Ġbir",
        "th"
      ],
      [
        "Ġbro",
        "ther"
      ],
      [
        "Ġc",
        "ell"
      ],
      [
        "Ġassoci",
        "ation"
      ],
      [
        "m",
        "ing"
      ],
      [
        "l",
        "ine"
      ],
      [
        "Ġj",
        "ew"
      ],
      [
        "Ġl",
        "ow"
      ],
      [
        "Ġle",
        "ast"
      ],
      [
        "Ġs",
        "it"
      ],
      [
        "Ġmus",
        "e"
      ],
      [
        "Ġhal",
        "f"
      ],
      [
        "b",
        "c"
      ],
      [
        "Ġse",
        "ven"
      ],
      [
        "Ġtr",
        "ave"
      ],
      [
        "Ġplay",
        "ers"
      ],
      [
        "Ġc",
        "and"
      ],
      [
        "Ġbl",
        "ue"
      ],
      [
        "an",
        "ch"
      ],
      [
        "Ġret",
        "ired"
      ],
      [
        "Ġtit",
        "le"
      ],
      [
        "Ġh",
        "ill"
      ],
      [
        "Ġn",
        "ight"
      ],
      [
        "Ġpr",
        "im"
      ],
      [
        "Ġlit",
        "tle"
      ],
      [
        "Ġdevelop",
        "ed"
      ],
      [
        "l",
        "or"
      ],
      [
        "Ġj",
        "ud"
      ],
      [
        "Ġde",
        "v"
      ],
      [
        "ure",
        "d"
      ],
      [
        "Ġcurrent",
        "ly"
      ],
      [
        "c",
        "le"
      ],
      [
        "Ġe",
        "ight"
      ],
      [
        "Ġde",
        "g"
      ],
      [
        "Ġmuse",
        "um"
      ],
      [
        "Ġc",
        "ard"
      ],
      [
        "Ġb",
        "ase"
      ],
      [
        "Ġpro",
        "cess"
      ],
      [
        "c",
        "hed"
      ],
      [
        "Ġev",
        "ents"
      ],
      [
        "Ġpre",
        "m"
      ],
      [
        "Ġre",
        "tr"
      ],
      [
        "he",
        "st"
      ],
      [
        "Ġat",
        "h"
      ],
      [
        "Ġtr",
        "ack"
      ],
      [
        "Ġt",
        "en"
      ],
      [
        "e",
        "y"
      ],
      [
        "k",
        "y"
      ],
      [
        "an",
        "ia"
      ],
      [
        "av",
        "y"
      ],
      [
        "Ġfour",
        "th"
      ],
      [
        "r",
        "ing"
      ],
      [
        "Ġm",
        "ic"
      ],
      [
        "Ġch",
        "art"
      ],
      [
        "Ġc",
        "ast"
      ],
      [
        "Ġd",
        "am"
      ],
      [
        "Ġse",
        "par"
      ],
      [
        "Ġinst",
        "ead"
      ],
      [
        "Ġstre",
        "et"
      ],
      [
        "Ġtem",
        "per"
      ],
      [
        "Ġl",
        "ed"
      ],
      [
        "g",
        "es"
      ],
      [
        "r",
        "ain"
      ],
      [
        "Ġc",
        "ath"
      ],
      [
        "oc",
        "key"
      ],
      [
        "Ġnumber",
        "s"
      ],
      [
        "Ġprogr",
        "am"
      ],
      [
        "Ġeng",
        "ine"
      ],
      [
        "c",
        "ast"
      ],
      [
        "f",
        "ect"
      ],
      [
        "Ġh",
        "or"
      ],
      [
        "ol",
        "ic"
      ],
      [
        "iss",
        "ion"
      ],
      [
        "i",
        "ke"
      ],
      [
        "Ġc",
        "ut"
      ],
      [
        "Ġc",
        "ause"
      ],
      [
        "Ġv",
        "iew"
      ],
      [
        "Ġfr",
        "i"
      ],
      [
        "Ġbro",
        "wn"
      ],
      [
        "a",
        "ff"
      ],
      [
        "Ġc",
        "ir"
      ],
      [
        "Ġm",
        "em"
      ],
      [
        "Ġen",
        "ergy"
      ],
      [
        "Ġv",
        "o"
      ],
      [
        "Ġm",
        "ich"
      ],
      [
        "Ġmed",
        "al"
      ],
      [
        "um",
        "ent"
      ],
      [
        "Ġstud",
        "ents"
      ],
      [
        "he",
        "re"
      ],
      [
        "Ġrad",
        "io"
      ],
      [
        "Ġstud",
        "y"
      ],
      [
        "Ġital",
        "ian"
      ],
      [
        "Ġh",
        "ockey"
      ],
      [
        "Ġqu",
        "al"
      ],
      [
        "Ġw",
        "at"
      ],
      [
        "Ġst",
        "ad"
      ],
      [
        "Ġl",
        "ou"
      ],
      [
        "Ġe",
        "at"
      ],
      [
        "Ġp",
        "ur"
      ],
      [
        "Ġrel",
        "ated"
      ],
      [
        "Ġrec",
        "ogn"
      ],
      [
        "Ġb",
        "raz"
      ],
      [
        "Ġinform",
        "ation"
      ],
      [
        "Ġretr",
        "ieved"
      ],
      [
        "Ġfor",
        "ce"
      ],
      [
        "Ġex",
        "per"
      ],
      [
        "Ġact",
        "or"
      ],
      [
        "Ġr",
        "ich"
      ],
      [
        "Ġex",
        "ec"
      ],
      [
        "Ġanc",
        "ient"
      ],
      [
        "Ġf",
        "ight"
      ],
      [
        "Ġmat",
        "ch"
      ],
      [
        "Ġus",
        "es"
      ],
      [
        "Ġsp",
        "ok"
      ],
      [
        "bur",
        "g"
      ],
      [
        "Ġs",
        "at"
      ],
      [
        "Ġre",
        "ad"
      ],
      [
        "Ġas",
        "ia"
      ],
      [
        "Ġdo",
        "ct"
      ],
      [
        "Ġh",
        "aving"
      ],
      [
        "Ġwill",
        "iam"
      ],
      [
        "Ġp",
        "ict"
      ],
      [
        "Ġw",
        "ife"
      ],
      [
        "Ġcontro",
        "l"
      ],
      [
        "Ġbraz",
        "il"
      ],
      [
        "Ġhig",
        "hest"
      ],
      [
        "Ġt",
        "ur"
      ],
      [
        "Ġon",
        "ce"
      ],
      [
        "Ġman",
        "ag"
      ],
      [
        "Ġelect",
        "ric"
      ],
      [
        "om",
        "b"
      ],
      [
        "Ġindepend",
        "ent"
      ],
      [
        "Ġfed",
        "eral"
      ],
      [
        "u",
        "k"
      ],
      [
        "as",
        "ons"
      ],
      [
        "Ġcro",
        "ss"
      ],
      [
        "Ġt",
        "v"
      ],
      [
        "it",
        "her"
      ],
      [
        "Ġgr",
        "adu"
      ],
      [
        "ad",
        "es"
      ],
      [
        "Ġwork",
        "ing"
      ],
      [
        "co",
        "ver"
      ],
      [
        "Ġr",
        "ain"
      ],
      [
        "Ġro",
        "und"
      ],
      [
        "Ġpol",
        "ice"
      ],
      [
        "Ġtre",
        "at"
      ],
      [
        "Ġvict",
        "or"
      ],
      [
        "Ġw",
        "ide"
      ],
      [
        "is",
        "l"
      ],
      [
        "an",
        "ish"
      ],
      [
        "Ġp",
        "ie"
      ],
      [
        "Ġpr",
        "ison"
      ],
      [
        "Ġjo",
        "ined"
      ],
      [
        "Ġscot",
        "land"
      ],
      [
        "and",
        "er"
      ],
      [
        "Ġdirect",
        "or"
      ],
      [
        "Ġbe",
        "h"
      ],
      [
        "Ġm",
        "ight"
      ],
      [
        "st",
        "on"
      ],
      [
        "Ġp",
        "ay"
      ],
      [
        "Ġinst",
        "it"
      ],
      [
        "Ġc",
        "le"
      ],
      [
        "Ġnew",
        "s"
      ],
      [
        "u",
        "le"
      ],
      [
        "Ġco",
        "v"
      ],
      [
        "Ġwas",
        "hing"
      ],
      [
        "Ġmed",
        "ia"
      ],
      [
        "Ġmountain",
        "s"
      ],
      [
        "Ġest",
        "ab"
      ],
      [
        "Ġstad",
        "ium"
      ],
      [
        "Ġg",
        "al"
      ],
      [
        "ra",
        "el"
      ],
      [
        "Ġact",
        "iv"
      ],
      [
        "Ġdemocr",
        "atic"
      ],
      [
        "Ġconsid",
        "ered"
      ],
      [
        "d",
        "uring"
      ],
      [
        "t",
        "a"
      ],
      [
        "v",
        "iet"
      ],
      [
        "Ġappe",
        "ared"
      ],
      [
        "Ġwrest",
        "ling"
      ],
      [
        "Ġpl",
        "at"
      ],
      [
        "o",
        "int"
      ],
      [
        "Ġruss",
        "ian"
      ],
      [
        "Ġl",
        "ake"
      ],
      [
        "Ġar",
        "g"
      ],
      [
        "Ġaut",
        "hor"
      ],
      [
        "ell",
        "ow"
      ],
      [
        "Ġd",
        "en"
      ],
      [
        "Ġsh",
        "own"
      ],
      [
        "Ġar",
        "ab"
      ],
      [
        "Ġoce",
        "an"
      ],
      [
        "Ġrese",
        "arch"
      ],
      [
        "b",
        "a"
      ]
    ]
  }
}