{
  "version": "1.0",
  "truncation": null,
  "padding": null,
  "added_tokens": [
    {
      "id": 2967,
      "content": "<|----|>",
      "single_word": false,
      "lstrip": false,
      "rstrip": false,
      "normalized": false,
      "special": true
    },
    {
      "id": 2968,
      "content": "<|//|>",
      "single_word": false,
      "lstrip": false,
      "rstrip": false,
      "normalized": false,
      "special": true
    },
    {
      "id": 2969,
      "content": "<|tokipona:>",
      "single_word": false,
      "lstrip": false,
      "rstrip": false,
      "normalized": false,
      "special": true
    },
    {
      "id": 2970,
      "content": "<|english:>",
      "single_word": false,
      "lstrip": false,
      "rstrip": false,
      "normalized": false,
      "special": true
    },
    {
      "id": 2971,
      "content": "</english:>",
      "single_word": false,
      "lstrip": false,
      "rstrip": false,
      "normalized": false,
      "special": true
    },
    {
      "id": 2972,
      "content": "</tokipona:>",
      "single_word": false,
      "lstrip": false,
      "rstrip": false,
      "normalized": false,
      "special": true
    },
    {
      "id": 2973,
      "content": "<|lq:>",
      "single_word": false,
      "lstrip": false,
      "rstrip": false,
      "normalized": false,
      "special": true
    },
    {
      "id": 2974,
      "content": "<:lq|>",
      "single_word": false,
      "lstrip": false,
      "rstrip": false,
      "normalized": false,
      "special": true
    },
    {
      "id": 2975,
      "content": "<|hq:>",
      "single_word": false,
      "lstrip": false,
      "rstrip": false,
      "normalized": false,
      "special": true
    },
    {
      "id": 2976,
      "content": "<:hq|>",
      "single_word": false,
      "lstrip": false,
      "rstrip": false,
      "normalized": false,
      "special": true
    },
    {
      "id": 2977,
      "content": "<|!:>",
      "single_word": false,
      "lstrip": false,
      "rstrip": false,
      "normalized": false,
      "special": true
    },
    {
      "id": 2978,
      "content": "<:!|>",
      "single_word": false,
      "lstrip": false,
      "rstrip": false,
      "normalized": false,
      "special": true
    },
    {
      "id": 2979,
      "content": "<|?:>",
      "single_word": false,
      "lstrip": false,
      "rstrip": false,
      "normalized": false,
      "special": true
    },
    {
      "id": 2980,
      "content": "<:?|>",
      "single_word": false,
      "lstrip": false,
      "rstrip": false,
      "normalized": false,
      "special": true
    },
    {
      "id": 2981,
      "content": "<|*:>",
      "single_word": false,
      "lstrip": false,
      "rstrip": false,
      "normalized": false,
      "special": true
    },
    {
      "id": 2982,
      "content": "<:*|>",
      "single_word": false,
      "lstrip": false,
      "rstrip": false,
      "normalized": false,
      "special": true
    },
    {
      "id": 2983,
      "content": "<|-:>",
      "single_word": false,
      "lstrip": false,
      "rstrip": false,
      "normalized": false,
      "special": true
    },
    {
      "id": 2984,
      "content": "<:-|>",
      "single_word": false,
      "lstrip": false,
      "rstrip": false,
      "normalized": false,
      "special": true
    },
    {
      "id": 2985,
      "content": "<|=:>",
      "single_word": false,
      "lstrip": false,
      "rstrip": false,
      "normalized": false,
      "special": true
    },
    {
      "id": 2986,
      "content": "<:=|>",
      "single_word": false,
      "lstrip": false,
      "rstrip": false,
      "normalized": false,
      "special": true
    },
    {
      "id": 2987,
      "content": "<|/:>",
      "single_word": false,
      "lstrip": false,
      "rstrip": false,
      "normalized": false,
      "special": true
    },
    {
      "id": 2988,
      "content": "<:/|>",
      "single_word": false,
      "lstrip": false,
      "rstrip": false,
      "normalized": false,
      "special": true
    },
    {
      "id": 2989,
      "content": "<|@:>",
      "single_word": false,
      "lstrip": false,
      "rstrip": false,
      "normalized": false,
      "special": true
    },
    {
      "id": 2990,
      "content": "<:@|>",
      "single_word": false,
      "lstrip": false,
      "rstrip": false,
      "normalized": false,
      "special": true
    },
    {
      "id": 2991,
      "content": "<|think|>",
      "single_word": false,
      "lstrip": false,
      "rstrip": false,
      "normalized": false,
      "special": true
    },
    {
      "id": 2992,
      "content": "<|p7|>",
      "single_word": false,
      "lstrip": false,
      "rstrip": false,
      "normalized": false,
      "special": true
    },
    {
      "id": 2993,
      "content": "<|p6|>",
      "single_word": false,
      "lstrip": false,
      "rstrip": false,
      "normalized": false,
      "special": true
    },
    {
      "id": 2994,
      "content": "<|p5|>",
      "single_word": false,
      "lstrip": false,
      "rstrip": false,
      "normalized": false,
      "special": true
    },
    {
      "id": 2995,
      "content": "<|p4|>",
      "single_word": false,
      "lstrip": false,
      "rstrip": false,
      "normalized": false,
      "special": true
    },
    {
      "id": 2996,
      "content": "<|p3|>",
      "single_word": false,
      "lstrip": false,
      "rstrip": false,
      "normalized": false,
      "special": true
    },
    {
      "id": 2997,
      "content": "<|p2|>",
      "single_word": false,
      "lstrip": false,
      "rstrip": false,
      "normalized": false,
      "special": true
    },
    {
      "id": 2998,
      "content": "<|p1|>",
      "single_word": false,
      "lstrip": false,
      "rstrip": false,
      "normalized": false,
      "special": true
    },
    {
      "id": 2999,
      "content": "<|p0|>",
      "single_word": false,
      "lstrip": false,
      "rstrip": false,
      "normalized": false,
      "special": true
    }
  ],
  "normalizer": null,
  "pre_tokenizer": {
    "type": "ByteLevel",
    "add_prefix_space": false,
    "trim_offsets": true,
    "use_regex": true
  },
  "post_processor": {
    "type": "ByteLevel",
    "add_prefix_space": true,
    "trim_offsets": false,
    "use_regex": true
  },
  "decoder": {
    "type": "ByteLevel",
    "add_prefix_space": true,
    "trim_offsets": true,
    "use_regex": true
  },
  "model": {
    "type": "BPE",
    "dropout": null,
    "unk_token": null,
    "continuing_subword_prefix": null,
    "end_of_word_suffix": null,
    "fuse_unk": false,
    "byte_fallback": false,
    "ignore_merges": false,
    "vocab": {
      "\n": 0,
      " ": 1,
      "\"": 2,
      "'": 3,
      "(": 4,
      ")": 5,
      ",": 6,
      "-": 7,
      ".": 8,
      "0": 9,
      "1": 10,
      "2": 11,
      "3": 12,
      "4": 13,
      "5": 14,
      "6": 15,
      "7": 16,
      "8": 17,
      "9": 18,
      ":": 19,
      ";": 20,
      "a": 21,
      "b": 22,
      "c": 23,
      "d": 24,
      "e": 25,
      "f": 26,
      "g": 27,
      "h": 28,
      "i": 29,
      "j": 30,
      "k": 31,
      "l": 32,
      "m": 33,
      "n": 34,
      "o": 35,
      "p": 36,
      "q": 37,
      "r": 38,
      "s": 39,
      "t": 40,
      "u": 41,
      "v": 42,
      "w": 43,
      "x": 44,
      "y": 45,
      "z": 46,
      "Ċ": 47,
      "Ġ": 48,
      "Ġt": 49,
      "Ġa": 50,
      "he": 51,
      "in": 52,
      "Ġthe": 53,
      "Ġ.": 54,
      "Ġs": 55,
      "Ġo": 56,
      "er": 57,
      "Ġw": 58,
      "re": 59,
      "is": 60,
      "Ġc": 61,
      "Ġ,": 62,
      "on": 63,
      "an": 64,
      "Ġb": 65,
      "Ġf": 66,
      "ed": 67,
      "Ġp": 68,
      "it": 69,
      "en": 70,
      "Ġin": 71,
      "Ġm": 72,
      "or": 73,
      "at": 74,
      "es": 75,
      "al": 76,
      "ar": 77,
      "Ġof": 78,
      "Ġan": 79,
      "as": 80,
      "Ġ1": 81,
      "Ġd": 82,
      "ro": 83,
      "Ġh": 84,
      "Ġand": 85,
      "Ġ0": 86,
      "Ġl": 87,
      "Ġis": 88,
      "ic": 89,
      "Ġn": 90,
      "Ġ2": 91,
      "Ġto": 92,
      "ing": 93,
      "ion": 94,
      "le": 95,
      "us": 96,
      "Ġg": 97,
      "Ġth": 98,
      "un": 99,
      "am": 100,
      "Ġ9": 101,
      "Ġe": 102,
      "ent": 103,
      "Ġwas": 104,
      "om": 105,
      "il": 106,
      "Ġit": 107,
      "Ġon": 108,
      "Ġre": 109,
      "Ġbe": 110,
      "the": 111,
      "Ġhe": 112,
      "ut": 113,
      "ad": 114,
      "ur": 115,
      "Ġfor": 116,
      "ve": 117,
      "ol": 118,
      "ct": 119,
      "Ġst": 120,
      "st": 121,
      "ay": 122,
      "id": 123,
      "ver": 124,
      "ĠĠ": 125,
      "ot": 126,
      "ly": 127,
      "et": 128,
      "ce": 129,
      "im": 130,
      "Ġal": 131,
      "ow": 132,
      "ch": 133,
      "ir": 134,
      "Ġ-": 135,
      "Ġas": 136,
      "ig": 137,
      "ation": 138,
      "Ġ\"": 139,
      "Ġfro": 140,
      "Ġare": 141,
      "ter": 142,
      "Ġr": 143,
      "Ġj": 144,
      "Ġ8": 145,
      "el": 146,
      "ul": 147,
      "Ġmo": 148,
      "Ġk": 149,
      "Ġch": 150,
      "op": 151,
      "Ġby": 152,
      "Ġ)": 153,
      "Ġ(": 154,
      "um": 155,
      "and": 156,
      "Ġor": 157,
      "Ġthat": 158,
      "Ġse": 159,
      "Ġ3": 160,
      "Ġ'": 161,
      "Ġfrom": 162,
      "Ġ5": 163,
      "Ġwh": 164,
      "ith": 165,
      "Ġ7": 166,
      "art": 167,
      "Ġde": 168,
      "ber": 169,
      "Ġ4": 170,
      "Ġ6": 171,
      "Ġat": 172,
      "ist": 173,
      "all": 174,
      "Ġpl": 175,
      "Ġwith": 176,
      "ag": 177,
      "if": 178,
      "ies": 179,
      "Ġcom": 180,
      "Ġv": 181,
      "ac": 182,
      "em": 183,
      "ain": 184,
      "ia": 185,
      "Ġun": 186,
      "est": 187,
      "os": 188,
      "Ġus": 189,
      "iv": 190,
      "ers": 191,
      "Ġcon": 192,
      "Ġco": 193,
      "Ġne": 194,
      "Ġpro": 195,
      "ther": 196,
      "Ġy": 197,
      "so": 198,
      "ak": 199,
      "ap": 200,
      "th": 201,
      "up": 202,
      "ame": 203,
      "Ġthey": 204,
      "Ġwor": 205,
      "res": 206,
      "ian": 207,
      "Ġfo": 208,
      "od": 209,
      "ill": 210,
      "ug": 211,
      "Ġsp": 212,
      "Ġle": 213,
      "Ġso": 214,
      "Ġcan": 215,
      "ave": 216,
      "Ġhas": 217,
      "ate": 218,
      "ity": 219,
      "Ġhis": 220,
      "tr": 221,
      "Ġalso": 222,
      "ud": 223,
      "igh": 224,
      "Ġthis": 225,
      "Ġen": 226,
      "Ġsh": 227,
      "Ġpe": 228,
      "und": 229,
      "ong": 230,
      "Ġnot": 231,
      "Ġro": 232,
      "ich": 233,
      "ub": 234,
      "ld": 235,
      "Ġtr": 236,
      "ary": 237,
      "ie": 238,
      "ive": 239,
      "ople": 240,
      "ant": 241,
      "ard": 242,
      "ip": 243,
      "ang": 244,
      "Ġhave": 245,
      "ome": 246,
      "Ġpeople": 247,
      "ab": 248,
      "ear": 249,
      "any": 250,
      "ort": 251,
      "Ġte": 252,
      "ment": 253,
      "ere": 254,
      "ish": 255,
      "Ġex": 256,
      "qu": 257,
      "Ġar": 258,
      "Ġpart": 259,
      "Ġab": 260,
      "ci": 261,
      "Ġplay": 262,
      "Ġone": 263,
      "Ġwhe": 264,
      "ess": 265,
      "Ġwere": 266,
      "orn": 267,
      "ast": 268,
      "Ġbec": 269,
      "ated": 270,
      "Ġwhich": 271,
      "Ġgo": 272,
      "ide": 273,
      "ied": 274,
      "Ġaf": 275,
      "land": 276,
      "se": 277,
      "rit": 278,
      "ight": 279,
      "Ġshe": 280,
      "own": 281,
      "Ġnew": 282,
      "Ġcomp": 283,
      "use": 284,
      "out": 285,
      "ade": 286,
      "Ġmar": 287,
      "ge": 288,
      "ally": 289,
      "ure": 290,
      "Ġother": 291,
      "iver": 292,
      "ine": 293,
      "Ġcl": 294,
      "ire": 295,
      "ok": 296,
      "ction": 297,
      "oc": 298,
      "ugh": 299,
      "Ġyear": 300,
      "ational": 301,
      "Ġ:": 302,
      "Ġused": 303,
      "Ġtheir": 304,
      "der": 305,
      "ack": 306,
      "ell": 307,
      "ater": 308,
      "ke": 309,
      "Ġtw": 310,
      "Ġbut": 311,
      "ren": 312,
      "ime": 313,
      "Ġkn": 314,
      "Ġpr": 315,
      "Ġcall": 316,
      "ical": 317,
      "Ġap": 318,
      "ond": 319,
      "ans": 320,
      "ore": 321,
      "Ġall": 322,
      "Ġthere": 323,
      "ree": 324,
      "og": 325,
      "Ġits": 326,
      "ect": 327,
      "amp": 328,
      "Ġmade": 329,
      "fer": 330,
      "Ġmany": 331,
      "Ġser": 332,
      "uc": 333,
      "Ġele": 334,
      "Ġborn": 335,
      "Ġworld": 336,
      "ib": 337,
      "Ġhad": 338,
      "Ġme": 339,
      "av": 340,
      "ice": 341,
      "Ġcalled": 342,
      "ust": 343,
      "Ġno": 344,
      "ue": 345,
      "Ġad": 346,
      "Ġwho": 347,
      "io": 348,
      "end": 349,
      "Ġcol": 350,
      "Ġsome": 351,
      "ace": 352,
      "ased": 353,
      "Ġmost": 354,
      "age": 355,
      "pt": 356,
      "Ġafter": 357,
      "ric": 358,
      "ass": 359,
      "iz": 360,
      "Ġcomm": 361,
      "Ġbo": 362,
      "cl": 363,
      "ions": 364,
      "Ġag": 365,
      "Ġgro": 366,
      "Ġtwo": 367,
      "Ġrep": 368,
      "one": 369,
      "Ġdo": 370,
      "Ġabout": 371,
      "Ġcoun": 372,
      "Ġnor": 373,
      "are": 374,
      "erm": 375,
      "Ġfrog": 376,
      "Ġher": 377,
      "tern": 378,
      "Ġmay": 379,
      "per": 380,
      "mer": 381,
      "ra": 382,
      "Ġver": 383,
      "ake": 384,
      "Ġfe": 385,
      "Ġind": 386,
      "Ġknown": 387,
      "act": 388,
      "ach": 389,
      "Ġbeen": 390,
      "Ġeng": 391,
      "Ġpres": 392,
      "Ġwhen": 393,
      "we": 394,
      "ord": 395,
      "ild": 396,
      "ial": 397,
      "pe": 398,
      "her": 399,
      "ivers": 400,
      "ause": 401,
      "Ġmov": 402,
      "Ġnational": 403,
      "ts": 404,
      "to": 405,
      "Ġnum": 406,
      "Ġli": 407,
      "Ġwork": 408,
      "Ġspe": 409,
      "ten": 410,
      "ory": 411,
      "Ġtime": 412,
      "uary": 413,
      "uld": 414,
      "Ġteam": 415,
      "ubl": 416,
      "Ġdis": 417,
      "Ġnumber": 418,
      "uth": 419,
      "te": 420,
      "mber": 421,
      "aw": 422,
      "Ġcent": 423,
      "Ġrele": 424,
      "ign": 425,
      "ustr": 426,
      "Ġac": 427,
      "Ġmore": 428,
      "Ġsy": 429,
      "Ġstud": 430,
      "uch": 431,
      "Ġsc": 432,
      "ident": 433,
      "Ġpar": 434,
      "Ġdif": 435,
      "ings": 436,
      "hed": 437,
      "Ġunivers": 438,
      "ance": 439,
      "ics": 440,
      "Ġbr": 441,
      "Ġfr": 442,
      "ult": 443,
      "Ġfl": 444,
      "ence": 445,
      "Ġup": 446,
      "ember": 447,
      "port": 448,
      "Ġfir": 449,
      "ind": 450,
      "ince": 451,
      "Ġpol": 452,
      "Ġgr": 453,
      "Ġim": 454,
      "vern": 455,
      "Ġbet": 456,
      "Ġout": 457,
      "Ġliv": 458,
      "Ġsec": 459,
      "wn": 460,
      "Ġoff": 461,
      "Ġbl": 462,
      "Ġev": 463,
      "Ġfirst": 464,
      "ward": 465,
      "oun": 466,
      "Ġcountr": 467,
      "uring": 468,
      "les": 469,
      "Ġbecause": 470,
      "Ġgovern": 471,
      "ball": 472,
      "Ġwe": 473,
      "Ġres": 474,
      "vel": 475,
      "Ġlo": 476,
      "ry": 477,
      "Ġho": 478,
      "Ġuniversity": 479,
      "Ġact": 480,
      "ite": 481,
      "ations": 482,
      "Ġdiffer": 483,
      "Ġmus": 484,
      "Ġyears": 485,
      "Ġgen": 486,
      "Ġjo": 487,
      "Ġper": 488,
      "ath": 489,
      "orm": 490,
      "Ġonly": 491,
      "Ġrec": 492,
      "Ġreleased": 493,
      "Ġsong": 494,
      "urn": 495,
      "Ġmin": 496,
      "Ġalb": 497,
      "ition": 498,
      "Ġcont": 499,
      "ays": 500,
      "Ġwar": 501,
      "Ġthem": 502,
      "Ġcar": 503,
      "Ġi": 504,
      "Ġph": 505,
      "Ġpo": 506,
      "ks": 507,
      "ail": 508,
      "als": 509,
      "mp": 510,
      "Ġfound": 511,
      "Ġaustr": 512,
      "imes": 513,
      "clud": 514,
      "Ġstate": 515,
      "gan": 516,
      "Ġbu": 517,
      "Ġlike": 518,
      "Ġform": 519,
      "br": 520,
      "Ġlar": 521,
      "Ġinclud": 522,
      "ween": 523,
      "Ġqu": 524,
      "Ġdifferent": 525,
      "Ġstart": 526,
      "Ġwo": 527,
      "Ġinto": 528,
      "Ġalbum": 529,
      "Ġsing": 530,
      "Ġover": 531,
      "ames": 532,
      "Ġgre": 533,
      "ose": 534,
      "Ġmet": 535,
      "Ġsm": 536,
      "Ġcre": 537,
      "Ġbetween": 538,
      "ase": 539,
      "Ġgroup": 540,
      "Ġwhere": 541,
      "Ġthan": 542,
      "Ġsouth": 543,
      "Ġwill": 544,
      "Ġbro": 545,
      "Ġdied": 546,
      "old": 547,
      "Ġthese": 548,
      "Ġman": 549,
      "ors": 550,
      "Ġfam": 551,
      "Ġreg": 552,
      "ons": 553,
      "Ġpre": 554,
      "Ġhow": 555,
      "Ġend": 556,
      "Ġpop": 557,
      "ists": 558,
      "Ġplayed": 559,
      "Ġfoot": 560,
      "ved": 561,
      "ix": 562,
      "ous": 563,
      "ft": 564,
      "Ġbecame": 565,
      "pen": 566,
      "Ġpresident": 567,
      "Ġu": 568,
      "Ġsch": 569,
      "ep": 570,
      "Ġlong": 571,
      "hip": 572,
      "ents": 573,
      "Ġname": 574,
      "Ġvery": 575,
      "Ġapp": 576,
      "Ġduring": 577,
      "Ġshow": 578,
      "Ġmed": 579,
      "ublic": 580,
      "ict": 581,
      "Ġelect": 582,
      "Ġaward": 583,
      "Ġpers": 584,
      "Ġgame": 585,
      "ually": 586,
      "Ġking": 587,
      "omet": 588,
      "Ġbel": 589,
      "ced": 590,
      "ces": 591,
      "man": 592,
      "ision": 593,
      "Ġfootball": 594,
      "ne": 595,
      "ile": 596,
      "Ġmusic": 597,
      "Ġsa": 598,
      "Ġnorth": 599,
      "ale": 600,
      "Ġthree": 601,
      "Ġwrit": 602,
      "ular": 603,
      "Ġsecond": 604,
      "Ġsup": 605,
      "ough": 606,
      "sion": 607,
      "Ġjan": 608,
      "ff": 609,
      "Ġaustral": 610,
      "ool": 611,
      "Ġchang": 612,
      "Ġchar": 613,
      "form": 614,
      "fore": 615,
      "Ġseries": 616,
      "Ġmake": 617,
      "tain": 618,
      "uro": 619,
      "Ġbrit": 620,
      "ton": 621,
      "Ġgovernment": 622,
      "Ġmon": 623,
      "Ġmain": 624,
      "Ġlang": 625,
      "ited": 626,
      "Ġ;": 627,
      "Ġwon": 628,
      "Ġdr": 629,
      "Ġrel": 630,
      "cient": 631,
      "Ġdes": 632,
      "Ġfour": 633,
      "Ġwater": 634,
      "une": 635,
      "til": 636,
      "Ġdist": 637,
      "apan": 638,
      "Ġlangu": 639,
      "rest": 640,
      "che": 641,
      "Ġjanuary": 642,
      "ick": 643,
      "cial": 644,
      "oth": 645,
      "Ġuse": 646,
      "ates": 647,
      "Ġz": 648,
      "Ġperson": 649,
      "Ġunder": 650,
      "Ġstr": 651,
      "Ġwould": 652,
      "Ġjapan": 653,
      "Ġsame": 654,
      "Ġsuch": 655,
      "Ġmovie": 656,
      "Ġoften": 657,
      "ife": 658,
      "Ġeuro": 659,
      "Ġagain": 660,
      "Ġold": 661,
      "Ġlater": 662,
      "Ġschool": 663,
      "eral": 664,
      "ork": 665,
      "able": 666,
      "low": 667,
      "Ġwom": 668,
      "Ġam": 669,
      "ily": 670,
      "Ġfin": 671,
      "Ġsmall": 672,
      "Ġchild": 673,
      "Ġuntil": 674,
      "cess": 675,
      "Ġed": 676,
      "Ġintern": 677,
      "Ġprod": 678,
      "way": 679,
      "stem": 680,
      "Ġmarch": 681,
      "ister": 682,
      "Ġair": 683,
      "Ġgerm": 684,
      "olog": 685,
      "int": 686,
      "ative": 687,
      "Ġma": 688,
      "Ġif": 689,
      "lish": 690,
      "Ġsystem": 691,
      "Ġdep": 692,
      "Ġmat": 693,
      "amed": 694,
      "ium": 695,
      "ck": 696,
      "Ġcal": 697,
      "Ġsomet": 698,
      "Ġear": 699,
      "Ġann": 700,
      "round": 701,
      "Ġthen": 702,
      "Ġsept": 703,
      "co": 704,
      "Ġthro": 705,
      "Ġusually": 706,
      "Ġhigh": 707,
      "ina": 708,
      "ines": 709,
      "Ġbest": 710,
      "ished": 711,
      "vember": 712,
      "Ġbook": 713,
      "Ġhel": 714,
      "Ġju": 715,
      "Ġseptember": 716,
      "Ġnovember": 717,
      "ph": 718,
      "Ġsince": 719,
      "Ġoct": 720,
      "ism": 721,
      "ury": 722,
      "Ġeurope": 723,
      "ens": 724,
      "Ġchamp": 725,
      "ĠĊ": 726,
      "Ġsw": 727,
      "Ġprov": 728,
      "Ġcity": 729,
      "Ġdece": 730,
      "Ġcons": 731,
      "Ġaug": 732,
      "Ġlaw": 733,
      "bo": 734,
      "Ġenglish": 735,
      "Ġbefore": 736,
      "Ġget": 737,
      "Ġdecember": 738,
      "ober": 739,
      "Ġgu": 740,
      "ird": 741,
      "Ġparty": 742,
      "Ġjune": 743,
      "Ġcommon": 744,
      "lo": 745,
      "Ġisland": 746,
      "Ġoctober": 747,
      "Ġaugust": 748,
      "Ġbritish": 749,
      "ower": 750,
      "ier": 751,
      "Ġche": 752,
      "Ġsim": 753,
      "Ġeach": 754,
      "Ġplace": 755,
      "Ġstarted": 756,
      "Ġloc": 757,
      "ys": 758,
      "Ġbeing": 759,
      "Ġatt": 760,
      "Ġgames": 761,
      "ress": 762,
      "Ġsub": 763,
      "Ġexamp": 764,
      "Ġcountry": 765,
      "Ġhum": 766,
      "Ġhist": 767,
      "Ġarea": 768,
      "Ġjuly": 769,
      "ional": 770,
      "Ġspec": 771,
      "Ġever": 772,
      "ll": 773,
      "air": 774,
      "Ġlive": 775,
      "cer": 776,
      "Ġelection": 777,
      "iam": 778,
      "Ġthrough": 779,
      "ants": 780,
      "Ġlead": 781,
      "ril": 782,
      "Ġlives": 783,
      "ms": 784,
      "Ġinst": 785,
      "Ġfol": 786,
      "ody": 787,
      "pl": 788,
      "ason": 789,
      "Ġart": 790,
      "Ġday": 791,
      "Ġtele": 792,
      "gr": 793,
      "ger": 794,
      "mo": 795,
      "Ġret": 796,
      "ific": 797,
      "Ġwomen": 798,
      "Ġrecord": 799,
      "Ġoffic": 800,
      "ature": 801,
      "gest": 802,
      "Ġmarr": 803,
      "Ġapril": 804,
      "ague": 805,
      "son": 806,
      "Ġany": 807,
      "Ġdiv": 808,
      "Ġwell": 809,
      "Ġwin": 810,
      "ather": 811,
      "Ġmak": 812,
      "Ġcountries": 813,
      "ann": 814,
      "igin": 815,
      "Ġca": 816,
      "Ġback": 817,
      "Ġword": 818,
      "ank": 819,
      "bruary": 820,
      "Ġcolle": 821,
      "uct": 822,
      "Ġhim": 823,
      "Ġcr": 824,
      "ink": 825,
      "Ġfebruary": 826,
      "Ġdec": 827,
      "Ġterm": 828,
      "Ġengland": 829,
      "Ġanim": 830,
      "Ġway": 831,
      "thern": 832,
      "Ġboth": 833,
      "Ġsur": 834,
      "ures": 835,
      "Ġnamed": 836,
      "Ġplayer": 837,
      "ever": 838,
      "Ġcur": 839,
      "vision": 840,
      "ual": 841,
      "Ġinternational": 842,
      "Ġprof": 843,
      "Ġset": 844,
      "Ġdeath": 845,
      "Ġpolit": 846,
      "Ġent": 847,
      "Ġfamily": 848,
      "Ġpos": 849,
      "Ġunited": 850,
      "dom": 851,
      "ica": 852,
      "az": 853,
      "ution": 854,
      "Ġchildren": 855,
      "Ġsaid": 856,
      "Ġorigin": 857,
      "Ġfollow": 858,
      "uss": 859,
      "Ġimport": 860,
      "ious": 861,
      "Ġcanad": 862,
      "Ġwest": 863,
      "Ġbuild": 864,
      "Ġrun": 865,
      "Ġgiv": 866,
      "lymp": 867,
      "Ġolymp": 868,
      "iel": 869,
      "Ġob": 870,
      "iss": 871,
      "Ġvide": 872,
      "Ġleague": 873,
      "Ġhead": 874,
      "its": 875,
      "Ġlife": 876,
      "ages": 877,
      "Ġserv": 878,
      "Ġhelp": 879,
      "ley": 880,
      "Ġdef": 881,
      "Ġband": 882,
      "ah": 883,
      "Ġown": 884,
      "Ġchampions": 885,
      "Ġorgan": 886,
      "Ġconst": 887,
      "Ġstar": 888,
      "aces": 889,
      "ities": 890,
      "Ġtrans": 891,
      "Ġke": 892,
      "Ġexample": 893,
      "ject": 894,
      "Ġinv": 895,
      "rop": 896,
      "rent": 897,
      "Ġinter": 898,
      "Ġdid": 899,
      "Ġhouse": 900,
      "ood": 901,
      "Ġcompet": 902,
      "Ġhome": 903,
      "be": 904,
      "tle": 905,
      "ble": 906,
      "Ġyork": 907,
      "Ġsingle": 908,
      "Ġnear": 909,
      "Ġdire": 910,
      "ondon": 911,
      "Ġlarge": 912,
      "Ġbased": 913,
      "enn": 914,
      "Ġmember": 915,
      "Ġcreated": 916,
      "Ġsk": 917,
      "ating": 918,
      "Ġlondon": 919,
      "cientists": 920,
      "Ġnow": 921,
      "Ġsea": 922,
      "Ġimportant": 923,
      "other": 924,
      "Ġaround": 925,
      "Ġtelevision": 926,
      "Ġmeans": 927,
      "af": 928,
      "Ġir": 929,
      "ted": 930,
      "Ġmarried": 931,
      "ounced": 932,
      "Ġsum": 933,
      "Ġtre": 934,
      "red": 935,
      "ital": 936,
      "Ġkingdom": 937,
      "Ġfil": 938,
      "Ġlast": 939,
      "velop": 940,
      "Ġmil": 941,
      "ss": 942,
      "Ġprofess": 943,
      "Ġright": 944,
      "Ġleg": 945,
      "Ġminister": 946,
      "Ġaustralia": 947,
      "Ġlanguage": 948,
      "Ġopen": 949,
      "Ġtimes": 950,
      "Ġrepublic": 951,
      "cy": 952,
      "Ġvideo": 953,
      "Ġdevelop": 954,
      "Ġeast": 955,
      "Ġevery": 956,
      "Ġty": 957,
      "Ġformer": 958,
      "ane": 959,
      "Ġagainst": 960,
      "ral": 961,
      "Ġchampionship": 962,
      "Ġclub": 963,
      "ters": 964,
      "Ġbus": 965,
      "Ġsometimes": 966,
      "hn": 967,
      "Ġsever": 968,
      "Ġbig": 969,
      "this": 970,
      "Ġbegan": 971,
      "ired": 972,
      "Ġspecies": 973,
      "ology": 974,
      "Ġhowever": 975,
      "Ġannounced": 976,
      "Ġseen": 977,
      "Ġcap": 978,
      "Ġyo": 979,
      "Ġdistric": 980,
      "Ġadd": 981,
      "day": 982,
      "Ġred": 983,
      "ins": 984,
      "Ġbody": 985,
      "Ġchr": 986,
      "cr": 987,
      "con": 988,
      "ning": 989,
      "Ġland": 990,
      "ural": 991,
      "Ġlevel": 992,
      "Ġdown": 993,
      "ven": 994,
      "ible": 995,
      "ise": 996,
      "Ġwent": 997,
      "ty": 998,
      "Ġeg": 999,
      "Ġriver": 1000,
      "Ġtak": 1001,
      "Ġmill": 1002,
      "Ġcompany": 1003,
      "there": 1004,
      "Ġpopular": 1005,
      "Ġthings": 1006,
      "ese": 1007,
      "Ġge": 1008,
      "iet": 1009,
      "Ġrepres": 1010,
      "me": 1011,
      "hing": 1012,
      "Ġass": 1013,
      "Ġkill": 1014,
      "Ġheld": 1015,
      "Ġseason": 1016,
      "Ġii": 1017,
      "ai": 1018,
      "Ġoper": 1019,
      "Ġarm": 1020,
      "Ġdirect": 1021,
      "Ġcentury": 1022,
      "ful": 1023,
      "hen": 1024,
      "Ġfar": 1025,
      "Ġmid": 1026,
      "Ġital": 1027,
      "Ġem": 1028,
      "Ġincluding": 1029,
      "ting": 1030,
      "Ġeas": 1031,
      "Ġrock": 1032,
      "hy": 1033,
      "Ġgood": 1034,
      "Ġsen": 1035,
      "ared": 1036,
      "Ġgeneral": 1037,
      "Ġseveral": 1038,
      "ark": 1039,
      "Ġgreat": 1040,
      "Ġacc": 1041,
      "atic": 1042,
      "alth": 1043,
      "Ġclass": 1044,
      "Ġhap": 1045,
      "Ġwritten": 1046,
      "xt": 1047,
      "Ġep": 1048,
      "Ġdem": 1049,
      "Ġpublic": 1050,
      "ik": 1051,
      "Ġmaj": 1052,
      "Ġbre": 1053,
      "ats": 1054,
      "Ġjust": 1055,
      "Ġcurrent": 1056,
      "Ġsign": 1057,
      "Ġcare": 1058,
      "Ġcaus": 1059,
      "Ġmembers": 1060,
      "urs": 1061,
      "Ġwal": 1062,
      "amm": 1063,
      "iew": 1064,
      "ash": 1065,
      "ows": 1066,
      "Ġcharact": 1067,
      "arth": 1068,
      "Ġtop": 1069,
      "Ġearly": 1070,
      "omin": 1071,
      "Ġwhat": 1072,
      "Ġpower": 1073,
      "estern": 1074,
      "Ġvar": 1075,
      "Ġsol": 1076,
      "ized": 1077,
      "ull": 1078,
      "Ġstre": 1079,
      "Ġthough": 1080,
      "Ġjohn": 1081,
      "cc": 1082,
      "osed": 1083,
      "Ġamer": 1084,
      "Ġx": 1085,
      "Ġlight": 1086,
      "Ġplaces": 1087,
      "Ġdoes": 1088,
      "by": 1089,
      "Ġanother": 1090,
      "Ġthird": 1091,
      "Ġcommun": 1092,
      "ams": 1093,
      "ket": 1094,
      "Ġsix": 1095,
      "ield": 1096,
      "Ġang": 1097,
      "Ġel": 1098,
      "Ġmoun": 1099,
      "Ġchur": 1100,
      "Ġhistory": 1101,
      "Ġhuman": 1102,
      "Ġsummer": 1103,
      "Ġstill": 1104,
      "fl": 1105,
      "Ġneed": 1106,
      "osp": 1107,
      "Ġmajor": 1108,
      "Ġregion": 1109,
      "Ġpubl": 1110,
      "Ġdistrict": 1111,
      "Ġmuch": 1112,
      "ians": 1113,
      "Ġcro": 1114,
      "Ġbar": 1115,
      "Ġcould": 1116,
      "Ġshort": 1117,
      "Ġstudio": 1118,
      "Ġgiven": 1119,
      "Ġsho": 1120,
      "ains": 1121,
      "vent": 1122,
      "Ġblack": 1123,
      "Ġscot": 1124,
      "Ġprot": 1125,
      "Ġlit": 1126,
      "Ġmove": 1127,
      "ute": 1128,
      "Ġchrist": 1129,
      "ilt": 1130,
      "Ġcup": 1131,
      "Ġprogr": 1132,
      "urt": 1133,
      "Ġwhite": 1134,
      "Ġparts": 1135,
      "Ġhar": 1136,
      "ined": 1137,
      "ling": 1138,
      "ison": 1139,
      "Ġwhile": 1140,
      "Ġrem": 1141,
      "Ġtit": 1142,
      "ived": 1143,
      "Ġlargest": 1144,
      "ches": 1145,
      "Ġcontro": 1146,
      "ax": 1147,
      "Ġleft": 1148,
      "Ġafric": 1149,
      "Ġsu": 1150,
      "Ġperform": 1151,
      "Ġruss": 1152,
      "Ġeven": 1153,
      "Ġfive": 1154,
      "sh": 1155,
      "bs": 1156,
      "ony": 1157,
      "ung": 1158,
      "Ġsou": 1159,
      "Ġpark": 1160,
      "Ġcor": 1161,
      "Ġamerica": 1162,
      "Ġhy": 1163,
      "iforn": 1164,
      "ove": 1165,
      "uction": 1166,
      "elf": 1167,
      "eng": 1168,
      "Ġbas": 1169,
      "Ġcaliforn": 1170,
      "Ġsport": 1171,
      "she": 1172,
      "Ġfem": 1173,
      "Ġter": 1174,
      "Ġpass": 1175,
      "Ġla": 1176,
      "rap": 1177,
      "Ġvol": 1178,
      "Ġyoun": 1179,
      "artment": 1180,
      "Ġindia": 1181,
      "Ġrepresent": 1182,
      "Ġline": 1183,
      "Ġcalifornia": 1184,
      "ize": 1185,
      "Ġinc": 1186,
      "Ġforest": 1187,
      "Ġval": 1188,
      "Ġcollege": 1189,
      "Ġhappen": 1190,
      "de": 1191,
      "Ġpa": 1192,
      "Ġphil": 1193,
      "ock": 1194,
      "Ġabove": 1195,
      "Ġyou": 1196,
      "Ġlook": 1197,
      "rench": 1198,
      "Ġwestern": 1199,
      "uced": 1200,
      "Ġemp": 1201,
      "Ġstation": 1202,
      "Ġearth": 1203,
      "cept": 1204,
      "Ġfrance": 1205,
      "Ġorder": 1206,
      "Ġprofessional": 1207,
      "Ġbelie": 1208,
      "Ġgermany": 1209,
      "ught": 1210,
      "Ġsl": 1211,
      "Ġuk": 1212,
      "Ġaustralian": 1213,
      "Ġgerman": 1214,
      "Ġbuilt": 1215,
      "Ġtook": 1216,
      "Ġscientists": 1217,
      "ew": 1218,
      "Ġevent": 1219,
      "ont": 1220,
      "Ġprovince": 1221,
      "ered": 1222,
      "side": 1223,
      "Ġliving": 1224,
      "Ġcer": 1225,
      "ator": 1226,
      "Ġmillion": 1227,
      "ets": 1228,
      "ner": 1229,
      "Ġfrench": 1230,
      "Ġhol": 1231,
      "Ġchurch": 1232,
      "Ġfamous": 1233,
      "Ġfilm": 1234,
      "ones": 1235,
      "gen": 1236,
      "Ġlot": 1237,
      "Ġrul": 1238,
      "let": 1239,
      "ster": 1240,
      "Ġtem": 1241,
      "Ġexp": 1242,
      "Ġattack": 1243,
      "ided": 1244,
      "Ġprime": 1245,
      "ae": 1246,
      "Ġspecial": 1247,
      "Ġdepartment": 1248,
      "Ġproble": 1249,
      "Ġcentral": 1250,
      "Ġchange": 1251,
      "Ġchem": 1252,
      "Ġpublished": 1253,
      "iod": 1254,
      "min": 1255,
      "ement": 1256,
      "Ġop": 1257,
      "Ġsee": 1258,
      "Ġrece": 1259,
      "Ġcomput": 1260,
      "gether": 1261,
      "Ġeuropean": 1262,
      "Ġmountain": 1263,
      "Ġrad": 1264,
      "Ġbecome": 1265,
      "ocr": 1266,
      "Ġsay": 1267,
      "most": 1268,
      "Ġsupport": 1269,
      "Ġsuc": 1270,
      "Ġaged": 1271,
      "ues": 1272,
      "Ġest": 1273,
      "Ġdeb": 1274,
      "aced": 1275,
      "Ġawards": 1276,
      "els": 1277,
      "key": 1278,
      "Ġrev": 1279,
      "Ġmen": 1280,
      "after": 1281,
      "Ġbat": 1282,
      "ying": 1283,
      "Ġsold": 1284,
      "Ġegg": 1285,
      "soci": 1286,
      "Ġfif": 1287,
      "ices": 1288,
      "Ġtogether": 1289,
      "Ġes": 1290,
      "urg": 1291,
      "Ġmean": 1292,
      "Ġmonth": 1293,
      "gin": 1294,
      "ilar": 1295,
      "Ġcontin": 1296,
      "Ġcamp": 1297,
      "Ġstand": 1298,
      "ama": 1299,
      "Ġput": 1300,
      "istan": 1301,
      "Ġtown": 1302,
      "Ġassoci": 1303,
      "Ġdesign": 1304,
      "led": 1305,
      "Ġsci": 1306,
      "erg": 1307,
      "ected": 1308,
      "Ġnorthern": 1309,
      "Ġide": 1310,
      "Ġmag": 1311,
      "ange": 1312,
      "ments": 1313,
      "Ġgrow": 1314,
      "Ġimp": 1315,
      "Ġthink": 1316,
      "Ġwant": 1317,
      "ases": 1318,
      "Ġhig": 1319,
      "Ġequ": 1320,
      "Ġversion": 1321,
      "Ġperiod": 1322,
      "na": 1323,
      "Ġav": 1324,
      "epend": 1325,
      "Ġgold": 1326,
      "Ġgovernor": 1327,
      "Ġlanguages": 1328,
      "Ġrepl": 1329,
      "Ġint": 1330,
      "Ġfew": 1331,
      "ron": 1332,
      "Ġcult": 1333,
      "Ġdemocr": 1334,
      "Ġlos": 1335,
      "Ġra": 1336,
      "Ġchina": 1337,
      "ney": 1338,
      "Ġsimilar": 1339,
      "Ġcame": 1340,
      "Ġolympics": 1341,
      "erv": 1342,
      "Ġnews": 1343,
      "Ġmoved": 1344,
      "Ġfollowing": 1345,
      "ulation": 1346,
      "Ġcolor": 1347,
      "Ġoffice": 1348,
      "Ġfounded": 1349,
      "Ġcomple": 1350,
      "Ġson": 1351,
      "Ġusing": 1352,
      "Ġparl": 1353,
      "ides": 1354,
      "Ġpolitical": 1355,
      "ised": 1356,
      "Ġstudied": 1357,
      "Ġmy": 1358,
      "Ġkind": 1359,
      "Ġworked": 1360,
      "Ġocc": 1361,
      "Ġque": 1362,
      "Ġvot": 1363,
      "oney": 1364,
      "Ġconstit": 1365,
      "Ġnat": 1366,
      "Ġindepend": 1367,
      "Ġrail": 1368,
      "Ġfun": 1369,
      "Ġpartic": 1370,
      "Ġparliam": 1371,
      "Ġcat": 1372,
      "ives": 1373,
      "Ġsocial": 1374,
      "Ġcanada": 1375,
      "Ġmass": 1376,
      "Ġunion": 1377,
      "Ġtyp": 1378,
      "Ġstop": 1379,
      "Ġfed": 1380,
      "Ġmaking": 1381,
      "Ġlist": 1382,
      "Ġanimals": 1383,
      "Ġparliament": 1384,
      "Ġwrest": 1385,
      "Ġnomin": 1386,
      "Ġtake": 1387,
      "ago": 1388,
      "Ġfood": 1389,
      "ories": 1390,
      "Ġfather": 1391,
      "Ġfrogs": 1392,
      "Ġroman": 1393,
      "Ġteams": 1394,
      "Ġfemale": 1395,
      "Ġsal": 1396,
      "Ġport": 1397,
      "Ġside": 1398,
      "ior": 1399,
      "adem": 1400,
      "ctions": 1401,
      "Ġbuilding": 1402,
      "Ġelected": 1403,
      "Ġlet": 1404,
      "ump": 1405,
      "Ġgener": 1406,
      "Ġofficial": 1407,
      "Ġpat": 1408,
      "Ġsound": 1409,
      "Ġtal": 1410,
      "Ġmod": 1411,
      "Ġvict": 1412,
      "rote": 1413,
      "Ġcond": 1414,
      "Ġgreen": 1415,
      "Ġwind": 1416,
      "Ġgod": 1417,
      "Ġrole": 1418,
      "ograp": 1419,
      "Ġinclude": 1420,
      "Ġaff": 1421,
      "Ġdise": 1422,
      "Ġyoung": 1423,
      "conom": 1424,
      "ret": 1425,
      "rom": 1426,
      "Ġtree": 1427,
      "Ġze": 1428,
      "Ġchanged": 1429,
      "Ġplants": 1430,
      "Ġvir": 1431,
      "Ġpal": 1432,
      "Ġcenter": 1433,
      "itary": 1434,
      "ham": 1435,
      "Ġhosp": 1436,
      "Ġeconom": 1437,
      "Ġfinal": 1438,
      "Ġwrote": 1439,
      "Ġgot": 1440,
      "Ġroy": 1441,
      "Ġoriginal": 1442,
      "Ġcharacter": 1443,
      "Ġconf": 1444,
      "Ġepis": 1445,
      "Ġeggs": 1446,
      "Ġbill": 1447,
      "Ġended": 1448,
      "Ġappear": 1449,
      "Ġref": 1450,
      "Ġlived": 1451,
      "ves": 1452,
      "Ġjapanese": 1453,
      "Ġmoder": 1454,
      "Ġground": 1455,
      "Ġdescr": 1456,
      "Ġnext": 1457,
      "Ġacadem": 1458,
      "sy": 1459,
      "Ġmust": 1460,
      "Ġstory": 1461,
      "tal": 1462,
      "Ġdays": 1463,
      "Ġeff": 1464,
      "Ġmoney": 1465,
      "Ġreal": 1466,
      "bert": 1467,
      "Ġarr": 1468,
      "Ġsent": 1469,
      "ode": 1470,
      "dle": 1471,
      "Ġmal": 1472,
      "Ġnet": 1473,
      "Ġthose": 1474,
      "idge": 1475,
      "Ġmovies": 1476,
      "Ġdi": 1477,
      "Ġve": 1478,
      "Ġrest": 1479,
      "Ġcover": 1480,
      "Ġafrica": 1481,
      "Ġvi": 1482,
      "Ġplays": 1483,
      "Ġcy": 1484,
      "Ġcourt": 1485,
      "Ġsuccess": 1486,
      "Ġstat": 1487,
      "uck": 1488,
      "aving": 1489,
      "Ġmakes": 1490,
      "Ġhealth": 1491,
      "Ġresp": 1492,
      "Ġkilled": 1493,
      "Ġtrad": 1494,
      "Ġchemical": 1495,
      "Ġspeak": 1496,
      "Ġhal": 1497,
      "Ġfree": 1498,
      "Ġlab": 1499,
      "Ġill": 1500,
      "ization": 1501,
      "Ġreturn": 1502,
      "ission": 1503,
      "Ġcaused": 1504,
      "Ġmeters": 1505,
      "Ġant": 1506,
      "chn": 1507,
      "Ġsym": 1508,
      "cil": 1509,
      "Ġfre": 1510,
      "Ġformed": 1511,
      "ple": 1512,
      "Ġplan": 1513,
      "ri": 1514,
      "Ġciv": 1515,
      "par": 1516,
      "Ġsouthern": 1517,
      "ford": 1518,
      "Ġbor": 1519,
      "Ġgroups": 1520,
      "our": 1521,
      "Ġhand": 1522,
      "Ġreceived": 1523,
      "Ġalong": 1524,
      "Ġkore": 1525,
      "anc": 1526,
      "aland": 1527,
      "Ġless": 1528,
      "Ġtest": 1529,
      "ald": 1530,
      "ler": 1531,
      "itions": 1532,
      "Ġbir": 1533,
      "Ġcareer": 1534,
      "ways": 1535,
      "Ġgl": 1536,
      "Ġmodern": 1537,
      "ille": 1538,
      "Ġservice": 1539,
      "ped": 1540,
      "ino": 1541,
      "Ġce": 1542,
      "aves": 1543,
      "inc": 1544,
      "Ġdue": 1545,
      "Ġarch": 1546,
      "when": 1547,
      "iness": 1548,
      "Ġvis": 1549,
      "Ġheart": 1550,
      "Ġcivil": 1551,
      "Ġdon": 1552,
      "ief": 1553,
      "Ġer": 1554,
      "ata": 1555,
      "Ġwithout": 1556,
      "Ġislands": 1557,
      "ored": 1558,
      "Ġscience": 1559,
      "Ġgrand": 1560,
      "Ġgeor": 1561,
      "aster": 1562,
      "Ġda": 1563,
      "Ġhard": 1564,
      "Ġste": 1565,
      "Ġdescrib": 1566,
      "ival": 1567,
      "Ġworks": 1568,
      "Ġdebut": 1569,
      "Ġzealand": 1570,
      "ness": 1571,
      "ids": 1572,
      "Ġwee": 1573,
      "Ġrelig": 1574,
      "Ġroyal": 1575,
      "Ġleader": 1576,
      "lands": 1577,
      "raft": 1578,
      "Ġmiddle": 1579,
      "read": 1580,
      "Ġmot": 1581,
      "Ġhot": 1582,
      "Ġcanadian": 1583,
      "Ġmilitary": 1584,
      "anger": 1585,
      "Ġpet": 1586,
      "yn": 1587,
      "Ġdel": 1588,
      "Ġenter": 1589,
      "ula": 1590,
      "Ġpresent": 1591,
      "Ġsongs": 1592,
      "Ġarmy": 1593,
      "Ġhospital": 1594,
      "ho": 1595,
      "Ġox": 1596,
      "lect": 1597,
      "Ġmostly": 1598,
      "Ġlat": 1599,
      "Ġothers": 1600,
      "Ġmanag": 1601,
      "ape": 1602,
      "Ġbooks": 1603,
      "Ġitaly": 1604,
      "Ġtechn": 1605,
      "Ġpopulation": 1606,
      "Ġshows": 1607,
      "Ġcrit": 1608,
      "Ġthought": 1609,
      "ec": 1610,
      "ls": 1611,
      "ified": 1612,
      "Ġsun": 1613,
      "ana": 1614,
      "rod": 1615,
      "Ġspace": 1616,
      "Ġcouncil": 1617,
      "Ġpain": 1618,
      "adu": 1619,
      "Ġnatural": 1620,
      "por": 1621,
      "Ġsqu": 1622,
      "Ġaway": 1623,
      "Ġfield": 1624,
      "Ġdone": 1625,
      "Ġallow": 1626,
      "raz": 1627,
      "Ġpoint": 1628,
      "ament": 1629,
      "ured": 1630,
      "Ġforests": 1631,
      "Ġtotal": 1632,
      "Ġcomputer": 1633,
      "ene": 1634,
      "some": 1635,
      "Ġhon": 1636,
      "Ġeduc": 1637,
      "Ġterrit": 1638,
      "ility": 1639,
      "istr": 1640,
      "Ġdisease": 1641,
      "Ġstates": 1642,
      "Ġareas": 1643,
      "Ġpost": 1644,
      "Ġmother": 1645,
      "ued": 1646,
      "Ġrefer": 1647,
      "Ġaut": 1648,
      "Ġcomes": 1649,
      "Ġphys": 1650,
      "Ġdet": 1651,
      "Ġmult": 1652,
      "Ġsports": 1653,
      "Ġturn": 1654,
      "Ġindian": 1655,
      "ov": 1656,
      "Ġbad": 1657,
      "ars": 1658,
      "Ġreport": 1659,
      "Ġhistor": 1660,
      "pos": 1661,
      "Ġgree": 1662,
      "Ġfind": 1663,
      "Ġknow": 1664,
      "not": 1665,
      "Ġsuper": 1666,
      "Ġlost": 1667,
      "Ġmale": 1668,
      "Ġext": 1669,
      "Ġsex": 1670,
      "Ġlocal": 1671,
      "ences": 1672,
      "Ġtour": 1673,
      "Ġtypes": 1674,
      "aper": 1675,
      "Ġobject": 1676,
      "Ġbroad": 1677,
      "Ġconsid": 1678,
      "Ġeastern": 1679,
      "Ġinform": 1680,
      "Ġwords": 1681,
      "ency": 1682,
      "Ġproblems": 1683,
      "Ġempire": 1684,
      "Ġtoo": 1685,
      "Ġchic": 1686,
      "umb": 1687,
      "Ġcoast": 1688,
      "Ġacademy": 1689,
      "Ġposs": 1690,
      "Ġolympic": 1691,
      "Ġire": 1692,
      "Ġcancer": 1693,
      "ead": 1694,
      "olution": 1695,
      "Ġadv": 1696,
      "Ġroad": 1697,
      "Ġsomething": 1698,
      "Ġcop": 1699,
      "Ġinf": 1700,
      "Ġsinger": 1701,
      "oms": 1702,
      "que": 1703,
      "Ġadmin": 1704,
      "Ġfact": 1705,
      "Ġcome": 1706,
      "ends": 1707,
      "ked": 1708,
      "Ġsn": 1709,
      "arch": 1710,
      "Ġnever": 1711,
      "Ġlim": 1712,
      "Ġlocated": 1713,
      "Ġpak": 1714,
      "Ġappe": 1715,
      "Ġstrong": 1716,
      "Ġproduced": 1717,
      "hes": 1718,
      "Ġcompeted": 1719,
      "hem": 1720,
      "Ġsecret": 1721,
      "Ġresear": 1722,
      "Ġbird": 1723,
      "burg": 1724,
      "xic": 1725,
      "Ġireland": 1726,
      "Ġgir": 1727,
      "Ġtaken": 1728,
      "Ġbi": 1729,
      "Ġprocess": 1730,
      "ially": 1731,
      "Ġchann": 1732,
      "ipp": 1733,
      "Ġexpl": 1734,
      "Ġbusiness": 1735,
      "Ġcam": 1736,
      "Ġtoday": 1737,
      "Ġcontr": 1738,
      "Ġcell": 1739,
      "Ġdanger": 1740,
      "Ġtrain": 1741,
      "Ġnon": 1742,
      "Ġplaying": 1743,
      "Ġserved": 1744,
      "Ġflag": 1745,
      "Ġoce": 1746,
      "Ġindustr": 1747,
      "ergy": 1748,
      "for": 1749,
      "Ġcong": 1750,
      "au": 1751,
      "Ġchicago": 1752,
      "Ġrights": 1753,
      "Ġangel": 1754,
      "yle": 1755,
      "ects": 1756,
      "ba": 1757,
      "ey": 1758,
      "work": 1759,
      "Ġdead": 1760,
      "Ġcommit": 1761,
      "ots": 1762,
      "Ġbur": 1763,
      "Ġcand": 1764,
      "Ġhit": 1765,
      "ety": 1766,
      "Ġplayers": 1767,
      "Ġfall": 1768,
      "line": 1769,
      "Ġtitle": 1770,
      "ze": 1771,
      "Ġfire": 1772,
      "Ġnight": 1773,
      "Ġblue": 1774,
      "Ġdeveloped": 1775,
      "ched": 1776,
      "Ġsil": 1777,
      "Ġhost": 1778,
      "Ġdev": 1779,
      "Ġlow": 1780,
      "Ġten": 1781,
      "Ġber": 1782,
      "Ġlate": 1783,
      "Ġassociation": 1784,
      "Ġincludes": 1785,
      "Ġdaugh": 1786,
      "Ġevents": 1787,
      "Ġinstead": 1788,
      "ended": 1789,
      "ma": 1790,
      "arn": 1791,
      "Ġchart": 1792,
      "Ġshould": 1793,
      "Ġbase": 1794,
      "Ġmic": 1795,
      "eth": 1796,
      "Ġjud": 1797,
      "Ġvo": 1798,
      "Ġtrack": 1799,
      "Ġprim": 1800,
      "Ġbrother": 1801,
      "bc": 1802,
      "med": 1803,
      "Ġprogram": 1804,
      "lor": 1805,
      "Ġdivision": 1806,
      "Ġjew": 1807,
      "emb": 1808,
      "ieved": 1809,
      "ount": 1810,
      "ike": 1811,
      "Ġview": 1812,
      "Ġnumbers": 1813,
      "cle": 1814,
      "Ġeat": 1815,
      "Ġdeg": 1816,
      "Ġsit": 1817,
      "Ġuses": 1818,
      "Ġengine": 1819,
      "Ġconn": 1820,
      "Ġenergy": 1821,
      "anch": 1822,
      "Ġtemper": 1823,
      "Ġsoci": 1824,
      "Ġadministr": 1825,
      "Ġaver": 1826,
      "Ġtrave": 1827,
      "Ġfri": 1828,
      "Ġwood": 1829,
      "Ġprem": 1830,
      "Ġradio": 1831,
      "Ġpakistan": 1832,
      "Ġauth": 1833,
      "Ġclose": 1834,
      "Ġath": 1835,
      "Ġexper": 1836,
      "Ġround": 1837,
      "ogn": 1838,
      "Ġmedal": 1839,
      "Ġlittle": 1840,
      "cast": 1841,
      "Ġhall": 1842,
      "Ġled": 1843,
      "avy": 1844,
      "Ġqual": 1845,
      "Ġinformation": 1846,
      "lin": 1847,
      "ule": 1848,
      "Ġretired": 1849,
      "Ġhalf": 1850,
      "ockey": 1851,
      "Ġfourth": 1852,
      "Ġcurrently": 1853,
      "Ġbirth": 1854,
      "ances": 1855,
      "Ġbrown": 1856,
      "Ġwales": 1857,
      "Ġseven": 1858,
      "Ġsepar": 1859,
      "Ġpict": 1860,
      "Ġstudy": 1861,
      "Ġopened": 1862,
      "Ġcir": 1863,
      "Ġcut": 1864,
      "Ġelectric": 1865,
      "ring": 1866,
      "hest": 1867,
      "lic": 1868,
      "zer": 1869,
      "Ġpur": 1870,
      "Ġhockey": 1871,
      "Ġstudents": 1872,
      "Ġrecogn": 1873,
      "Ġwat": 1874,
      "ument": 1875,
      "here": 1876,
      "Ġpie": 1877,
      "Ġforce": 1878,
      "Ġdisco": 1879,
      "Ġwide": 1880,
      "olic": 1881,
      "Ġbeh": 1882,
      "Ġexec": 1883,
      "Ġmight": 1884,
      "Ġaverage": 1885,
      "ither": 1886,
      "Ġmatch": 1887,
      "Ġmuse": 1888,
      "Ġretr": 1889,
      "Ġtv": 1890,
      "Ġsat": 1891,
      "Ġread": 1892,
      "Ġocean": 1893,
      "Ġcath": 1894,
      "cus": 1895,
      "Ġnorm": 1896,
      "asons": 1897,
      "Ġeight": 1898,
      "Ġcontrol": 1899,
      "Ġfight": 1900,
      "Ġdam": 1901,
      "Ġdoct": 1902,
      "Ġsan": 1903,
      "Ġonce": 1904,
      "Ġasia": 1905,
      "Ġvill": 1906,
      "sc": 1907,
      "Ġmuseum": 1908,
      "Ġpay": 1909,
      "razil": 1910,
      "Ġdemocratic": 1911,
      "Ġwrestling": 1912,
      "Ġstreet": 1913,
      "Ġindependent": 1914,
      "Ġgal": 1915,
      "Ġprison": 1916,
      "Ġdirector": 1917,
      "Ġtur": 1918,
      "isl": 1919,
      "Ġgradu": 1920,
      "Ġactiv": 1921,
      "Ġmedia": 1922,
      "Ġtreat": 1923,
      "ky": 1924,
      "ming": 1925,
      "Ġcast": 1926,
      "Ġbrazil": 1927,
      "Ġitalian": 1928,
      "Ġhighest": 1929,
      "Ġresearch": 1930,
      "Ġmix": 1931,
      "Ġcause": 1932,
      "Ġshown": 1933,
      "Ġactor": 1934,
      "Ġwilliam": 1935,
      "rain": 1936,
      "Ġhold": 1937,
      "Ġhaving": 1938,
      "Ġrich": 1939,
      "Ġplat": 1940,
      "Ġappeared": 1941,
      "Ġins": 1942,
      "Ġpress": 1943,
      "Ġcandid": 1944,
      "Ġleast": 1945,
      "Ġconsidered": 1946,
      "ander": 1947,
      "acy": 1948,
      "cially": 1949,
      "ellow": 1950,
      "Ġscotland": 1951,
      "oint": 1952,
      "Ġmem": 1953,
      "Ġworking": 1954,
      "Ġchannel": 1955,
      "Ġfish": 1956,
      "Ġcle": 1957,
      "Ġinstit": 1958,
      "Ġancient": 1959,
      "ades": 1960,
      "ropical": 1961,
      "Ġretrieved": 1962,
      "Ġmater": 1963,
      "oles": 1964,
      "Ġjoined": 1965,
      "Ġcross": 1966,
      "Ġwife": 1967,
      "Ġhill": 1968,
      "Ġspok": 1969,
      "Ġposition": 1970,
      "Ġinfl": 1971,
      "Ġmich": 1972,
      "Ġplant": 1973,
      "Ġpolice": 1974,
      "Ġchanges": 1975,
      "Ġfederal": 1976,
      "Ġkeep": 1977,
      "Ġtell": 1978,
      "viet": 1979,
      "Ġarg": 1980,
      "Ġcard": 1981,
      "Ġdig": 1982,
      "Ġfull": 1983,
      "Ġadult": 1984,
      "Ġsomeone": 1985,
      "Ġchristian": 1986,
      "during": 1987,
      "Ġey": 1988,
      "Ġstarting": 1989,
      "Ġcertain": 1990,
      "Ġreplaced": 1991,
      "Ġdiscover": 1992,
      "Ġresult": 1993,
      "Ġmountains": 1994,
      "Ġcase": 1995,
      "ges": 1996,
      "anish": 1997,
      "itive": 1998,
      "rael": 1999,
      "Ġepisode": 2000,
      "Ġalmost": 2001,
      "Ġsoviet": 2002,
      "Ġestab": 2003,
      "Ġhor": 2004,
      "Ġprom": 2005,
      "Ġrelated": 2006,
      "ically": 2007,
      "Ġscott": 2008,
      "Ġnations": 2009,
      "omb": 2010,
      "board": 2011,
      "uce": 2012,
      "Ġauthor": 2013,
      "aff": 2014,
      "ux": 2015,
      "ician": 2016,
      "Ġarab": 2017,
      "ained": 2018,
      "Ġsenate": 2019,
      "Ġlaws": 2020,
      "Ġassemb": 2021,
      "Ġconcer": 2022,
      "Ġnominated": 2023,
      "scientists": 2024,
      "Ġden": 2025,
      "Ġeither": 2026,
      "Ġrussian": 2027,
      "Ġrules": 2028,
      "Ġtradition": 2029,
      "Ġtro": 2030,
      "Ġhur": 2031,
      "Ġproper": 2032,
      "Ġmeas": 2033,
      "Ġdevelopment": 2034,
      "many": 2035,
      "Ġchampionships": 2036,
      "uis": 2037,
      "Ġur": 2038,
      "han": 2039,
      "Ġrace": 2040,
      "dro": 2041,
      "uit": 2042,
      "Ġmainly": 2043,
      "Ġnetwork": 2044,
      "Ġangeles": 2045,
      "ints": 2046,
      "Ġjack": 2047,
      "Ġcannot": 2048,
      "bol": 2049,
      "Ġglo": 2050,
      "Ġstad": 2051,
      "edy": 2052,
      "Ġbetter": 2053,
      "Ġnames": 2054,
      "imate": 2055,
      "Ġmeaning": 2056,
      "Ġtourn": 2057,
      "Ġfront": 2058,
      "ta": 2059,
      "ached": 2060,
      "Ġhumans": 2061,
      "Ġlegisl": 2062,
      "cent": 2063,
      "Ġcho": 2064,
      "Ġlaun": 2065,
      "ee": 2066,
      "Ġran": 2067,
      "Ġqueen": 2068,
      "oria": 2069,
      "Ġlower": 2070,
      "Ġchief": 2071,
      "iple": 2072,
      "Ġinvol": 2073,
      "Ġmovement": 2074,
      "Ġball": 2075,
      "Ġisrael": 2076,
      "Ġswed": 2077,
      "Ġfore": 2078,
      "istry": 2079,
      "Ġlove": 2080,
      "hod": 2081,
      "ania": 2082,
      "Ġyout": 2083,
      "Ġexecut": 2084,
      "Ġbank": 2085,
      "atures": 2086,
      "Ġrain": 2087,
      "ression": 2088,
      "ording": 2089,
      "Ġpresidential": 2090,
      "aint": 2091,
      "Ġtad": 2092,
      "row": 2093,
      "Ġrelations": 2094,
      "Ġinflu": 2095,
      "Ġdaughter": 2096,
      "Ġwashing": 2097,
      "Ġoriginally": 2098,
      "Ġmaterial": 2099,
      "Ġlake": 2100,
      "Ġgave": 2101,
      "Ġdav": 2102,
      "Ġatl": 2103,
      "ibr": 2104,
      "Ġrelease": 2105,
      "inese": 2106,
      "Ġservices": 2107,
      "king": 2108,
      "Ġfict": 2109,
      "Ġtrees": 2110,
      "Ġstandard": 2111,
      "rew": 2112,
      "Ġgive": 2113,
      "ps": 2114,
      "Ġmiss": 2115,
      "Ġforces": 2116,
      "Ġtadp": 2117,
      "Ġice": 2118,
      "Ġrank": 2119,
      "hic": 2120,
      "Ġwriting": 2121,
      "Ġrecords": 2122,
      "inal": 2123,
      "ross": 2124,
      "oss": 2125,
      "Ġentertain": 2126,
      "Ġprev": 2127,
      "Ġproduction": 2128,
      "Ġmathem": 2129,
      "Ġassembly": 2130,
      "Ġbreak": 2131,
      "uk": 2132,
      "Ġcatholic": 2133,
      "Ġcomb": 2134,
      "Ġcla": 2135,
      "Ġproduct": 2136,
      "Ġmonths": 2137,
      "Ġcov": 2138,
      "Ġexist": 2139,
      "Ġblood": 2140,
      "Ġmetal": 2141,
      "Ġstadium": 2142,
      "uel": 2143,
      "Ġdest": 2144,
      "Ġrussia": 2145,
      "Ġbattle": 2146,
      "aign": 2147,
      "pecially": 2148,
      "Ġpast": 2149,
      "atives": 2150,
      "Ġwithin": 2151,
      "Ġable": 2152,
      "raw": 2153,
      "Ġespecially": 2154,
      "Ġterritory": 2155,
      "ii": 2156,
      "Ġta": 2157,
      "Ġmor": 2158,
      "Ġstorm": 2159,
      "though": 2160,
      "Ġwashington": 2161,
      "Ġmer": 2162,
      "Ġmexic": 2163,
      "Ġvarious": 2164,
      "Ġarts": 2165,
      "Ġwanted": 2166,
      "Ġsociety": 2167,
      "ient": 2168,
      "Ġmur": 2169,
      "Ġsour": 2170,
      "Ġsaw": 2171,
      "utes": 2172,
      "Ġchinese": 2173,
      "agn": 2174,
      "Ġactress": 2175,
      "Ġorganization": 2176,
      "Ġdark": 2177,
      "Ġhen": 2178,
      "Ġappoint": 2179,
      "Ġwinter": 2180,
      "ara": 2181,
      "Ġstruct": 2182,
      "go": 2183,
      "reme": 2184,
      "Ġpossible": 2185,
      "Ġpen": 2186,
      "Ġsequ": 2187,
      "Ġcases": 2188,
      "antic": 2189,
      "Ġcentre": 2190,
      "ength": 2191,
      "Ġcele": 2192,
      "Ġinside": 2193,
      "Ġiss": 2194,
      "Ġtex": 2195,
      "Ġidea": 2196,
      "Ġcampaign": 2197,
      "Ġcommitte": 2198,
      "ott": 2199,
      "Ġalways": 2200,
      "Ġbelieve": 2201,
      "Ġkorea": 2202,
      "Ġtemperature": 2203,
      "Ġsoc": 2204,
      "Ġincluded": 2205,
      "Ġeducation": 2206,
      "akes": 2207,
      "Ġfeature": 2208,
      "com": 2209,
      "ida": 2210,
      "craft": 2211,
      "Ġinj": 2212,
      "tra": 2213,
      "Ġmeet": 2214,
      "Ġstars": 2215,
      "ael": 2216,
      "ware": 2217,
      "wood": 2218,
      "Ġways": 2219,
      "Ġwoman": 2220,
      "Ġmodel": 2221,
      "Ġmel": 2222,
      "Ġlonger": 2223,
      "Ġdegree": 2224,
      "ery": 2225,
      "Ġstyle": 2226,
      "Ġpriv": 2227,
      "ound": 2228,
      "Ġmedic": 2229,
      "Ġsays": 2230,
      "Ġfest": 2231,
      "Ġweek": 2232,
      "ĠĠĠ": 2233,
      "oph": 2234,
      "Ġflo": 2235,
      "Ġavail": 2236,
      "Ġsquare": 2237,
      "Ġbecom": 2238,
      "cher": 2239,
      "cul": 2240,
      "Ġbal": 2241,
      "Ġsoft": 2242,
      "Ġadded": 2243,
      "pr": 2244,
      "Ġpun": 2245,
      "Ġdut": 2246,
      "Ġawarded": 2247,
      "Ġoldest": 2248,
      "Ġspain": 2249,
      "Ġswit": 2250,
      "aut": 2251,
      "Ġsmaller": 2252,
      "Ġofficially": 2253,
      "Ġcommunity": 2254,
      "Ġculture": 2255,
      "fect": 2256,
      "Ġstep": 2257,
      "nes": 2258,
      "oon": 2259,
      "Ġcities": 2260,
      "Ġbritain": 2261,
      "Ġchair": 2262,
      "Ġselect": 2263,
      "ube": 2264,
      "Ġmedical": 2265,
      "Ġavailable": 2266,
      "Ġalthough": 2267,
      "Ġcoach": 2268,
      "Ġschools": 2269,
      "Ġsystems": 2270,
      "Ġgreek": 2271,
      "Ġdata": 2272,
      "Ġwindows": 2273,
      "Ġlatin": 2274,
      "ination": 2275,
      "stand": 2276,
      "Ġinstr": 2277,
      "Ġsymbol": 2278,
      "Ġcommittee": 2279,
      "from": 2280,
      "lam": 2281,
      "Ġjames": 2282,
      "Ġyellow": 2283,
      "Ġrecorded": 2284,
      "Ġsell": 2285,
      "Ġnether": 2286,
      "Ġship": 2287,
      "ateg": 2288,
      "Ġenough": 2289,
      "Ġentertainment": 2290,
      "west": 2291,
      "Ġsite": 2292,
      "eration": 2293,
      "Ġfut": 2294,
      "Ġident": 2295,
      "Ġremo": 2296,
      "Ġtrump": 2297,
      "Ġconserv": 2298,
      "Ġtakes": 2299,
      "Ġcharacters": 2300,
      "Ġspoken": 2301,
      "Ġsoccer": 2302,
      "Ġdecl": 2303,
      "Ġmarket": 2304,
      "Ġsurv": 2305,
      "Ġcovid": 2306,
      "Ġhun": 2307,
      "Ġboard": 2308,
      "Ġacross": 2309,
      "Ġearl": 2310,
      "Ġtournament": 2311,
      "Ġfail": 2312,
      "Ġjourn": 2313,
      "face": 2314,
      "ypt": 2315,
      "Ġspanish": 2316,
      "Ġcalend": 2317,
      "Ġcarol": 2318,
      "Ġbegin": 2319,
      "lished": 2320,
      "Ġhom": 2321,
      "Ġlength": 2322,
      "jo": 2323,
      "Ġtropical": 2324,
      "Ġrepublican": 2325,
      "Ġrailway": 2326,
      "Ġnetherlands": 2327,
      "ius": 2328,
      "Ġaction": 2329,
      "Ġintrod": 2330,
      "Ġboy": 2331,
      "Ġsecretary": 2332,
      "Ġmary": 2333,
      "Ġexcept": 2334,
      "ricane": 2335,
      "Ġpolitician": 2336,
      "ob": 2337,
      "Ġhappened": 2338,
      "iers": 2339,
      "ims": 2340,
      "Ġproject": 2341,
      "Ġenv": 2342,
      "Ġartic": 2343,
      "Ġtadpoles": 2344,
      "Ġcelebr": 2345,
      "mar": 2346,
      "Ġage": 2347,
      "rents": 2348,
      "Ġamong": 2349,
      "lled": 2350,
      "Ġpremier": 2351,
      "den": 2352,
      "Ġtrib": 2353,
      "ators": 2354,
      "Ġdrug": 2355,
      "Ġliter": 2356,
      "bon": 2357,
      "ston": 2358,
      "Ġprevious": 2359,
      "lex": 2360,
      "Ġallowed": 2361,
      "theast": 2362,
      "Ġkey": 2363,
      "Ġestablished": 2364,
      "Ġrap": 2365,
      "Ġoutside": 2366,
      "Ġsize": 2367,
      "Ġgoing": 2368,
      "Ġcapital": 2369,
      "Ġathlet": 2370,
      "tar": 2371,
      "ention": 2372,
      "they": 2373,
      "Ġukrain": 2374,
      "Ġgeorge": 2375,
      "can": 2376,
      "wer": 2377,
      "Ġgas": 2378,
      "Ġvers": 2379,
      "Ġliber": 2380,
      "Ġbbc": 2381,
      "Ġpoints": 2382,
      "Ġanimal": 2383,
      "Ġfifa": 2384,
      "iger": 2385,
      "Ġprovin": 2386,
      "Ġreturned": 2387,
      "Ġskin": 2388,
      "ox": 2389,
      "Ġflor": 2390,
      "ification": 2391,
      "aur": 2392,
      "Ġtheory": 2393,
      "Ġaddition": 2394,
      "Ġstay": 2395,
      "Ġcalendar": 2396,
      "Ġcompan": 2397,
      "Ġinterest": 2398,
      "Ġforms": 2399,
      "Ġmethod": 2400,
      "Ġcompetition": 2401,
      "Ġarrond": 2402,
      "Ġnovel": 2403,
      "Ġproduc": 2404,
      "Ġkinds": 2405,
      "Ġarrondiss": 2406,
      "Ġpac": 2407,
      "Ġlearn": 2408,
      "people": 2409,
      "Ġappointed": 2410,
      "Ġrequ": 2411,
      "ban": 2412,
      "atics": 2413,
      "etic": 2414,
      "Ġbroadcast": 2415,
      "inct": 2416,
      "Ġrac": 2417,
      "Ġraised": 2418,
      "Ġhelped": 2419,
      "uses": 2420,
      "Ġec": 2421,
      "Ġlarger": 2422,
      "ography": 2423,
      "Ġmicro": 2424,
      "Ġtheat": 2425,
      "Ġgoal": 2426,
      "Ġaustria": 2427,
      "Ġconstitution": 2428,
      "Ġwall": 2429,
      "Ġborder": 2430,
      "inois": 2431,
      "Ġcit": 2432,
      "Ġleaves": 2433,
      "Ġvirgin": 2434,
      "ville": 2435,
      "iron": 2436,
      "Ġcoll": 2437,
      "Ġwebs": 2438,
      "Ġfunction": 2439,
      "mon": 2440,
      "Ġren": 2441,
      "Ġdivided": 2442,
      "reen": 2443,
      "Ġbab": 2444,
      "ults": 2445,
      "Ġvice": 2446,
      "Ġdiff": 2447,
      "Ġairport": 2448,
      "Ġreview": 2449,
      "Ġeffect": 2450,
      "ex": 2451,
      "Ġincre": 2452,
      "Ġfifth": 2453,
      "ned": 2454,
      "Ġegypt": 2455,
      "Ġsuccessful": 2456,
      "Ġnick": 2457,
      "Ġdisc": 2458,
      "Ġprivate": 2459,
      "ij": 2460,
      "Ġrange": 2461,
      "ological": 2462,
      "Ġsigned": 2463,
      "Ġoppos": 2464,
      "Ġmexico": 2465,
      "Ġsaint": 2466,
      "ush": 2467,
      "Ġvan": 2468,
      "Ġamount": 2469,
      "sel": 2470,
      "Ġlibr": 2471,
      "Ġcauses": 2472,
      "Ġpract": 2473,
      "Ġactive": 2474,
      "bab": 2475,
      "Ġsem": 2476,
      "Ġbridge": 2477,
      "Ġresign": 2478,
      "enced": 2479,
      "Ġmad": 2480,
      "Ġillinois": 2481,
      "wor": 2482,
      "owers": 2483,
      "Ġfocus": 2484,
      "Ġsug": 2485,
      "Ġlay": 2486,
      "Ġhydro": 2487,
      "Ġviol": 2488,
      "ka": 2489,
      "Ġdecided": 2490,
      "Ġrunning": 2491,
      "aps": 2492,
      "ending": 2493,
      "Ġperformed": 2494,
      "Ġcomplete": 2495,
      "Ġrelationship": 2496,
      "Ġtexas": 2497,
      "Ġwr": 2498,
      "Ġstage": 2499,
      "Ġbirds": 2500,
      "get": 2501,
      "hl": 2502,
      "hol": 2503,
      "Ġshoot": 2504,
      "ope": 2505,
      "uble": 2506,
      "Ġspeed": 2507,
      "Ġchampion": 2508,
      "Ġhere": 2509,
      "Ġcode": 2510,
      "Ġrecent": 2511,
      "la": 2512,
      "Ġcric": 2513,
      "Ġdog": 2514,
      "Ġgoes": 2515,
      "Ġrevolution": 2516,
      "Ġmac": 2517,
      "Ġcommission": 2518,
      "Ġphot": 2519,
      "Ġtable": 2520,
      "ental": 2521,
      "Ġwwe": 2522,
      "ivid": 2523,
      "Ġprotest": 2524,
      "Ġmc": 2525,
      "ulf": 2526,
      "ipt": 2527,
      "Ġprize": 2528,
      "Ġtechnology": 2529,
      "aries": 2530,
      "Ġtrue": 2531,
      "Ġlouis": 2532,
      "Ġcommonly": 2533,
      "Ġcongress": 2534,
      "ffer": 2535,
      "Ġdoctor": 2536,
      "Ġhurricane": 2537,
      "Ġregions": 2538,
      "Ġparents": 2539,
      "lit": 2540,
      "Ġnine": 2541,
      "Ġcour": 2542,
      "Ġsyn": 2543,
      "Ġlog": 2544,
      "Ġstories": 2545,
      "iest": 2546,
      "Ġformula": 2547,
      "Ġelections": 2548,
      "Ġbuildings": 2549,
      "Ġtransport": 2550,
      "Ġnewsp": 2551,
      "Ġfestival": 2552,
      "Ġhat": 2553,
      "Ġgalax": 2554,
      "ged": 2555,
      "Ġgramm": 2556,
      "Ġinternet": 2557,
      "Ġenviron": 2558,
      "Ġbrain": 2559,
      "Ġweb": 2560,
      "my": 2561,
      "Ġmach": 2562,
      "ucle": 2563,
      "Ġpot": 2564,
      "Ġrob": 2565,
      "Ġphilos": 2566,
      "Ġplatform": 2567,
      "self": 2568,
      "Ġspread": 2569,
      "Ġpromot": 2570,
      "Ġexecutive": 2571,
      "ror": 2572,
      "Ġasian": 2573,
      "Ġparis": 2574,
      "Ġmagaz": 2575,
      "Ġvictoria": 2576,
      "Ġfly": 2577,
      "Ġindivid": 2578,
      "Ġindustry": 2579,
      "Ġscottish": 2580,
      "Ġpacific": 2581,
      "endo": 2582,
      "Ġimpro": 2583,
      "Ġcricket": 2584,
      "Ġast": 2585,
      "vers": 2586,
      "Ġsurface": 2587,
      "car": 2588,
      "Ġsister": 2589,
      "Ġmatches": 2590,
      "Ġdecade": 2591,
      "Ġdiagn": 2592,
      "Ġwars": 2593,
      "Ġflorida": 2594,
      "his": 2595,
      "wide": 2596,
      "Ġham": 2597,
      "icult": 2598,
      "Ġbrand": 2599,
      "wards": 2600,
      "Ġvillage": 2601,
      "Ġcab": 2602,
      "idence": 2603,
      "ansas": 2604,
      "airs": 2605,
      "Ġiran": 2606,
      "bal": 2607,
      "Ġcontest": 2608,
      "Ġcreate": 2609,
      "Ġbelow": 2610,
      "ude": 2611,
      "Ġupper": 2612,
      "Ġbillboard": 2613,
      "Ġreported": 2614,
      "Ġatlantic": 2615,
      "bor": 2616,
      "Ġfer": 2617,
      "odes": 2618,
      "ites": 2619,
      "agon": 2620,
      "ems": 2621,
      "Ġswim": 2622,
      "Ġdefe": 2623,
      "ground": 2624,
      "roy": 2625,
      "Ġirish": 2626,
      "Ġprimary": 2627,
      "ole": 2628,
      "ador": 2629,
      "Ġcolumb": 2630,
      "Ġgirl": 2631,
      "fa": 2632,
      "sour": 2633,
      "Ġelectron": 2634,
      "Ġideas": 2635,
      "over": 2636,
      "Ġpan": 2637,
      "Ġdoc": 2638,
      "Ġcharles": 2639,
      "chest": 2640,
      "iff": 2641,
      "Ġlaunched": 2642,
      "Ġdu": 2643,
      "Ġtrade": 2644,
      "iverse": 2645,
      "Ġmusical": 2646,
      "Ġinvest": 2647,
      "Ġparticular": 2648,
      "Ġbay": 2649,
      "used": 2650,
      "Ġbox": 2651,
      "Ġappro": 2652,
      "Ġpositive": 2653,
      "Ġfig": 2654,
      "Ġmart": 2655,
      "Ġnucle": 2656,
      "Ġprince": 2657,
      "Ġcarr": 2658,
      "play": 2659,
      "Ġowned": 2660,
      "Ġconfir": 2661,
      "Ġcarolina": 2662,
      "Ġcontinued": 2663,
      "intendo": 2664,
      "Ġdying": 2665,
      "Ġacid": 2666,
      "Ġgenus": 2667,
      "Ġseparate": 2668,
      "Ġinstitute": 2669,
      "Ġdavid": 2670,
      "ores": 2671,
      "ops": 2672,
      "Ġcompos": 2673,
      "Ġforeign": 2674,
      "of": 2675,
      "Ġdom": 2676,
      "ires": 2677,
      "ply": 2678,
      "Ġmm": 2679,
      "Ġislam": 2680,
      "ste": 2681,
      "Ġelector": 2682,
      "Ġreact": 2683,
      "igr": 2684,
      "ties": 2685,
      "val": 2686,
      "yr": 2687,
      "Ġq": 2688,
      "atory": 2689,
      "Ġitself": 2690,
      "Ġalbums": 2691,
      "Ġsimple": 2692,
      "sol": 2693,
      "Ġquick": 2694,
      "Ġenvironment": 2695,
      "Ġfeatures": 2696,
      "Ġdisney": 2697,
      "Ġbranch": 2698,
      "Ġemper": 2699,
      "Ġlisted": 2700,
      "posed": 2701,
      "Ġwild": 2702,
      "Ġago": 2703,
      "Ġgard": 2704,
      "Ġeth": 2705,
      "Ġshar": 2706,
      "band": 2707,
      "Ġarrest": 2708,
      "Ġcompound": 2709,
      "Ġstrip": 2710,
      "Ġparticip": 2711,
      "Ġselected": 2712,
      "ha": 2713,
      "Ġtor": 2714,
      "Ġcoup": 2715,
      "anned": 2716,
      "Ġobs": 2717,
      "Ġfarms": 2718,
      "Ġdifficult": 2719,
      "Ġburn": 2720,
      "Ġrule": 2721,
      "Ġspecific": 2722,
      "Ġstreams": 2723,
      "Ġpaul": 2724,
      "Ġvisit": 2725,
      "Ġnintendo": 2726,
      "Ġjob": 2727,
      "Ġconstitu": 2728,
      "Ġyouth": 2729,
      "Ġalex": 2730,
      "Ġsus": 2731,
      "eds": 2732,
      "Ġlin": 2733,
      "Ġnation": 2734,
      "Ġrea": 2735,
      "Ġheavy": 2736,
      "station": 2737,
      "Ġcost": 2738,
      "quar": 2739,
      "Ġoccur": 2740,
      "Ġwrite": 2741,
      "loy": 2742,
      "Ġafrican": 2743,
      "Ġsuffer": 2744,
      "Ġbelieved": 2745,
      "Ġproblem": 2746,
      "Ġgraduated": 2747,
      "bel": 2748,
      "put": 2749,
      "ened": 2750,
      "Ġnd": 2751,
      "Ġreached": 2752,
      "acher": 2753,
      "ference": 2754,
      "Ġaccess": 2755,
      "har": 2756,
      "ya": 2757,
      "Ġtall": 2758,
      "inet": 2759,
      "Ġnaz": 2760,
      "Ġgun": 2761,
      "Ġcorn": 2762,
      "Ġaccording": 2763,
      "Ġhigher": 2764,
      "Ġcompanies": 2765,
      "since": 2766,
      "Ġip": 2767,
      "ota": 2768,
      "Ġprinc": 2769,
      "Ġdesigned": 2770,
      "Ġindependence": 2771,
      "Ġphilosop": 2772,
      "ns": 2773,
      "yl": 2774,
      "Ġface": 2775,
      "Ġclosed": 2776,
      "Ġregular": 2777,
      "Ġgets": 2778,
      "Ġiron": 2779,
      "Ġprotect": 2780,
      "field": 2781,
      "Ġaud": 2782,
      "Ġprote": 2783,
      "Ġagre": 2784,
      "Ġminor": 2785,
      "Ġarrondissement": 2786,
      "Ġdie": 2787,
      "Ġemer": 2788,
      "Ġleaders": 2789,
      "Ġmotor": 2790,
      "iation": 2791,
      "Ġfame": 2792,
      "Ġpit": 2793,
      "aly": 2794,
      "emic": 2795,
      "Ġsingles": 2796,
      "abit": 2797,
      "Ġdiscovered": 2798,
      "Ġwebsite": 2799,
      "ris": 2800,
      "Ġic": 2801,
      "Ġbc": 2802,
      "Ġreason": 2803,
      "urity": 2804,
      "Ġsubject": 2805,
      "Ġneeded": 2806,
      "Ġgenerally": 2807,
      "Ġfriends": 2808,
      "Ġcarry": 2809,
      "Ġbiggest": 2810,
      "Ġgolden": 2811,
      "Ġhonor": 2812,
      "Ġmess": 2813,
      "Ġfeel": 2814,
      "Ġleading": 2815,
      "Ġprovinces": 2816,
      "hire": 2817,
      "ios": 2818,
      "Ġpenn": 2819,
      "Ġrat": 2820,
      "Ġbelg": 2821,
      "Ġartist": 2822,
      "Ġmultiple": 2823,
      "Ġsoftware": 2824,
      "ua": 2825,
      "Ġtax": 2826,
      "Ġscient": 2827,
      "itan": 2828,
      "Ġparish": 2829,
      "uries": 2830,
      "Ġseat": 2831,
      "aph": 2832,
      "Ġfinished": 2833,
      "less": 2834,
      "thing": 2835,
      "Ġcolon": 2836,
      "Ġprofessor": 2837,
      "Ġreligion": 2838,
      "Ġvirginia": 2839,
      "like": 2840,
      "itar": 2841,
      "Ġpersonal": 2842,
      "Ġphilipp": 2843,
      "Ġplanet": 2844,
      "Ġconfirmed": 2845,
      "Ġmas": 2846,
      "Ġjewish": 2847,
      "Ġlibrary": 2848,
      "mark": 2849,
      "Ġbang": 2850,
      "Ġadop": 2851,
      "Ġsource": 2852,
      "Ġsand": 2853,
      "Ġcateg": 2854,
      "ado": 2855,
      "Ġsaf": 2856,
      "chester": 2857,
      "Ġarchit": 2858,
      "Ġcells": 2859,
      "ience": 2860,
      "lv": 2861,
      "Ġterms": 2862,
      "Ġvalley": 2863,
      "Ġreligious": 2864,
      "Ġmanager": 2865,
      "reg": 2866,
      "Ġshape": 2867,
      "Ġmark": 2868,
      "Ġgrew": 2869,
      "Ġaircraft": 2870,
      "Ġgives": 2871,
      "bec": 2872,
      "Ġlegal": 2873,
      "Ġrepresentatives": 2874,
      "berg": 2875,
      "Ġven": 2876,
      "Ġstudies": 2877,
      "Ġtraditional": 2878,
      "wh": 2879,
      "Ġheat": 2880,
      "olf": 2881,
      "Ġpeace": 2882,
      "ousand": 2883,
      "Ġintroduced": 2884,
      "Ġlines": 2885,
      "acc": 2886,
      "Ġperformance": 2887,
      "Ġsilver": 2888,
      "mit": 2889,
      "Ġfast": 2890,
      "ense": 2891,
      "Ġplaystation": 2892,
      "Ġdivor": 2893,
      "Ġportug": 2894,
      "Ġcandidate": 2895,
      "Ġmedicine": 2896,
      "ique": 2897,
      "Ġthom": 2898,
      "igan": 2899,
      "Ġmole": 2900,
      "Ġtype": 2901,
      "Ġbasket": 2902,
      "Ġpiece": 2903,
      "Ġmagazine": 2904,
      "ping": 2905,
      "sp": 2906,
      "ona": 2907,
      "Ġdyn": 2908,
      "Ġha": 2909,
      "Ġbron": 2910,
      "Ġdan": 2911,
      "Ġthemsel": 2912,
      "Ġunderstand": 2913,
      "Ġcirc": 2914,
      "Ġthemselves": 2915,
      "Ġbul": 2916,
      "ache": 2917,
      "Ġflight": 2918,
      "Ġruns": 2919,
      "Ġcomplex": 2920,
      "Ġtravel": 2921,
      "Ġperm": 2922,
      "ales": 2923,
      "Ġlays": 2924,
      "these": 2925,
      "Ġconvent": 2926,
      "odies": 2927,
      "Ġsecurity": 2928,
      "Ġcovered": 2929,
      "Ġfuture": 2930,
      "Ġrom": 2931,
      "Ġconstr": 2932,
      "Ġcook": 2933,
      "Ġclo": 2934,
      "Ġexamples": 2935,
      "wan": 2936,
      "ols": 2937,
      "str": 2938,
      "Ġorchest": 2939,
      "Ġprefect": 2940,
      "Ġvote": 2941,
      "Ġrecognized": 2942,
      "Ġstructure": 2943,
      "Ġtenn": 2944,
      "isions": 2945,
      "Ġpand": 2946,
      "Ġthousand": 2947,
      "Ġje": 2948,
      "Ġfeet": 2949,
      "sych": 2950,
      "inary": 2951,
      "Ġuniverse": 2952,
      "Ġtrains": 2953,
      "Ġpolic": 2954,
      "Ġbelong": 2955,
      "Ġjustice": 2956,
      "Ġmichael": 2957,
      "ream": 2958,
      "Ġtwent": 2959,
      "Ġapple": 2960,
      "Ġconduct": 2961,
      "Ġcontract": 2962,
      "adesh": 2963,
      "Ġsweden": 2964,
      "Ġcitiz": 2965,
      "oll": 2966
    },
    "merges": [
      [
        "Ġ",
        "t"
      ],
      [
        "Ġ",
        "a"
      ],
      [
        "h",
        "e"
      ],
      [
        "i",
        "n"
      ],
      [
        "Ġt",
        "he"
      ],
      [
        "Ġ",
        "."
      ],
      [
        "Ġ",
        "s"
      ],
      [
        "Ġ",
        "o"
      ],
      [
        "e",
        "r"
      ],
      [
        "Ġ",
        "w"
      ],
      [
        "r",
        "e"
      ],
      [
        "i",
        "s"
      ],
      [
        "Ġ",
        "c"
      ],
      [
        "Ġ",
        ","
      ],
      [
        "o",
        "n"
      ],
      [
        "a",
        "n"
      ],
      [
        "Ġ",
        "b"
      ],
      [
        "Ġ",
        "f"
      ],
      [
        "e",
        "d"
      ],
      [
        "Ġ",
        "p"
      ],
      [
        "i",
        "t"
      ],
      [
        "e",
        "n"
      ],
      [
        "Ġ",
        "in"
      ],
      [
        "Ġ",
        "m"
      ],
      [
        "o",
        "r"
      ],
      [
        "a",
        "t"
      ],
      [
        "e",
        "s"
      ],
      [
        "a",
        "l"
      ],
      [
        "a",
        "r"
      ],
      [
        "Ġo",
        "f"
      ],
      [
        "Ġa",
        "n"
      ],
      [
        "a",
        "s"
      ],
      [
        "Ġ",
        "1"
      ],
      [
        "Ġ",
        "d"
      ],
      [
        "r",
        "o"
      ],
      [
        "Ġ",
        "h"
      ],
      [
        "Ġan",
        "d"
      ],
      [
        "Ġ",
        "0"
      ],
      [
        "Ġ",
        "l"
      ],
      [
        "Ġ",
        "is"
      ],
      [
        "i",
        "c"
      ],
      [
        "Ġ",
        "n"
      ],
      [
        "Ġ",
        "2"
      ],
      [
        "Ġt",
        "o"
      ],
      [
        "in",
        "g"
      ],
      [
        "i",
        "on"
      ],
      [
        "l",
        "e"
      ],
      [
        "u",
        "s"
      ],
      [
        "Ġ",
        "g"
      ],
      [
        "Ġt",
        "h"
      ],
      [
        "u",
        "n"
      ],
      [
        "a",
        "m"
      ],
      [
        "Ġ",
        "9"
      ],
      [
        "Ġ",
        "e"
      ],
      [
        "en",
        "t"
      ],
      [
        "Ġw",
        "as"
      ],
      [
        "o",
        "m"
      ],
      [
        "i",
        "l"
      ],
      [
        "Ġ",
        "it"
      ],
      [
        "Ġo",
        "n"
      ],
      [
        "Ġ",
        "re"
      ],
      [
        "Ġb",
        "e"
      ],
      [
        "t",
        "he"
      ],
      [
        "Ġ",
        "he"
      ],
      [
        "u",
        "t"
      ],
      [
        "a",
        "d"
      ],
      [
        "u",
        "r"
      ],
      [
        "Ġf",
        "or"
      ],
      [
        "v",
        "e"
      ],
      [
        "o",
        "l"
      ],
      [
        "c",
        "t"
      ],
      [
        "Ġs",
        "t"
      ],
      [
        "s",
        "t"
      ],
      [
        "a",
        "y"
      ],
      [
        "i",
        "d"
      ],
      [
        "v",
        "er"
      ],
      [
        "Ġ",
        "Ġ"
      ],
      [
        "o",
        "t"
      ],
      [
        "l",
        "y"
      ],
      [
        "e",
        "t"
      ],
      [
        "c",
        "e"
      ],
      [
        "i",
        "m"
      ],
      [
        "Ġa",
        "l"
      ],
      [
        "o",
        "w"
      ],
      [
        "c",
        "h"
      ],
      [
        "i",
        "r"
      ],
      [
        "Ġ",
        "-"
      ],
      [
        "Ġa",
        "s"
      ],
      [
        "i",
        "g"
      ],
      [
        "at",
        "ion"
      ],
      [
        "Ġ",
        "\""
      ],
      [
        "Ġf",
        "ro"
      ],
      [
        "Ġa",
        "re"
      ],
      [
        "t",
        "er"
      ],
      [
        "Ġ",
        "r"
      ],
      [
        "Ġ",
        "j"
      ],
      [
        "Ġ",
        "8"
      ],
      [
        "e",
        "l"
      ],
      [
        "u",
        "l"
      ],
      [
        "Ġm",
        "o"
      ],
      [
        "Ġ",
        "k"
      ],
      [
        "Ġc",
        "h"
      ],
      [
        "o",
        "p"
      ],
      [
        "Ġb",
        "y"
      ],
      [
        "Ġ",
        ")"
      ],
      [
        "Ġ",
        "("
      ],
      [
        "u",
        "m"
      ],
      [
        "an",
        "d"
      ],
      [
        "Ġo",
        "r"
      ],
      [
        "Ġth",
        "at"
      ],
      [
        "Ġs",
        "e"
      ],
      [
        "Ġ",
        "3"
      ],
      [
        "Ġ",
        "'"
      ],
      [
        "Ġfro",
        "m"
      ],
      [
        "Ġ",
        "5"
      ],
      [
        "Ġw",
        "h"
      ],
      [
        "it",
        "h"
      ],
      [
        "Ġ",
        "7"
      ],
      [
        "ar",
        "t"
      ],
      [
        "Ġd",
        "e"
      ],
      [
        "b",
        "er"
      ],
      [
        "Ġ",
        "4"
      ],
      [
        "Ġ",
        "6"
      ],
      [
        "Ġa",
        "t"
      ],
      [
        "is",
        "t"
      ],
      [
        "al",
        "l"
      ],
      [
        "Ġp",
        "l"
      ],
      [
        "Ġw",
        "ith"
      ],
      [
        "a",
        "g"
      ],
      [
        "i",
        "f"
      ],
      [
        "i",
        "es"
      ],
      [
        "Ġc",
        "om"
      ],
      [
        "Ġ",
        "v"
      ],
      [
        "a",
        "c"
      ],
      [
        "e",
        "m"
      ],
      [
        "a",
        "in"
      ],
      [
        "i",
        "a"
      ],
      [
        "Ġ",
        "un"
      ],
      [
        "es",
        "t"
      ],
      [
        "o",
        "s"
      ],
      [
        "Ġ",
        "us"
      ],
      [
        "i",
        "v"
      ],
      [
        "er",
        "s"
      ],
      [
        "Ġc",
        "on"
      ],
      [
        "Ġc",
        "o"
      ],
      [
        "Ġn",
        "e"
      ],
      [
        "Ġp",
        "ro"
      ],
      [
        "the",
        "r"
      ],
      [
        "Ġ",
        "y"
      ],
      [
        "s",
        "o"
      ],
      [
        "a",
        "k"
      ],
      [
        "a",
        "p"
      ],
      [
        "t",
        "h"
      ],
      [
        "u",
        "p"
      ],
      [
        "am",
        "e"
      ],
      [
        "Ġthe",
        "y"
      ],
      [
        "Ġw",
        "or"
      ],
      [
        "re",
        "s"
      ],
      [
        "i",
        "an"
      ],
      [
        "Ġf",
        "o"
      ],
      [
        "o",
        "d"
      ],
      [
        "il",
        "l"
      ],
      [
        "u",
        "g"
      ],
      [
        "Ġs",
        "p"
      ],
      [
        "Ġl",
        "e"
      ],
      [
        "Ġs",
        "o"
      ],
      [
        "Ġc",
        "an"
      ],
      [
        "a",
        "ve"
      ],
      [
        "Ġh",
        "as"
      ],
      [
        "at",
        "e"
      ],
      [
        "it",
        "y"
      ],
      [
        "Ġh",
        "is"
      ],
      [
        "t",
        "r"
      ],
      [
        "Ġal",
        "so"
      ],
      [
        "u",
        "d"
      ],
      [
        "ig",
        "h"
      ],
      [
        "Ġth",
        "is"
      ],
      [
        "Ġ",
        "en"
      ],
      [
        "Ġs",
        "h"
      ],
      [
        "Ġp",
        "e"
      ],
      [
        "un",
        "d"
      ],
      [
        "on",
        "g"
      ],
      [
        "Ġn",
        "ot"
      ],
      [
        "Ġ",
        "ro"
      ],
      [
        "ic",
        "h"
      ],
      [
        "u",
        "b"
      ],
      [
        "l",
        "d"
      ],
      [
        "Ġt",
        "r"
      ],
      [
        "ar",
        "y"
      ],
      [
        "i",
        "e"
      ],
      [
        "i",
        "ve"
      ],
      [
        "op",
        "le"
      ],
      [
        "an",
        "t"
      ],
      [
        "ar",
        "d"
      ],
      [
        "i",
        "p"
      ],
      [
        "an",
        "g"
      ],
      [
        "Ġh",
        "ave"
      ],
      [
        "om",
        "e"
      ],
      [
        "Ġpe",
        "ople"
      ],
      [
        "a",
        "b"
      ],
      [
        "e",
        "ar"
      ],
      [
        "an",
        "y"
      ],
      [
        "or",
        "t"
      ],
      [
        "Ġt",
        "e"
      ],
      [
        "m",
        "ent"
      ],
      [
        "er",
        "e"
      ],
      [
        "is",
        "h"
      ],
      [
        "Ġe",
        "x"
      ],
      [
        "q",
        "u"
      ],
      [
        "Ġa",
        "r"
      ],
      [
        "Ġp",
        "art"
      ],
      [
        "Ġa",
        "b"
      ],
      [
        "c",
        "i"
      ],
      [
        "Ġpl",
        "ay"
      ],
      [
        "Ġon",
        "e"
      ],
      [
        "Ġw",
        "he"
      ],
      [
        "es",
        "s"
      ],
      [
        "Ġw",
        "ere"
      ],
      [
        "or",
        "n"
      ],
      [
        "as",
        "t"
      ],
      [
        "Ġbe",
        "c"
      ],
      [
        "at",
        "ed"
      ],
      [
        "Ġwh",
        "ich"
      ],
      [
        "Ġg",
        "o"
      ],
      [
        "id",
        "e"
      ],
      [
        "i",
        "ed"
      ],
      [
        "Ġa",
        "f"
      ],
      [
        "l",
        "and"
      ],
      [
        "s",
        "e"
      ],
      [
        "r",
        "it"
      ],
      [
        "igh",
        "t"
      ],
      [
        "Ġs",
        "he"
      ],
      [
        "ow",
        "n"
      ],
      [
        "Ġne",
        "w"
      ],
      [
        "Ġcom",
        "p"
      ],
      [
        "us",
        "e"
      ],
      [
        "o",
        "ut"
      ],
      [
        "ad",
        "e"
      ],
      [
        "Ġm",
        "ar"
      ],
      [
        "g",
        "e"
      ],
      [
        "al",
        "ly"
      ],
      [
        "u",
        "re"
      ],
      [
        "Ġo",
        "ther"
      ],
      [
        "i",
        "ver"
      ],
      [
        "in",
        "e"
      ],
      [
        "Ġc",
        "l"
      ],
      [
        "i",
        "re"
      ],
      [
        "o",
        "k"
      ],
      [
        "ct",
        "ion"
      ],
      [
        "o",
        "c"
      ],
      [
        "ug",
        "h"
      ],
      [
        "Ġy",
        "ear"
      ],
      [
        "ation",
        "al"
      ],
      [
        "Ġ",
        ":"
      ],
      [
        "Ġus",
        "ed"
      ],
      [
        "Ġthe",
        "ir"
      ],
      [
        "d",
        "er"
      ],
      [
        "ac",
        "k"
      ],
      [
        "el",
        "l"
      ],
      [
        "at",
        "er"
      ],
      [
        "k",
        "e"
      ],
      [
        "Ġt",
        "w"
      ],
      [
        "Ġb",
        "ut"
      ],
      [
        "re",
        "n"
      ],
      [
        "im",
        "e"
      ],
      [
        "Ġk",
        "n"
      ],
      [
        "Ġp",
        "r"
      ],
      [
        "Ġc",
        "all"
      ],
      [
        "ic",
        "al"
      ],
      [
        "Ġa",
        "p"
      ],
      [
        "on",
        "d"
      ],
      [
        "an",
        "s"
      ],
      [
        "o",
        "re"
      ],
      [
        "Ġal",
        "l"
      ],
      [
        "Ġthe",
        "re"
      ],
      [
        "re",
        "e"
      ],
      [
        "o",
        "g"
      ],
      [
        "Ġit",
        "s"
      ],
      [
        "e",
        "ct"
      ],
      [
        "am",
        "p"
      ],
      [
        "Ġm",
        "ade"
      ],
      [
        "f",
        "er"
      ],
      [
        "Ġm",
        "any"
      ],
      [
        "Ġs",
        "er"
      ],
      [
        "u",
        "c"
      ],
      [
        "Ġe",
        "le"
      ],
      [
        "Ġb",
        "orn"
      ],
      [
        "Ġwor",
        "ld"
      ],
      [
        "i",
        "b"
      ],
      [
        "Ġh",
        "ad"
      ],
      [
        "Ġm",
        "e"
      ],
      [
        "a",
        "v"
      ],
      [
        "ic",
        "e"
      ],
      [
        "Ġcall",
        "ed"
      ],
      [
        "us",
        "t"
      ],
      [
        "Ġn",
        "o"
      ],
      [
        "u",
        "e"
      ],
      [
        "Ġa",
        "d"
      ],
      [
        "Ġwh",
        "o"
      ],
      [
        "i",
        "o"
      ],
      [
        "en",
        "d"
      ],
      [
        "Ġc",
        "ol"
      ],
      [
        "Ġs",
        "ome"
      ],
      [
        "a",
        "ce"
      ],
      [
        "as",
        "ed"
      ],
      [
        "Ġmo",
        "st"
      ],
      [
        "ag",
        "e"
      ],
      [
        "p",
        "t"
      ],
      [
        "Ġaf",
        "ter"
      ],
      [
        "r",
        "ic"
      ],
      [
        "as",
        "s"
      ],
      [
        "i",
        "z"
      ],
      [
        "Ġcom",
        "m"
      ],
      [
        "Ġb",
        "o"
      ],
      [
        "c",
        "l"
      ],
      [
        "ion",
        "s"
      ],
      [
        "Ġa",
        "g"
      ],
      [
        "Ġg",
        "ro"
      ],
      [
        "Ġtw",
        "o"
      ],
      [
        "Ġre",
        "p"
      ],
      [
        "on",
        "e"
      ],
      [
        "Ġd",
        "o"
      ],
      [
        "Ġab",
        "out"
      ],
      [
        "Ġco",
        "un"
      ],
      [
        "Ġn",
        "or"
      ],
      [
        "a",
        "re"
      ],
      [
        "er",
        "m"
      ],
      [
        "Ġfro",
        "g"
      ],
      [
        "Ġhe",
        "r"
      ],
      [
        "ter",
        "n"
      ],
      [
        "Ġm",
        "ay"
      ],
      [
        "p",
        "er"
      ],
      [
        "m",
        "er"
      ],
      [
        "r",
        "a"
      ],
      [
        "Ġ",
        "ver"
      ],
      [
        "ak",
        "e"
      ],
      [
        "Ġf",
        "e"
      ],
      [
        "Ġin",
        "d"
      ],
      [
        "Ġkn",
        "own"
      ],
      [
        "a",
        "ct"
      ],
      [
        "a",
        "ch"
      ],
      [
        "Ġbe",
        "en"
      ],
      [
        "Ġen",
        "g"
      ],
      [
        "Ġp",
        "res"
      ],
      [
        "Ġwhe",
        "n"
      ],
      [
        "w",
        "e"
      ],
      [
        "or",
        "d"
      ],
      [
        "il",
        "d"
      ],
      [
        "i",
        "al"
      ],
      [
        "p",
        "e"
      ],
      [
        "he",
        "r"
      ],
      [
        "iver",
        "s"
      ],
      [
        "a",
        "use"
      ],
      [
        "Ġmo",
        "v"
      ],
      [
        "Ġn",
        "ational"
      ],
      [
        "t",
        "s"
      ],
      [
        "t",
        "o"
      ],
      [
        "Ġn",
        "um"
      ],
      [
        "Ġl",
        "i"
      ],
      [
        "Ġwor",
        "k"
      ],
      [
        "Ġsp",
        "e"
      ],
      [
        "t",
        "en"
      ],
      [
        "or",
        "y"
      ],
      [
        "Ġt",
        "ime"
      ],
      [
        "u",
        "ary"
      ],
      [
        "ul",
        "d"
      ],
      [
        "Ġte",
        "am"
      ],
      [
        "ub",
        "l"
      ],
      [
        "Ġd",
        "is"
      ],
      [
        "Ġnum",
        "ber"
      ],
      [
        "ut",
        "h"
      ],
      [
        "t",
        "e"
      ],
      [
        "m",
        "ber"
      ],
      [
        "a",
        "w"
      ],
      [
        "Ġc",
        "ent"
      ],
      [
        "Ġre",
        "le"
      ],
      [
        "ig",
        "n"
      ],
      [
        "us",
        "tr"
      ],
      [
        "Ġa",
        "c"
      ],
      [
        "Ġmo",
        "re"
      ],
      [
        "Ġs",
        "y"
      ],
      [
        "Ġst",
        "ud"
      ],
      [
        "u",
        "ch"
      ],
      [
        "Ġs",
        "c"
      ],
      [
        "id",
        "ent"
      ],
      [
        "Ġp",
        "ar"
      ],
      [
        "Ġd",
        "if"
      ],
      [
        "ing",
        "s"
      ],
      [
        "he",
        "d"
      ],
      [
        "Ġun",
        "ivers"
      ],
      [
        "an",
        "ce"
      ],
      [
        "ic",
        "s"
      ],
      [
        "Ġb",
        "r"
      ],
      [
        "Ġf",
        "r"
      ],
      [
        "ul",
        "t"
      ],
      [
        "Ġf",
        "l"
      ],
      [
        "en",
        "ce"
      ],
      [
        "Ġ",
        "up"
      ],
      [
        "em",
        "ber"
      ],
      [
        "p",
        "ort"
      ],
      [
        "Ġf",
        "ir"
      ],
      [
        "in",
        "d"
      ],
      [
        "in",
        "ce"
      ],
      [
        "Ġp",
        "ol"
      ],
      [
        "Ġg",
        "r"
      ],
      [
        "Ġ",
        "im"
      ],
      [
        "ver",
        "n"
      ],
      [
        "Ġbe",
        "t"
      ],
      [
        "Ġo",
        "ut"
      ],
      [
        "Ġl",
        "iv"
      ],
      [
        "Ġse",
        "c"
      ],
      [
        "w",
        "n"
      ],
      [
        "Ġof",
        "f"
      ],
      [
        "Ġb",
        "l"
      ],
      [
        "Ġe",
        "v"
      ],
      [
        "Ġfir",
        "st"
      ],
      [
        "w",
        "ard"
      ],
      [
        "o",
        "un"
      ],
      [
        "Ġcoun",
        "tr"
      ],
      [
        "ur",
        "ing"
      ],
      [
        "l",
        "es"
      ],
      [
        "Ġbec",
        "ause"
      ],
      [
        "Ġgo",
        "vern"
      ],
      [
        "b",
        "all"
      ],
      [
        "Ġw",
        "e"
      ],
      [
        "Ġre",
        "s"
      ],
      [
        "ve",
        "l"
      ],
      [
        "Ġl",
        "o"
      ],
      [
        "r",
        "y"
      ],
      [
        "Ġh",
        "o"
      ],
      [
        "Ġunivers",
        "ity"
      ],
      [
        "Ġa",
        "ct"
      ],
      [
        "it",
        "e"
      ],
      [
        "ation",
        "s"
      ],
      [
        "Ġdif",
        "fer"
      ],
      [
        "Ġm",
        "us"
      ],
      [
        "Ġyear",
        "s"
      ],
      [
        "Ġg",
        "en"
      ],
      [
        "Ġj",
        "o"
      ],
      [
        "Ġp",
        "er"
      ],
      [
        "at",
        "h"
      ],
      [
        "or",
        "m"
      ],
      [
        "Ġon",
        "ly"
      ],
      [
        "Ġre",
        "c"
      ],
      [
        "Ġrele",
        "ased"
      ],
      [
        "Ġs",
        "ong"
      ],
      [
        "ur",
        "n"
      ],
      [
        "Ġm",
        "in"
      ],
      [
        "Ġal",
        "b"
      ],
      [
        "it",
        "ion"
      ],
      [
        "Ġcon",
        "t"
      ],
      [
        "ay",
        "s"
      ],
      [
        "Ġw",
        "ar"
      ],
      [
        "Ġthe",
        "m"
      ],
      [
        "Ġc",
        "ar"
      ],
      [
        "Ġ",
        "i"
      ],
      [
        "Ġp",
        "h"
      ],
      [
        "Ġp",
        "o"
      ],
      [
        "k",
        "s"
      ],
      [
        "a",
        "il"
      ],
      [
        "al",
        "s"
      ],
      [
        "m",
        "p"
      ],
      [
        "Ġfo",
        "und"
      ],
      [
        "Ġa",
        "ustr"
      ],
      [
        "im",
        "es"
      ],
      [
        "cl",
        "ud"
      ],
      [
        "Ġst",
        "ate"
      ],
      [
        "g",
        "an"
      ],
      [
        "Ġb",
        "u"
      ],
      [
        "Ġli",
        "ke"
      ],
      [
        "Ġfor",
        "m"
      ],
      [
        "b",
        "r"
      ],
      [
        "Ġl",
        "ar"
      ],
      [
        "Ġin",
        "clud"
      ],
      [
        "we",
        "en"
      ],
      [
        "Ġ",
        "qu"
      ],
      [
        "Ġdiffer",
        "ent"
      ],
      [
        "Ġst",
        "art"
      ],
      [
        "Ġw",
        "o"
      ],
      [
        "Ġin",
        "to"
      ],
      [
        "Ġalb",
        "um"
      ],
      [
        "Ġs",
        "ing"
      ],
      [
        "Ġo",
        "ver"
      ],
      [
        "am",
        "es"
      ],
      [
        "Ġg",
        "re"
      ],
      [
        "os",
        "e"
      ],
      [
        "Ġm",
        "et"
      ],
      [
        "Ġs",
        "m"
      ],
      [
        "Ġc",
        "re"
      ],
      [
        "Ġbet",
        "ween"
      ],
      [
        "as",
        "e"
      ],
      [
        "Ġgro",
        "up"
      ],
      [
        "Ġwhe",
        "re"
      ],
      [
        "Ġth",
        "an"
      ],
      [
        "Ġso",
        "uth"
      ],
      [
        "Ġw",
        "ill"
      ],
      [
        "Ġb",
        "ro"
      ],
      [
        "Ġd",
        "ied"
      ],
      [
        "ol",
        "d"
      ],
      [
        "Ġthe",
        "se"
      ],
      [
        "Ġm",
        "an"
      ],
      [
        "or",
        "s"
      ],
      [
        "Ġf",
        "am"
      ],
      [
        "Ġre",
        "g"
      ],
      [
        "on",
        "s"
      ],
      [
        "Ġp",
        "re"
      ],
      [
        "Ġh",
        "ow"
      ],
      [
        "Ġen",
        "d"
      ],
      [
        "Ġp",
        "op"
      ],
      [
        "ist",
        "s"
      ],
      [
        "Ġplay",
        "ed"
      ],
      [
        "Ġfo",
        "ot"
      ],
      [
        "v",
        "ed"
      ],
      [
        "i",
        "x"
      ],
      [
        "o",
        "us"
      ],
      [
        "f",
        "t"
      ],
      [
        "Ġbec",
        "ame"
      ],
      [
        "p",
        "en"
      ],
      [
        "Ġpres",
        "ident"
      ],
      [
        "Ġ",
        "u"
      ],
      [
        "Ġs",
        "ch"
      ],
      [
        "e",
        "p"
      ],
      [
        "Ġl",
        "ong"
      ],
      [
        "h",
        "ip"
      ],
      [
        "ent",
        "s"
      ],
      [
        "Ġn",
        "ame"
      ],
      [
        "Ġver",
        "y"
      ],
      [
        "Ġap",
        "p"
      ],
      [
        "Ġd",
        "uring"
      ],
      [
        "Ġsh",
        "ow"
      ],
      [
        "Ġm",
        "ed"
      ],
      [
        "ubl",
        "ic"
      ],
      [
        "ic",
        "t"
      ],
      [
        "Ġele",
        "ct"
      ],
      [
        "Ġa",
        "ward"
      ],
      [
        "Ġp",
        "ers"
      ],
      [
        "Ġg",
        "ame"
      ],
      [
        "u",
        "ally"
      ],
      [
        "Ġk",
        "ing"
      ],
      [
        "om",
        "et"
      ],
      [
        "Ġbe",
        "l"
      ],
      [
        "c",
        "ed"
      ],
      [
        "c",
        "es"
      ],
      [
        "m",
        "an"
      ],
      [
        "is",
        "ion"
      ],
      [
        "Ġfoot",
        "ball"
      ],
      [
        "n",
        "e"
      ],
      [
        "i",
        "le"
      ],
      [
        "Ġmus",
        "ic"
      ],
      [
        "Ġs",
        "a"
      ],
      [
        "Ġnor",
        "th"
      ],
      [
        "al",
        "e"
      ],
      [
        "Ġth",
        "ree"
      ],
      [
        "Ġw",
        "rit"
      ],
      [
        "ul",
        "ar"
      ],
      [
        "Ġsec",
        "ond"
      ],
      [
        "Ġs",
        "up"
      ],
      [
        "o",
        "ugh"
      ],
      [
        "s",
        "ion"
      ],
      [
        "Ġj",
        "an"
      ],
      [
        "f",
        "f"
      ],
      [
        "Ġaustr",
        "al"
      ],
      [
        "o",
        "ol"
      ],
      [
        "Ġch",
        "ang"
      ],
      [
        "Ġch",
        "ar"
      ],
      [
        "f",
        "orm"
      ],
      [
        "f",
        "ore"
      ],
      [
        "Ġser",
        "ies"
      ],
      [
        "Ġm",
        "ake"
      ],
      [
        "t",
        "ain"
      ],
      [
        "u",
        "ro"
      ],
      [
        "Ġb",
        "rit"
      ],
      [
        "t",
        "on"
      ],
      [
        "Ġgovern",
        "ment"
      ],
      [
        "Ġm",
        "on"
      ],
      [
        "Ġm",
        "ain"
      ],
      [
        "Ġl",
        "ang"
      ],
      [
        "it",
        "ed"
      ],
      [
        "Ġ",
        ";"
      ],
      [
        "Ġw",
        "on"
      ],
      [
        "Ġd",
        "r"
      ],
      [
        "Ġre",
        "l"
      ],
      [
        "ci",
        "ent"
      ],
      [
        "Ġd",
        "es"
      ],
      [
        "Ġfo",
        "ur"
      ],
      [
        "Ġw",
        "ater"
      ],
      [
        "un",
        "e"
      ],
      [
        "t",
        "il"
      ],
      [
        "Ġd",
        "ist"
      ],
      [
        "ap",
        "an"
      ],
      [
        "Ġlang",
        "u"
      ],
      [
        "re",
        "st"
      ],
      [
        "c",
        "he"
      ],
      [
        "Ġjan",
        "uary"
      ],
      [
        "ic",
        "k"
      ],
      [
        "ci",
        "al"
      ],
      [
        "ot",
        "h"
      ],
      [
        "Ġus",
        "e"
      ],
      [
        "at",
        "es"
      ],
      [
        "Ġ",
        "z"
      ],
      [
        "Ġpers",
        "on"
      ],
      [
        "Ġun",
        "der"
      ],
      [
        "Ġst",
        "r"
      ],
      [
        "Ġwo",
        "uld"
      ],
      [
        "Ġj",
        "apan"
      ],
      [
        "Ġs",
        "ame"
      ],
      [
        "Ġs",
        "uch"
      ],
      [
        "Ġmov",
        "ie"
      ],
      [
        "Ġof",
        "ten"
      ],
      [
        "if",
        "e"
      ],
      [
        "Ġe",
        "uro"
      ],
      [
        "Ġag",
        "ain"
      ],
      [
        "Ġo",
        "ld"
      ],
      [
        "Ġl",
        "ater"
      ],
      [
        "Ġsch",
        "ool"
      ],
      [
        "er",
        "al"
      ],
      [
        "or",
        "k"
      ],
      [
        "ab",
        "le"
      ],
      [
        "l",
        "ow"
      ],
      [
        "Ġw",
        "om"
      ],
      [
        "Ġa",
        "m"
      ],
      [
        "il",
        "y"
      ],
      [
        "Ġf",
        "in"
      ],
      [
        "Ġsm",
        "all"
      ],
      [
        "Ġch",
        "ild"
      ],
      [
        "Ġun",
        "til"
      ],
      [
        "c",
        "ess"
      ],
      [
        "Ġ",
        "ed"
      ],
      [
        "Ġin",
        "tern"
      ],
      [
        "Ġpro",
        "d"
      ],
      [
        "w",
        "ay"
      ],
      [
        "st",
        "em"
      ],
      [
        "Ġmar",
        "ch"
      ],
      [
        "is",
        "ter"
      ],
      [
        "Ġa",
        "ir"
      ],
      [
        "Ġg",
        "erm"
      ],
      [
        "ol",
        "og"
      ],
      [
        "in",
        "t"
      ],
      [
        "at",
        "ive"
      ],
      [
        "Ġm",
        "a"
      ],
      [
        "Ġ",
        "if"
      ],
      [
        "l",
        "ish"
      ],
      [
        "Ġsy",
        "stem"
      ],
      [
        "Ġde",
        "p"
      ],
      [
        "Ġm",
        "at"
      ],
      [
        "am",
        "ed"
      ],
      [
        "i",
        "um"
      ],
      [
        "c",
        "k"
      ],
      [
        "Ġc",
        "al"
      ],
      [
        "Ġs",
        "omet"
      ],
      [
        "Ġe",
        "ar"
      ],
      [
        "Ġan",
        "n"
      ],
      [
        "ro",
        "und"
      ],
      [
        "Ġthe",
        "n"
      ],
      [
        "Ġse",
        "pt"
      ],
      [
        "c",
        "o"
      ],
      [
        "Ġth",
        "ro"
      ],
      [
        "Ġus",
        "ually"
      ],
      [
        "Ġh",
        "igh"
      ],
      [
        "in",
        "a"
      ],
      [
        "in",
        "es"
      ],
      [
        "Ġb",
        "est"
      ],
      [
        "is",
        "hed"
      ],
      [
        "ve",
        "mber"
      ],
      [
        "Ġbo",
        "ok"
      ],
      [
        "Ġhe",
        "l"
      ],
      [
        "Ġj",
        "u"
      ],
      [
        "Ġsept",
        "ember"
      ],
      [
        "Ġno",
        "vember"
      ],
      [
        "p",
        "h"
      ],
      [
        "Ġs",
        "ince"
      ],
      [
        "Ġo",
        "ct"
      ],
      [
        "is",
        "m"
      ],
      [
        "ur",
        "y"
      ],
      [
        "Ġeuro",
        "pe"
      ],
      [
        "en",
        "s"
      ],
      [
        "Ġch",
        "amp"
      ],
      [
        "Ġ",
        "Ċ"
      ],
      [
        "Ġs",
        "w"
      ],
      [
        "Ġpro",
        "v"
      ],
      [
        "Ġc",
        "ity"
      ],
      [
        "Ġde",
        "ce"
      ],
      [
        "Ġcon",
        "s"
      ],
      [
        "Ġa",
        "ug"
      ],
      [
        "Ġl",
        "aw"
      ],
      [
        "b",
        "o"
      ],
      [
        "Ġeng",
        "lish"
      ],
      [
        "Ġbe",
        "fore"
      ],
      [
        "Ġg",
        "et"
      ],
      [
        "Ġdece",
        "mber"
      ],
      [
        "o",
        "ber"
      ],
      [
        "Ġg",
        "u"
      ],
      [
        "ir",
        "d"
      ],
      [
        "Ġpart",
        "y"
      ],
      [
        "Ġj",
        "une"
      ],
      [
        "Ġcomm",
        "on"
      ],
      [
        "l",
        "o"
      ],
      [
        "Ġis",
        "land"
      ],
      [
        "Ġoct",
        "ober"
      ],
      [
        "Ġaug",
        "ust"
      ],
      [
        "Ġbrit",
        "ish"
      ],
      [
        "ow",
        "er"
      ],
      [
        "i",
        "er"
      ],
      [
        "Ġc",
        "he"
      ],
      [
        "Ġs",
        "im"
      ],
      [
        "Ġe",
        "ach"
      ],
      [
        "Ġpl",
        "ace"
      ],
      [
        "Ġstart",
        "ed"
      ],
      [
        "Ġl",
        "oc"
      ],
      [
        "y",
        "s"
      ],
      [
        "Ġbe",
        "ing"
      ],
      [
        "Ġat",
        "t"
      ],
      [
        "Ġg",
        "ames"
      ],
      [
        "res",
        "s"
      ],
      [
        "Ġs",
        "ub"
      ],
      [
        "Ġex",
        "amp"
      ],
      [
        "Ġcountr",
        "y"
      ],
      [
        "Ġh",
        "um"
      ],
      [
        "Ġh",
        "ist"
      ],
      [
        "Ġare",
        "a"
      ],
      [
        "Ġju",
        "ly"
      ],
      [
        "ion",
        "al"
      ],
      [
        "Ġspe",
        "c"
      ],
      [
        "Ġe",
        "ver"
      ],
      [
        "l",
        "l"
      ],
      [
        "a",
        "ir"
      ],
      [
        "Ġl",
        "ive"
      ],
      [
        "c",
        "er"
      ],
      [
        "Ġele",
        "ction"
      ],
      [
        "i",
        "am"
      ],
      [
        "Ġthro",
        "ugh"
      ],
      [
        "ant",
        "s"
      ],
      [
        "Ġle",
        "ad"
      ],
      [
        "r",
        "il"
      ],
      [
        "Ġliv",
        "es"
      ],
      [
        "m",
        "s"
      ],
      [
        "Ġin",
        "st"
      ],
      [
        "Ġf",
        "ol"
      ],
      [
        "od",
        "y"
      ],
      [
        "p",
        "l"
      ],
      [
        "as",
        "on"
      ],
      [
        "Ġar",
        "t"
      ],
      [
        "Ġd",
        "ay"
      ],
      [
        "Ġte",
        "le"
      ],
      [
        "g",
        "r"
      ],
      [
        "g",
        "er"
      ],
      [
        "m",
        "o"
      ],
      [
        "Ġre",
        "t"
      ],
      [
        "if",
        "ic"
      ],
      [
        "Ġwom",
        "en"
      ],
      [
        "Ġrec",
        "ord"
      ],
      [
        "Ġoff",
        "ic"
      ],
      [
        "at",
        "ure"
      ],
      [
        "g",
        "est"
      ],
      [
        "Ġmar",
        "r"
      ],
      [
        "Ġap",
        "ril"
      ],
      [
        "ag",
        "ue"
      ],
      [
        "s",
        "on"
      ],
      [
        "Ġan",
        "y"
      ],
      [
        "Ġd",
        "iv"
      ],
      [
        "Ġw",
        "ell"
      ],
      [
        "Ġw",
        "in"
      ],
      [
        "at",
        "her"
      ],
      [
        "Ġm",
        "ak"
      ],
      [
        "Ġcountr",
        "ies"
      ],
      [
        "an",
        "n"
      ],
      [
        "ig",
        "in"
      ],
      [
        "Ġc",
        "a"
      ],
      [
        "Ġb",
        "ack"
      ],
      [
        "Ġwor",
        "d"
      ],
      [
        "an",
        "k"
      ],
      [
        "br",
        "uary"
      ],
      [
        "Ġcol",
        "le"
      ],
      [
        "u",
        "ct"
      ],
      [
        "Ġh",
        "im"
      ],
      [
        "Ġc",
        "r"
      ],
      [
        "in",
        "k"
      ],
      [
        "Ġfe",
        "bruary"
      ],
      [
        "Ġde",
        "c"
      ],
      [
        "Ġt",
        "erm"
      ],
      [
        "Ġeng",
        "land"
      ],
      [
        "Ġan",
        "im"
      ],
      [
        "Ġw",
        "ay"
      ],
      [
        "ther",
        "n"
      ],
      [
        "Ġb",
        "oth"
      ],
      [
        "Ġs",
        "ur"
      ],
      [
        "u",
        "res"
      ],
      [
        "Ġn",
        "amed"
      ],
      [
        "Ġplay",
        "er"
      ],
      [
        "e",
        "ver"
      ],
      [
        "Ġc",
        "ur"
      ],
      [
        "v",
        "ision"
      ],
      [
        "u",
        "al"
      ],
      [
        "Ġintern",
        "ational"
      ],
      [
        "Ġpro",
        "f"
      ],
      [
        "Ġs",
        "et"
      ],
      [
        "Ġde",
        "ath"
      ],
      [
        "Ġpol",
        "it"
      ],
      [
        "Ġ",
        "ent"
      ],
      [
        "Ġfam",
        "ily"
      ],
      [
        "Ġp",
        "os"
      ],
      [
        "Ġun",
        "ited"
      ],
      [
        "d",
        "om"
      ],
      [
        "ic",
        "a"
      ],
      [
        "a",
        "z"
      ],
      [
        "ut",
        "ion"
      ],
      [
        "Ġchild",
        "ren"
      ],
      [
        "Ġsa",
        "id"
      ],
      [
        "Ġor",
        "igin"
      ],
      [
        "Ġfol",
        "low"
      ],
      [
        "us",
        "s"
      ],
      [
        "Ġim",
        "port"
      ],
      [
        "io",
        "us"
      ],
      [
        "Ġcan",
        "ad"
      ],
      [
        "Ġw",
        "est"
      ],
      [
        "Ġbu",
        "ild"
      ],
      [
        "Ġr",
        "un"
      ],
      [
        "Ġg",
        "iv"
      ],
      [
        "ly",
        "mp"
      ],
      [
        "Ġo",
        "lymp"
      ],
      [
        "i",
        "el"
      ],
      [
        "Ġo",
        "b"
      ],
      [
        "is",
        "s"
      ],
      [
        "Ġv",
        "ide"
      ],
      [
        "Ġle",
        "ague"
      ],
      [
        "Ġhe",
        "ad"
      ],
      [
        "it",
        "s"
      ],
      [
        "Ġl",
        "ife"
      ],
      [
        "ag",
        "es"
      ],
      [
        "Ġser",
        "v"
      ],
      [
        "Ġhel",
        "p"
      ],
      [
        "le",
        "y"
      ],
      [
        "Ġde",
        "f"
      ],
      [
        "Ġb",
        "and"
      ],
      [
        "a",
        "h"
      ],
      [
        "Ġo",
        "wn"
      ],
      [
        "Ġchamp",
        "ions"
      ],
      [
        "Ġor",
        "gan"
      ],
      [
        "Ġcon",
        "st"
      ],
      [
        "Ġst",
        "ar"
      ],
      [
        "ac",
        "es"
      ],
      [
        "it",
        "ies"
      ],
      [
        "Ġtr",
        "ans"
      ],
      [
        "Ġk",
        "e"
      ],
      [
        "Ġexamp",
        "le"
      ],
      [
        "j",
        "ect"
      ],
      [
        "Ġin",
        "v"
      ],
      [
        "ro",
        "p"
      ],
      [
        "ren",
        "t"
      ],
      [
        "Ġin",
        "ter"
      ],
      [
        "Ġd",
        "id"
      ],
      [
        "Ġho",
        "use"
      ],
      [
        "o",
        "od"
      ],
      [
        "Ġcomp",
        "et"
      ],
      [
        "Ġh",
        "ome"
      ],
      [
        "b",
        "e"
      ],
      [
        "t",
        "le"
      ],
      [
        "b",
        "le"
      ],
      [
        "Ġy",
        "ork"
      ],
      [
        "Ġsing",
        "le"
      ],
      [
        "Ġne",
        "ar"
      ],
      [
        "Ġd",
        "ire"
      ],
      [
        "ond",
        "on"
      ],
      [
        "Ġlar",
        "ge"
      ],
      [
        "Ġb",
        "ased"
      ],
      [
        "en",
        "n"
      ],
      [
        "Ġm",
        "ember"
      ],
      [
        "Ġcre",
        "ated"
      ],
      [
        "Ġs",
        "k"
      ],
      [
        "at",
        "ing"
      ],
      [
        "Ġl",
        "ondon"
      ],
      [
        "cient",
        "ists"
      ],
      [
        "Ġn",
        "ow"
      ],
      [
        "Ġse",
        "a"
      ],
      [
        "Ġimport",
        "ant"
      ],
      [
        "o",
        "ther"
      ],
      [
        "Ġa",
        "round"
      ],
      [
        "Ġtele",
        "vision"
      ],
      [
        "Ġme",
        "ans"
      ],
      [
        "a",
        "f"
      ],
      [
        "Ġ",
        "ir"
      ],
      [
        "t",
        "ed"
      ],
      [
        "Ġmarr",
        "ied"
      ],
      [
        "oun",
        "ced"
      ],
      [
        "Ġs",
        "um"
      ],
      [
        "Ġt",
        "re"
      ],
      [
        "re",
        "d"
      ],
      [
        "it",
        "al"
      ],
      [
        "Ġking",
        "dom"
      ],
      [
        "Ġf",
        "il"
      ],
      [
        "Ġl",
        "ast"
      ],
      [
        "vel",
        "op"
      ],
      [
        "Ġm",
        "il"
      ],
      [
        "s",
        "s"
      ],
      [
        "Ġprof",
        "ess"
      ],
      [
        "Ġr",
        "ight"
      ],
      [
        "Ġle",
        "g"
      ],
      [
        "Ġmin",
        "ister"
      ],
      [
        "Ġaustral",
        "ia"
      ],
      [
        "Ġlangu",
        "age"
      ],
      [
        "Ġo",
        "pen"
      ],
      [
        "Ġt",
        "imes"
      ],
      [
        "Ġrep",
        "ublic"
      ],
      [
        "c",
        "y"
      ],
      [
        "Ġvide",
        "o"
      ],
      [
        "Ġde",
        "velop"
      ],
      [
        "Ġe",
        "ast"
      ],
      [
        "Ġever",
        "y"
      ],
      [
        "Ġt",
        "y"
      ],
      [
        "Ġfor",
        "mer"
      ],
      [
        "an",
        "e"
      ],
      [
        "Ġagain",
        "st"
      ],
      [
        "r",
        "al"
      ],
      [
        "Ġchampions",
        "hip"
      ],
      [
        "Ġcl",
        "ub"
      ],
      [
        "ter",
        "s"
      ],
      [
        "Ġb",
        "us"
      ],
      [
        "Ġsomet",
        "imes"
      ],
      [
        "h",
        "n"
      ],
      [
        "Ġse",
        "ver"
      ],
      [
        "Ġb",
        "ig"
      ],
      [
        "th",
        "is"
      ],
      [
        "Ġbe",
        "gan"
      ],
      [
        "ire",
        "d"
      ],
      [
        "Ġspec",
        "ies"
      ],
      [
        "olog",
        "y"
      ],
      [
        "Ġhow",
        "ever"
      ],
      [
        "Ġann",
        "ounced"
      ],
      [
        "Ġse",
        "en"
      ],
      [
        "Ġc",
        "ap"
      ],
      [
        "Ġy",
        "o"
      ],
      [
        "Ġdist",
        "ric"
      ],
      [
        "Ġad",
        "d"
      ],
      [
        "d",
        "ay"
      ],
      [
        "Ġre",
        "d"
      ],
      [
        "in",
        "s"
      ],
      [
        "Ġb",
        "ody"
      ],
      [
        "Ġch",
        "r"
      ],
      [
        "c",
        "r"
      ],
      [
        "c",
        "on"
      ],
      [
        "n",
        "ing"
      ],
      [
        "Ġl",
        "and"
      ],
      [
        "ur",
        "al"
      ],
      [
        "Ġle",
        "vel"
      ],
      [
        "Ġd",
        "own"
      ],
      [
        "v",
        "en"
      ],
      [
        "ib",
        "le"
      ],
      [
        "is",
        "e"
      ],
      [
        "Ġw",
        "ent"
      ],
      [
        "t",
        "y"
      ],
      [
        "Ġe",
        "g"
      ],
      [
        "Ġr",
        "iver"
      ],
      [
        "Ġt",
        "ak"
      ],
      [
        "Ġm",
        "ill"
      ],
      [
        "Ġcomp",
        "any"
      ],
      [
        "the",
        "re"
      ],
      [
        "Ġpop",
        "ular"
      ],
      [
        "Ġth",
        "ings"
      ],
      [
        "es",
        "e"
      ],
      [
        "Ġg",
        "e"
      ],
      [
        "i",
        "et"
      ],
      [
        "Ġrep",
        "res"
      ],
      [
        "m",
        "e"
      ],
      [
        "h",
        "ing"
      ],
      [
        "Ġas",
        "s"
      ],
      [
        "Ġk",
        "ill"
      ],
      [
        "Ġhe",
        "ld"
      ],
      [
        "Ġse",
        "ason"
      ],
      [
        "Ġi",
        "i"
      ],
      [
        "a",
        "i"
      ],
      [
        "Ġo",
        "per"
      ],
      [
        "Ġar",
        "m"
      ],
      [
        "Ġdire",
        "ct"
      ],
      [
        "Ġcent",
        "ury"
      ],
      [
        "f",
        "ul"
      ],
      [
        "he",
        "n"
      ],
      [
        "Ġf",
        "ar"
      ],
      [
        "Ġm",
        "id"
      ],
      [
        "Ġit",
        "al"
      ],
      [
        "Ġe",
        "m"
      ],
      [
        "Ġinclud",
        "ing"
      ],
      [
        "t",
        "ing"
      ],
      [
        "Ġe",
        "as"
      ],
      [
        "Ġro",
        "ck"
      ],
      [
        "h",
        "y"
      ],
      [
        "Ġgo",
        "od"
      ],
      [
        "Ġs",
        "en"
      ],
      [
        "are",
        "d"
      ],
      [
        "Ġgen",
        "eral"
      ],
      [
        "Ġsever",
        "al"
      ],
      [
        "ar",
        "k"
      ],
      [
        "Ġgre",
        "at"
      ],
      [
        "Ġac",
        "c"
      ],
      [
        "at",
        "ic"
      ],
      [
        "al",
        "th"
      ],
      [
        "Ġcl",
        "ass"
      ],
      [
        "Ġh",
        "ap"
      ],
      [
        "Ġwrit",
        "ten"
      ],
      [
        "x",
        "t"
      ],
      [
        "Ġe",
        "p"
      ],
      [
        "Ġde",
        "m"
      ],
      [
        "Ġp",
        "ublic"
      ],
      [
        "i",
        "k"
      ],
      [
        "Ġma",
        "j"
      ],
      [
        "Ġb",
        "re"
      ],
      [
        "at",
        "s"
      ],
      [
        "Ġj",
        "ust"
      ],
      [
        "Ġcur",
        "rent"
      ],
      [
        "Ġs",
        "ign"
      ],
      [
        "Ġc",
        "are"
      ],
      [
        "Ġca",
        "us"
      ],
      [
        "Ġmember",
        "s"
      ],
      [
        "ur",
        "s"
      ],
      [
        "Ġw",
        "al"
      ],
      [
        "am",
        "m"
      ],
      [
        "ie",
        "w"
      ],
      [
        "as",
        "h"
      ],
      [
        "ow",
        "s"
      ],
      [
        "Ġchar",
        "act"
      ],
      [
        "art",
        "h"
      ],
      [
        "Ġto",
        "p"
      ],
      [
        "Ġear",
        "ly"
      ],
      [
        "om",
        "in"
      ],
      [
        "Ġwh",
        "at"
      ],
      [
        "Ġp",
        "ower"
      ],
      [
        "es",
        "tern"
      ],
      [
        "Ġv",
        "ar"
      ],
      [
        "Ġs",
        "ol"
      ],
      [
        "iz",
        "ed"
      ],
      [
        "ul",
        "l"
      ],
      [
        "Ġst",
        "re"
      ],
      [
        "Ġth",
        "ough"
      ],
      [
        "Ġjo",
        "hn"
      ],
      [
        "c",
        "c"
      ],
      [
        "os",
        "ed"
      ],
      [
        "Ġa",
        "mer"
      ],
      [
        "Ġ",
        "x"
      ],
      [
        "Ġl",
        "ight"
      ],
      [
        "Ġpl",
        "aces"
      ],
      [
        "Ġdo",
        "es"
      ],
      [
        "b",
        "y"
      ],
      [
        "Ġan",
        "other"
      ],
      [
        "Ġth",
        "ird"
      ],
      [
        "Ġcomm",
        "un"
      ],
      [
        "am",
        "s"
      ],
      [
        "k",
        "et"
      ],
      [
        "Ġs",
        "ix"
      ],
      [
        "iel",
        "d"
      ],
      [
        "Ġan",
        "g"
      ],
      [
        "Ġe",
        "l"
      ],
      [
        "Ġmo",
        "un"
      ],
      [
        "Ġch",
        "ur"
      ],
      [
        "Ġhist",
        "ory"
      ],
      [
        "Ġhum",
        "an"
      ],
      [
        "Ġsum",
        "mer"
      ],
      [
        "Ġst",
        "ill"
      ],
      [
        "f",
        "l"
      ],
      [
        "Ġne",
        "ed"
      ],
      [
        "os",
        "p"
      ],
      [
        "Ġmaj",
        "or"
      ],
      [
        "Ġreg",
        "ion"
      ],
      [
        "Ġp",
        "ubl"
      ],
      [
        "Ġdistric",
        "t"
      ],
      [
        "Ġm",
        "uch"
      ],
      [
        "ian",
        "s"
      ],
      [
        "Ġc",
        "ro"
      ],
      [
        "Ġb",
        "ar"
      ],
      [
        "Ġco",
        "uld"
      ],
      [
        "Ġsh",
        "ort"
      ],
      [
        "Ġstud",
        "io"
      ],
      [
        "Ġgiv",
        "en"
      ],
      [
        "Ġsh",
        "o"
      ],
      [
        "ain",
        "s"
      ],
      [
        "v",
        "ent"
      ],
      [
        "Ġbl",
        "ack"
      ],
      [
        "Ġsc",
        "ot"
      ],
      [
        "Ġpro",
        "t"
      ],
      [
        "Ġl",
        "it"
      ],
      [
        "Ġmo",
        "ve"
      ],
      [
        "ut",
        "e"
      ],
      [
        "Ġchr",
        "ist"
      ],
      [
        "il",
        "t"
      ],
      [
        "Ġc",
        "up"
      ],
      [
        "Ġpro",
        "gr"
      ],
      [
        "ur",
        "t"
      ],
      [
        "Ġwh",
        "ite"
      ],
      [
        "Ġpart",
        "s"
      ],
      [
        "Ġh",
        "ar"
      ],
      [
        "in",
        "ed"
      ],
      [
        "l",
        "ing"
      ],
      [
        "is",
        "on"
      ],
      [
        "Ġwh",
        "ile"
      ],
      [
        "Ġre",
        "m"
      ],
      [
        "Ġt",
        "it"
      ],
      [
        "iv",
        "ed"
      ],
      [
        "Ġlar",
        "gest"
      ],
      [
        "che",
        "s"
      ],
      [
        "Ġcont",
        "ro"
      ],
      [
        "a",
        "x"
      ],
      [
        "Ġle",
        "ft"
      ],
      [
        "Ġaf",
        "ric"
      ],
      [
        "Ġs",
        "u"
      ],
      [
        "Ġper",
        "form"
      ],
      [
        "Ġr",
        "uss"
      ],
      [
        "Ġev",
        "en"
      ],
      [
        "Ġf",
        "ive"
      ],
      [
        "s",
        "h"
      ],
      [
        "b",
        "s"
      ],
      [
        "on",
        "y"
      ],
      [
        "un",
        "g"
      ],
      [
        "Ġso",
        "u"
      ],
      [
        "Ġpar",
        "k"
      ],
      [
        "Ġc",
        "or"
      ],
      [
        "Ġamer",
        "ica"
      ],
      [
        "Ġh",
        "y"
      ],
      [
        "if",
        "orn"
      ],
      [
        "o",
        "ve"
      ],
      [
        "u",
        "ction"
      ],
      [
        "el",
        "f"
      ],
      [
        "en",
        "g"
      ],
      [
        "Ġb",
        "as"
      ],
      [
        "Ġcal",
        "iforn"
      ],
      [
        "Ġsp",
        "ort"
      ],
      [
        "s",
        "he"
      ],
      [
        "Ġf",
        "em"
      ],
      [
        "Ġt",
        "er"
      ],
      [
        "Ġp",
        "ass"
      ],
      [
        "Ġl",
        "a"
      ],
      [
        "r",
        "ap"
      ],
      [
        "Ġv",
        "ol"
      ],
      [
        "Ġy",
        "oun"
      ],
      [
        "art",
        "ment"
      ],
      [
        "Ġind",
        "ia"
      ],
      [
        "Ġrepres",
        "ent"
      ],
      [
        "Ġl",
        "ine"
      ],
      [
        "Ġcaliforn",
        "ia"
      ],
      [
        "iz",
        "e"
      ],
      [
        "Ġin",
        "c"
      ],
      [
        "Ġfo",
        "rest"
      ],
      [
        "Ġv",
        "al"
      ],
      [
        "Ġcolle",
        "ge"
      ],
      [
        "Ġhap",
        "pen"
      ],
      [
        "d",
        "e"
      ],
      [
        "Ġp",
        "a"
      ],
      [
        "Ġph",
        "il"
      ],
      [
        "oc",
        "k"
      ],
      [
        "Ġab",
        "ove"
      ],
      [
        "Ġyo",
        "u"
      ],
      [
        "Ġlo",
        "ok"
      ],
      [
        "ren",
        "ch"
      ],
      [
        "Ġw",
        "estern"
      ],
      [
        "uc",
        "ed"
      ],
      [
        "Ġe",
        "mp"
      ],
      [
        "Ġst",
        "ation"
      ],
      [
        "Ġe",
        "arth"
      ],
      [
        "ce",
        "pt"
      ],
      [
        "Ġfr",
        "ance"
      ],
      [
        "Ġor",
        "der"
      ],
      [
        "Ġprofess",
        "ional"
      ],
      [
        "Ġbel",
        "ie"
      ],
      [
        "Ġgerm",
        "any"
      ],
      [
        "ugh",
        "t"
      ],
      [
        "Ġs",
        "l"
      ],
      [
        "Ġu",
        "k"
      ],
      [
        "Ġaustral",
        "ian"
      ],
      [
        "Ġgerm",
        "an"
      ],
      [
        "Ġbu",
        "ilt"
      ],
      [
        "Ġto",
        "ok"
      ],
      [
        "Ġs",
        "cientists"
      ],
      [
        "e",
        "w"
      ],
      [
        "Ġev",
        "ent"
      ],
      [
        "on",
        "t"
      ],
      [
        "Ġprov",
        "ince"
      ],
      [
        "er",
        "ed"
      ],
      [
        "s",
        "ide"
      ],
      [
        "Ġliv",
        "ing"
      ],
      [
        "Ġc",
        "er"
      ],
      [
        "at",
        "or"
      ],
      [
        "Ġmill",
        "ion"
      ],
      [
        "et",
        "s"
      ],
      [
        "n",
        "er"
      ],
      [
        "Ġf",
        "rench"
      ],
      [
        "Ġh",
        "ol"
      ],
      [
        "Ġchur",
        "ch"
      ],
      [
        "Ġfam",
        "ous"
      ],
      [
        "Ġfil",
        "m"
      ],
      [
        "on",
        "es"
      ],
      [
        "g",
        "en"
      ],
      [
        "Ġl",
        "ot"
      ],
      [
        "Ġr",
        "ul"
      ],
      [
        "le",
        "t"
      ],
      [
        "st",
        "er"
      ],
      [
        "Ġt",
        "em"
      ],
      [
        "Ġex",
        "p"
      ],
      [
        "Ġatt",
        "ack"
      ],
      [
        "id",
        "ed"
      ],
      [
        "Ġpr",
        "ime"
      ],
      [
        "a",
        "e"
      ],
      [
        "Ġspe",
        "cial"
      ],
      [
        "Ġdep",
        "artment"
      ],
      [
        "Ġpro",
        "ble"
      ],
      [
        "Ġcent",
        "ral"
      ],
      [
        "Ġchang",
        "e"
      ],
      [
        "Ġche",
        "m"
      ],
      [
        "Ġpubl",
        "ished"
      ],
      [
        "i",
        "od"
      ],
      [
        "m",
        "in"
      ],
      [
        "em",
        "ent"
      ],
      [
        "Ġo",
        "p"
      ],
      [
        "Ġse",
        "e"
      ],
      [
        "Ġre",
        "ce"
      ],
      [
        "Ġcomp",
        "ut"
      ],
      [
        "ge",
        "ther"
      ],
      [
        "Ġeurope",
        "an"
      ],
      [
        "Ġmoun",
        "tain"
      ],
      [
        "Ġr",
        "ad"
      ],
      [
        "Ġbec",
        "ome"
      ],
      [
        "oc",
        "r"
      ],
      [
        "Ġs",
        "ay"
      ],
      [
        "mo",
        "st"
      ],
      [
        "Ġsup",
        "port"
      ],
      [
        "Ġs",
        "uc"
      ],
      [
        "Ġag",
        "ed"
      ],
      [
        "u",
        "es"
      ],
      [
        "Ġ",
        "est"
      ],
      [
        "Ġde",
        "b"
      ],
      [
        "ac",
        "ed"
      ],
      [
        "Ġaward",
        "s"
      ],
      [
        "el",
        "s"
      ],
      [
        "ke",
        "y"
      ],
      [
        "Ġre",
        "v"
      ],
      [
        "Ġm",
        "en"
      ],
      [
        "af",
        "ter"
      ],
      [
        "Ġb",
        "at"
      ],
      [
        "y",
        "ing"
      ],
      [
        "Ġs",
        "old"
      ],
      [
        "Ġeg",
        "g"
      ],
      [
        "so",
        "ci"
      ],
      [
        "Ġf",
        "if"
      ],
      [
        "ic",
        "es"
      ],
      [
        "Ġto",
        "gether"
      ],
      [
        "Ġ",
        "es"
      ],
      [
        "ur",
        "g"
      ],
      [
        "Ġme",
        "an"
      ],
      [
        "Ġmon",
        "th"
      ],
      [
        "g",
        "in"
      ],
      [
        "il",
        "ar"
      ],
      [
        "Ġcont",
        "in"
      ],
      [
        "Ġc",
        "amp"
      ],
      [
        "Ġst",
        "and"
      ],
      [
        "am",
        "a"
      ],
      [
        "Ġp",
        "ut"
      ],
      [
        "ist",
        "an"
      ],
      [
        "Ġto",
        "wn"
      ],
      [
        "Ġas",
        "soci"
      ],
      [
        "Ġdes",
        "ign"
      ],
      [
        "l",
        "ed"
      ],
      [
        "Ġs",
        "ci"
      ],
      [
        "er",
        "g"
      ],
      [
        "ect",
        "ed"
      ],
      [
        "Ġnor",
        "thern"
      ],
      [
        "Ġ",
        "ide"
      ],
      [
        "Ġm",
        "ag"
      ],
      [
        "ang",
        "e"
      ],
      [
        "ment",
        "s"
      ],
      [
        "Ġgro",
        "w"
      ],
      [
        "Ġim",
        "p"
      ],
      [
        "Ġth",
        "ink"
      ],
      [
        "Ġw",
        "ant"
      ],
      [
        "as",
        "es"
      ],
      [
        "Ġh",
        "ig"
      ],
      [
        "Ġe",
        "qu"
      ],
      [
        "Ġver",
        "sion"
      ],
      [
        "Ġper",
        "iod"
      ],
      [
        "n",
        "a"
      ],
      [
        "Ġa",
        "v"
      ],
      [
        "ep",
        "end"
      ],
      [
        "Ġg",
        "old"
      ],
      [
        "Ġgovern",
        "or"
      ],
      [
        "Ġlangu",
        "ages"
      ],
      [
        "Ġrep",
        "l"
      ],
      [
        "Ġin",
        "t"
      ],
      [
        "Ġfe",
        "w"
      ],
      [
        "r",
        "on"
      ],
      [
        "Ġc",
        "ult"
      ],
      [
        "Ġdem",
        "ocr"
      ],
      [
        "Ġl",
        "os"
      ],
      [
        "Ġr",
        "a"
      ],
      [
        "Ġch",
        "ina"
      ],
      [
        "ne",
        "y"
      ],
      [
        "Ġsim",
        "ilar"
      ],
      [
        "Ġc",
        "ame"
      ],
      [
        "Ġolymp",
        "ics"
      ],
      [
        "er",
        "v"
      ],
      [
        "Ġnew",
        "s"
      ],
      [
        "Ġmov",
        "ed"
      ],
      [
        "Ġfollow",
        "ing"
      ],
      [
        "ul",
        "ation"
      ],
      [
        "Ġcol",
        "or"
      ],
      [
        "Ġoff",
        "ice"
      ],
      [
        "Ġfound",
        "ed"
      ],
      [
        "Ġcomp",
        "le"
      ],
      [
        "Ġs",
        "on"
      ],
      [
        "Ġus",
        "ing"
      ],
      [
        "Ġpar",
        "l"
      ],
      [
        "id",
        "es"
      ],
      [
        "Ġpolit",
        "ical"
      ],
      [
        "is",
        "ed"
      ],
      [
        "Ġstud",
        "ied"
      ],
      [
        "Ġm",
        "y"
      ],
      [
        "Ġk",
        "ind"
      ],
      [
        "Ġwork",
        "ed"
      ],
      [
        "Ġo",
        "cc"
      ],
      [
        "Ġqu",
        "e"
      ],
      [
        "Ġv",
        "ot"
      ],
      [
        "one",
        "y"
      ],
      [
        "Ġconst",
        "it"
      ],
      [
        "Ġn",
        "at"
      ],
      [
        "Ġind",
        "epend"
      ],
      [
        "Ġr",
        "ail"
      ],
      [
        "Ġf",
        "un"
      ],
      [
        "Ġpart",
        "ic"
      ],
      [
        "Ġparl",
        "iam"
      ],
      [
        "Ġc",
        "at"
      ],
      [
        "iv",
        "es"
      ],
      [
        "Ġso",
        "cial"
      ],
      [
        "Ġcanad",
        "a"
      ],
      [
        "Ġm",
        "ass"
      ],
      [
        "Ġun",
        "ion"
      ],
      [
        "Ġty",
        "p"
      ],
      [
        "Ġst",
        "op"
      ],
      [
        "Ġf",
        "ed"
      ],
      [
        "Ġmak",
        "ing"
      ],
      [
        "Ġl",
        "ist"
      ],
      [
        "Ġanim",
        "als"
      ],
      [
        "Ġparliam",
        "ent"
      ],
      [
        "Ġw",
        "rest"
      ],
      [
        "Ġn",
        "omin"
      ],
      [
        "Ġt",
        "ake"
      ],
      [
        "ag",
        "o"
      ],
      [
        "Ġfo",
        "od"
      ],
      [
        "or",
        "ies"
      ],
      [
        "Ġf",
        "ather"
      ],
      [
        "Ġfrog",
        "s"
      ],
      [
        "Ġro",
        "man"
      ],
      [
        "Ġteam",
        "s"
      ],
      [
        "Ġfem",
        "ale"
      ],
      [
        "Ġs",
        "al"
      ],
      [
        "Ġp",
        "ort"
      ],
      [
        "Ġs",
        "ide"
      ],
      [
        "i",
        "or"
      ],
      [
        "ad",
        "em"
      ],
      [
        "ction",
        "s"
      ],
      [
        "Ġbuild",
        "ing"
      ],
      [
        "Ġelect",
        "ed"
      ],
      [
        "Ġl",
        "et"
      ],
      [
        "um",
        "p"
      ],
      [
        "Ġgen",
        "er"
      ],
      [
        "Ġoffic",
        "ial"
      ],
      [
        "Ġp",
        "at"
      ],
      [
        "Ġso",
        "und"
      ],
      [
        "Ġt",
        "al"
      ],
      [
        "Ġmo",
        "d"
      ],
      [
        "Ġv",
        "ict"
      ],
      [
        "ro",
        "te"
      ],
      [
        "Ġcon",
        "d"
      ],
      [
        "Ġgre",
        "en"
      ],
      [
        "Ġw",
        "ind"
      ],
      [
        "Ġg",
        "od"
      ],
      [
        "Ġro",
        "le"
      ],
      [
        "og",
        "rap"
      ],
      [
        "Ġinclud",
        "e"
      ],
      [
        "Ġaf",
        "f"
      ],
      [
        "Ġdis",
        "e"
      ],
      [
        "Ġyoun",
        "g"
      ],
      [
        "con",
        "om"
      ],
      [
        "re",
        "t"
      ],
      [
        "ro",
        "m"
      ],
      [
        "Ġt",
        "ree"
      ],
      [
        "Ġz",
        "e"
      ],
      [
        "Ġchang",
        "ed"
      ],
      [
        "Ġpl",
        "ants"
      ],
      [
        "Ġv",
        "ir"
      ],
      [
        "Ġp",
        "al"
      ],
      [
        "Ġcent",
        "er"
      ],
      [
        "it",
        "ary"
      ],
      [
        "h",
        "am"
      ],
      [
        "Ġh",
        "osp"
      ],
      [
        "Ġe",
        "conom"
      ],
      [
        "Ġfin",
        "al"
      ],
      [
        "Ġw",
        "rote"
      ],
      [
        "Ġg",
        "ot"
      ],
      [
        "Ġro",
        "y"
      ],
      [
        "Ġorigin",
        "al"
      ],
      [
        "Ġcharact",
        "er"
      ],
      [
        "Ġcon",
        "f"
      ],
      [
        "Ġep",
        "is"
      ],
      [
        "Ġegg",
        "s"
      ],
      [
        "Ġb",
        "ill"
      ],
      [
        "Ġend",
        "ed"
      ],
      [
        "Ġapp",
        "ear"
      ],
      [
        "Ġre",
        "f"
      ],
      [
        "Ġliv",
        "ed"
      ],
      [
        "v",
        "es"
      ],
      [
        "Ġjapan",
        "ese"
      ],
      [
        "Ġmo",
        "der"
      ],
      [
        "Ġgro",
        "und"
      ],
      [
        "Ġdes",
        "cr"
      ],
      [
        "Ġne",
        "xt"
      ],
      [
        "Ġac",
        "adem"
      ],
      [
        "s",
        "y"
      ],
      [
        "Ġm",
        "ust"
      ],
      [
        "Ġst",
        "ory"
      ],
      [
        "t",
        "al"
      ],
      [
        "Ġd",
        "ays"
      ],
      [
        "Ġe",
        "ff"
      ],
      [
        "Ġm",
        "oney"
      ],
      [
        "Ġre",
        "al"
      ],
      [
        "ber",
        "t"
      ],
      [
        "Ġar",
        "r"
      ],
      [
        "Ġs",
        "ent"
      ],
      [
        "od",
        "e"
      ],
      [
        "d",
        "le"
      ],
      [
        "Ġm",
        "al"
      ],
      [
        "Ġn",
        "et"
      ],
      [
        "Ġth",
        "ose"
      ],
      [
        "id",
        "ge"
      ],
      [
        "Ġmov",
        "ies"
      ],
      [
        "Ġd",
        "i"
      ],
      [
        "Ġ",
        "ve"
      ],
      [
        "Ġre",
        "st"
      ],
      [
        "Ġco",
        "ver"
      ],
      [
        "Ġafric",
        "a"
      ],
      [
        "Ġv",
        "i"
      ],
      [
        "Ġplay",
        "s"
      ],
      [
        "Ġc",
        "y"
      ],
      [
        "Ġco",
        "urt"
      ],
      [
        "Ġsuc",
        "cess"
      ],
      [
        "Ġst",
        "at"
      ],
      [
        "uc",
        "k"
      ],
      [
        "av",
        "ing"
      ],
      [
        "Ġmak",
        "es"
      ],
      [
        "Ġhe",
        "alth"
      ],
      [
        "Ġres",
        "p"
      ],
      [
        "Ġkill",
        "ed"
      ],
      [
        "Ġtr",
        "ad"
      ],
      [
        "Ġchem",
        "ical"
      ],
      [
        "Ġspe",
        "ak"
      ],
      [
        "Ġh",
        "al"
      ],
      [
        "Ġf",
        "ree"
      ],
      [
        "Ġl",
        "ab"
      ],
      [
        "Ġ",
        "ill"
      ],
      [
        "iz",
        "ation"
      ],
      [
        "Ġret",
        "urn"
      ],
      [
        "is",
        "sion"
      ],
      [
        "Ġcaus",
        "ed"
      ],
      [
        "Ġmet",
        "ers"
      ],
      [
        "Ġan",
        "t"
      ],
      [
        "ch",
        "n"
      ],
      [
        "Ġsy",
        "m"
      ],
      [
        "c",
        "il"
      ],
      [
        "Ġf",
        "re"
      ],
      [
        "Ġform",
        "ed"
      ],
      [
        "p",
        "le"
      ],
      [
        "Ġpl",
        "an"
      ],
      [
        "r",
        "i"
      ],
      [
        "Ġc",
        "iv"
      ],
      [
        "p",
        "ar"
      ],
      [
        "Ġsou",
        "thern"
      ],
      [
        "f",
        "ord"
      ],
      [
        "Ġb",
        "or"
      ],
      [
        "Ġgroup",
        "s"
      ],
      [
        "o",
        "ur"
      ],
      [
        "Ġh",
        "and"
      ],
      [
        "Ġrece",
        "ived"
      ],
      [
        "Ġal",
        "ong"
      ],
      [
        "Ġk",
        "ore"
      ],
      [
        "an",
        "c"
      ],
      [
        "al",
        "and"
      ],
      [
        "Ġl",
        "ess"
      ],
      [
        "Ġt",
        "est"
      ],
      [
        "al",
        "d"
      ],
      [
        "l",
        "er"
      ],
      [
        "it",
        "ions"
      ],
      [
        "Ġb",
        "ir"
      ],
      [
        "Ġcare",
        "er"
      ],
      [
        "w",
        "ays"
      ],
      [
        "Ġg",
        "l"
      ],
      [
        "Ġmoder",
        "n"
      ],
      [
        "il",
        "le"
      ],
      [
        "Ġserv",
        "ice"
      ],
      [
        "p",
        "ed"
      ],
      [
        "in",
        "o"
      ],
      [
        "Ġc",
        "e"
      ],
      [
        "av",
        "es"
      ],
      [
        "in",
        "c"
      ],
      [
        "Ġd",
        "ue"
      ],
      [
        "Ġar",
        "ch"
      ],
      [
        "w",
        "hen"
      ],
      [
        "in",
        "ess"
      ],
      [
        "Ġv",
        "is"
      ],
      [
        "Ġhe",
        "art"
      ],
      [
        "Ġciv",
        "il"
      ],
      [
        "Ġd",
        "on"
      ],
      [
        "ie",
        "f"
      ],
      [
        "Ġ",
        "er"
      ],
      [
        "at",
        "a"
      ],
      [
        "Ġwith",
        "out"
      ],
      [
        "Ġisland",
        "s"
      ],
      [
        "ore",
        "d"
      ],
      [
        "Ġsci",
        "ence"
      ],
      [
        "Ġgr",
        "and"
      ],
      [
        "Ġge",
        "or"
      ],
      [
        "as",
        "ter"
      ],
      [
        "Ġd",
        "a"
      ],
      [
        "Ġh",
        "ard"
      ],
      [
        "Ġst",
        "e"
      ],
      [
        "Ġdescr",
        "ib"
      ],
      [
        "iv",
        "al"
      ],
      [
        "Ġwork",
        "s"
      ],
      [
        "Ġdeb",
        "ut"
      ],
      [
        "Ġze",
        "aland"
      ],
      [
        "n",
        "ess"
      ],
      [
        "id",
        "s"
      ],
      [
        "Ġwe",
        "e"
      ],
      [
        "Ġrel",
        "ig"
      ],
      [
        "Ġroy",
        "al"
      ],
      [
        "Ġlead",
        "er"
      ],
      [
        "land",
        "s"
      ],
      [
        "ra",
        "ft"
      ],
      [
        "Ġmid",
        "dle"
      ],
      [
        "re",
        "ad"
      ],
      [
        "Ġm",
        "ot"
      ],
      [
        "Ġh",
        "ot"
      ],
      [
        "Ġcanad",
        "ian"
      ],
      [
        "Ġmil",
        "itary"
      ],
      [
        "ang",
        "er"
      ],
      [
        "Ġp",
        "et"
      ],
      [
        "y",
        "n"
      ],
      [
        "Ġd",
        "el"
      ],
      [
        "Ġent",
        "er"
      ],
      [
        "ul",
        "a"
      ],
      [
        "Ġpres",
        "ent"
      ],
      [
        "Ġsong",
        "s"
      ],
      [
        "Ġarm",
        "y"
      ],
      [
        "Ġhosp",
        "ital"
      ],
      [
        "h",
        "o"
      ],
      [
        "Ġo",
        "x"
      ],
      [
        "le",
        "ct"
      ],
      [
        "Ġmost",
        "ly"
      ],
      [
        "Ġl",
        "at"
      ],
      [
        "Ġother",
        "s"
      ],
      [
        "Ġman",
        "ag"
      ],
      [
        "ap",
        "e"
      ],
      [
        "Ġbook",
        "s"
      ],
      [
        "Ġital",
        "y"
      ],
      [
        "Ġte",
        "chn"
      ],
      [
        "Ġpop",
        "ulation"
      ],
      [
        "Ġshow",
        "s"
      ],
      [
        "Ġc",
        "rit"
      ],
      [
        "Ġthough",
        "t"
      ],
      [
        "e",
        "c"
      ],
      [
        "l",
        "s"
      ],
      [
        "if",
        "ied"
      ],
      [
        "Ġs",
        "un"
      ],
      [
        "an",
        "a"
      ],
      [
        "ro",
        "d"
      ],
      [
        "Ġsp",
        "ace"
      ],
      [
        "Ġcoun",
        "cil"
      ],
      [
        "Ġp",
        "ain"
      ],
      [
        "ad",
        "u"
      ],
      [
        "Ġnat",
        "ural"
      ],
      [
        "p",
        "or"
      ],
      [
        "Ġs",
        "qu"
      ],
      [
        "Ġa",
        "way"
      ],
      [
        "Ġf",
        "ield"
      ],
      [
        "Ġd",
        "one"
      ],
      [
        "Ġall",
        "ow"
      ],
      [
        "ra",
        "z"
      ],
      [
        "Ġpo",
        "int"
      ],
      [
        "am",
        "ent"
      ],
      [
        "ure",
        "d"
      ],
      [
        "Ġforest",
        "s"
      ],
      [
        "Ġto",
        "tal"
      ],
      [
        "Ġcomput",
        "er"
      ],
      [
        "en",
        "e"
      ],
      [
        "s",
        "ome"
      ],
      [
        "Ġh",
        "on"
      ],
      [
        "Ġed",
        "uc"
      ],
      [
        "Ġter",
        "rit"
      ],
      [
        "il",
        "ity"
      ],
      [
        "ist",
        "r"
      ],
      [
        "Ġdise",
        "ase"
      ],
      [
        "Ġst",
        "ates"
      ],
      [
        "Ġare",
        "as"
      ],
      [
        "Ġpo",
        "st"
      ],
      [
        "Ġmo",
        "ther"
      ],
      [
        "u",
        "ed"
      ],
      [
        "Ġre",
        "fer"
      ],
      [
        "Ġa",
        "ut"
      ],
      [
        "Ġcom",
        "es"
      ],
      [
        "Ġph",
        "ys"
      ],
      [
        "Ġd",
        "et"
      ],
      [
        "Ġm",
        "ult"
      ],
      [
        "Ġsport",
        "s"
      ],
      [
        "Ġt",
        "urn"
      ],
      [
        "Ġind",
        "ian"
      ],
      [
        "o",
        "v"
      ],
      [
        "Ġb",
        "ad"
      ],
      [
        "ar",
        "s"
      ],
      [
        "Ġrep",
        "ort"
      ],
      [
        "Ġhist",
        "or"
      ],
      [
        "p",
        "os"
      ],
      [
        "Ġg",
        "ree"
      ],
      [
        "Ġf",
        "ind"
      ],
      [
        "Ġkn",
        "ow"
      ],
      [
        "n",
        "ot"
      ],
      [
        "Ġsup",
        "er"
      ],
      [
        "Ġlo",
        "st"
      ],
      [
        "Ġm",
        "ale"
      ],
      [
        "Ġex",
        "t"
      ],
      [
        "Ġse",
        "x"
      ],
      [
        "Ġloc",
        "al"
      ],
      [
        "en",
        "ces"
      ],
      [
        "Ġto",
        "ur"
      ],
      [
        "Ġtyp",
        "es"
      ],
      [
        "ap",
        "er"
      ],
      [
        "Ġob",
        "ject"
      ],
      [
        "Ġbro",
        "ad"
      ],
      [
        "Ġcons",
        "id"
      ],
      [
        "Ġeas",
        "tern"
      ],
      [
        "Ġin",
        "form"
      ],
      [
        "Ġword",
        "s"
      ],
      [
        "en",
        "cy"
      ],
      [
        "Ġproble",
        "ms"
      ],
      [
        "Ġemp",
        "ire"
      ],
      [
        "Ġto",
        "o"
      ],
      [
        "Ġch",
        "ic"
      ],
      [
        "um",
        "b"
      ],
      [
        "Ġco",
        "ast"
      ],
      [
        "Ġacadem",
        "y"
      ],
      [
        "Ġpos",
        "s"
      ],
      [
        "Ġolymp",
        "ic"
      ],
      [
        "Ġ",
        "ire"
      ],
      [
        "Ġcan",
        "cer"
      ],
      [
        "e",
        "ad"
      ],
      [
        "ol",
        "ution"
      ],
      [
        "Ġad",
        "v"
      ],
      [
        "Ġro",
        "ad"
      ],
      [
        "Ġsomet",
        "hing"
      ],
      [
        "Ġc",
        "op"
      ],
      [
        "Ġin",
        "f"
      ],
      [
        "Ġsing",
        "er"
      ],
      [
        "om",
        "s"
      ],
      [
        "qu",
        "e"
      ],
      [
        "Ġad",
        "min"
      ],
      [
        "Ġf",
        "act"
      ],
      [
        "Ġcom",
        "e"
      ],
      [
        "end",
        "s"
      ],
      [
        "k",
        "ed"
      ],
      [
        "Ġs",
        "n"
      ],
      [
        "ar",
        "ch"
      ],
      [
        "Ġne",
        "ver"
      ],
      [
        "Ġl",
        "im"
      ],
      [
        "Ġloc",
        "ated"
      ],
      [
        "Ġp",
        "ak"
      ],
      [
        "Ġap",
        "pe"
      ],
      [
        "Ġstr",
        "ong"
      ],
      [
        "Ġprod",
        "uced"
      ],
      [
        "he",
        "s"
      ],
      [
        "Ġcompet",
        "ed"
      ],
      [
        "he",
        "m"
      ],
      [
        "Ġsec",
        "ret"
      ],
      [
        "Ġres",
        "ear"
      ],
      [
        "Ġb",
        "ird"
      ],
      [
        "b",
        "urg"
      ],
      [
        "x",
        "ic"
      ],
      [
        "Ġire",
        "land"
      ],
      [
        "Ġg",
        "ir"
      ],
      [
        "Ġtak",
        "en"
      ],
      [
        "Ġb",
        "i"
      ],
      [
        "Ġpro",
        "cess"
      ],
      [
        "i",
        "ally"
      ],
      [
        "Ġch",
        "ann"
      ],
      [
        "ip",
        "p"
      ],
      [
        "Ġex",
        "pl"
      ],
      [
        "Ġbus",
        "iness"
      ],
      [
        "Ġc",
        "am"
      ],
      [
        "Ġto",
        "day"
      ],
      [
        "Ġcon",
        "tr"
      ],
      [
        "Ġc",
        "ell"
      ],
      [
        "Ġd",
        "anger"
      ],
      [
        "Ġtr",
        "ain"
      ],
      [
        "Ġn",
        "on"
      ],
      [
        "Ġplay",
        "ing"
      ],
      [
        "Ġser",
        "ved"
      ],
      [
        "Ġfl",
        "ag"
      ],
      [
        "Ġo",
        "ce"
      ],
      [
        "Ġind",
        "ustr"
      ],
      [
        "erg",
        "y"
      ],
      [
        "f",
        "or"
      ],
      [
        "Ġcon",
        "g"
      ],
      [
        "a",
        "u"
      ],
      [
        "Ġchic",
        "ago"
      ],
      [
        "Ġright",
        "s"
      ],
      [
        "Ġang",
        "el"
      ],
      [
        "y",
        "le"
      ],
      [
        "ect",
        "s"
      ],
      [
        "b",
        "a"
      ],
      [
        "e",
        "y"
      ],
      [
        "w",
        "ork"
      ],
      [
        "Ġde",
        "ad"
      ],
      [
        "Ġcomm",
        "it"
      ],
      [
        "ot",
        "s"
      ],
      [
        "Ġb",
        "ur"
      ],
      [
        "Ġc",
        "and"
      ],
      [
        "Ġh",
        "it"
      ],
      [
        "et",
        "y"
      ],
      [
        "Ġplay",
        "ers"
      ],
      [
        "Ġf",
        "all"
      ],
      [
        "l",
        "ine"
      ],
      [
        "Ġtit",
        "le"
      ],
      [
        "z",
        "e"
      ],
      [
        "Ġf",
        "ire"
      ],
      [
        "Ġn",
        "ight"
      ],
      [
        "Ġbl",
        "ue"
      ],
      [
        "Ġdevelop",
        "ed"
      ],
      [
        "c",
        "hed"
      ],
      [
        "Ġs",
        "il"
      ],
      [
        "Ġho",
        "st"
      ],
      [
        "Ġde",
        "v"
      ],
      [
        "Ġl",
        "ow"
      ],
      [
        "Ġt",
        "en"
      ],
      [
        "Ġb",
        "er"
      ],
      [
        "Ġl",
        "ate"
      ],
      [
        "Ġassoci",
        "ation"
      ],
      [
        "Ġinclud",
        "es"
      ],
      [
        "Ġda",
        "ugh"
      ],
      [
        "Ġev",
        "ents"
      ],
      [
        "Ġinst",
        "ead"
      ],
      [
        "end",
        "ed"
      ],
      [
        "m",
        "a"
      ],
      [
        "ar",
        "n"
      ],
      [
        "Ġch",
        "art"
      ],
      [
        "Ġsho",
        "uld"
      ],
      [
        "Ġb",
        "ase"
      ],
      [
        "Ġm",
        "ic"
      ],
      [
        "et",
        "h"
      ],
      [
        "Ġj",
        "ud"
      ],
      [
        "Ġv",
        "o"
      ],
      [
        "Ġtr",
        "ack"
      ],
      [
        "Ġpr",
        "im"
      ],
      [
        "Ġbro",
        "ther"
      ],
      [
        "b",
        "c"
      ],
      [
        "m",
        "ed"
      ],
      [
        "Ġprogr",
        "am"
      ],
      [
        "l",
        "or"
      ],
      [
        "Ġdiv",
        "ision"
      ],
      [
        "Ġj",
        "ew"
      ],
      [
        "em",
        "b"
      ],
      [
        "ie",
        "ved"
      ],
      [
        "oun",
        "t"
      ],
      [
        "i",
        "ke"
      ],
      [
        "Ġv",
        "iew"
      ],
      [
        "Ġnumber",
        "s"
      ],
      [
        "c",
        "le"
      ],
      [
        "Ġe",
        "at"
      ],
      [
        "Ġde",
        "g"
      ],
      [
        "Ġs",
        "it"
      ],
      [
        "Ġus",
        "es"
      ],
      [
        "Ġeng",
        "ine"
      ],
      [
        "Ġcon",
        "n"
      ],
      [
        "Ġen",
        "ergy"
      ],
      [
        "an",
        "ch"
      ],
      [
        "Ġtem",
        "per"
      ],
      [
        "Ġso",
        "ci"
      ],
      [
        "Ġadmin",
        "istr"
      ],
      [
        "Ġa",
        "ver"
      ],
      [
        "Ġtr",
        "ave"
      ],
      [
        "Ġfr",
        "i"
      ],
      [
        "Ġwo",
        "od"
      ],
      [
        "Ġpre",
        "m"
      ],
      [
        "Ġrad",
        "io"
      ],
      [
        "Ġpak",
        "istan"
      ],
      [
        "Ġa",
        "uth"
      ],
      [
        "Ġcl",
        "ose"
      ],
      [
        "Ġat",
        "h"
      ],
      [
        "Ġex",
        "per"
      ],
      [
        "Ġro",
        "und"
      ],
      [
        "og",
        "n"
      ],
      [
        "Ġmed",
        "al"
      ],
      [
        "Ġlit",
        "tle"
      ],
      [
        "c",
        "ast"
      ],
      [
        "Ġh",
        "all"
      ],
      [
        "Ġl",
        "ed"
      ],
      [
        "av",
        "y"
      ],
      [
        "Ġqu",
        "al"
      ],
      [
        "Ġinform",
        "ation"
      ],
      [
        "l",
        "in"
      ],
      [
        "u",
        "le"
      ],
      [
        "Ġret",
        "ired"
      ],
      [
        "Ġhal",
        "f"
      ],
      [
        "oc",
        "key"
      ],
      [
        "Ġfour",
        "th"
      ],
      [
        "Ġcurrent",
        "ly"
      ],
      [
        "Ġbir",
        "th"
      ],
      [
        "an",
        "ces"
      ],
      [
        "Ġbro",
        "wn"
      ],
      [
        "Ġwal",
        "es"
      ],
      [
        "Ġse",
        "ven"
      ],
      [
        "Ġse",
        "par"
      ],
      [
        "Ġp",
        "ict"
      ],
      [
        "Ġstud",
        "y"
      ],
      [
        "Ġopen",
        "ed"
      ],
      [
        "Ġc",
        "ir"
      ],
      [
        "Ġc",
        "ut"
      ],
      [
        "Ġelect",
        "ric"
      ],
      [
        "r",
        "ing"
      ],
      [
        "he",
        "st"
      ],
      [
        "l",
        "ic"
      ],
      [
        "z",
        "er"
      ],
      [
        "Ġp",
        "ur"
      ],
      [
        "Ġh",
        "ockey"
      ],
      [
        "Ġstud",
        "ents"
      ],
      [
        "Ġrec",
        "ogn"
      ],
      [
        "Ġw",
        "at"
      ],
      [
        "um",
        "ent"
      ],
      [
        "he",
        "re"
      ],
      [
        "Ġp",
        "ie"
      ],
      [
        "Ġfor",
        "ce"
      ],
      [
        "Ġdis",
        "co"
      ],
      [
        "Ġw",
        "ide"
      ],
      [
        "ol",
        "ic"
      ],
      [
        "Ġbe",
        "h"
      ],
      [
        "Ġex",
        "ec"
      ],
      [
        "Ġm",
        "ight"
      ],
      [
        "Ġaver",
        "age"
      ],
      [
        "it",
        "her"
      ],
      [
        "Ġmat",
        "ch"
      ],
      [
        "Ġm",
        "use"
      ],
      [
        "Ġre",
        "tr"
      ],
      [
        "Ġt",
        "v"
      ],
      [
        "Ġs",
        "at"
      ],
      [
        "Ġre",
        "ad"
      ],
      [
        "Ġoce",
        "an"
      ],
      [
        "Ġc",
        "ath"
      ],
      [
        "c",
        "us"
      ],
      [
        "Ġnor",
        "m"
      ],
      [
        "as",
        "ons"
      ],
      [
        "Ġe",
        "ight"
      ],
      [
        "Ġcontro",
        "l"
      ],
      [
        "Ġf",
        "ight"
      ],
      [
        "Ġd",
        "am"
      ],
      [
        "Ġdo",
        "ct"
      ],
      [
        "Ġs",
        "an"
      ],
      [
        "Ġon",
        "ce"
      ],
      [
        "Ġas",
        "ia"
      ],
      [
        "Ġv",
        "ill"
      ],
      [
        "s",
        "c"
      ],
      [
        "Ġmuse",
        "um"
      ],
      [
        "Ġp",
        "ay"
      ],
      [
        "raz",
        "il"
      ],
      [
        "Ġdemocr",
        "atic"
      ],
      [
        "Ġwrest",
        "ling"
      ],
      [
        "Ġstre",
        "et"
      ],
      [
        "Ġindepend",
        "ent"
      ],
      [
        "Ġg",
        "al"
      ],
      [
        "Ġpr",
        "ison"
      ],
      [
        "Ġdirect",
        "or"
      ],
      [
        "Ġt",
        "ur"
      ],
      [
        "is",
        "l"
      ],
      [
        "Ġgr",
        "adu"
      ],
      [
        "Ġact",
        "iv"
      ],
      [
        "Ġmed",
        "ia"
      ],
      [
        "Ġtre",
        "at"
      ],
      [
        "k",
        "y"
      ],
      [
        "m",
        "ing"
      ],
      [
        "Ġc",
        "ast"
      ],
      [
        "Ġb",
        "razil"
      ],
      [
        "Ġital",
        "ian"
      ],
      [
        "Ġhig",
        "hest"
      ],
      [
        "Ġresear",
        "ch"
      ],
      [
        "Ġm",
        "ix"
      ],
      [
        "Ġc",
        "ause"
      ],
      [
        "Ġsh",
        "own"
      ],
      [
        "Ġact",
        "or"
      ],
      [
        "Ġwill",
        "iam"
      ],
      [
        "r",
        "ain"
      ],
      [
        "Ġh",
        "old"
      ],
      [
        "Ġh",
        "aving"
      ],
      [
        "Ġr",
        "ich"
      ],
      [
        "Ġpl",
        "at"
      ],
      [
        "Ġappe",
        "ared"
      ],
      [
        "Ġin",
        "s"
      ],
      [
        "Ġpres",
        "s"
      ],
      [
        "Ġcand",
        "id"
      ],
      [
        "Ġle",
        "ast"
      ],
      [
        "Ġconsid",
        "ered"
      ],
      [
        "and",
        "er"
      ],
      [
        "ac",
        "y"
      ],
      [
        "ci",
        "ally"
      ],
      [
        "ell",
        "ow"
      ],
      [
        "Ġscot",
        "land"
      ],
      [
        "o",
        "int"
      ],
      [
        "Ġm",
        "em"
      ],
      [
        "Ġwork",
        "ing"
      ],
      [
        "Ġchann",
        "el"
      ],
      [
        "Ġf",
        "ish"
      ],
      [
        "Ġc",
        "le"
      ],
      [
        "Ġinst",
        "it"
      ],
      [
        "Ġan",
        "cient"
      ],
      [
        "ad",
        "es"
      ],
      [
        "rop",
        "ical"
      ],
      [
        "Ġretr",
        "ieved"
      ],
      [
        "Ġm",
        "ater"
      ],
      [
        "ol",
        "es"
      ],
      [
        "Ġjo",
        "ined"
      ],
      [
        "Ġcro",
        "ss"
      ],
      [
        "Ġw",
        "ife"
      ],
      [
        "Ġh",
        "ill"
      ],
      [
        "Ġsp",
        "ok"
      ],
      [
        "Ġpos",
        "ition"
      ],
      [
        "Ġin",
        "fl"
      ],
      [
        "Ġm",
        "ich"
      ],
      [
        "Ġpl",
        "ant"
      ],
      [
        "Ġpol",
        "ice"
      ],
      [
        "Ġchang",
        "es"
      ],
      [
        "Ġfed",
        "eral"
      ],
      [
        "Ġke",
        "ep"
      ],
      [
        "Ġt",
        "ell"
      ],
      [
        "v",
        "iet"
      ],
      [
        "Ġar",
        "g"
      ],
      [
        "Ġc",
        "ard"
      ],
      [
        "Ġd",
        "ig"
      ],
      [
        "Ġf",
        "ull"
      ],
      [
        "Ġad",
        "ult"
      ],
      [
        "Ġsome",
        "one"
      ],
      [
        "Ġchrist",
        "ian"
      ],
      [
        "d",
        "uring"
      ],
      [
        "Ġe",
        "y"
      ],
      [
        "Ġstart",
        "ing"
      ],
      [
        "Ġcer",
        "tain"
      ],
      [
        "Ġrepl",
        "aced"
      ],
      [
        "Ġdisco",
        "ver"
      ],
      [
        "Ġres",
        "ult"
      ],
      [
        "Ġmountain",
        "s"
      ],
      [
        "Ġc",
        "ase"
      ],
      [
        "g",
        "es"
      ],
      [
        "an",
        "ish"
      ],
      [
        "it",
        "ive"
      ],
      [
        "ra",
        "el"
      ],
      [
        "Ġepis",
        "ode"
      ],
      [
        "Ġal",
        "most"
      ],
      [
        "Ġso",
        "viet"
      ],
      [
        "Ġest",
        "ab"
      ],
      [
        "Ġh",
        "or"
      ],
      [
        "Ġpro",
        "m"
      ],
      [
        "Ġrel",
        "ated"
      ],
      [
        "ic",
        "ally"
      ],
      [
        "Ġscot",
        "t"
      ],
      [
        "Ġn",
        "ations"
      ],
      [
        "om",
        "b"
      ],
      [
        "bo",
        "ard"
      ],
      [
        "u",
        "ce"
      ],
      [
        "Ġauth",
        "or"
      ],
      [
        "a",
        "ff"
      ],
      [
        "u",
        "x"
      ],
      [
        "ic",
        "ian"
      ],
      [
        "Ġar",
        "ab"
      ],
      [
        "ain",
        "ed"
      ],
      [
        "Ġsen",
        "ate"
      ],
      [
        "Ġlaw",
        "s"
      ],
      [
        "Ġass",
        "emb"
      ],
      [
        "Ġcon",
        "cer"
      ],
      [
        "Ġnomin",
        "ated"
      ],
      [
        "s",
        "cientists"
      ],
      [
        "Ġd",
        "en"
      ],
      [
        "Ġe",
        "ither"
      ],
      [
        "Ġruss",
        "ian"
      ],
      [
        "Ġrul",
        "es"
      ],
      [
        "Ġtrad",
        "ition"
      ],
      [
        "Ġt",
        "ro"
      ],
      [
        "Ġh",
        "ur"
      ],
      [
        "Ġpro",
        "per"
      ],
      [
        "Ġme",
        "as"
      ],
      [
        "Ġdevelop",
        "ment"
      ],
      [
        "m",
        "any"
      ],
      [
        "Ġchampionship",
        "s"
      ],
      [
        "u",
        "is"
      ],
      [
        "Ġ",
        "ur"
      ],
      [
        "h",
        "an"
      ],
      [
        "Ġr",
        "ace"
      ],
      [
        "d",
        "ro"
      ],
      [
        "u",
        "it"
      ],
      [
        "Ġmain",
        "ly"
      ],
      [
        "Ġnet",
        "work"
      ],
      [
        "Ġangel",
        "es"
      ],
      [
        "in",
        "ts"
      ],
      [
        "Ġj",
        "ack"
      ],
      [
        "Ġcan",
        "not"
      ],
      [
        "b",
        "ol"
      ],
      [
        "Ġg",
        "lo"
      ],
      [
        "Ġst",
        "ad"
      ],
      [
        "ed",
        "y"
      ],
      [
        "Ġbet",
        "ter"
      ],
      [
        "Ġn",
        "ames"
      ],
      [
        "im",
        "ate"
      ],
      [
        "Ġmean",
        "ing"
      ],
      [
        "Ġto",
        "urn"
      ],
      [
        "Ġfr",
        "ont"
      ],
      [
        "t",
        "a"
      ],
      [
        "ac",
        "hed"
      ],
      [
        "Ġhum",
        "ans"
      ],
      [
        "Ġleg",
        "isl"
      ],
      [
        "c",
        "ent"
      ],
      [
        "Ġch",
        "o"
      ],
      [
        "Ġla",
        "un"
      ],
      [
        "e",
        "e"
      ],
      [
        "Ġr",
        "an"
      ],
      [
        "Ġque",
        "en"
      ],
      [
        "or",
        "ia"
      ],
      [
        "Ġl",
        "ower"
      ],
      [
        "Ġch",
        "ief"
      ],
      [
        "ip",
        "le"
      ],
      [
        "Ġinv",
        "ol"
      ],
      [
        "Ġmove",
        "ment"
      ],
      [
        "Ġb",
        "all"
      ],
      [
        "Ġis",
        "rael"
      ],
      [
        "Ġsw",
        "ed"
      ],
      [
        "Ġfo",
        "re"
      ],
      [
        "ist",
        "ry"
      ],
      [
        "Ġlo",
        "ve"
      ],
      [
        "h",
        "od"
      ],
      [
        "an",
        "ia"
      ],
      [
        "Ġy",
        "out"
      ],
      [
        "Ġexec",
        "ut"
      ],
      [
        "Ġb",
        "ank"
      ],
      [
        "at",
        "ures"
      ],
      [
        "Ġr",
        "ain"
      ],
      [
        "res",
        "sion"
      ],
      [
        "ord",
        "ing"
      ],
      [
        "Ġpresident",
        "ial"
      ],
      [
        "ain",
        "t"
      ],
      [
        "Ġt",
        "ad"
      ],
      [
        "ro",
        "w"
      ],
      [
        "Ġrel",
        "ations"
      ],
      [
        "Ġinfl",
        "u"
      ],
      [
        "Ġdaugh",
        "ter"
      ],
      [
        "Ġwas",
        "hing"
      ],
      [
        "Ġorigin",
        "ally"
      ],
      [
        "Ġmater",
        "ial"
      ],
      [
        "Ġl",
        "ake"
      ],
      [
        "Ġg",
        "ave"
      ],
      [
        "Ġd",
        "av"
      ],
      [
        "Ġat",
        "l"
      ],
      [
        "ib",
        "r"
      ],
      [
        "Ġrele",
        "ase"
      ],
      [
        "ines",
        "e"
      ],
      [
        "Ġserv",
        "ices"
      ],
      [
        "k",
        "ing"
      ],
      [
        "Ġf",
        "ict"
      ],
      [
        "Ġtre",
        "es"
      ],
      [
        "Ġstand",
        "ard"
      ],
      [
        "re",
        "w"
      ],
      [
        "Ġg",
        "ive"
      ],
      [
        "p",
        "s"
      ],
      [
        "Ġm",
        "iss"
      ],
      [
        "Ġfor",
        "ces"
      ],
      [
        "Ġtad",
        "p"
      ],
      [
        "Ġ",
        "ice"
      ],
      [
        "Ġr",
        "ank"
      ],
      [
        "h",
        "ic"
      ],
      [
        "Ġwrit",
        "ing"
      ],
      [
        "Ġrecord",
        "s"
      ],
      [
        "in",
        "al"
      ],
      [
        "ro",
        "ss"
      ],
      [
        "os",
        "s"
      ],
      [
        "Ġenter",
        "tain"
      ],
      [
        "Ġpre",
        "v"
      ],
      [
        "Ġprod",
        "uction"
      ],
      [
        "Ġmat",
        "hem"
      ],
      [
        "Ġassemb",
        "ly"
      ],
      [
        "Ġbre",
        "ak"
      ],
      [
        "u",
        "k"
      ],
      [
        "Ġcath",
        "olic"
      ],
      [
        "Ġcom",
        "b"
      ],
      [
        "Ġcl",
        "a"
      ],
      [
        "Ġprod",
        "uct"
      ],
      [
        "Ġmonth",
        "s"
      ],
      [
        "Ġco",
        "v"
      ],
      [
        "Ġex",
        "ist"
      ],
      [
        "Ġbl",
        "ood"
      ],
      [
        "Ġmet",
        "al"
      ],
      [
        "Ġstad",
        "ium"
      ],
      [
        "u",
        "el"
      ],
      [
        "Ġd",
        "est"
      ],
      [
        "Ġruss",
        "ia"
      ],
      [
        "Ġbat",
        "tle"
      ],
      [
        "a",
        "ign"
      ],
      [
        "pe",
        "cially"
      ],
      [
        "Ġp",
        "ast"
      ],
      [
        "at",
        "ives"
      ],
      [
        "Ġwith",
        "in"
      ],
      [
        "Ġab",
        "le"
      ],
      [
        "ra",
        "w"
      ],
      [
        "Ġes",
        "pecially"
      ],
      [
        "Ġterrit",
        "ory"
      ],
      [
        "i",
        "i"
      ],
      [
        "Ġt",
        "a"
      ],
      [
        "Ġm",
        "or"
      ],
      [
        "Ġst",
        "orm"
      ],
      [
        "th",
        "ough"
      ],
      [
        "Ġwashing",
        "ton"
      ],
      [
        "Ġm",
        "er"
      ],
      [
        "Ġme",
        "xic"
      ],
      [
        "Ġvar",
        "ious"
      ],
      [
        "Ġar",
        "ts"
      ],
      [
        "Ġwant",
        "ed"
      ],
      [
        "Ġsoci",
        "ety"
      ],
      [
        "i",
        "ent"
      ],
      [
        "Ġm",
        "ur"
      ],
      [
        "Ġso",
        "ur"
      ],
      [
        "Ġs",
        "aw"
      ],
      [
        "ut",
        "es"
      ],
      [
        "Ġch",
        "inese"
      ],
      [
        "ag",
        "n"
      ],
      [
        "Ġact",
        "ress"
      ],
      [
        "Ġorgan",
        "ization"
      ],
      [
        "Ġd",
        "ark"
      ],
      [
        "Ġhe",
        "n"
      ],
      [
        "Ġapp",
        "oint"
      ],
      [
        "Ġwin",
        "ter"
      ],
      [
        "ar",
        "a"
      ],
      [
        "Ġstr",
        "uct"
      ],
      [
        "g",
        "o"
      ],
      [
        "re",
        "me"
      ],
      [
        "Ġposs",
        "ible"
      ],
      [
        "Ġp",
        "en"
      ],
      [
        "Ġse",
        "qu"
      ],
      [
        "Ġc",
        "ases"
      ],
      [
        "ant",
        "ic"
      ],
      [
        "Ġcent",
        "re"
      ],
      [
        "eng",
        "th"
      ],
      [
        "Ġce",
        "le"
      ],
      [
        "Ġin",
        "side"
      ],
      [
        "Ġis",
        "s"
      ],
      [
        "Ġte",
        "x"
      ],
      [
        "Ġide",
        "a"
      ],
      [
        "Ġcamp",
        "aign"
      ],
      [
        "Ġcommit",
        "te"
      ],
      [
        "ot",
        "t"
      ],
      [
        "Ġal",
        "ways"
      ],
      [
        "Ġbelie",
        "ve"
      ],
      [
        "Ġkore",
        "a"
      ],
      [
        "Ġtemper",
        "ature"
      ],
      [
        "Ġso",
        "c"
      ],
      [
        "Ġinclud",
        "ed"
      ],
      [
        "Ġeduc",
        "ation"
      ],
      [
        "ak",
        "es"
      ],
      [
        "Ġfe",
        "ature"
      ],
      [
        "c",
        "om"
      ],
      [
        "id",
        "a"
      ],
      [
        "c",
        "raft"
      ],
      [
        "Ġin",
        "j"
      ],
      [
        "tr",
        "a"
      ],
      [
        "Ġme",
        "et"
      ],
      [
        "Ġstar",
        "s"
      ],
      [
        "a",
        "el"
      ],
      [
        "w",
        "are"
      ],
      [
        "w",
        "ood"
      ],
      [
        "Ġw",
        "ays"
      ],
      [
        "Ġwom",
        "an"
      ],
      [
        "Ġmod",
        "el"
      ],
      [
        "Ġm",
        "el"
      ],
      [
        "Ġlong",
        "er"
      ],
      [
        "Ġdeg",
        "ree"
      ],
      [
        "er",
        "y"
      ],
      [
        "Ġst",
        "yle"
      ],
      [
        "Ġpr",
        "iv"
      ],
      [
        "o",
        "und"
      ],
      [
        "Ġmed",
        "ic"
      ],
      [
        "Ġs",
        "ays"
      ],
      [
        "Ġf",
        "est"
      ],
      [
        "Ġwee",
        "k"
      ],
      [
        "ĠĠ",
        "Ġ"
      ],
      [
        "op",
        "h"
      ],
      [
        "Ġfl",
        "o"
      ],
      [
        "Ġav",
        "ail"
      ],
      [
        "Ġsqu",
        "are"
      ],
      [
        "Ġbec",
        "om"
      ],
      [
        "c",
        "her"
      ],
      [
        "c",
        "ul"
      ],
      [
        "Ġb",
        "al"
      ],
      [
        "Ġso",
        "ft"
      ],
      [
        "Ġadd",
        "ed"
      ],
      [
        "p",
        "r"
      ],
      [
        "Ġp",
        "un"
      ],
      [
        "Ġd",
        "ut"
      ],
      [
        "Ġaward",
        "ed"
      ],
      [
        "Ġold",
        "est"
      ],
      [
        "Ġsp",
        "ain"
      ],
      [
        "Ġsw",
        "it"
      ],
      [
        "a",
        "ut"
      ],
      [
        "Ġsmall",
        "er"
      ],
      [
        "Ġoffic",
        "ially"
      ],
      [
        "Ġcommun",
        "ity"
      ],
      [
        "Ġcult",
        "ure"
      ],
      [
        "f",
        "ect"
      ],
      [
        "Ġst",
        "ep"
      ],
      [
        "n",
        "es"
      ],
      [
        "o",
        "on"
      ],
      [
        "Ġc",
        "ities"
      ],
      [
        "Ġbrit",
        "ain"
      ],
      [
        "Ġch",
        "air"
      ],
      [
        "Ġse",
        "lect"
      ],
      [
        "ub",
        "e"
      ],
      [
        "Ġmed",
        "ical"
      ],
      [
        "Ġavail",
        "able"
      ],
      [
        "Ġal",
        "though"
      ],
      [
        "Ġco",
        "ach"
      ],
      [
        "Ġschool",
        "s"
      ],
      [
        "Ġsystem",
        "s"
      ],
      [
        "Ġgree",
        "k"
      ],
      [
        "Ġd",
        "ata"
      ],
      [
        "Ġwind",
        "ows"
      ],
      [
        "Ġlat",
        "in"
      ],
      [
        "in",
        "ation"
      ],
      [
        "st",
        "and"
      ],
      [
        "Ġinst",
        "r"
      ],
      [
        "Ġsym",
        "bol"
      ],
      [
        "Ġcommitte",
        "e"
      ],
      [
        "f",
        "rom"
      ],
      [
        "l",
        "am"
      ],
      [
        "Ġj",
        "ames"
      ],
      [
        "Ġy",
        "ellow"
      ],
      [
        "Ġrecord",
        "ed"
      ],
      [
        "Ġs",
        "ell"
      ],
      [
        "Ġne",
        "ther"
      ],
      [
        "Ġsh",
        "ip"
      ],
      [
        "ate",
        "g"
      ],
      [
        "Ġen",
        "ough"
      ],
      [
        "Ġentertain",
        "ment"
      ],
      [
        "w",
        "est"
      ],
      [
        "Ġs",
        "ite"
      ],
      [
        "er",
        "ation"
      ],
      [
        "Ġf",
        "ut"
      ],
      [
        "Ġ",
        "ident"
      ],
      [
        "Ġre",
        "mo"
      ],
      [
        "Ġtr",
        "ump"
      ],
      [
        "Ġcons",
        "erv"
      ],
      [
        "Ġtak",
        "es"
      ],
      [
        "Ġcharact",
        "ers"
      ],
      [
        "Ġspok",
        "en"
      ],
      [
        "Ġsoc",
        "cer"
      ],
      [
        "Ġde",
        "cl"
      ],
      [
        "Ġmar",
        "ket"
      ],
      [
        "Ġsur",
        "v"
      ],
      [
        "Ġcov",
        "id"
      ],
      [
        "Ġh",
        "un"
      ],
      [
        "Ġbo",
        "ard"
      ],
      [
        "Ġac",
        "ross"
      ],
      [
        "Ġear",
        "l"
      ],
      [
        "Ġtourn",
        "ament"
      ],
      [
        "Ġf",
        "ail"
      ],
      [
        "Ġjo",
        "urn"
      ],
      [
        "f",
        "ace"
      ],
      [
        "y",
        "pt"
      ],
      [
        "Ġsp",
        "anish"
      ],
      [
        "Ġcal",
        "end"
      ],
      [
        "Ġcar",
        "ol"
      ],
      [
        "Ġbe",
        "gin"
      ],
      [
        "l",
        "ished"
      ],
      [
        "Ġh",
        "om"
      ],
      [
        "Ġl",
        "ength"
      ],
      [
        "j",
        "o"
      ],
      [
        "Ġt",
        "ropical"
      ],
      [
        "Ġrepublic",
        "an"
      ],
      [
        "Ġrail",
        "way"
      ],
      [
        "Ġnether",
        "lands"
      ],
      [
        "i",
        "us"
      ],
      [
        "Ġa",
        "ction"
      ],
      [
        "Ġint",
        "rod"
      ],
      [
        "Ġbo",
        "y"
      ],
      [
        "Ġsecret",
        "ary"
      ],
      [
        "Ġm",
        "ary"
      ],
      [
        "Ġex",
        "cept"
      ],
      [
        "ric",
        "ane"
      ],
      [
        "Ġpolit",
        "ician"
      ],
      [
        "o",
        "b"
      ],
      [
        "Ġhappen",
        "ed"
      ],
      [
        "i",
        "ers"
      ],
      [
        "im",
        "s"
      ],
      [
        "Ġpro",
        "ject"
      ],
      [
        "Ġen",
        "v"
      ],
      [
        "Ġart",
        "ic"
      ],
      [
        "Ġtadp",
        "oles"
      ],
      [
        "Ġcele",
        "br"
      ],
      [
        "m",
        "ar"
      ],
      [
        "Ġa",
        "ge"
      ],
      [
        "ren",
        "ts"
      ],
      [
        "Ġam",
        "ong"
      ],
      [
        "ll",
        "ed"
      ],
      [
        "Ġprem",
        "ier"
      ],
      [
        "d",
        "en"
      ],
      [
        "Ġtr",
        "ib"
      ],
      [
        "at",
        "ors"
      ],
      [
        "Ġdr",
        "ug"
      ],
      [
        "Ġlit",
        "er"
      ],
      [
        "b",
        "on"
      ],
      [
        "st",
        "on"
      ],
      [
        "Ġprev",
        "ious"
      ],
      [
        "le",
        "x"
      ],
      [
        "Ġallow",
        "ed"
      ],
      [
        "the",
        "ast"
      ],
      [
        "Ġke",
        "y"
      ],
      [
        "Ġestab",
        "lished"
      ],
      [
        "Ġr",
        "ap"
      ],
      [
        "Ġout",
        "side"
      ],
      [
        "Ġs",
        "ize"
      ],
      [
        "Ġgo",
        "ing"
      ],
      [
        "Ġcap",
        "ital"
      ],
      [
        "Ġath",
        "let"
      ],
      [
        "t",
        "ar"
      ],
      [
        "ent",
        "ion"
      ],
      [
        "the",
        "y"
      ],
      [
        "Ġuk",
        "rain"
      ],
      [
        "Ġgeor",
        "ge"
      ],
      [
        "c",
        "an"
      ],
      [
        "w",
        "er"
      ],
      [
        "Ġg",
        "as"
      ],
      [
        "Ġver",
        "s"
      ],
      [
        "Ġli",
        "ber"
      ],
      [
        "Ġb",
        "bc"
      ],
      [
        "Ġpo",
        "ints"
      ],
      [
        "Ġanim",
        "al"
      ],
      [
        "Ġfif",
        "a"
      ],
      [
        "ig",
        "er"
      ],
      [
        "Ġprov",
        "in"
      ],
      [
        "Ġreturn",
        "ed"
      ],
      [
        "Ġsk",
        "in"
      ],
      [
        "o",
        "x"
      ],
      [
        "Ġfl",
        "or"
      ],
      [
        "ific",
        "ation"
      ],
      [
        "a",
        "ur"
      ],
      [
        "Ġthe",
        "ory"
      ],
      [
        "Ġadd",
        "ition"
      ],
      [
        "Ġst",
        "ay"
      ],
      [
        "Ġcalend",
        "ar"
      ],
      [
        "Ġcomp",
        "an"
      ],
      [
        "Ġinter",
        "est"
      ],
      [
        "Ġform",
        "s"
      ],
      [
        "Ġmet",
        "hod"
      ],
      [
        "Ġcompet",
        "ition"
      ],
      [
        "Ġarr",
        "ond"
      ],
      [
        "Ġno",
        "vel"
      ],
      [
        "Ġprod",
        "uc"
      ],
      [
        "Ġkind",
        "s"
      ],
      [
        "Ġarrond",
        "iss"
      ],
      [
        "Ġp",
        "ac"
      ],
      [
        "Ġle",
        "arn"
      ],
      [
        "pe",
        "ople"
      ],
      [
        "Ġappoint",
        "ed"
      ],
      [
        "Ġre",
        "qu"
      ],
      [
        "b",
        "an"
      ],
      [
        "at",
        "ics"
      ],
      [
        "et",
        "ic"
      ],
      [
        "Ġbroad",
        "cast"
      ],
      [
        "in",
        "ct"
      ],
      [
        "Ġr",
        "ac"
      ],
      [
        "Ġra",
        "ised"
      ],
      [
        "Ġhelp",
        "ed"
      ],
      [
        "us",
        "es"
      ],
      [
        "Ġe",
        "c"
      ],
      [
        "Ġlar",
        "ger"
      ],
      [
        "ograp",
        "hy"
      ],
      [
        "Ġmic",
        "ro"
      ],
      [
        "Ġthe",
        "at"
      ],
      [
        "Ġgo",
        "al"
      ],
      [
        "Ġaustr",
        "ia"
      ],
      [
        "Ġconstit",
        "ution"
      ],
      [
        "Ġw",
        "all"
      ],
      [
        "Ġbor",
        "der"
      ],
      [
        "ino",
        "is"
      ],
      [
        "Ġc",
        "it"
      ],
      [
        "Ġle",
        "aves"
      ],
      [
        "Ġvir",
        "gin"
      ],
      [
        "v",
        "ille"
      ],
      [
        "ir",
        "on"
      ],
      [
        "Ġcol",
        "l"
      ],
      [
        "Ġwe",
        "bs"
      ],
      [
        "Ġfun",
        "ction"
      ],
      [
        "m",
        "on"
      ],
      [
        "Ġre",
        "n"
      ],
      [
        "Ġdiv",
        "ided"
      ],
      [
        "re",
        "en"
      ],
      [
        "Ġb",
        "ab"
      ],
      [
        "ul",
        "ts"
      ],
      [
        "Ġv",
        "ice"
      ],
      [
        "Ġdif",
        "f"
      ],
      [
        "Ġair",
        "port"
      ],
      [
        "Ġrev",
        "iew"
      ],
      [
        "Ġeff",
        "ect"
      ],
      [
        "e",
        "x"
      ],
      [
        "Ġinc",
        "re"
      ],
      [
        "Ġfif",
        "th"
      ],
      [
        "n",
        "ed"
      ],
      [
        "Ġeg",
        "ypt"
      ],
      [
        "Ġsuccess",
        "ful"
      ],
      [
        "Ġn",
        "ick"
      ],
      [
        "Ġdis",
        "c"
      ],
      [
        "Ġpriv",
        "ate"
      ],
      [
        "i",
        "j"
      ],
      [
        "Ġr",
        "ange"
      ],
      [
        "olog",
        "ical"
      ],
      [
        "Ġsign",
        "ed"
      ],
      [
        "Ġop",
        "pos"
      ],
      [
        "Ġmexic",
        "o"
      ],
      [
        "Ġs",
        "aint"
      ],
      [
        "us",
        "h"
      ],
      [
        "Ġv",
        "an"
      ],
      [
        "Ġam",
        "ount"
      ],
      [
        "s",
        "el"
      ],
      [
        "Ġl",
        "ibr"
      ],
      [
        "Ġcaus",
        "es"
      ],
      [
        "Ġpr",
        "act"
      ],
      [
        "Ġact",
        "ive"
      ],
      [
        "b",
        "ab"
      ],
      [
        "Ġse",
        "m"
      ],
      [
        "Ġbr",
        "idge"
      ],
      [
        "Ġres",
        "ign"
      ],
      [
        "en",
        "ced"
      ],
      [
        "Ġm",
        "ad"
      ],
      [
        "Ġill",
        "inois"
      ],
      [
        "w",
        "or"
      ],
      [
        "ow",
        "ers"
      ],
      [
        "Ġfo",
        "cus"
      ],
      [
        "Ġs",
        "ug"
      ],
      [
        "Ġl",
        "ay"
      ],
      [
        "Ġhy",
        "dro"
      ],
      [
        "Ġvi",
        "ol"
      ],
      [
        "k",
        "a"
      ],
      [
        "Ġdec",
        "ided"
      ],
      [
        "Ġrun",
        "ning"
      ],
      [
        "ap",
        "s"
      ],
      [
        "end",
        "ing"
      ],
      [
        "Ġperform",
        "ed"
      ],
      [
        "Ġcomple",
        "te"
      ],
      [
        "Ġrelations",
        "hip"
      ],
      [
        "Ġtex",
        "as"
      ],
      [
        "Ġw",
        "r"
      ],
      [
        "Ġst",
        "age"
      ],
      [
        "Ġbird",
        "s"
      ],
      [
        "g",
        "et"
      ],
      [
        "h",
        "l"
      ],
      [
        "h",
        "ol"
      ],
      [
        "Ġsho",
        "ot"
      ],
      [
        "op",
        "e"
      ],
      [
        "ub",
        "le"
      ],
      [
        "Ġspe",
        "ed"
      ],
      [
        "Ġchamp",
        "ion"
      ],
      [
        "Ġhe",
        "re"
      ],
      [
        "Ġco",
        "de"
      ],
      [
        "Ġrec",
        "ent"
      ],
      [
        "l",
        "a"
      ],
      [
        "Ġc",
        "ric"
      ],
      [
        "Ġd",
        "og"
      ],
      [
        "Ġgo",
        "es"
      ],
      [
        "Ġrev",
        "olution"
      ],
      [
        "Ġm",
        "ac"
      ],
      [
        "Ġcomm",
        "ission"
      ],
      [
        "Ġph",
        "ot"
      ],
      [
        "Ġt",
        "able"
      ],
      [
        "ent",
        "al"
      ],
      [
        "Ġw",
        "we"
      ],
      [
        "iv",
        "id"
      ],
      [
        "Ġprot",
        "est"
      ],
      [
        "Ġm",
        "c"
      ],
      [
        "ul",
        "f"
      ],
      [
        "ip",
        "t"
      ],
      [
        "Ġpr",
        "ize"
      ],
      [
        "Ġtechn",
        "ology"
      ],
      [
        "ar",
        "ies"
      ],
      [
        "Ġtr",
        "ue"
      ],
      [
        "Ġlo",
        "uis"
      ],
      [
        "Ġcommon",
        "ly"
      ],
      [
        "Ġcong",
        "ress"
      ],
      [
        "f",
        "fer"
      ],
      [
        "Ġdoct",
        "or"
      ],
      [
        "Ġhur",
        "ricane"
      ],
      [
        "Ġreg",
        "ions"
      ],
      [
        "Ġpa",
        "rents"
      ],
      [
        "l",
        "it"
      ],
      [
        "Ġn",
        "ine"
      ],
      [
        "Ġco",
        "ur"
      ],
      [
        "Ġsy",
        "n"
      ],
      [
        "Ġl",
        "og"
      ],
      [
        "Ġst",
        "ories"
      ],
      [
        "ies",
        "t"
      ],
      [
        "Ġform",
        "ula"
      ],
      [
        "Ġelection",
        "s"
      ],
      [
        "Ġbuild",
        "ings"
      ],
      [
        "Ġtrans",
        "port"
      ],
      [
        "Ġnews",
        "p"
      ],
      [
        "Ġfest",
        "ival"
      ],
      [
        "Ġh",
        "at"
      ],
      [
        "Ġgal",
        "ax"
      ],
      [
        "g",
        "ed"
      ],
      [
        "Ġgr",
        "amm"
      ],
      [
        "Ġintern",
        "et"
      ],
      [
        "Ġenv",
        "iron"
      ],
      [
        "Ġbr",
        "ain"
      ],
      [
        "Ġwe",
        "b"
      ],
      [
        "m",
        "y"
      ],
      [
        "Ġm",
        "ach"
      ],
      [
        "uc",
        "le"
      ],
      [
        "Ġp",
        "ot"
      ],
      [
        "Ġro",
        "b"
      ],
      [
        "Ġphil",
        "os"
      ],
      [
        "Ġplat",
        "form"
      ],
      [
        "s",
        "elf"
      ],
      [
        "Ġsp",
        "read"
      ],
      [
        "Ġprom",
        "ot"
      ],
      [
        "Ġexecut",
        "ive"
      ],
      [
        "r",
        "or"
      ],
      [
        "Ġas",
        "ian"
      ],
      [
        "Ġpar",
        "is"
      ],
      [
        "Ġmag",
        "az"
      ],
      [
        "Ġvict",
        "oria"
      ],
      [
        "Ġf",
        "ly"
      ],
      [
        "Ġind",
        "ivid"
      ],
      [
        "Ġindustr",
        "y"
      ],
      [
        "Ġscott",
        "ish"
      ],
      [
        "Ġpac",
        "ific"
      ],
      [
        "end",
        "o"
      ],
      [
        "Ġimp",
        "ro"
      ],
      [
        "Ġcric",
        "ket"
      ],
      [
        "Ġa",
        "st"
      ],
      [
        "ver",
        "s"
      ],
      [
        "Ġsur",
        "face"
      ],
      [
        "c",
        "ar"
      ],
      [
        "Ġs",
        "ister"
      ],
      [
        "Ġmat",
        "ches"
      ],
      [
        "Ġdec",
        "ade"
      ],
      [
        "Ġdi",
        "agn"
      ],
      [
        "Ġwar",
        "s"
      ],
      [
        "Ġflor",
        "ida"
      ],
      [
        "h",
        "is"
      ],
      [
        "w",
        "ide"
      ],
      [
        "Ġh",
        "am"
      ],
      [
        "ic",
        "ult"
      ],
      [
        "Ġbr",
        "and"
      ],
      [
        "ward",
        "s"
      ],
      [
        "Ġvill",
        "age"
      ],
      [
        "Ġc",
        "ab"
      ],
      [
        "id",
        "ence"
      ],
      [
        "ans",
        "as"
      ],
      [
        "air",
        "s"
      ],
      [
        "Ġir",
        "an"
      ],
      [
        "b",
        "al"
      ],
      [
        "Ġcont",
        "est"
      ],
      [
        "Ġcre",
        "ate"
      ],
      [
        "Ġbel",
        "ow"
      ],
      [
        "ud",
        "e"
      ],
      [
        "Ġup",
        "per"
      ],
      [
        "Ġbill",
        "board"
      ],
      [
        "Ġreport",
        "ed"
      ],
      [
        "Ġatl",
        "antic"
      ],
      [
        "b",
        "or"
      ],
      [
        "Ġf",
        "er"
      ],
      [
        "od",
        "es"
      ],
      [
        "it",
        "es"
      ],
      [
        "ag",
        "on"
      ],
      [
        "em",
        "s"
      ],
      [
        "Ġsw",
        "im"
      ],
      [
        "Ġdef",
        "e"
      ],
      [
        "g",
        "round"
      ],
      [
        "ro",
        "y"
      ],
      [
        "Ġir",
        "ish"
      ],
      [
        "Ġprim",
        "ary"
      ],
      [
        "o",
        "le"
      ],
      [
        "ad",
        "or"
      ],
      [
        "Ġcol",
        "umb"
      ],
      [
        "Ġgir",
        "l"
      ],
      [
        "f",
        "a"
      ],
      [
        "so",
        "ur"
      ],
      [
        "Ġelect",
        "ron"
      ],
      [
        "Ġide",
        "as"
      ],
      [
        "o",
        "ver"
      ],
      [
        "Ġp",
        "an"
      ],
      [
        "Ġd",
        "oc"
      ],
      [
        "Ġchar",
        "les"
      ],
      [
        "che",
        "st"
      ],
      [
        "if",
        "f"
      ],
      [
        "Ġlaun",
        "ched"
      ],
      [
        "Ġd",
        "u"
      ],
      [
        "Ġtr",
        "ade"
      ],
      [
        "iver",
        "se"
      ],
      [
        "Ġmus",
        "ical"
      ],
      [
        "Ġinv",
        "est"
      ],
      [
        "Ġpartic",
        "ular"
      ],
      [
        "Ġb",
        "ay"
      ],
      [
        "us",
        "ed"
      ],
      [
        "Ġbo",
        "x"
      ],
      [
        "Ġapp",
        "ro"
      ],
      [
        "Ġpos",
        "itive"
      ],
      [
        "Ġf",
        "ig"
      ],
      [
        "Ġm",
        "art"
      ],
      [
        "Ġn",
        "ucle"
      ],
      [
        "Ġpr",
        "ince"
      ],
      [
        "Ġcar",
        "r"
      ],
      [
        "pl",
        "ay"
      ],
      [
        "Ġown",
        "ed"
      ],
      [
        "Ġconf",
        "ir"
      ],
      [
        "Ġcarol",
        "ina"
      ],
      [
        "Ġcontin",
        "ued"
      ],
      [
        "int",
        "endo"
      ],
      [
        "Ġd",
        "ying"
      ],
      [
        "Ġac",
        "id"
      ],
      [
        "Ġgen",
        "us"
      ],
      [
        "Ġsepar",
        "ate"
      ],
      [
        "Ġinstit",
        "ute"
      ],
      [
        "Ġdav",
        "id"
      ],
      [
        "o",
        "res"
      ],
      [
        "op",
        "s"
      ],
      [
        "Ġcomp",
        "os"
      ],
      [
        "Ġfore",
        "ign"
      ],
      [
        "o",
        "f"
      ],
      [
        "Ġd",
        "om"
      ],
      [
        "i",
        "res"
      ],
      [
        "p",
        "ly"
      ],
      [
        "Ġm",
        "m"
      ],
      [
        "Ġis",
        "lam"
      ],
      [
        "st",
        "e"
      ],
      [
        "Ġelect",
        "or"
      ],
      [
        "Ġre",
        "act"
      ],
      [
        "ig",
        "r"
      ],
      [
        "t",
        "ies"
      ],
      [
        "v",
        "al"
      ],
      [
        "y",
        "r"
      ],
      [
        "Ġ",
        "q"
      ],
      [
        "at",
        "ory"
      ],
      [
        "Ġits",
        "elf"
      ],
      [
        "Ġalbum",
        "s"
      ],
      [
        "Ġsim",
        "ple"
      ],
      [
        "s",
        "ol"
      ],
      [
        "Ġqu",
        "ick"
      ],
      [
        "Ġenviron",
        "ment"
      ],
      [
        "Ġfe",
        "atures"
      ],
      [
        "Ġdis",
        "ney"
      ],
      [
        "Ġbr",
        "anch"
      ],
      [
        "Ġem",
        "per"
      ],
      [
        "Ġlist",
        "ed"
      ],
      [
        "p",
        "osed"
      ],
      [
        "Ġw",
        "ild"
      ],
      [
        "Ġag",
        "o"
      ],
      [
        "Ġg",
        "ard"
      ],
      [
        "Ġe",
        "th"
      ],
      [
        "Ġsh",
        "ar"
      ],
      [
        "b",
        "and"
      ],
      [
        "Ġar",
        "rest"
      ],
      [
        "Ġcomp",
        "ound"
      ],
      [
        "Ġstr",
        "ip"
      ],
      [
        "Ġpartic",
        "ip"
      ],
      [
        "Ġselect",
        "ed"
      ],
      [
        "h",
        "a"
      ],
      [
        "Ġt",
        "or"
      ],
      [
        "Ġco",
        "up"
      ],
      [
        "ann",
        "ed"
      ],
      [
        "Ġob",
        "s"
      ],
      [
        "Ġfar",
        "ms"
      ],
      [
        "Ġdiff",
        "icult"
      ],
      [
        "Ġb",
        "urn"
      ],
      [
        "Ġr",
        "ule"
      ],
      [
        "Ġspec",
        "ific"
      ],
      [
        "Ġstre",
        "ams"
      ],
      [
        "Ġpa",
        "ul"
      ],
      [
        "Ġvis",
        "it"
      ],
      [
        "Ġn",
        "intendo"
      ],
      [
        "Ġjo",
        "b"
      ],
      [
        "Ġconstit",
        "u"
      ],
      [
        "Ġyout",
        "h"
      ],
      [
        "Ġa",
        "lex"
      ],
      [
        "Ġs",
        "us"
      ],
      [
        "ed",
        "s"
      ],
      [
        "Ġl",
        "in"
      ],
      [
        "Ġn",
        "ation"
      ],
      [
        "Ġre",
        "a"
      ],
      [
        "Ġhe",
        "avy"
      ],
      [
        "st",
        "ation"
      ],
      [
        "Ġco",
        "st"
      ],
      [
        "qu",
        "ar"
      ],
      [
        "Ġocc",
        "ur"
      ],
      [
        "Ġwrit",
        "e"
      ],
      [
        "lo",
        "y"
      ],
      [
        "Ġafric",
        "an"
      ],
      [
        "Ġsu",
        "ffer"
      ],
      [
        "Ġbelie",
        "ved"
      ],
      [
        "Ġproble",
        "m"
      ],
      [
        "Ġgradu",
        "ated"
      ],
      [
        "b",
        "el"
      ],
      [
        "p",
        "ut"
      ],
      [
        "en",
        "ed"
      ],
      [
        "Ġn",
        "d"
      ],
      [
        "Ġre",
        "ached"
      ],
      [
        "ac",
        "her"
      ],
      [
        "fer",
        "ence"
      ],
      [
        "Ġac",
        "cess"
      ],
      [
        "h",
        "ar"
      ],
      [
        "y",
        "a"
      ],
      [
        "Ġt",
        "all"
      ],
      [
        "in",
        "et"
      ],
      [
        "Ġn",
        "az"
      ],
      [
        "Ġg",
        "un"
      ],
      [
        "Ġc",
        "orn"
      ],
      [
        "Ġacc",
        "ording"
      ],
      [
        "Ġhig",
        "her"
      ],
      [
        "Ġcompan",
        "ies"
      ],
      [
        "s",
        "ince"
      ],
      [
        "Ġ",
        "ip"
      ],
      [
        "ot",
        "a"
      ],
      [
        "Ġpr",
        "inc"
      ],
      [
        "Ġdesign",
        "ed"
      ],
      [
        "Ġindepend",
        "ence"
      ],
      [
        "Ġphilos",
        "op"
      ],
      [
        "n",
        "s"
      ],
      [
        "y",
        "l"
      ],
      [
        "Ġf",
        "ace"
      ],
      [
        "Ġcl",
        "osed"
      ],
      [
        "Ġreg",
        "ular"
      ],
      [
        "Ġget",
        "s"
      ],
      [
        "Ġir",
        "on"
      ],
      [
        "Ġprot",
        "ect"
      ],
      [
        "f",
        "ield"
      ],
      [
        "Ġa",
        "ud"
      ],
      [
        "Ġpro",
        "te"
      ],
      [
        "Ġag",
        "re"
      ],
      [
        "Ġmin",
        "or"
      ],
      [
        "Ġarrondiss",
        "ement"
      ],
      [
        "Ġd",
        "ie"
      ],
      [
        "Ġe",
        "mer"
      ],
      [
        "Ġlead",
        "ers"
      ],
      [
        "Ġmot",
        "or"
      ],
      [
        "i",
        "ation"
      ],
      [
        "Ġf",
        "ame"
      ],
      [
        "Ġp",
        "it"
      ],
      [
        "al",
        "y"
      ],
      [
        "em",
        "ic"
      ],
      [
        "Ġsing",
        "les"
      ],
      [
        "ab",
        "it"
      ],
      [
        "Ġdiscover",
        "ed"
      ],
      [
        "Ġwebs",
        "ite"
      ],
      [
        "r",
        "is"
      ],
      [
        "Ġ",
        "ic"
      ],
      [
        "Ġb",
        "c"
      ],
      [
        "Ġre",
        "ason"
      ],
      [
        "ur",
        "ity"
      ],
      [
        "Ġsub",
        "ject"
      ],
      [
        "Ġneed",
        "ed"
      ],
      [
        "Ġgener",
        "ally"
      ],
      [
        "Ġfri",
        "ends"
      ],
      [
        "Ġcar",
        "ry"
      ],
      [
        "Ġbig",
        "gest"
      ],
      [
        "Ġgold",
        "en"
      ],
      [
        "Ġhon",
        "or"
      ],
      [
        "Ġm",
        "ess"
      ],
      [
        "Ġfe",
        "el"
      ],
      [
        "Ġlead",
        "ing"
      ],
      [
        "Ġprovin",
        "ces"
      ],
      [
        "h",
        "ire"
      ],
      [
        "i",
        "os"
      ],
      [
        "Ġp",
        "enn"
      ],
      [
        "Ġr",
        "at"
      ],
      [
        "Ġbel",
        "g"
      ],
      [
        "Ġart",
        "ist"
      ],
      [
        "Ġmult",
        "iple"
      ],
      [
        "Ġsoft",
        "ware"
      ],
      [
        "u",
        "a"
      ],
      [
        "Ġt",
        "ax"
      ],
      [
        "Ġs",
        "cient"
      ],
      [
        "it",
        "an"
      ],
      [
        "Ġpar",
        "ish"
      ],
      [
        "ur",
        "ies"
      ],
      [
        "Ġse",
        "at"
      ],
      [
        "ap",
        "h"
      ],
      [
        "Ġfin",
        "ished"
      ],
      [
        "l",
        "ess"
      ],
      [
        "th",
        "ing"
      ],
      [
        "Ġcol",
        "on"
      ],
      [
        "Ġprofess",
        "or"
      ],
      [
        "Ġrelig",
        "ion"
      ],
      [
        "Ġvirgin",
        "ia"
      ],
      [
        "l",
        "ike"
      ],
      [
        "it",
        "ar"
      ],
      [
        "Ġperson",
        "al"
      ],
      [
        "Ġphil",
        "ipp"
      ],
      [
        "Ġplan",
        "et"
      ],
      [
        "Ġconfir",
        "med"
      ],
      [
        "Ġm",
        "as"
      ],
      [
        "Ġjew",
        "ish"
      ],
      [
        "Ġlibr",
        "ary"
      ],
      [
        "m",
        "ark"
      ],
      [
        "Ġb",
        "ang"
      ],
      [
        "Ġad",
        "op"
      ],
      [
        "Ġsour",
        "ce"
      ],
      [
        "Ġs",
        "and"
      ],
      [
        "Ġc",
        "ateg"
      ],
      [
        "ad",
        "o"
      ],
      [
        "Ġsa",
        "f"
      ],
      [
        "che",
        "ster"
      ],
      [
        "Ġarch",
        "it"
      ],
      [
        "Ġcell",
        "s"
      ],
      [
        "i",
        "ence"
      ],
      [
        "l",
        "v"
      ],
      [
        "Ġterm",
        "s"
      ],
      [
        "Ġval",
        "ley"
      ],
      [
        "Ġrelig",
        "ious"
      ],
      [
        "Ġmanag",
        "er"
      ],
      [
        "re",
        "g"
      ],
      [
        "Ġsh",
        "ape"
      ],
      [
        "Ġmar",
        "k"
      ],
      [
        "Ġgre",
        "w"
      ],
      [
        "Ġair",
        "craft"
      ],
      [
        "Ġgiv",
        "es"
      ],
      [
        "be",
        "c"
      ],
      [
        "Ġleg",
        "al"
      ],
      [
        "Ġrepresent",
        "atives"
      ],
      [
        "ber",
        "g"
      ],
      [
        "Ġv",
        "en"
      ],
      [
        "Ġstud",
        "ies"
      ],
      [
        "Ġtradition",
        "al"
      ],
      [
        "w",
        "h"
      ],
      [
        "Ġhe",
        "at"
      ],
      [
        "ol",
        "f"
      ],
      [
        "Ġpe",
        "ace"
      ],
      [
        "ous",
        "and"
      ],
      [
        "Ġintrod",
        "uced"
      ],
      [
        "Ġl",
        "ines"
      ],
      [
        "ac",
        "c"
      ],
      [
        "Ġperform",
        "ance"
      ],
      [
        "Ġsil",
        "ver"
      ],
      [
        "m",
        "it"
      ],
      [
        "Ġf",
        "ast"
      ],
      [
        "en",
        "se"
      ],
      [
        "Ġplay",
        "station"
      ],
      [
        "Ġdiv",
        "or"
      ],
      [
        "Ġport",
        "ug"
      ],
      [
        "Ġcandid",
        "ate"
      ],
      [
        "Ġmedic",
        "ine"
      ],
      [
        "i",
        "que"
      ],
      [
        "Ġth",
        "om"
      ],
      [
        "ig",
        "an"
      ],
      [
        "Ġmo",
        "le"
      ],
      [
        "Ġty",
        "pe"
      ],
      [
        "Ġbas",
        "ket"
      ],
      [
        "Ġpie",
        "ce"
      ],
      [
        "Ġmagaz",
        "ine"
      ],
      [
        "p",
        "ing"
      ],
      [
        "s",
        "p"
      ],
      [
        "on",
        "a"
      ],
      [
        "Ġd",
        "yn"
      ],
      [
        "Ġh",
        "a"
      ],
      [
        "Ġbr",
        "on"
      ],
      [
        "Ġd",
        "an"
      ],
      [
        "Ġthem",
        "sel"
      ],
      [
        "Ġunder",
        "stand"
      ],
      [
        "Ġcir",
        "c"
      ],
      [
        "Ġthemsel",
        "ves"
      ],
      [
        "Ġb",
        "ul"
      ],
      [
        "ac",
        "he"
      ],
      [
        "Ġfl",
        "ight"
      ],
      [
        "Ġrun",
        "s"
      ],
      [
        "Ġcomple",
        "x"
      ],
      [
        "Ġtrave",
        "l"
      ],
      [
        "Ġp",
        "erm"
      ],
      [
        "al",
        "es"
      ],
      [
        "Ġl",
        "ays"
      ],
      [
        "the",
        "se"
      ],
      [
        "Ġcon",
        "vent"
      ],
      [
        "od",
        "ies"
      ],
      [
        "Ġsec",
        "urity"
      ],
      [
        "Ġcover",
        "ed"
      ],
      [
        "Ġfut",
        "ure"
      ],
      [
        "Ġro",
        "m"
      ],
      [
        "Ġconst",
        "r"
      ],
      [
        "Ġco",
        "ok"
      ],
      [
        "Ġcl",
        "o"
      ],
      [
        "Ġexamp",
        "les"
      ],
      [
        "w",
        "an"
      ],
      [
        "ol",
        "s"
      ],
      [
        "st",
        "r"
      ],
      [
        "Ġor",
        "chest"
      ],
      [
        "Ġpre",
        "fect"
      ],
      [
        "Ġvot",
        "e"
      ],
      [
        "Ġrecogn",
        "ized"
      ],
      [
        "Ġstruct",
        "ure"
      ],
      [
        "Ġt",
        "enn"
      ],
      [
        "is",
        "ions"
      ],
      [
        "Ġp",
        "and"
      ],
      [
        "Ġth",
        "ousand"
      ],
      [
        "Ġj",
        "e"
      ],
      [
        "Ġfe",
        "et"
      ],
      [
        "sy",
        "ch"
      ],
      [
        "in",
        "ary"
      ],
      [
        "Ġun",
        "iverse"
      ],
      [
        "Ġtr",
        "ains"
      ],
      [
        "Ġpol",
        "ic"
      ],
      [
        "Ġbel",
        "ong"
      ],
      [
        "Ġjust",
        "ice"
      ],
      [
        "Ġmich",
        "ael"
      ],
      [
        "re",
        "am"
      ],
      [
        "Ġtw",
        "ent"
      ],
      [
        "Ġapp",
        "le"
      ],
      [
        "Ġcond",
        "uct"
      ],
      [
        "Ġcontr",
        "act"
      ],
      [
        "ades",
        "h"
      ],
      [
        "Ġswed",
        "en"
      ],
      [
        "Ġcit",
        "iz"
      ],
      [
        "ol",
        "l"
      ]
    ]
  }
}