{
  "version": "1.0",
  "truncation": null,
  "padding": null,
  "added_tokens": [
    {
      "id": 0,
      "content": "<|----|>",
      "single_word": false,
      "lstrip": false,
      "rstrip": false,
      "normalized": false,
      "special": true
    },
    {
      "id": 1,
      "content": "<|//|>",
      "single_word": false,
      "lstrip": false,
      "rstrip": false,
      "normalized": false,
      "special": true
    },
    {
      "id": 2,
      "content": "<|tokipona:>",
      "single_word": false,
      "lstrip": false,
      "rstrip": false,
      "normalized": false,
      "special": true
    },
    {
      "id": 3,
      "content": "<|english:>",
      "single_word": false,
      "lstrip": false,
      "rstrip": false,
      "normalized": false,
      "special": true
    },
    {
      "id": 4,
      "content": "</english:>",
      "single_word": false,
      "lstrip": false,
      "rstrip": false,
      "normalized": false,
      "special": true
    },
    {
      "id": 5,
      "content": "</tokipona:>",
      "single_word": false,
      "lstrip": false,
      "rstrip": false,
      "normalized": false,
      "special": true
    },
    {
      "id": 6,
      "content": "<|lq:>",
      "single_word": false,
      "lstrip": false,
      "rstrip": false,
      "normalized": false,
      "special": true
    },
    {
      "id": 7,
      "content": "<:lq|>",
      "single_word": false,
      "lstrip": false,
      "rstrip": false,
      "normalized": false,
      "special": true
    },
    {
      "id": 8,
      "content": "<|hq:>",
      "single_word": false,
      "lstrip": false,
      "rstrip": false,
      "normalized": false,
      "special": true
    },
    {
      "id": 9,
      "content": "<:hq|>",
      "single_word": false,
      "lstrip": false,
      "rstrip": false,
      "normalized": false,
      "special": true
    },
    {
      "id": 10,
      "content": "<|!:>",
      "single_word": false,
      "lstrip": false,
      "rstrip": false,
      "normalized": false,
      "special": true
    },
    {
      "id": 11,
      "content": "<:!|>",
      "single_word": false,
      "lstrip": false,
      "rstrip": false,
      "normalized": false,
      "special": true
    },
    {
      "id": 12,
      "content": "<|?:>",
      "single_word": false,
      "lstrip": false,
      "rstrip": false,
      "normalized": false,
      "special": true
    },
    {
      "id": 13,
      "content": "<:?|>",
      "single_word": false,
      "lstrip": false,
      "rstrip": false,
      "normalized": false,
      "special": true
    },
    {
      "id": 14,
      "content": "<|*:>",
      "single_word": false,
      "lstrip": false,
      "rstrip": false,
      "normalized": false,
      "special": true
    },
    {
      "id": 15,
      "content": "<:*|>",
      "single_word": false,
      "lstrip": false,
      "rstrip": false,
      "normalized": false,
      "special": true
    },
    {
      "id": 16,
      "content": "<|-:>",
      "single_word": false,
      "lstrip": false,
      "rstrip": false,
      "normalized": false,
      "special": true
    },
    {
      "id": 17,
      "content": "<:-|>",
      "single_word": false,
      "lstrip": false,
      "rstrip": false,
      "normalized": false,
      "special": true
    },
    {
      "id": 18,
      "content": "<|=:>",
      "single_word": false,
      "lstrip": false,
      "rstrip": false,
      "normalized": false,
      "special": true
    },
    {
      "id": 19,
      "content": "<:=|>",
      "single_word": false,
      "lstrip": false,
      "rstrip": false,
      "normalized": false,
      "special": true
    },
    {
      "id": 20,
      "content": "<|/:>",
      "single_word": false,
      "lstrip": false,
      "rstrip": false,
      "normalized": false,
      "special": true
    },
    {
      "id": 21,
      "content": "<:/|>",
      "single_word": false,
      "lstrip": false,
      "rstrip": false,
      "normalized": false,
      "special": true
    },
    {
      "id": 22,
      "content": "<|@:>",
      "single_word": false,
      "lstrip": false,
      "rstrip": false,
      "normalized": false,
      "special": true
    },
    {
      "id": 23,
      "content": "<:@|>",
      "single_word": false,
      "lstrip": false,
      "rstrip": false,
      "normalized": false,
      "special": true
    },
    {
      "id": 24,
      "content": "<|reject|>",
      "single_word": false,
      "lstrip": false,
      "rstrip": false,
      "normalized": false,
      "special": true
    },
    {
      "id": 25,
      "content": "<|think|>",
      "single_word": false,
      "lstrip": false,
      "rstrip": false,
      "normalized": false,
      "special": true
    },
    {
      "id": 26,
      "content": "<|p7|>",
      "single_word": false,
      "lstrip": false,
      "rstrip": false,
      "normalized": false,
      "special": true
    },
    {
      "id": 27,
      "content": "<|p6|>",
      "single_word": false,
      "lstrip": false,
      "rstrip": false,
      "normalized": false,
      "special": true
    },
    {
      "id": 28,
      "content": "<|p5|>",
      "single_word": false,
      "lstrip": false,
      "rstrip": false,
      "normalized": false,
      "special": true
    },
    {
      "id": 29,
      "content": "<|p4|>",
      "single_word": false,
      "lstrip": false,
      "rstrip": false,
      "normalized": false,
      "special": true
    },
    {
      "id": 30,
      "content": "<|p3|>",
      "single_word": false,
      "lstrip": false,
      "rstrip": false,
      "normalized": false,
      "special": true
    },
    {
      "id": 31,
      "content": "<|p2|>",
      "single_word": false,
      "lstrip": false,
      "rstrip": false,
      "normalized": false,
      "special": true
    },
    {
      "id": 32,
      "content": "<|p1|>",
      "single_word": false,
      "lstrip": false,
      "rstrip": false,
      "normalized": false,
      "special": true
    },
    {
      "id": 33,
      "content": "<|p0|>",
      "single_word": false,
      "lstrip": false,
      "rstrip": false,
      "normalized": false,
      "special": true
    },
    {
      "id": 34,
      "content": "<|reserved0|>",
      "single_word": false,
      "lstrip": false,
      "rstrip": false,
      "normalized": false,
      "special": true
    },
    {
      "id": 35,
      "content": "<|reserved1|>",
      "single_word": false,
      "lstrip": false,
      "rstrip": false,
      "normalized": false,
      "special": true
    },
    {
      "id": 36,
      "content": "<|reserved2|>",
      "single_word": false,
      "lstrip": false,
      "rstrip": false,
      "normalized": false,
      "special": true
    },
    {
      "id": 37,
      "content": "<|reserved3|>",
      "single_word": false,
      "lstrip": false,
      "rstrip": false,
      "normalized": false,
      "special": true
    },
    {
      "id": 38,
      "content": "<|reserved4|>",
      "single_word": false,
      "lstrip": false,
      "rstrip": false,
      "normalized": false,
      "special": true
    },
    {
      "id": 39,
      "content": "<|reserved5|>",
      "single_word": false,
      "lstrip": false,
      "rstrip": false,
      "normalized": false,
      "special": true
    },
    {
      "id": 40,
      "content": "<|reserved6|>",
      "single_word": false,
      "lstrip": false,
      "rstrip": false,
      "normalized": false,
      "special": true
    },
    {
      "id": 41,
      "content": "<|reserved7|>",
      "single_word": false,
      "lstrip": false,
      "rstrip": false,
      "normalized": false,
      "special": true
    },
    {
      "id": 59799,
      "content": "akesi",
      "single_word": false,
      "lstrip": false,
      "rstrip": false,
      "special": false,
      "normalized": false
    },
    {
      "id": 59800,
      "content": "Ġakesi",
      "single_word": false,
      "lstrip": false,
      "rstrip": false,
      "special": false,
      "normalized": false
    },
    {
      "id": 59801,
      "content": "alasa",
      "single_word": false,
      "lstrip": false,
      "rstrip": false,
      "special": false,
      "normalized": false
    },
    {
      "id": 59802,
      "content": "Ġalasa",
      "single_word": false,
      "lstrip": false,
      "rstrip": false,
      "special": false,
      "normalized": false
    },
    {
      "id": 59803,
      "content": "anpa",
      "single_word": false,
      "lstrip": false,
      "rstrip": false,
      "special": false,
      "normalized": false
    },
    {
      "id": 59804,
      "content": "Ġanpa",
      "single_word": false,
      "lstrip": false,
      "rstrip": false,
      "special": false,
      "normalized": false
    },
    {
      "id": 59805,
      "content": "apeja",
      "single_word": false,
      "lstrip": false,
      "rstrip": false,
      "special": false,
      "normalized": false
    },
    {
      "id": 59806,
      "content": "Ġapeja",
      "single_word": false,
      "lstrip": false,
      "rstrip": false,
      "special": false,
      "normalized": false
    },
    {
      "id": 59807,
      "content": "awen",
      "single_word": false,
      "lstrip": false,
      "rstrip": false,
      "special": false,
      "normalized": false
    },
    {
      "id": 59808,
      "content": "Ġawen",
      "single_word": false,
      "lstrip": false,
      "rstrip": false,
      "special": false,
      "normalized": false
    },
    {
      "id": 59809,
      "content": "epiku",
      "single_word": false,
      "lstrip": false,
      "rstrip": false,
      "special": false,
      "normalized": false
    },
    {
      "id": 59810,
      "content": "Ġepiku",
      "single_word": false,
      "lstrip": false,
      "rstrip": false,
      "special": false,
      "normalized": false
    },
    {
      "id": 59811,
      "content": "esun",
      "single_word": false,
      "lstrip": false,
      "rstrip": false,
      "special": false,
      "normalized": false
    },
    {
      "id": 59812,
      "content": "Ġesun",
      "single_word": false,
      "lstrip": false,
      "rstrip": false,
      "special": false,
      "normalized": false
    },
    {
      "id": 59813,
      "content": "ijo",
      "single_word": false,
      "lstrip": false,
      "rstrip": false,
      "special": false,
      "normalized": false
    },
    {
      "id": 59814,
      "content": "Ġijo",
      "single_word": false,
      "lstrip": false,
      "rstrip": false,
      "special": false,
      "normalized": false
    },
    {
      "id": 59815,
      "content": "insa",
      "single_word": false,
      "lstrip": false,
      "rstrip": false,
      "special": false,
      "normalized": false
    },
    {
      "id": 59816,
      "content": "Ġinsa",
      "single_word": false,
      "lstrip": false,
      "rstrip": false,
      "special": false,
      "normalized": false
    },
    {
      "id": 59817,
      "content": "jaki",
      "single_word": false,
      "lstrip": false,
      "rstrip": false,
      "special": false,
      "normalized": false
    },
    {
      "id": 59818,
      "content": "Ġjaki",
      "single_word": false,
      "lstrip": false,
      "rstrip": false,
      "special": false,
      "normalized": false
    },
    {
      "id": 59819,
      "content": "jasima",
      "single_word": false,
      "lstrip": false,
      "rstrip": false,
      "special": false,
      "normalized": false
    },
    {
      "id": 59820,
      "content": "Ġjasima",
      "single_word": false,
      "lstrip": false,
      "rstrip": false,
      "special": false,
      "normalized": false
    },
    {
      "id": 59821,
      "content": "jelo",
      "single_word": false,
      "lstrip": false,
      "rstrip": false,
      "special": false,
      "normalized": false
    },
    {
      "id": 59822,
      "content": "Ġjelo",
      "single_word": false,
      "lstrip": false,
      "rstrip": false,
      "special": false,
      "normalized": false
    },
    {
      "id": 59823,
      "content": "kalama",
      "single_word": false,
      "lstrip": false,
      "rstrip": false,
      "special": false,
      "normalized": false
    },
    {
      "id": 59824,
      "content": "Ġkalama",
      "single_word": false,
      "lstrip": false,
      "rstrip": false,
      "special": false,
      "normalized": false
    },
    {
      "id": 59825,
      "content": "kama",
      "single_word": false,
      "lstrip": false,
      "rstrip": false,
      "special": false,
      "normalized": false
    },
    {
      "id": 59826,
      "content": "kasi",
      "single_word": false,
      "lstrip": false,
      "rstrip": false,
      "special": false,
      "normalized": false
    },
    {
      "id": 59827,
      "content": "Ġkasi",
      "single_word": false,
      "lstrip": false,
      "rstrip": false,
      "special": false,
      "normalized": false
    },
    {
      "id": 59828,
      "content": "kepeken",
      "single_word": false,
      "lstrip": false,
      "rstrip": false,
      "special": false,
      "normalized": false
    },
    {
      "id": 59829,
      "content": "Ġkepeken",
      "single_word": false,
      "lstrip": false,
      "rstrip": false,
      "special": false,
      "normalized": false
    },
    {
      "id": 59830,
      "content": "kijetesantakalu",
      "single_word": false,
      "lstrip": false,
      "rstrip": false,
      "special": false,
      "normalized": false
    },
    {
      "id": 59831,
      "content": "Ġkijetesantakalu",
      "single_word": false,
      "lstrip": false,
      "rstrip": false,
      "special": false,
      "normalized": false
    },
    {
      "id": 59832,
      "content": "kili",
      "single_word": false,
      "lstrip": false,
      "rstrip": false,
      "special": false,
      "normalized": false
    },
    {
      "id": 59833,
      "content": "Ġkili",
      "single_word": false,
      "lstrip": false,
      "rstrip": false,
      "special": false,
      "normalized": false
    },
    {
      "id": 59834,
      "content": "kipisi",
      "single_word": false,
      "lstrip": false,
      "rstrip": false,
      "special": false,
      "normalized": false
    },
    {
      "id": 59835,
      "content": "Ġkipisi",
      "single_word": false,
      "lstrip": false,
      "rstrip": false,
      "special": false,
      "normalized": false
    },
    {
      "id": 59836,
      "content": "kiwen",
      "single_word": false,
      "lstrip": false,
      "rstrip": false,
      "special": false,
      "normalized": false
    },
    {
      "id": 59837,
      "content": "Ġkiwen",
      "single_word": false,
      "lstrip": false,
      "rstrip": false,
      "special": false,
      "normalized": false
    },
    {
      "id": 59838,
      "content": "kokosila",
      "single_word": false,
      "lstrip": false,
      "rstrip": false,
      "special": false,
      "normalized": false
    },
    {
      "id": 59839,
      "content": "Ġkokosila",
      "single_word": false,
      "lstrip": false,
      "rstrip": false,
      "special": false,
      "normalized": false
    },
    {
      "id": 59840,
      "content": "kule",
      "single_word": false,
      "lstrip": false,
      "rstrip": false,
      "special": false,
      "normalized": false
    },
    {
      "id": 59841,
      "content": "Ġkule",
      "single_word": false,
      "lstrip": false,
      "rstrip": false,
      "special": false,
      "normalized": false
    },
    {
      "id": 59842,
      "content": "kulupu",
      "single_word": false,
      "lstrip": false,
      "rstrip": false,
      "special": false,
      "normalized": false
    },
    {
      "id": 59843,
      "content": "Ġkulupu",
      "single_word": false,
      "lstrip": false,
      "rstrip": false,
      "special": false,
      "normalized": false
    },
    {
      "id": 59844,
      "content": "kute",
      "single_word": false,
      "lstrip": false,
      "rstrip": false,
      "special": false,
      "normalized": false
    },
    {
      "id": 59845,
      "content": "Ġkute",
      "single_word": false,
      "lstrip": false,
      "rstrip": false,
      "special": false,
      "normalized": false
    },
    {
      "id": 59846,
      "content": "lanpan",
      "single_word": false,
      "lstrip": false,
      "rstrip": false,
      "special": false,
      "normalized": false
    },
    {
      "id": 59847,
      "content": "Ġlanpan",
      "single_word": false,
      "lstrip": false,
      "rstrip": false,
      "special": false,
      "normalized": false
    },
    {
      "id": 59848,
      "content": "lape",
      "single_word": false,
      "lstrip": false,
      "rstrip": false,
      "special": false,
      "normalized": false
    },
    {
      "id": 59849,
      "content": "Ġlape",
      "single_word": false,
      "lstrip": false,
      "rstrip": false,
      "special": false,
      "normalized": false
    },
    {
      "id": 59850,
      "content": "laso",
      "single_word": false,
      "lstrip": false,
      "rstrip": false,
      "special": false,
      "normalized": false
    },
    {
      "id": 59851,
      "content": "Ġlaso",
      "single_word": false,
      "lstrip": false,
      "rstrip": false,
      "special": false,
      "normalized": false
    },
    {
      "id": 59852,
      "content": "lawa",
      "single_word": false,
      "lstrip": false,
      "rstrip": false,
      "special": false,
      "normalized": false
    },
    {
      "id": 59853,
      "content": "Ġlawa",
      "single_word": false,
      "lstrip": false,
      "rstrip": false,
      "special": false,
      "normalized": false
    },
    {
      "id": 59854,
      "content": "leko",
      "single_word": false,
      "lstrip": false,
      "rstrip": false,
      "special": false,
      "normalized": false
    },
    {
      "id": 59855,
      "content": "Ġleko",
      "single_word": false,
      "lstrip": false,
      "rstrip": false,
      "special": false,
      "normalized": false
    },
    {
      "id": 59856,
      "content": "Ġlete",
      "single_word": false,
      "lstrip": false,
      "rstrip": false,
      "special": false,
      "normalized": false
    },
    {
      "id": 59857,
      "content": "lili",
      "single_word": false,
      "lstrip": false,
      "rstrip": false,
      "special": false,
      "normalized": false
    },
    {
      "id": 59858,
      "content": "linja",
      "single_word": false,
      "lstrip": false,
      "rstrip": false,
      "special": false,
      "normalized": false
    },
    {
      "id": 59859,
      "content": "Ġlinja",
      "single_word": false,
      "lstrip": false,
      "rstrip": false,
      "special": false,
      "normalized": false
    },
    {
      "id": 59860,
      "content": "lipu",
      "single_word": false,
      "lstrip": false,
      "rstrip": false,
      "special": false,
      "normalized": false
    },
    {
      "id": 59861,
      "content": "Ġlipu",
      "single_word": false,
      "lstrip": false,
      "rstrip": false,
      "special": false,
      "normalized": false
    },
    {
      "id": 59862,
      "content": "loje",
      "single_word": false,
      "lstrip": false,
      "rstrip": false,
      "special": false,
      "normalized": false
    },
    {
      "id": 59863,
      "content": "Ġloje",
      "single_word": false,
      "lstrip": false,
      "rstrip": false,
      "special": false,
      "normalized": false
    },
    {
      "id": 59864,
      "content": "luka",
      "single_word": false,
      "lstrip": false,
      "rstrip": false,
      "special": false,
      "normalized": false
    },
    {
      "id": 59865,
      "content": "lukin",
      "single_word": false,
      "lstrip": false,
      "rstrip": false,
      "special": false,
      "normalized": false
    },
    {
      "id": 59866,
      "content": "Ġlukin",
      "single_word": false,
      "lstrip": false,
      "rstrip": false,
      "special": false,
      "normalized": false
    },
    {
      "id": 59867,
      "content": "lupa",
      "single_word": false,
      "lstrip": false,
      "rstrip": false,
      "special": false,
      "normalized": false
    },
    {
      "id": 59868,
      "content": "Ġlupa",
      "single_word": false,
      "lstrip": false,
      "rstrip": false,
      "special": false,
      "normalized": false
    },
    {
      "id": 59869,
      "content": "majuna",
      "single_word": false,
      "lstrip": false,
      "rstrip": false,
      "special": false,
      "normalized": false
    },
    {
      "id": 59870,
      "content": "Ġmajuna",
      "single_word": false,
      "lstrip": false,
      "rstrip": false,
      "special": false,
      "normalized": false
    },
    {
      "id": 59871,
      "content": "meli",
      "single_word": false,
      "lstrip": false,
      "rstrip": false,
      "special": false,
      "normalized": false
    },
    {
      "id": 59872,
      "content": "Ġmeli",
      "single_word": false,
      "lstrip": false,
      "rstrip": false,
      "special": false,
      "normalized": false
    },
    {
      "id": 59873,
      "content": "meso",
      "single_word": false,
      "lstrip": false,
      "rstrip": false,
      "special": false,
      "normalized": false
    },
    {
      "id": 59874,
      "content": "mije",
      "single_word": false,
      "lstrip": false,
      "rstrip": false,
      "special": false,
      "normalized": false
    },
    {
      "id": 59875,
      "content": "Ġmije",
      "single_word": false,
      "lstrip": false,
      "rstrip": false,
      "special": false,
      "normalized": false
    },
    {
      "id": 59876,
      "content": "misikeke",
      "single_word": false,
      "lstrip": false,
      "rstrip": false,
      "special": false,
      "normalized": false
    },
    {
      "id": 59877,
      "content": "Ġmisikeke",
      "single_word": false,
      "lstrip": false,
      "rstrip": false,
      "special": false,
      "normalized": false
    },
    {
      "id": 59878,
      "content": "moku",
      "single_word": false,
      "lstrip": false,
      "rstrip": false,
      "special": false,
      "normalized": false
    },
    {
      "id": 59879,
      "content": "Ġmoku",
      "single_word": false,
      "lstrip": false,
      "rstrip": false,
      "special": false,
      "normalized": false
    },
    {
      "id": 59880,
      "content": "moli",
      "single_word": false,
      "lstrip": false,
      "rstrip": false,
      "special": false,
      "normalized": false
    },
    {
      "id": 59881,
      "content": "Ġmoli",
      "single_word": false,
      "lstrip": false,
      "rstrip": false,
      "special": false,
      "normalized": false
    },
    {
      "id": 59882,
      "content": "monsi",
      "single_word": false,
      "lstrip": false,
      "rstrip": false,
      "special": false,
      "normalized": false
    },
    {
      "id": 59883,
      "content": "Ġmonsi",
      "single_word": false,
      "lstrip": false,
      "rstrip": false,
      "special": false,
      "normalized": false
    },
    {
      "id": 59884,
      "content": "monsuta",
      "single_word": false,
      "lstrip": false,
      "rstrip": false,
      "special": false,
      "normalized": false
    },
    {
      "id": 59885,
      "content": "Ġmonsuta",
      "single_word": false,
      "lstrip": false,
      "rstrip": false,
      "special": false,
      "normalized": false
    },
    {
      "id": 59886,
      "content": "musi",
      "single_word": false,
      "lstrip": false,
      "rstrip": false,
      "special": false,
      "normalized": false
    },
    {
      "id": 59887,
      "content": "mute",
      "single_word": false,
      "lstrip": false,
      "rstrip": false,
      "special": false,
      "normalized": false
    },
    {
      "id": 59888,
      "content": "nanpa",
      "single_word": false,
      "lstrip": false,
      "rstrip": false,
      "special": false,
      "normalized": false
    },
    {
      "id": 59889,
      "content": "Ġnanpa",
      "single_word": false,
      "lstrip": false,
      "rstrip": false,
      "special": false,
      "normalized": false
    },
    {
      "id": 59890,
      "content": "nasin",
      "single_word": false,
      "lstrip": false,
      "rstrip": false,
      "special": false,
      "normalized": false
    },
    {
      "id": 59891,
      "content": "Ġnasin",
      "single_word": false,
      "lstrip": false,
      "rstrip": false,
      "special": false,
      "normalized": false
    },
    {
      "id": 59892,
      "content": "nena",
      "single_word": false,
      "lstrip": false,
      "rstrip": false,
      "special": false,
      "normalized": false
    },
    {
      "id": 59893,
      "content": "Ġnena",
      "single_word": false,
      "lstrip": false,
      "rstrip": false,
      "special": false,
      "normalized": false
    },
    {
      "id": 59894,
      "content": "nimi",
      "single_word": false,
      "lstrip": false,
      "rstrip": false,
      "special": false,
      "normalized": false
    },
    {
      "id": 59895,
      "content": "Ġnimi",
      "single_word": false,
      "lstrip": false,
      "rstrip": false,
      "special": false,
      "normalized": false
    },
    {
      "id": 59896,
      "content": "noka",
      "single_word": false,
      "lstrip": false,
      "rstrip": false,
      "special": false,
      "normalized": false
    },
    {
      "id": 59897,
      "content": "Ġnoka",
      "single_word": false,
      "lstrip": false,
      "rstrip": false,
      "special": false,
      "normalized": false
    },
    {
      "id": 59898,
      "content": "Ġona",
      "single_word": false,
      "lstrip": false,
      "rstrip": false,
      "special": false,
      "normalized": false
    },
    {
      "id": 59899,
      "content": "pakala",
      "single_word": false,
      "lstrip": false,
      "rstrip": false,
      "special": false,
      "normalized": false
    },
    {
      "id": 59900,
      "content": "Ġpakala",
      "single_word": false,
      "lstrip": false,
      "rstrip": false,
      "special": false,
      "normalized": false
    },
    {
      "id": 59901,
      "content": "pali",
      "single_word": false,
      "lstrip": false,
      "rstrip": false,
      "special": false,
      "normalized": false
    },
    {
      "id": 59902,
      "content": "palisa",
      "single_word": false,
      "lstrip": false,
      "rstrip": false,
      "special": false,
      "normalized": false
    },
    {
      "id": 59903,
      "content": "Ġpana",
      "single_word": false,
      "lstrip": false,
      "rstrip": false,
      "special": false,
      "normalized": false
    },
    {
      "id": 59904,
      "content": "pilin",
      "single_word": false,
      "lstrip": false,
      "rstrip": false,
      "special": false,
      "normalized": false
    },
    {
      "id": 59905,
      "content": "Ġpilin",
      "single_word": false,
      "lstrip": false,
      "rstrip": false,
      "special": false,
      "normalized": false
    },
    {
      "id": 59906,
      "content": "pimeja",
      "single_word": false,
      "lstrip": false,
      "rstrip": false,
      "special": false,
      "normalized": false
    },
    {
      "id": 59907,
      "content": "Ġpimeja",
      "single_word": false,
      "lstrip": false,
      "rstrip": false,
      "special": false,
      "normalized": false
    },
    {
      "id": 59908,
      "content": "pini",
      "single_word": false,
      "lstrip": false,
      "rstrip": false,
      "special": false,
      "normalized": false
    },
    {
      "id": 59909,
      "content": "Ġpini",
      "single_word": false,
      "lstrip": false,
      "rstrip": false,
      "special": false,
      "normalized": false
    },
    {
      "id": 59910,
      "content": "pipi",
      "single_word": false,
      "lstrip": false,
      "rstrip": false,
      "special": false,
      "normalized": false
    },
    {
      "id": 59911,
      "content": "Ġpipi",
      "single_word": false,
      "lstrip": false,
      "rstrip": false,
      "special": false,
      "normalized": false
    },
    {
      "id": 59912,
      "content": "poka",
      "single_word": false,
      "lstrip": false,
      "rstrip": false,
      "special": false,
      "normalized": false
    },
    {
      "id": 59913,
      "content": "Ġpoka",
      "single_word": false,
      "lstrip": false,
      "rstrip": false,
      "special": false,
      "normalized": false
    },
    {
      "id": 59914,
      "content": "poki",
      "single_word": false,
      "lstrip": false,
      "rstrip": false,
      "special": false,
      "normalized": false
    },
    {
      "id": 59915,
      "content": "Ġpoki",
      "single_word": false,
      "lstrip": false,
      "rstrip": false,
      "special": false,
      "normalized": false
    },
    {
      "id": 59916,
      "content": "pona",
      "single_word": false,
      "lstrip": false,
      "rstrip": false,
      "special": false,
      "normalized": false
    },
    {
      "id": 59917,
      "content": "Ġpona",
      "single_word": false,
      "lstrip": false,
      "rstrip": false,
      "special": false,
      "normalized": false
    },
    {
      "id": 59918,
      "content": "powe",
      "single_word": false,
      "lstrip": false,
      "rstrip": false,
      "special": false,
      "normalized": false
    },
    {
      "id": 59919,
      "content": "Ġpowe",
      "single_word": false,
      "lstrip": false,
      "rstrip": false,
      "special": false,
      "normalized": false
    },
    {
      "id": 59920,
      "content": "sama",
      "single_word": false,
      "lstrip": false,
      "rstrip": false,
      "special": false,
      "normalized": false
    },
    {
      "id": 59921,
      "content": "seli",
      "single_word": false,
      "lstrip": false,
      "rstrip": false,
      "special": false,
      "normalized": false
    },
    {
      "id": 59922,
      "content": "Ġseli",
      "single_word": false,
      "lstrip": false,
      "rstrip": false,
      "special": false,
      "normalized": false
    },
    {
      "id": 59923,
      "content": "selo",
      "single_word": false,
      "lstrip": false,
      "rstrip": false,
      "special": false,
      "normalized": false
    },
    {
      "id": 59924,
      "content": "seme",
      "single_word": false,
      "lstrip": false,
      "rstrip": false,
      "special": false,
      "normalized": false
    },
    {
      "id": 59925,
      "content": "Ġseme",
      "single_word": false,
      "lstrip": false,
      "rstrip": false,
      "special": false,
      "normalized": false
    },
    {
      "id": 59926,
      "content": "sewi",
      "single_word": false,
      "lstrip": false,
      "rstrip": false,
      "special": false,
      "normalized": false
    },
    {
      "id": 59927,
      "content": "Ġsewi",
      "single_word": false,
      "lstrip": false,
      "rstrip": false,
      "special": false,
      "normalized": false
    },
    {
      "id": 59928,
      "content": "sijelo",
      "single_word": false,
      "lstrip": false,
      "rstrip": false,
      "special": false,
      "normalized": false
    },
    {
      "id": 59929,
      "content": "Ġsijelo",
      "single_word": false,
      "lstrip": false,
      "rstrip": false,
      "special": false,
      "normalized": false
    },
    {
      "id": 59930,
      "content": "sike",
      "single_word": false,
      "lstrip": false,
      "rstrip": false,
      "special": false,
      "normalized": false
    },
    {
      "id": 59931,
      "content": "Ġsike",
      "single_word": false,
      "lstrip": false,
      "rstrip": false,
      "special": false,
      "normalized": false
    },
    {
      "id": 59932,
      "content": "sina",
      "single_word": false,
      "lstrip": false,
      "rstrip": false,
      "special": false,
      "normalized": false
    },
    {
      "id": 59933,
      "content": "sinpin",
      "single_word": false,
      "lstrip": false,
      "rstrip": false,
      "special": false,
      "normalized": false
    },
    {
      "id": 59934,
      "content": "Ġsinpin",
      "single_word": false,
      "lstrip": false,
      "rstrip": false,
      "special": false,
      "normalized": false
    },
    {
      "id": 59935,
      "content": "sitelen",
      "single_word": false,
      "lstrip": false,
      "rstrip": false,
      "special": false,
      "normalized": false
    },
    {
      "id": 59936,
      "content": "Ġsitelen",
      "single_word": false,
      "lstrip": false,
      "rstrip": false,
      "special": false,
      "normalized": false
    },
    {
      "id": 59937,
      "content": "soko",
      "single_word": false,
      "lstrip": false,
      "rstrip": false,
      "special": false,
      "normalized": false
    },
    {
      "id": 59938,
      "content": "Ġsoko",
      "single_word": false,
      "lstrip": false,
      "rstrip": false,
      "special": false,
      "normalized": false
    },
    {
      "id": 59939,
      "content": "sona",
      "single_word": false,
      "lstrip": false,
      "rstrip": false,
      "special": false,
      "normalized": false
    },
    {
      "id": 59940,
      "content": "Ġsona",
      "single_word": false,
      "lstrip": false,
      "rstrip": false,
      "special": false,
      "normalized": false
    },
    {
      "id": 59941,
      "content": "soweli",
      "single_word": false,
      "lstrip": false,
      "rstrip": false,
      "special": false,
      "normalized": false
    },
    {
      "id": 59942,
      "content": "Ġsoweli",
      "single_word": false,
      "lstrip": false,
      "rstrip": false,
      "special": false,
      "normalized": false
    },
    {
      "id": 59943,
      "content": "suli",
      "single_word": false,
      "lstrip": false,
      "rstrip": false,
      "special": false,
      "normalized": false
    },
    {
      "id": 59944,
      "content": "Ġsuli",
      "single_word": false,
      "lstrip": false,
      "rstrip": false,
      "special": false,
      "normalized": false
    },
    {
      "id": 59945,
      "content": "suno",
      "single_word": false,
      "lstrip": false,
      "rstrip": false,
      "special": false,
      "normalized": false
    },
    {
      "id": 59946,
      "content": "Ġsuno",
      "single_word": false,
      "lstrip": false,
      "rstrip": false,
      "special": false,
      "normalized": false
    },
    {
      "id": 59947,
      "content": "supa",
      "single_word": false,
      "lstrip": false,
      "rstrip": false,
      "special": false,
      "normalized": false
    },
    {
      "id": 59948,
      "content": "Ġsupa",
      "single_word": false,
      "lstrip": false,
      "rstrip": false,
      "special": false,
      "normalized": false
    },
    {
      "id": 59949,
      "content": "suwi",
      "single_word": false,
      "lstrip": false,
      "rstrip": false,
      "special": false,
      "normalized": false
    },
    {
      "id": 59950,
      "content": "Ġsuwi",
      "single_word": false,
      "lstrip": false,
      "rstrip": false,
      "special": false,
      "normalized": false
    },
    {
      "id": 59951,
      "content": "taso",
      "single_word": false,
      "lstrip": false,
      "rstrip": false,
      "special": false,
      "normalized": false
    },
    {
      "id": 59952,
      "content": "Ġtaso",
      "single_word": false,
      "lstrip": false,
      "rstrip": false,
      "special": false,
      "normalized": false
    },
    {
      "id": 59953,
      "content": "tawa",
      "single_word": false,
      "lstrip": false,
      "rstrip": false,
      "special": false,
      "normalized": false
    },
    {
      "id": 59954,
      "content": "Ġtawa",
      "single_word": false,
      "lstrip": false,
      "rstrip": false,
      "special": false,
      "normalized": false
    },
    {
      "id": 59955,
      "content": "telo",
      "single_word": false,
      "lstrip": false,
      "rstrip": false,
      "special": false,
      "normalized": false
    },
    {
      "id": 59956,
      "content": "Ġtelo",
      "single_word": false,
      "lstrip": false,
      "rstrip": false,
      "special": false,
      "normalized": false
    },
    {
      "id": 59957,
      "content": "tenpo",
      "single_word": false,
      "lstrip": false,
      "rstrip": false,
      "special": false,
      "normalized": false
    },
    {
      "id": 59958,
      "content": "Ġtenpo",
      "single_word": false,
      "lstrip": false,
      "rstrip": false,
      "special": false,
      "normalized": false
    },
    {
      "id": 59959,
      "content": "toki",
      "single_word": false,
      "lstrip": false,
      "rstrip": false,
      "special": false,
      "normalized": false
    },
    {
      "id": 59960,
      "content": "tomo",
      "single_word": false,
      "lstrip": false,
      "rstrip": false,
      "special": false,
      "normalized": false
    },
    {
      "id": 59961,
      "content": "tonsi",
      "single_word": false,
      "lstrip": false,
      "rstrip": false,
      "special": false,
      "normalized": false
    },
    {
      "id": 59962,
      "content": "Ġtonsi",
      "single_word": false,
      "lstrip": false,
      "rstrip": false,
      "special": false,
      "normalized": false
    },
    {
      "id": 59963,
      "content": "unpa",
      "single_word": false,
      "lstrip": false,
      "rstrip": false,
      "special": false,
      "normalized": false
    },
    {
      "id": 59964,
      "content": "Ġunpa",
      "single_word": false,
      "lstrip": false,
      "rstrip": false,
      "special": false,
      "normalized": false
    },
    {
      "id": 59965,
      "content": "utala",
      "single_word": false,
      "lstrip": false,
      "rstrip": false,
      "special": false,
      "normalized": false
    },
    {
      "id": 59966,
      "content": "Ġutala",
      "single_word": false,
      "lstrip": false,
      "rstrip": false,
      "special": false,
      "normalized": false
    },
    {
      "id": 59967,
      "content": "walo",
      "single_word": false,
      "lstrip": false,
      "rstrip": false,
      "special": false,
      "normalized": false
    },
    {
      "id": 59968,
      "content": "Ġwalo",
      "single_word": false,
      "lstrip": false,
      "rstrip": false,
      "special": false,
      "normalized": false
    },
    {
      "id": 59969,
      "content": "waso",
      "single_word": false,
      "lstrip": false,
      "rstrip": false,
      "special": false,
      "normalized": false
    },
    {
      "id": 59970,
      "content": "Ġwaso",
      "single_word": false,
      "lstrip": false,
      "rstrip": false,
      "special": false,
      "normalized": false
    },
    {
      "id": 59971,
      "content": "wawa",
      "single_word": false,
      "lstrip": false,
      "rstrip": false,
      "special": false,
      "normalized": false
    },
    {
      "id": 59972,
      "content": "Ġwawa",
      "single_word": false,
      "lstrip": false,
      "rstrip": false,
      "special": false,
      "normalized": false
    },
    {
      "id": 59973,
      "content": "weka",
      "single_word": false,
      "lstrip": false,
      "rstrip": false,
      "special": false,
      "normalized": false
    },
    {
      "id": 59974,
      "content": "Ġweka",
      "single_word": false,
      "lstrip": false,
      "rstrip": false,
      "special": false,
      "normalized": false
    },
    {
      "id": 59975,
      "content": "wile",
      "single_word": false,
      "lstrip": false,
      "rstrip": false,
      "special": false,
      "normalized": false
    },
    {
      "id": 59976,
      "content": "Ġwile",
      "single_word": false,
      "lstrip": false,
      "rstrip": false,
      "special": false,
      "normalized": false
    }
  ],
  "normalizer": null,
  "pre_tokenizer": {
    "type": "ByteLevel",
    "add_prefix_space": false,
    "trim_offsets": true,
    "use_regex": true
  },
  "post_processor": {
    "type": "ByteLevel",
    "add_prefix_space": true,
    "trim_offsets": false,
    "use_regex": true
  },
  "decoder": {
    "type": "ByteLevel",
    "add_prefix_space": true,
    "trim_offsets": true,
    "use_regex": true
  },
  "model": {
    "type": "BPE",
    "dropout": null,
    "unk_token": null,
    "continuing_subword_prefix": null,
    "end_of_word_suffix": null,
    "fuse_unk": false,
    "byte_fallback": false,
    "ignore_merges": false,
    "vocab": {
      "<|----|>": 0,
      "<|//|>": 1,
      "<|tokipona:>": 2,
      "<|english:>": 3,
      "</english:>": 4,
      "</tokipona:>": 5,
      "<|lq:>": 6,
      "<:lq|>": 7,
      "<|hq:>": 8,
      "<:hq|>": 9,
      "<|!:>": 10,
      "<:!|>": 11,
      "<|?:>": 12,
      "<:?|>": 13,
      "<|*:>": 14,
      "<:*|>": 15,
      "<|-:>": 16,
      "<:-|>": 17,
      "<|=:>": 18,
      "<:=|>": 19,
      "<|/:>": 20,
      "<:/|>": 21,
      "<|@:>": 22,
      "<:@|>": 23,
      "<|reject|>": 24,
      "<|think|>": 25,
      "<|p7|>": 26,
      "<|p6|>": 27,
      "<|p5|>": 28,
      "<|p4|>": 29,
      "<|p3|>": 30,
      "<|p2|>": 31,
      "<|p1|>": 32,
      "<|p0|>": 33,
      "<|reserved0|>": 34,
      "<|reserved1|>": 35,
      "<|reserved2|>": 36,
      "<|reserved3|>": 37,
      "<|reserved4|>": 38,
      "<|reserved5|>": 39,
      "<|reserved6|>": 40,
      "<|reserved7|>": 41,
      "!": 42,
      "\"": 43,
      "#": 44,
      "$": 45,
      "%": 46,
      "&": 47,
      "'": 48,
      "(": 49,
      ")": 50,
      "*": 51,
      "+": 52,
      ",": 53,
      "-": 54,
      ".": 55,
      "/": 56,
      "0": 57,
      "1": 58,
      "2": 59,
      "3": 60,
      "4": 61,
      "5": 62,
      "6": 63,
      "7": 64,
      "8": 65,
      "9": 66,
      ":": 67,
      ";": 68,
      "<": 69,
      "=": 70,
      ">": 71,
      "?": 72,
      "@": 73,
      "A": 74,
      "B": 75,
      "C": 76,
      "D": 77,
      "E": 78,
      "F": 79,
      "G": 80,
      "H": 81,
      "I": 82,
      "J": 83,
      "K": 84,
      "L": 85,
      "M": 86,
      "N": 87,
      "O": 88,
      "P": 89,
      "Q": 90,
      "R": 91,
      "S": 92,
      "T": 93,
      "U": 94,
      "V": 95,
      "W": 96,
      "X": 97,
      "Y": 98,
      "Z": 99,
      "[": 100,
      "\\": 101,
      "]": 102,
      "^": 103,
      "_": 104,
      "`": 105,
      "a": 106,
      "b": 107,
      "c": 108,
      "d": 109,
      "e": 110,
      "f": 111,
      "g": 112,
      "h": 113,
      "i": 114,
      "j": 115,
      "k": 116,
      "l": 117,
      "m": 118,
      "n": 119,
      "o": 120,
      "p": 121,
      "q": 122,
      "r": 123,
      "s": 124,
      "t": 125,
      "u": 126,
      "v": 127,
      "w": 128,
      "x": 129,
      "y": 130,
      "z": 131,
      "{": 132,
      "|": 133,
      "}": 134,
      "~": 135,
      "¡": 136,
      "¢": 137,
      "£": 138,
      "¤": 139,
      "¥": 140,
      "¦": 141,
      "§": 142,
      "¨": 143,
      "©": 144,
      "ª": 145,
      "«": 146,
      "¬": 147,
      "®": 148,
      "¯": 149,
      "°": 150,
      "±": 151,
      "²": 152,
      "³": 153,
      "´": 154,
      "µ": 155,
      "¶": 156,
      "·": 157,
      "¸": 158,
      "¹": 159,
      "º": 160,
      "»": 161,
      "¼": 162,
      "½": 163,
      "¾": 164,
      "¿": 165,
      "À": 166,
      "Á": 167,
      "Â": 168,
      "Ã": 169,
      "Ä": 170,
      "Å": 171,
      "Æ": 172,
      "Ç": 173,
      "È": 174,
      "É": 175,
      "Ê": 176,
      "Ë": 177,
      "Ì": 178,
      "Í": 179,
      "Î": 180,
      "Ï": 181,
      "Ð": 182,
      "Ñ": 183,
      "Ò": 184,
      "Ó": 185,
      "Ô": 186,
      "Õ": 187,
      "Ö": 188,
      "×": 189,
      "Ø": 190,
      "Ù": 191,
      "Ú": 192,
      "Û": 193,
      "Ü": 194,
      "Ý": 195,
      "Þ": 196,
      "ß": 197,
      "à": 198,
      "á": 199,
      "â": 200,
      "ã": 201,
      "ä": 202,
      "å": 203,
      "æ": 204,
      "ç": 205,
      "è": 206,
      "é": 207,
      "ê": 208,
      "ë": 209,
      "ì": 210,
      "í": 211,
      "î": 212,
      "ï": 213,
      "ð": 214,
      "ñ": 215,
      "ò": 216,
      "ó": 217,
      "ô": 218,
      "õ": 219,
      "ö": 220,
      "÷": 221,
      "ø": 222,
      "ù": 223,
      "ú": 224,
      "û": 225,
      "ü": 226,
      "ý": 227,
      "þ": 228,
      "ÿ": 229,
      "Ā": 230,
      "ā": 231,
      "Ă": 232,
      "ă": 233,
      "Ą": 234,
      "ą": 235,
      "Ć": 236,
      "ć": 237,
      "Ĉ": 238,
      "ĉ": 239,
      "Ċ": 240,
      "ċ": 241,
      "Č": 242,
      "č": 243,
      "Ď": 244,
      "ď": 245,
      "Đ": 246,
      "đ": 247,
      "Ē": 248,
      "ē": 249,
      "Ĕ": 250,
      "ĕ": 251,
      "Ė": 252,
      "ė": 253,
      "Ę": 254,
      "ę": 255,
      "Ě": 256,
      "ě": 257,
      "Ĝ": 258,
      "ĝ": 259,
      "Ğ": 260,
      "ğ": 261,
      "Ġ": 262,
      "ġ": 263,
      "Ģ": 264,
      "ģ": 265,
      "Ĥ": 266,
      "ĥ": 267,
      "Ħ": 268,
      "ħ": 269,
      "Ĩ": 270,
      "ĩ": 271,
      "Ī": 272,
      "ī": 273,
      "Ĭ": 274,
      "ĭ": 275,
      "Į": 276,
      "į": 277,
      "İ": 278,
      "ı": 279,
      "Ĳ": 280,
      "ĳ": 281,
      "Ĵ": 282,
      "ĵ": 283,
      "Ķ": 284,
      "ķ": 285,
      "ĸ": 286,
      "Ĺ": 287,
      "ĺ": 288,
      "Ļ": 289,
      "ļ": 290,
      "Ľ": 291,
      "ľ": 292,
      "Ŀ": 293,
      "ŀ": 294,
      "Ł": 295,
      "ł": 296,
      "Ń": 297,
      "Ġt": 298,
      "Ġa": 299,
      "he": 300,
      "in": 301,
      "er": 302,
      "Ġs": 303,
      "Ġthe": 304,
      "on": 305,
      "an": 306,
      "or": 307,
      "es": 308,
      "Ġc": 309,
      "is": 310,
      "en": 311,
      "Ġb": 312,
      "||": 313,
      "Ġw": 314,
      "ar": 315,
      "Ġo": 316,
      "it": 317,
      "Ġp": 318,
      "at": 319,
      "Ġm": 320,
      "ed": 321,
      "Ġf": 322,
      "al": 323,
      "re": 324,
      "Ġin": 325,
      "Ġ||": 326,
      "Ġof": 327,
      "ic": 328,
      "Ġan": 329,
      "as": 330,
      "ro": 331,
      "Ġd": 332,
      "Ġ1": 333,
      "Ġl": 334,
      "Ġand": 335,
      "Ġh": 336,
      "ing": 337,
      "le": 338,
      "Ġn": 339,
      "un": 340,
      "ion": 341,
      "us": 342,
      "ol": 343,
      "Ġ2": 344,
      "Ġto": 345,
      "Ġg": 346,
      "ig": 347,
      "am": 348,
      "il": 349,
      "Ġ(": 350,
      "Ġis": 351,
      "ent": 352,
      "om": 353,
      "ur": 354,
      "id": 355,
      "Ġk": 356,
      "el": 357,
      "âĢ": 358,
      "Ġ19": 359,
      "Ġe": 360,
      "ct": 361,
      "ĠĊ": 362,
      "00": 363,
      "Ġal": 364,
      "ot": 365,
      "ir": 366,
      "Ġwas": 367,
      "ut": 368,
      "Ġst": 369,
      "Ġth": 370,
      "ch": 371,
      "Ġhe": 372,
      "ad": 373,
      "et": 374,
      "Ġr": 375,
      "ers": 376,
      "iv": 377,
      "st": 378,
      "ĠâĢ": 379,
      "ay": 380,
      "Ġj": 381,
      "Ġre": 382,
      "ce": 383,
      "Ġon": 384,
      "Ġfor": 385,
      "im": 386,
      "ist": 387,
      "Ġit": 388,
      "ul": 389,
      "ov": 390,
      "em": 391,
      "Ġv": 392,
      "rom": 393,
      "ht": 394,
      "op": 395,
      "Ġbe": 396,
      "ation": 397,
      "ow": 398,
      "Ġas": 399,
      "ber": 400,
      "ian": 401,
      "all": 402,
      "th": 403,
      "her": 404,
      "19": 405,
      "and": 406,
      "ag": 407,
      "est": 408,
      "Ġde": 409,
      "ight": 410,
      "fe": 411,
      "ies": 412,
      "ĠâĢĶ": 413,
      "ĊĊ": 414,
      "Ġfrom": 415,
      "|-": 416,
      "Ġch": 417,
      "oc": 418,
      "um": 419,
      "os": 420,
      "ia": 421,
      "ra": 422,
      "Ġse": 423,
      "ign": 424,
      "ces": 425,
      "ĊĊĠĊ": 426,
      "Ġ20": 427,
      "Ġ200": 428,
      "Ġby": 429,
      "ear": 430,
      "oun": 431,
      "Ġun": 432,
      "art": 433,
      "ith": 434,
      "ter": 435,
      "Ġat": 436,
      "Ġcom": 437,
      "fer": 438,
      "col": 439,
      "ly": 440,
      "ak": 441,
      "ac": 442,
      "Ġpl": 443,
      "av": 444,
      "ill": 445,
      "Ġwith": 446,
      "Ġwh": 447,
      "od": 448,
      "Ġare": 449,
      "ish": 450,
      "right": 451,
      "Ġor": 452,
      "ap": 453,
      "ug": 454,
      "the": 455,
      "ican": 456,
      "Ġ|": 457,
      "ity": 458,
      "ain": 459,
      "Ġy": 460,
      "color": 461,
      "Ġalign": 462,
      "gcolor": 463,
      "'s": 464,
      "=#": 465,
      "ie": 466,
      "Ġthat": 467,
      "Ġkm": 468,
      "Ġcon": 469,
      "Ġbgcolor": 470,
      "Ġpro": 471,
      "ab": 472,
      "up": 473,
      "Ġne": 474,
      "mer": 475,
      "ip": 476,
      "feren": 477,
      "ary": 478,
      "Ġsp": 479,
      "ard": 480,
      "ferences": 481,
      "ess": 482,
      "if": 483,
      "Ġ\"": 484,
      "references": 485,
      "Ġpe": 486,
      "eb": 487,
      "ople": 488,
      "ud": 489,
      "ate": 490,
      "ort": 491,
      "Ġle": 492,
      "ant": 493,
      "ust": 494,
      "20": 495,
      "ub": 496,
      "Ġpr": 497,
      "out": 498,
      "ment": 499,
      "Ġ201": 500,
      "Ġar": 501,
      "Ġsh": 502,
      "ong": 503,
      "ver": 504,
      "Ġro": 505,
      "Ġhis": 506,
      "qu": 507,
      "ame": 508,
      "fefe": 509,
      "ĠâĢĵ": 510,
      "Ġ3": 511,
      "ich": 512,
      "rit": 513,
      "ge": 514,
      "Ġwor": 515,
      "Ġen": 516,
      "Ġte": 517,
      "Ġ199": 518,
      "orn": 519,
      "ast": 520,
      "Ġ-": 521,
      "so": 522,
      "ember": 523,
      "og": 524,
      "Ġus": 525,
      "Ġlin": 526,
      "Ġmov": 527,
      "Ġmar": 528,
      "ount": 529,
      "Ġpeople": 530,
      "ated": 531,
      "Ġplay": 532,
      "Ġsoc": 533,
      "ell": 534,
      "ran": 535,
      "ive": 536,
      "ri": 537,
      "ore": 538,
      "Ġact": 539,
      "Ġamer": 540,
      "our": 541,
      "man": 542,
      "pt": 543,
      "ost": 544,
      "se": 545,
      "Ġthey": 546,
      "ath": 547,
      "Ġex": 548,
      "Ġcan": 549,
      "uc": 550,
      "pe": 551,
      "ere": 552,
      "land": 553,
      "Ġman": 554,
      "),": 555,
      "ous": 556,
      "ial": 557,
      "ire": 558,
      "Ġalso": 559,
      "ates": 560,
      "Ġ18": 561,
      "Ġthis": 562,
      "ok": 563,
      "ited": 564,
      "ine": 565,
      "Ġab": 566,
      "other": 567,
      "Ġhas": 568,
      "Ġamerican": 569,
      "Ġnew": 570,
      "orro": 571,
      "Ġ4": 572,
      "ld": 573,
      "Ġshe": 574,
      "Ġlinear": 575,
      "ry": 576,
      "Ġsocorro": 577,
      "pr": 578,
      "Ġnot": 579,
      "ors": 580,
      "Ġwere": 581,
      "own": 582,
      "ave": 583,
      "Ġcl": 584,
      "ang": 585,
      "ke": 586,
      "Ġaf": 587,
      "Ġweb": 588,
      "ord": 589,
      "sit": 590,
      "ack": 591,
      "end": 592,
      "Ġpart": 593,
      "ue": 594,
      "ern": 595,
      "age": 596,
      "Ġcomp": 597,
      "ure": 598,
      "200": 599,
      "Ġcount": 600,
      "iz": 601,
      "Ġfir": 602,
      "cl": 603,
      "ical": 604,
      "ne": 605,
      "Ġwebsit": 606,
      "Ġbec": 607,
      "ide": 608,
      "Ġsc": 609,
      "ome": 610,
      "ph": 611,
      "ther": 612,
      "ions": 613,
      "uary": 614,
      "Ġbir": 615,
      "Ġwhe": 616,
      "Ġfirst": 617,
      "Ġpol": 618,
      "Ġ5": 619,
      "ass": 620,
      "ace": 621,
      ").": 622,
      "te": 623,
      "ice": 624,
      "Ġwhich": 625,
      "ond": 626,
      "Ġser": 627,
      "ict": 628,
      "sp": 629,
      "ally": 630,
      "Ġone": 631,
      "ime": 632,
      "Ġli": 633,
      "Ġunited": 634,
      "one": 635,
      "âĢĵ": 636,
      "ational": 637,
      "ths": 638,
      "Ġcomm": 639,
      "Ġstates": 640,
      "Ġad": 641,
      "ory": 642,
      "per": 643,
      "amp": 644,
      "Ġbo": 645,
      "Ġcar": 646,
      "aw": 647,
      "Ġ7": 648,
      "Ġhave": 649,
      "Ġ198": 650,
      "ĠĠ": 651,
      "ach": 652,
      "Ġme": 653,
      "Ġfo": 654,
      "Ġco": 655,
      "Ġher": 656,
      "lish": 657,
      "Ġcol": 658,
      "to": 659,
      "und": 660,
      "ied": 661,
      "Ġall": 662,
      "Ġ6": 663,
      "Ġ8": 664,
      "Ġind": 665,
      "fefefe": 666,
      "act": 667,
      "Ġwebsites": 668,
      "Ġbirths": 669,
      "ball": 670,
      "Ġmay": 671,
      "Ġmus": 672,
      "Ġkn": 673,
      "ater": 674,
      "ound": 675,
      "ade": 676,
      "ree": 677,
      "Ġother": 678,
      "Ġtheir": 679,
      "ician": 680,
      "Ġag": 681,
      "les": 682,
      "Ġhad": 683,
      "ks": 684,
      "Ġcity": 685,
      "Ġ197": 686,
      "Ġbut": 687,
      "amer": 688,
      "Ġtw": 689,
      "io": 690,
      "Ġpar": 691,
      "wn": 692,
      "ens": 693,
      "18": 694,
      "Ġwho": 695,
      "Ġnor": 696,
      "lect": 697,
      "ult": 698,
      "ics": 699,
      "ind": 700,
      "199": 701,
      "Ġi": 702,
      "Ġyear": 703,
      "Ġfl": 704,
      "Ġ9": 705,
      "ision": 706,
      "Ġeng": 707,
      "ren": 708,
      "aus": 709,
      "Ġdeath": 710,
      "Ġph": 711,
      "Ġafter": 712,
      "ptember": 713,
      "ild": 714,
      "Ġjo": 715,
      "Ġthere": 716,
      "Ġdis": 717,
      "pl": 718,
      "american": 719,
      "Ġac": 720,
      "der": 721,
      "Ġits": 722,
      "Ġseptember": 723,
      "Ġgro": 724,
      "we": 725,
      "Ġdo": 726,
      "ans": 727,
      "Ġworld": 728,
      "Ġbl": 729,
      "ec": 730,
      "ugh": 731,
      "lev": 732,
      "Ã©": 733,
      "otball": 734,
      "une": 735,
      "Ġres": 736,
      "Ġcent": 737,
      "old": 738,
      "ib": 739,
      "ings": 740,
      "ations": 741,
      "Ġabout": 742,
      "Âł": 743,
      "ents": 744,
      "Ġper": 745,
      "Ġsout": 746,
      "ivers": 747,
      "Ġ17": 748,
      "port": 749,
      "Ġcont": 750,
      "ĠĊĠĊ": 751,
      "ah": 752,
      "Ġ196": 753,
      "Ġcall": 754,
      "for": 755,
      "ward": 756,
      "Ġfran": 757,
      "Ġnov": 758,
      "uch": 759,
      "Ġoff": 760,
      "Ġgo": 761,
      "uld": 762,
      "Ġsing": 763,
      "ff": 764,
      "ral": 765,
      "Ġap": 766,
      "ite": 767,
      "Ġpres": 768,
      "ober": 769,
      "tern": 770,
      "ubl": 771,
      "ake": 772,
      "ased": 773,
      "ick": 774,
      "Ġwar": 775,
      "che": 776,
      "201": 777,
      "ctober": 778,
      "iving": 779,
      "Ġknown": 780,
      "Ġmost": 781,
      "Ġjan": 782,
      "Ġtwo": 783,
      "Ġ2000": 784,
      "Ġpolit": 785,
      "ince": 786,
      "Ġdr": 787,
      "erson": 788,
      "Ġmany": 789,
      "ys": 790,
      "Ġmovies": 791,
      "Ġz": 792,
      "Ġwhen": 793,
      "ou": 794,
      "Ġrec": 795,
      "Ġim": 796,
      "ists": 797,
      "Ġcounty": 798,
      "Ġoctober": 799,
      "ities": 800,
      "Ġused": 801,
      "ile": 802,
      "ence": 803,
      "Ġmin": 804,
      "Ġmovie": 805,
      "Ġtr": 806,
      "erman": 807,
      "Ġfootball": 808,
      "ts": 809,
      "Ġbr": 810,
      "21": 811,
      "Ġqu": 812,
      "iss": 813,
      "ames": 814,
      "als": 815,
      "ton": 816,
      "Ġ10": 817,
      "ery": 818,
      "Ġ16": 819,
      "Ġev": 820,
      "=\"": 821,
      "ident": 822,
      "ail": 823,
      "com": 824,
      "Ġsong": 825,
      "Ġ2001": 826,
      "ugust": 827,
      "born": 828,
      "Ġsy": 829,
      "ob": 830,
      "Ġcalled": 831,
      "Ġreg": 832,
      "Ġmarch": 833,
      "Ġup": 834,
      "uct": 835,
      "Ġso": 836,
      "Ġmade": 837,
      "ments": 838,
      "clud": 839,
      "ons": 840,
      "Ġsome": 841,
      "Ġtime": 842,
      "Ġgen": 843,
      "ck": 844,
      "ina": 845,
      "ten": 846,
      "Ġnational": 847,
      "Ġpop": 848,
      "Ġdeaths": 849,
      "Ġaugust": 850,
      "ition": 851,
      "Ġbro": 852,
      "Ġjanuary": 853,
      "levision": 854,
      "uring": 855,
      "Ġsch": 856,
      "ep": 857,
      "198": 858,
      "hed": 859,
      "Ġ15": 860,
      "Ġ194": 861,
      "Ġsec": 862,
      "Ġ195": 863,
      "Ġed": 864,
      "sh": 865,
      "Ġinclud": 866,
      "irect": 867,
      "Ġfound": 868,
      "Ġdist": 869,
      "mber": 870,
      "Ġmore": 871,
      "iver": 872,
      "ik": 873,
      "Ġgr": 874,
      "ork": 875,
      "az": 876,
      "gr": 877,
      "span": 878,
      "gan": 879,
      "Ġam": 880,
      "Ġborn": 881,
      "Ġbeen": 882,
      "ms": 883,
      "Ġwill": 884,
      "Ġwrit": 885,
      "Ġest": 886,
      "Ġ14": 887,
      "cember": 888,
      "Ġnorth": 889,
      "Ġunivers": 890,
      "Ġdirect": 891,
      "22": 892,
      "Ġgre": 893,
      "Ġsouth": 894,
      "ese": 895,
      "Ġbet": 896,
      "de": 897,
      "Ġmon": 898,
      "ages": 899,
      "Ġinto": 900,
      "Ġout": 901,
      "Ġtelevision": 902,
      "ose": 903,
      "son": 904,
      "Ġem": 905,
      "Ġpre": 906,
      "ale": 907,
      "Ġstate": 908,
      "olog": 909,
      "Ġteam": 910,
      "Ġwork": 911,
      "apan": 912,
      "Ġnovember": 913,
      "ix": 914,
      "vel": 915,
      "Ġ193": 916,
      "Ġwe": 917,
      "Ġu": 918,
      "overn": 919,
      "itt": 920,
      "ays": 921,
      "Ġgerman": 922,
      "ve": 923,
      "Ġdes": 924,
      "ft": 925,
      "Ġdecember": 926,
      "Ġaust": 927,
      "ase": 928,
      "ause": 929,
      "Ġchar": 930,
      "Ġover": 931,
      "Ġking": 932,
      "Ġalb": 933,
      "Ġfam": 934,
      "urn": 935,
      "Ġ12": 936,
      "ury": 937,
      "Ġgu": 938,
      "Ġ11": 939,
      "Ġfe": 940,
      "ruary": 941,
      "ica": 942,
      "Ġbu": 943,
      "Ġdied": 944,
      "hn": 945,
      "Ġpo": 946,
      "Ġcr": 947,
      "Ġdep": 948,
      "Ġsm": 949,
      "Ġelect": 950,
      "Ġsw": 951,
      "Ġ13": 952,
      "ague": 953,
      "Ġwo": 954,
      "Ġapr": 955,
      "Ġtra": 956,
      "inn": 957,
      "Ġapril": 958,
      "Ġsup": 959,
      "Ġear": 960,
      "Ġnum": 961,
      "Ġmed": 962,
      "Ġgroup": 963,
      "Ġjul": 964,
      "Ġsa": 965,
      "ier": 966,
      "Ġfeb": 967,
      "Ġpolitician": 968,
      "Ġseries": 969,
      "Ġair": 970,
      "Ġfebruary": 971,
      "197": 972,
      "uro": 973,
      "Ġprod": 974,
      "Ġstud": 975,
      "ritish": 976,
      "Ġhig": 977,
      "Ġyears": 978,
      "Ġapp": 979,
      "ance": 980,
      "ins": 981,
      "Ġgovern": 982,
      "Ġart": 983,
      "Ġbecame": 984,
      "rict": 985,
      "Ġlar": 986,
      "iet": 987,
      "ily": 988,
      "enn": 989,
      "Ġcre": 990,
      "row": 991,
      "uss": 992,
      "Ġwest": 993,
      "Ġduring": 994,
      "ogra": 995,
      "10": 996,
      "Ġatt": 997,
      "||||": 998,
      "int": 999,
      "Ġalbum": 1000,
      "living": 1001,
      "eng": 1002,
      "Ġjapan": 1003,
      "are": 1004,
      "Ġaward": 1005,
      "Ġass": 1006,
      "Ġonly": 1007,
      "Ġcal": 1008,
      "ught": 1009,
      "Ġpopul": 1010,
      "Ġmet": 1011,
      "Ġma": 1012,
      "Ġhow": 1013,
      "Ġla": 1014,
      "Ġbel": 1015,
      "Ġuniversity": 1016,
      "Ġthan": 1017,
      "ool": 1018,
      "ann": 1019,
      "able": 1020,
      "cess": 1021,
      "Ġdif": 1022,
      "ama": 1023,
      "17": 1024,
      "Ġname": 1025,
      "ss": 1026,
      "Ġleague": 1027,
      "Ġhim": 1028,
      "li": 1029,
      "Ġcap": 1030,
      "Ġ2002": 1031,
      "icip": 1032,
      "Ġpresident": 1033,
      "ert": 1034,
      "oth": 1035,
      "Ġmat": 1036,
      "Ġactors": 1037,
      "ween": 1038,
      "Ġthem": 1039,
      "Ġfrance": 1040,
      "Ġjuly": 1041,
      "Ġprov": 1042,
      "people": 1043,
      "air": 1044,
      "Ġestab": 1045,
      "Ġrele": 1046,
      "ely": 1047,
      "Ġter": 1048,
      "Ġbecause": 1049,
      "Ġplayed": 1050,
      "ley": 1051,
      "Ġpal": 1052,
      "Ġshow": 1053,
      "Ġmusic": 1054,
      "Ġstr": 1055,
      "med": 1056,
      "imes": 1057,
      "Ġoffic": 1058,
      "Ġstart": 1059,
      "Ġriver": 1060,
      "rib": 1061,
      "Ġge": 1062,
      "Ġbetween": 1063,
      "ett": 1064,
      "ital": 1065,
      "oll": 1066,
      "ash": 1067,
      "Ġ1999": 1068,
      "Ġthese": 1069,
      "je": 1070,
      "ouse": 1071,
      "iel": 1072,
      "round": 1073,
      "Ġspec": 1074,
      "23": 1075,
      "istory": 1076,
      "Ġplayer": 1077,
      "Ġop": 1078,
      "hip": 1079,
      "eral": 1080,
      "Ġend": 1081,
      "Ġyork": 1082,
      "Ġserv": 1083,
      "ai": 1084,
      "Ġrom": 1085,
      "ron": 1086,
      "Ġno": 1087,
      "ograph": 1088,
      "Ġtown": 1089,
      "ism": 1090,
      "Ġagain": 1091,
      "way": 1092,
      "ures": 1093,
      "Ġel": 1094,
      "ient": 1095,
      "ived": 1096,
      "\".": 1097,
      "Ġfin": 1098,
      "att": 1099,
      "ative": 1100,
      "16": 1101,
      "Ġenglish": 1102,
      "15": 1103,
      "Ġnumber": 1104,
      "Ġrel": 1105,
      "br": 1106,
      "Ġjune": 1107,
      "Ġbook": 1108,
      "Ġbritish": 1109,
      "ood": 1110,
      "Ġwhere": 1111,
      "rench": 1112,
      "urr": 1113,
      "co": 1114,
      "Ġjohn": 1115,
      "Ġrecord": 1116,
      "Ġpubl": 1117,
      "Ġeuro": 1118,
      "196": 1119,
      "ional": 1120,
      "ower": 1121,
      "Ġsecond": 1122,
      "Ġmain": 1123,
      "ason": 1124,
      "Ġlike": 1125,
      "Ġdistrict": 1126,
      "angu": 1127,
      "Ġschool": 1128,
      "rel": 1129,
      "ather": 1130,
      "Ġche": 1131,
      "my": 1132,
      "bo": 1133,
      "Ġthree": 1134,
      "Ġthen": 1135,
      "Ġlong": 1136,
      "Ġhel": 1137,
      "Ġstar": 1138,
      "unicip": 1139,
      "emb": 1140,
      "Ġwould": 1141,
      "unicipal": 1142,
      "mar": 1143,
      "lishments": 1144,
      "fect": 1145,
      "fore": 1146,
      "anc": 1147,
      "14": 1148,
      "13": 1149,
      "Ġlater": 1150,
      "Ġsuch": 1151,
      "Ġplayers": 1152,
      "Ġchamp": 1153,
      "Ġloc": 1154,
      "ives": 1155,
      "Ġbas": 1156,
      "Ġvery": 1157,
      "ĠĠĠĠ": 1158,
      "ister": 1159,
      "af": 1160,
      "rop": 1161,
      "Ġparty": 1162,
      "ious": 1163,
      "pres": 1164,
      "urg": 1165,
      "Ġwom": 1166,
      "Ġbar": 1167,
      "Ġdepart": 1168,
      "Ġperson": 1169,
      "ished": 1170,
      "til": 1171,
      "25": 1172,
      "Ġfil": 1173,
      "ually": 1174,
      "Ġwon": 1175,
      "Ġintern": 1176,
      "uk": 1177,
      "Ġchild": 1178,
      "Ġaustral": 1179,
      "Ġlead": 1180,
      "mp": 1181,
      "con": 1182,
      "000": 1183,
      "red": 1184,
      "Ġunder": 1185,
      "Ġbest": 1186,
      "Ġsub": 1187,
      "Ġcons": 1188,
      "Ġmod": 1189,
      "rough": 1190,
      "Ġlife": 1191,
      "Ġinst": 1192,
      "ual": 1193,
      "Ġmil": 1194,
      "ferent": 1195,
      "Ġtran": 1196,
      "Ġital": 1197,
      "ough": 1198,
      "Ġob": 1199,
      "\"|": 1200,
      "Ġ2020": 1201,
      "amed": 1202,
      "ement": 1203,
      "ets": 1204,
      "ey": 1205,
      "Ġreleased": 1206,
      "Ġspace": 1207,
      "Ġhigh": 1208,
      "24": 1209,
      "ise": 1210,
      "Ġuntil": 1211,
      "Ġdifferent": 1212,
      "ress": 1213,
      "cent": 1214,
      "Ġeurope": 1215,
      "mov": 1216,
      "Ġgames": 1217,
      "28": 1218,
      "Ġsl": 1219,
      "enc": 1220,
      "au": 1221,
      "Ġlaw": 1222,
      "Ġarea": 1223,
      "Ġ24": 1224,
      "Ġdepartment": 1225,
      "ung": 1226,
      "ium": 1227,
      "atch": 1228,
      "fl": 1229,
      "Ġfour": 1230,
      "29": 1231,
      "26": 1232,
      "Ġrep": 1233,
      "Ġage": 1234,
      "Ġlo": 1235,
      "30": 1236,
      "omet": 1237,
      "Ġthrough": 1238,
      "rist": 1239,
      "let": 1240,
      "aint": 1241,
      "Ġinter": 1242,
      "stem": 1243,
      "Ġent": 1244,
      "Ġisland": 1245,
      "Ġmember": 1246,
      "ky": 1247,
      "ered": 1248,
      "27": 1249,
      "its": 1250,
      "Ġret": 1251,
      "Ġestablishments": 1252,
      "Ġinv": 1253,
      "Ġsim": 1254,
      "Ġactor": 1255,
      "Ġgame": 1256,
      "Ġty": 1257,
      "hern": 1258,
      "Ġband": 1259,
      "ants": 1260,
      "me": 1261,
      "Ġcare": 1262,
      "bert": 1263,
      "ats": 1264,
      "ott": 1265,
      "Ġprof": 1266,
      "Ġsur": 1267,
      "ution": 1268,
      "Ġold": 1269,
      "ger": 1270,
      "ating": 1271,
      "Ġhouse": 1272,
      "Ġcanad": 1273,
      "Ġ25": 1274,
      "orts": 1275,
      "Ġhar": 1276,
      "Ġir": 1277,
      "ank": 1278,
      "any": 1279,
      "app": 1280,
      "Ġii": 1281,
      "Ġaut": 1282,
      "ried": 1283,
      "ull": 1284,
      "hen": 1285,
      "Ġbus": 1286,
      "rowspan": 1287,
      "Ġsystem": 1288,
      "Ġuse": 1289,
      "Ġwell": 1290,
      "Ġsince": 1291,
      "Ġfamily": 1292,
      "Ġregion": 1293,
      "xt": 1294,
      "Ġcommun": 1295,
      "Ġbefore": 1296,
      "Ġif": 1297,
      "Ġfrench": 1298,
      "iam": 1299,
      "Ġsmall": 1300,
      "mon": 1301,
      "oss": 1302,
      "Ġback": 1303,
      "Ġdiv": 1304,
      "195": 1305,
      "writ": 1306,
      "Ġland": 1307,
      "ever": 1308,
      "Ġ2003": 1309,
      "erv": 1310,
      "Ġbra": 1311,
      "ology": 1312,
      "Ġsame": 1313,
      "Ġlist": 1314,
      "ock": 1315,
      "Ġform": 1316,
      "Ġkill": 1317,
      "Ġsongs": 1318,
      "ography": 1319,
      "dom": 1320,
      "ific": 1321,
      "Ġmake": 1322,
      "by": 1323,
      "Ġformer": 1324,
      "gest": 1325,
      "Ġ1998": 1326,
      "Ġmunicipal": 1327,
      "igin": 1328,
      "Ġday": 1329,
      "Ġang": 1330,
      "form": 1331,
      "ject": 1332,
      "Ġgovernment": 1333,
      "Ġsinger": 1334,
      "ural": 1335,
      "iew": 1336,
      "key": 1337,
      "194": 1338,
      "Ġ30": 1339,
      "Ġbeing": 1340,
      "ll": 1341,
      "min": 1342,
      "Ġlangu": 1343,
      "related": 1344,
      "Ġchampions": 1345,
      "ollow": 1346,
      "ae": 1347,
      "els": 1348,
      "11": 1349,
      "Ġgl": 1350,
      "res": 1351,
      "ino": 1352,
      "Ġwater": 1353,
      "ator": 1354,
      "Ġever": 1355,
      "Ġdid": 1356,
      "\",": 1357,
      "sc": 1358,
      "Ġann": 1359,
      "Ġred": 1360,
      "ines": 1361,
      "ield": 1362,
      "ounc": 1363,
      "Ġphil": 1364,
      "Ġproduc": 1365,
      "Ġhum": 1366,
      "Ġmo": 1367,
      "Ġruss": 1368,
      "Ġ2010": 1369,
      "present": 1370,
      "ians": 1371,
      "akes": 1372,
      "Ġofficial": 1373,
      "Ã¡": 1374,
      "Ġ2004": 1375,
      "ham": 1376,
      "Ġoften": 1377,
      "gy": 1378,
      "Ġval": 1379,
      "ene": 1380,
      "Ġcentury": 1381,
      "ange": 1382,
      "iforn": 1383,
      "ĠĊĠĊĠĊĠĊ": 1384,
      "ata": 1385,
      "Ġanim": 1386,
      "Ġmill": 1387,
      "Ġpeak": 1388,
      "Ġagainst": 1389,
      "yn": 1390,
      "ifornia": 1391,
      "Ġboth": 1392,
      "Ġyou": 1393,
      "Ġown": 1394,
      "velop": 1395,
      "Ġfollow": 1396,
      "Ġinternational": 1397,
      "Ġbased": 1398,
      "Ġeast": 1399,
      "Ġmy": 1400,
      "Ġoly": 1401,
      "Ġnamed": 1402,
      "Ġnear": 1403,
      "Ġany": 1404,
      "Ġorgan": 1405,
      "Ġolymp": 1406,
      "cc": 1407,
      "Ġplace": 1408,
      "Ġpages": 1409,
      "Ġadd": 1410,
      "Ġprogr": 1411,
      "ove": 1412,
      "cer": 1413,
      "Ġcalifornia": 1414,
      "Ġwomen": 1415,
      "Ġactress": 1416,
      "Ġsaid": 1417,
      "omar": 1418,
      "Ġje": 1419,
      "Ġeach": 1420,
      "rest": 1421,
      "ful": 1422,
      "Ġstarted": 1423,
      "Ġclub": 1424,
      "Ġacc": 1425,
      "Ġcor": 1426,
      "Ġwal": 1427,
      "ma": 1428,
      "Ġ2005": 1429,
      "ille": 1430,
      "ute": 1431,
      "pro": 1432,
      "Ġrock": 1433,
      "ret": 1434,
      "ĊĠ": 1435,
      "Ġsk": 1436,
      "ev": 1437,
      "Ġdec": 1438,
      "Ġint": 1439,
      "50": 1440,
      "Ġhelp": 1441,
      "Ġseason": 1442,
      "Ġleg": 1443,
      "Ġrev": 1444,
      "Ġcareer": 1445,
      "ize": 1446,
      "Ġx": 1447,
      "Ġ2019": 1448,
      "Ġprofess": 1449,
      "Ġpalomar": 1450,
      "ries": 1451,
      "Ġsever": 1452,
      "Ġgeor": 1453,
      "12": 1454,
      "Ġwebsite": 1455,
      "ric": 1456,
      "ty": 1457,
      "atic": 1458,
      "Ġdem": 1459,
      "Ġconst": 1460,
      "icians": 1461,
      "Ġcountry": 1462,
      "Ġwhile": 1463,
      "burg": 1464,
      "Ġ23": 1465,
      "be": 1466,
      "Ġ.": 1467,
      "ala": 1468,
      "ondon": 1469,
      "Ġright": 1470,
      "Ġchrist": 1471,
      "Ġcharact": 1472,
      "Ġ2017": 1473,
      "ara": 1474,
      "ction": 1475,
      "mun": 1476,
      "ature": 1477,
      "Ġdevelop": 1478,
      "Ġtre": 1479,
      "ink": 1480,
      "elf": 1481,
      "Ġkingdom": 1482,
      "Ġorigin": 1483,
      "eter": 1484,
      "Ġengland": 1485,
      "iation": 1486,
      "Ġcup": 1487,
      "34": 1488,
      "Ġgermany": 1489,
      "ison": 1490,
      "Ġep": 1491,
      "get": 1492,
      "hes": 1493,
      "Ġ29": 1494,
      "aking": 1495,
      "Ġrepubl": 1496,
      "ling": 1497,
      "Ġ21": 1498,
      "Ġgreat": 1499,
      "Ġaround": 1500,
      "Ġrun": 1501,
      "Ġinc": 1502,
      "Ġhowever": 1503,
      "Ġsum": 1504,
      "ains": 1505,
      "Ġoper": 1506,
      "Ġcommune": 1507,
      "ular": 1508,
      "Ġlast": 1509,
      "Ġbuild": 1510,
      "Ġset": 1511,
      "Ġ26": 1512,
      "Ġpopulation": 1513,
      "yl": 1514,
      "Ġmag": 1515,
      "Ã¶": 1516,
      "80": 1517,
      "Ġminister": 1518,
      "jor": 1519,
      "37": 1520,
      "ble": 1521,
      "Ġafr": 1522,
      "Ġappear": 1523,
      "ney": 1524,
      "ody": 1525,
      "Ġlondon": 1526,
      "Ġ2014": 1527,
      "Ġsen": 1528,
      "Ġ2018": 1529,
      "Ġhistory": 1530,
      "Ġmount": 1531,
      "iness": 1532,
      "Ġspe": 1533,
      "ana": 1534,
      "Ġincluding": 1535,
      "Ġbre": 1536,
      "hing": 1537,
      "edy": 1538,
      "vent": 1539,
      "ony": 1540,
      "day": 1541,
      "âĢĻ": 1542,
      "Ġblack": 1543,
      "Ġ&": 1544,
      "Ġnet": 1545,
      "Ġmid": 1546,
      "Ġneat": 1547,
      "ner": 1548,
      "oy": 1549,
      "Ġcommon": 1550,
      "Ġ28": 1551,
      "Ġkitt": 1552,
      "west": 1553,
      "Ġchildren": 1554,
      "Ġword": 1555,
      "36": 1556,
      "Ġport": 1557,
      "Ġstat": 1558,
      "Ġ2006": 1559,
      "Ġsign": 1560,
      "ster": 1561,
      "Ġdirected": 1562,
      "Ġvers": 1563,
      "ird": 1564,
      "movies": 1565,
      "ode": 1566,
      "Ġcro": 1567,
      "Ġhome": 1568,
      "Ġchampionship": 1569,
      "watch": 1570,
      "Ġcould": 1571,
      "Ġway": 1572,
      "Ġroman": 1573,
      "Ġcov": 1574,
      "Ġav": 1575,
      "ideo": 1576,
      "Ġwinn": 1577,
      "ĠĊĊ": 1578,
      "ized": 1579,
      "Ġnow": 1580,
      "gen": 1581,
      "35": 1582,
      "Ġhead": 1583,
      "Ġcour": 1584,
      "Ġprogram": 1585,
      "40": 1586,
      "Ġdef": 1587,
      "Ġvar": 1588,
      "Ġsu": 1589,
      "Ġlive": 1590,
      "na": 1591,
      "Ġsol": 1592,
      "Ġrem": 1593,
      "Ġexamp": 1594,
      "Ġsomet": 1595,
      "Ġ2016": 1596,
      "uction": 1597,
      "Ġspacewatch": 1598,
      "39": 1599,
      "Ġopen": 1600,
      "Ġseveral": 1601,
      "ze": 1602,
      "Ġke": 1603,
      "embers": 1604,
      "Ġprovince": 1605,
      "ined": 1606,
      "Ġfilm": 1607,
      "commun": 1608,
      "Ġgeneral": 1609,
      "Ġclass": 1610,
      "Ġjust": 1611,
      "Ġstor": 1612,
      "Ġusually": 1613,
      "Ġra": 1614,
      "ald": 1615,
      "Ġcompany": 1616,
      "Ġpa": 1617,
      "38": 1618,
      "Ġimport": 1619,
      "Ġer": 1620,
      "par": 1621,
      "Ġpower": 1622,
      "ract": 1623,
      "ows": 1624,
      "pol": 1625,
      "ps": 1626,
      "Ġvi": 1627,
      "ible": 1628,
      "Ġes": 1629,
      "pos": 1630,
      "Ġfar": 1631,
      "Ġsho": 1632,
      "Ġvill": 1633,
      "ved": 1634,
      "ago": 1635,
      "Ġpark": 1636,
      "Ġindian": 1637,
      "Ġrepresent": 1638,
      "Ġcaus": 1639,
      "Ġrad": 1640,
      "Ġ2015": 1641,
      "ament": 1642,
      "urch": 1643,
      "Ġ22": 1644,
      "Ġ2011": 1645,
      "cept": 1646,
      "ues": 1647,
      "Ġpat": 1648,
      "ones": 1649,
      "ience": 1650,
      "Ġ27": 1651,
      "Ġsal": 1652,
      "que": 1653,
      "Ġmunicipality": 1654,
      "60": 1655,
      "Ġvo": 1656,
      "Ġdisc": 1657,
      "Ġtrans": 1658,
      "90": 1659,
      "Ġmajor": 1660,
      "Ġtimes": 1661,
      "not": 1662,
      "Ġ2021": 1663,
      "Ġ2007": 1664,
      "Ġcompos": 1665,
      "Ġdown": 1666,
      "Ġaustralia": 1667,
      "Ġ190": 1668,
      "Ġgood": 1669,
      "Ġdel": 1670,
      "ka": 1671,
      "Ġste": 1672,
      "Ġgod": 1673,
      "Ġcat": 1674,
      "Ġhol": 1675,
      "Ġarch": 1676,
      "Ġbig": 1677,
      "death": 1678,
      "70": 1679,
      "Ã¼": 1680,
      "Ġattack": 1681,
      "hor": 1682,
      "Ġyoun": 1683,
      "Ġext": 1684,
      "Ġjapanese": 1685,
      "istor": 1686,
      "ipp": 1687,
      "Ġamerica": 1688,
      "Ġpublic": 1689,
      "adem": 1690,
      "itz": 1691,
      "istan": 1692,
      "urrent": 1693,
      "Ġmes": 1694,
      "omin": 1695,
      "inc": 1696,
      "Ġsuc": 1697,
      "aut": 1698,
      "Ġbi": 1699,
      "Ġlived": 1700,
      "Ġdesign": 1701,
      "Ġlarge": 1702,
      "ler": 1703,
      "Ġson": 1704,
      "Ġsingle": 1705,
      "Ġill": 1706,
      "Ġbegan": 1707,
      "Ġhy": 1708,
      ".\"": 1709,
      "Ġvol": 1710,
      "Ġgra": 1711,
      "Ġanderson": 1712,
      "Ġ2013": 1713,
      "Ġ2008": 1714,
      "lo": 1715,
      "Ġ'": 1716,
      "Ġcreated": 1717,
      "Ġearly": 1718,
      "Ġcamp": 1719,
      "Ġvir": 1720,
      "Ġassoc": 1721,
      "Ġindia": 1722,
      "ane": 1723,
      "Ġchang": 1724,
      "Ġevery": 1725,
      "Ġpass": 1726,
      "Ġwhat": 1727,
      "ket": 1728,
      "side": 1729,
      "ilt": 1730,
      "Ġeas": 1731,
      "Ġtop": 1732,
      "ÃŃ": 1733,
      "Ġtit": 1734,
      "ief": 1735,
      "Ġ2012": 1736,
      "Ġmen": 1737,
      "Ġpopular": 1738,
      "Ġcolle": 1739,
      "ico": 1740,
      "Ġget": 1741,
      "ark": 1742,
      "Ġgold": 1743,
      "itary": 1744,
      "99": 1745,
      "colspan": 1746,
      "alth": 1747,
      "ex": 1748,
      "Ġdrama": 1749,
      "Ġcontro": 1750,
      "Ġmanag": 1751,
      "Ġmiss": 1752,
      "ford": 1753,
      "Ġvideo": 1754,
      "\"|-": 1755,
      "Ġimportant": 1756,
      "Ġlanguage": 1757,
      "can": 1758,
      "Ġmer": 1759,
      "ring": 1760,
      "Ġwriter": 1761,
      "Ġda": 1762,
      "Ġorder": 1763,
      "Ġanother": 1764,
      "Ġsan": 1765,
      "Ġitalian": 1766,
      "\"|-||": 1767,
      "ensus": 1768,
      "communes": 1769,
      "ches": 1770,
      "Ġ2009": 1771,
      "ior": 1772,
      "yle": 1773,
      "Ġwent": 1774,
      "Ġbatt": 1775,
      "Ġphys": 1776,
      "Ã³": 1777,
      "Ġwilliam": 1778,
      "lex": 1779,
      "Ġspecies": 1780,
      "off": 1781,
      "33": 1782,
      "Ġmass": 1783,
      "..": 1784,
      "Ġshort": 1785,
      "Ġtem": 1786,
      "Ġcapital": 1787,
      "Ġcompet": 1788,
      "Ġsupport": 1789,
      "Ġlight": 1790,
      "Ġexample": 1791,
      "Ġmal": 1792,
      "Ġmembers": 1793,
      "berg": 1794,
      "history": 1795,
      "aster": 1796,
      "Ġeven": 1797,
      "Ġwhite": 1798,
      "press": 1799,
      "iven": 1800,
      "45": 1801,
      "zil": 1802,
      "Ġmich": 1803,
      "han": 1804,
      "Ġcast": 1805,
      "Ġleft": 1806,
      "Ġwin": 1807,
      "ices": 1808,
      "Ġcountries": 1809,
      "ars": 1810,
      "Ġdirector": 1811,
      "ially": 1812,
      "Ġmesa": 1813,
      "Ġtur": 1814,
      "Ġber": 1815,
      "rog": 1816,
      "uck": 1817,
      "Ġgrand": 1818,
      "Ġmillion": 1819,
      "Ġunion": 1820,
      "Ġinclude": 1821,
      "ired": 1822,
      "Ġfather": 1823,
      "Ġcult": 1824,
      "Ġactiv": 1825,
      "Ġmor": 1826,
      "Ġbill": 1827,
      "Ġmuch": 1828,
      "Ġhistor": 1829,
      "Ġcurrent": 1830,
      "Ġhen": 1831,
      "Ġbusiness": 1832,
      "Ġant": 1833,
      "Ġlou": 1834,
      "Ġarmy": 1835,
      "ided": 1836,
      "95": 1837,
      "riend": 1838,
      "cities": 1839,
      "led": 1840,
      "ida": 1841,
      "88": 1842,
      "Ġstill": 1843,
      "Ġgroups": 1844,
      "umb": 1845,
      "la": 1846,
      "mat": 1847,
      "gin": 1848,
      "lin": 1849,
      "oph": 1850,
      "47": 1851,
      "65": 1852,
      "Ġchurch": 1853,
      "ides": 1854,
      "ivil": 1855,
      "outh": 1856,
      "Ġ2022": 1857,
      "ocr": 1858,
      "eth": 1859,
      "Ġ()": 1860,
      "amb": 1861,
      "chn": 1862,
      "aces": 1863,
      "deaths": 1864,
      "97": 1865,
      "ax": 1866,
      "wh": 1867,
      "Ġsil": 1868,
      "Ġwritten": 1869,
      "Ġline": 1870,
      "english": 1871,
      "Ã¤": 1872,
      "men": 1873,
      "Ġcomedy": 1874,
      "actors": 1875,
      "Ġocc": 1876,
      "Ġsix": 1877,
      "ertain": 1878,
      "ockey": 1879,
      "Ġcensus": 1880,
      "Ġmeans": 1881,
      "Ġdeb": 1882,
      "Ġlone": 1883,
      "por": 1884,
      "wor": 1885,
      "Ġdav": 1886,
      "Ġthird": 1887,
      "Ġfr": 1888,
      "Ġperfor": 1889,
      "Ġdon": 1890,
      "Ġrece": 1891,
      "omb": 1892,
      "Ġsummer": 1893,
      "Ġsold": 1894,
      "Ġcy": 1895,
      "96": 1896,
      "98": 1897,
      "Ġtex": 1898,
      "ek": 1899,
      "Ġrepublic": 1900,
      "Ġswed": 1901,
      "Ġjour": 1902,
      "Ġacadem": 1903,
      "idge": 1904,
      "ots": 1905,
      "Ġcontin": 1906,
      "48": 1907,
      "Ġbooks": 1908,
      "mus": 1909,
      "Ġnort": 1910,
      "Ġcond": 1911,
      "Ġloneos": 1912,
      "anish": 1913,
      "ien": 1914,
      "cy": 1915,
      "Ġmarried": 1916,
      "Ġlos": 1917,
      "Ġangel": 1918,
      "hi": 1919,
      "Ġneed": 1920,
      "Ġcentral": 1921,
      "Ġresult": 1922,
      "Ġlab": 1923,
      "ria": 1924,
      "iter": 1925,
      "Ġfamous": 1926,
      "Ġhuman": 1927,
      "ple": 1928,
      "Ġbuilt": 1929,
      "2000": 1930,
      "Ġpos": 1931,
      "ius": 1932,
      "Ġcollege": 1933,
      "iod": 1934,
      "Ġheart": 1935,
      "isc": 1936,
      "Ġhockey": 1937,
      "yal": 1938,
      "Ġcenter": 1939,
      "Ġhapp": 1940,
      "jo": 1941,
      "Ġtal": 1942,
      "Ġwestern": 1943,
      "Ġwrest": 1944,
      "Ġ1997": 1945,
      "uel": 1946,
      "ha": 1947,
      "Ġcancer": 1948,
      "Ġrich": 1949,
      "fo": 1950,
      "rote": 1951,
      "Ġfre": 1952,
      "Ġfive": 1953,
      "itar": 1954,
      "46": 1955,
      "osp": 1956,
      "Ġsea": 1957,
      "rian": 1958,
      "epend": 1959,
      "arch": 1960,
      "Ġuk": 1961,
      "Ġcanada": 1962,
      "ured": 1963,
      "ised": 1964,
      "31": 1965,
      "ards": 1966,
      "Ġnat": 1967,
      "Ġvict": 1968,
      "Ã¨": 1969,
      "Ġdoes": 1970,
      "Ġsuccess": 1971,
      "ves": 1972,
      "istics": 1973,
      "Ġtook": 1974,
      "ency": 1975,
      "urs": 1976,
      "75": 1977,
      "Ġsocial": 1978,
      "of": 1979,
      "ena": 1980,
      "lands": 1981,
      "Ġwant": 1982,
      "cast": 1983,
      "Ġfem": 1984,
      "Ġ100": 1985,
      "Ġ1990": 1986,
      "Ġstre": 1987,
      "Ġgir": 1988,
      "Ġ31": 1989,
      "Ġmean": 1990,
      "ania": 1991,
      "Ġspecial": 1992,
      "ases": 1993,
      "Ġ1996": 1994,
      "ility": 1995,
      "reek": 1996,
      "Ġengine": 1997,
      "oviet": 1998,
      "Ġecon": 1999,
      "Ġdesc": 2000,
      "pect": 2001,
      "oney": 2002,
      "go": 2003,
      "Ġheld": 2004,
      "Ġbecome": 2005,
      "ij": 2006,
      "Ġflor": 2007,
      "tt": 2008,
      "Ġwind": 2009,
      "Ġalong": 2010,
      "ael": 2011,
      "Ġstand": 2012,
      "Ġbody": 2013,
      "Ġprofessional": 2014,
      "Ġcame": 2015,
      "Ġeconom": 2016,
      "Ġsometimes": 2017,
      "Ġstage": 2018,
      "ven": 2019,
      "Ġflo": 2020,
      "Ġprime": 2021,
      "nal": 2022,
      "Ġworks": 2023,
      "Ġcivil": 2024,
      "Ġwrote": 2025,
      "Ġpolitical": 2026,
      "Ġexpl": 2027,
      "tal": 2028,
      "ival": 2029,
      "Ġalbums": 2030,
      "2010": 2031,
      "Ġmoved": 2032,
      "val": 2033,
      "Ġnorthern": 2034,
      "Ġproble": 2035,
      "aced": 2036,
      "Ġmilitary": 2037,
      "Ġeduc": 2038,
      "Ġmex": 2039,
      "Ġlargest": 2040,
      "Ġdi": 2041,
      "Ġversion": 2042,
      "Ġreal": 2043,
      "Ġpresent": 2044,
      "Ġearth": 2045,
      "||||||||": 2046,
      "ansas": 2047,
      "bs": 2048,
      "Ġliving": 2049,
      "utch": 2050,
      "Ġgiven": 2051,
      "most": 2052,
      "ya": 2053,
      "icago": 2054,
      "rod": 2055,
      "32": 2056,
      "Ġjack": 2057,
      "Ġyoung": 2058,
      "Ġauthor": 2059,
      "Ġconf": 2060,
      "Ġfollowing": 2061,
      "Ġusing": 2062,
      "ville": 2063,
      "Ġstory": 2064,
      "ids": 2065,
      "Ġpaul": 2066,
      "ning": 2067,
      "hel": 2068,
      "Ġepis": 2069,
      "Ġgovernor": 2070,
      "pes": 2071,
      "Ġque": 2072,
      "writers": 2073,
      "Ġperiod": 2074,
      "ges": 2075,
      "Ġfriend": 2076,
      "Ġgener": 2077,
      "Ġsuper": 2078,
      "polit": 2079,
      "ming": 2080,
      "85": 2081,
      "ady": 2082,
      "Ġscient": 2083,
      "olution": 2084,
      "Ġvis": 2085,
      "Ġfootballer": 2086,
      "Ġhal": 2087,
      "Ġ1995": 2088,
      "Ġrest": 2089,
      "Ġhall": 2090,
      "Ġcharacter": 2091,
      "jan": 2092,
      "Ġreturn": 2093,
      "ness": 2094,
      "Ġtro": 2095,
      "ta": 2096,
      "reen": 2097,
      "Ġstation": 2098,
      "Ġchina": 2099,
      "Ġlouis": 2100,
      "Ġlook": 2101,
      "work": 2102,
      "Ġindepend": 2103,
      "Ġrul": 2104,
      "ked": 2105,
      "Ġhand": 2106,
      "Ġevent": 2107,
      "76": 2108,
      "itions": 2109,
      "ades": 2110,
      "Ġitaly": 2111,
      "Ġcanadian": 2112,
      "aving": 2113,
      "Ġtexas": 2114,
      "ators": 2115,
      "Ġequ": 2116,
      "86": 2117,
      "iety": 2118,
      "Ġcomput": 2119,
      "Ġgot": 2120,
      "raft": 2121,
      "Ġthings": 2122,
      "Ġze": 2123,
      "Ġve": 2124,
      "Ġfed": 2125,
      "Ġhor": 2126,
      "ula": 2127,
      "Ġrussian": 2128,
      "play": 2129,
      "Ġcolor": 2130,
      "Ġjames": 2131,
      "ki": 2132,
      "Ġdu": 2133,
      "Ġsaint": 2134,
      "Ġbrazil": 2135,
      "Ġbattle": 2136,
      "Ġrole": 2137,
      "Ġcounc": 2138,
      "uted": 2139,
      "cle": 2140,
      "Ġtechn": 2141,
      "ris": 2142,
      "illa": 2143,
      "Ġprote": 2144,
      "Ġtoget": 2145,
      "Ġmedal": 2146,
      "Ġemp": 2147,
      "Ġtogether": 2148,
      "Ġkore": 2149,
      "Ġnys": 2150,
      "94": 2151,
      "Ġfood": 2152,
      "Ġworked": 2153,
      "ĠĠĠĠĠĠĠĠ": 2154,
      "ilar": 2155,
      "Ġaustralian": 2156,
      "Ġcourt": 2157,
      "Ġfight": 2158,
      "Ġfif": 2159,
      "Ġ1980": 2160,
      "sports": 2161,
      "Ġpublished": 2162,
      "Ġeuropean": 2163,
      "Ġkilled": 2164,
      "Ġtake": 2165,
      "ander": 2166,
      "Ġbrother": 2167,
      "Ġchem": 2168,
      "Ġrail": 2169,
      "Ġassociation": 2170,
      "Ġturn": 2171,
      "Ġmother": 2172,
      "line": 2173,
      "aust": 2174,
      "Ġvot": 2175,
      "Ġlat": 2176,
      "Ġgreen": 2177,
      "Ġcrit": 2178,
      "ittle": 2179,
      "Ġput": 2180,
      "Ġarr": 2181,
      "Ġver": 2182,
      "Ġbur": 2183,
      "inese": 2184,
      "Ġpoliticians": 2185,
      "Ġjournal": 2186,
      "Ġmic": 2187,
      "77": 2188,
      "Ġ1994": 2189,
      "den": 2190,
      "Ġfire": 2191,
      "Ġsee": 2192,
      "Ġdise": 2193,
      "Ġlove": 2194,
      "Ġmart": 2195,
      "ux": 2196,
      "Ġgeorge": 2197,
      "ained": 2198,
      "sw": 2199,
      "Ġmur": 2200,
      "new": 2201,
      "Ġmodern": 2202,
      "Ġscience": 2203,
      "Ġserved": 2204,
      "Ġnext": 2205,
      "Ġ1960": 2206,
      "Ġ1993": 2207,
      "avy": 2208,
      "Ġfun": 2209,
      "Ġmc": 2210,
      "Ġ1992": 2211,
      "united": 2212,
      "ota": 2213,
      "rip": 2214,
      "Ġtrad": 2215,
      "Ġbal": 2216,
      "uri": 2217,
      "Ġhot": 2218,
      "Ġdivision": 2219,
      "eum": 2220,
      "Ġsn": 2221,
      "Ġlevel": 2222,
      "Ġfew": 2223,
      "Ġ,": 2224,
      "Ġchicago": 2225,
      "ization": 2226,
      "Ġhon": 2227,
      "ged": 2228,
      "town": 2229,
      "Ġplan": 2230,
      "Ġide": 2231,
      "'t": 2232,
      "ified": 2233,
      "ams": 2234,
      "Ġsqu": 2235,
      "this": 2236,
      "Ġvillage": 2237,
      "km": 2238,
      "Ġsecret": 2239,
      "Ġarg": 2240,
      "Ġpress": 2241,
      "Ġelection": 2242,
      "Ġdev": 2243,
      "Ġrecords": 2244,
      "ĊĠĊ": 2245,
      "Ġsite": 2246,
      "Ġsent": 2247,
      "Ġanc": 2248,
      "Ġbroad": 2249,
      "Ġur": 2250,
      "ped": 2251,
      "Ġsouthern": 2252,
      "formation": 2253,
      "Ġcouncil": 2254,
      "bl": 2255,
      "Ġstars": 2256,
      "Ġfind": 2257,
      "sy": 2258,
      "ocratic": 2259,
      "Ġawards": 2260,
      "Ġprom": 2261,
      "Ġcop": 2262,
      "Ġnight": 2263,
      "Ġplays": 2264,
      "Ġfounded": 2265,
      "ii": 2266,
      "Ġdata": 2267,
      "Ġsym": 2268,
      "44": 2269,
      "Ġsports": 2270,
      "Åį": 2271,
      "Ġroad": 2272,
      "Ġparts": 2273,
      "there": 2274,
      "writer": 2275,
      "Ġartist": 2276,
      "Ġleader": 2277,
      "Ġroyal": 2278,
      "Ġmad": 2279,
      "ife": 2280,
      "Ġradio": 2281,
      "|}": 2282,
      "Ġlocal": 2283,
      "ba": 2284,
      "Ġpak": 2285,
      "Ġparis": 2286,
      "05": 2287,
      "olic": 2288,
      "gar": 2289,
      "Ġafrica": 2290,
      "antic": 2291,
      "dle": 2292,
      "Ġthose": 2293,
      "Ġvoice": 2294,
      "Ġpost": 2295,
      "Ġfrog": 2296,
      "66": 2297,
      "2006": 2298,
      "Ġstop": 2299,
      "Ġmot": 2300,
      "Ġdays": 2301,
      "87": 2302,
      "Ġconne": 2303,
      "Ġadv": 2304,
      "Ġtype": 2305,
      "ought": 2306,
      "Ġfield": 2307,
      "Ġhard": 2308,
      "Ġasia": 2309,
      "Ġcollect": 2310,
      "Ġsun": 2311,
      "istr": 2312,
      "Ġfeat": 2313,
      "car": 2314,
      "har": 2315,
      "Ġterm": 2316,
      "Ġempire": 2317,
      "Ġsound": 2318,
      "Ġguitar": 2319,
      "2007": 2320,
      "Ġangeles": 2321,
      "lements": 2322,
      "Ġcath": 2323,
      "2005": 2324,
      "Ġresear": 2325,
      "Ġspanish": 2326,
      "ument": 2327,
      "Ġbad": 2328,
      "ells": 2329,
      "ways": 2330,
      "odes": 2331,
      "Ġbecom": 2332,
      "iction": 2333,
      "rael": 2334,
      "Ġ1991": 2335,
      "ounced": 2336,
      "Ġhill": 2337,
      "Ġbelie": 2338,
      "ced": 2339,
      "2020": 2340,
      "âĢĿ": 2341,
      "Ġpict": 2342,
      "Ġtak": 2343,
      "Ġref": 2344,
      "Ġcontrol": 2345,
      "gian": 2346,
      "Ġstyle": 2347,
      "Ġjud": 2348,
      "ctor": 2349,
      "ened": 2350,
      "Ġservice": 2351,
      "Ġtour": 2352,
      "Ġfall": 2353,
      "Ġaged": 2354,
      "Ġgirl": 2355,
      "bi": 2356,
      "Ġless": 2357,
      "itzer": 2358,
      "ump": 2359,
      "Ġfree": 2360,
      "Ġoffice": 2361,
      "nd": 2362,
      "Ġlocated": 2363,
      "Ġtest": 2364,
      "Ġexper": 2365,
      "Ġmuseum": 2366,
      "Ġham": 2367,
      "Ġcir": 2368,
      "Ġsimilar": 2369,
      "Ġrelig": 2370,
      "ference": 2371,
      "Ġcaused": 2372,
      "Ġthought": 2373,
      "Ġwashing": 2374,
      "Ġoriginal": 2375,
      "ted": 2376,
      "igh": 2377,
      "Ġkar": 2378,
      "2004": 2379,
      "Ġden": 2380,
      "nes": 2381,
      "ona": 2382,
      "rew": 2383,
      "Ġdue": 2384,
      "Ġmaking": 2385,
      "iers": 2386,
      "Ġside": 2387,
      "Ġsoviet": 2388,
      "Ġreport": 2389,
      "Ġbeg": 2390,
      "Ġ[": 2391,
      "aker": 2392,
      "Ġrepl": 2393,
      "2008": 2394,
      "Ġ1970": 2395,
      "Ġcapt": 2396,
      "wood": 2397,
      "Ġobs": 2398,
      "Ġseat": 2399,
      "ste": 2400,
      "Ġrights": 2401,
      "aland": 2402,
      "Ġpoint": 2403,
      "Ġsay": 2404,
      "Ġcoast": 2405,
      "Ġled": 2406,
      "Ġstruct": 2407,
      "55": 2408,
      "oon": 2409,
      "she": 2410,
      "Ġread": 2411,
      "89": 2412,
      "Ġce": 2413,
      "dr": 2414,
      "Ġhost": 2415,
      "Ġsit": 2416,
      "Ġconstit": 2417,
      "Ġgrow": 2418,
      "):": 2419,
      "Ġwithout": 2420,
      "ape": 2421,
      "cher": 2422,
      "Ġmont": 2423,
      "ued": 2424,
      "Ġreceived": 2425,
      "Ġvirgin": 2426,
      "Ġnon": 2427,
      "Ġwashington": 2428,
      "uz": 2429,
      "Ġice": 2430,
      "Ġlot": 2431,
      "rab": 2432,
      "century": 2433,
      "over": 2434,
      "Ġlittle": 2435,
      "Ġnovel": 2436,
      "Ġsex": 2437,
      "Ġolympics": 2438,
      "Ġdet": 2439,
      "Ġdavid": 2440,
      "Ġconsid": 2441,
      "Ġbuilding": 2442,
      "Ġlim": 2443,
      "ude": 2444,
      "ground": 2445,
      "Ġcarol": 2446,
      "vers": 2447,
      "Ġscott": 2448,
      "ours": 2449,
      "06": 2450,
      "yr": 2451,
      "ura": 2452,
      "Ġmix": 2453,
      "ended": 2454,
      "kn": 2455,
      "ule": 2456,
      "Ġdest": 2457,
      "Ġfinal": 2458,
      "ĠâĢľ": 2459,
      "ording": 2460,
      "Ġemper": 2461,
      "Ġpaint": 2462,
      "Ġlost": 2463,
      "Ġef": 2464,
      "Ġrobert": 2465,
      "Ġho": 2466,
      "Ġthom": 2467,
      "str": 2468,
      "Ġinstit": 2469,
      "2001": 2470,
      "Ġfail": 2471,
      "ips": 2472,
      "Ġmel": 2473,
      "Ġprize": 2474,
      "Ġspain": 2475,
      "uce": 2476,
      "imate": 2477,
      "ror": 2478,
      "2003": 2479,
      "Ġallow": 2480,
      "gress": 2481,
      "field": 2482,
      "Ġplaces": 2483,
      "Ġmult": 2484,
      "pec": 2485,
      "07": 2486,
      "Ġterrit": 2487,
      "atives": 2488,
      "ministr": 2489,
      "Ġmoney": 2490,
      "Ġmary": 2491,
      "after": 2492,
      "itional": 2493,
      "Ġrob": 2494,
      "ee": 2495,
      "Ġdam": 2496,
      "Ġhealth": 2497,
      "Ġphot": 2498,
      "Ġpakistan": 2499,
      "iro": 2500,
      "Ġ1989": 2501,
      "Ġmust": 2502,
      "Ġinformation": 2503,
      "Ġtotal": 2504,
      "Ġball": 2505,
      "Ġcle": 2506,
      "here": 2507,
      "Ġpet": 2508,
      "Ġsam": 2509,
      "Ġaway": 2510,
      "Ġcommunity": 2511,
      "ga": 2512,
      "2002": 2513,
      "Ġislands": 2514,
      "Ġjew": 2515,
      "Ġsat": 2516,
      "Ġbord": 2517,
      "ared": 2518,
      "Ġlake": 2519,
      "Ġstatistics": 2520,
      "Ġdisease": 2521,
      "icle": 2522,
      "Ġlow": 2523,
      "aur": 2524,
      "ush": 2525,
      "Ġproducer": 2526,
      "Ġtom": 2527,
      "Ġnomin": 2528,
      "Ġseen": 2529,
      "Ġox": 2530,
      "ropical": 2531,
      "1990": 2532,
      "king": 2533,
      "Ġpoet": 2534,
      "Ġmem": 2535,
      "cis": 2536,
      "Ġ1981": 2537,
      "Ġstrong": 2538,
      "Ġacademy": 2539,
      "bor": 2540,
      "Ġ/": 2541,
      "Ġtitle": 2542,
      "Ġdaught": 2543,
      "Ġevents": 2544,
      "ont": 2545,
      "ically": 2546,
      "liament": 2547,
      "Ġast": 2548,
      "Ġcross": 2549,
      "Ġrh": 2550,
      "Ġcant": 2551,
      "Ġdescrib": 2552,
      "Ġchart": 2553,
      "iga": 2554,
      "Ġafrican": 2555,
      "Ġhit": 2556,
      "Ġproduced": 2557,
      "Ġtrib": 2558,
      "back": 2559,
      "Ġten": 2560,
      "Ġ1988": 2561,
      "Ġlate": 2562,
      "Ġresp": 2563,
      "Ġmas": 2564,
      "Ġteams": 2565,
      "fa": 2566,
      "Ġrap": 2567,
      "Ġothers": 2568,
      "Ġtv": 2569,
      "hol": 2570,
      "nor": 2571,
      "Ġalex": 2572,
      "Ġeffect": 2573,
      "Ġkind": 2574,
      "Ġcharles": 2575,
      "aves": 2576,
      "ca": 2577,
      "ĠĠĊ": 2578,
      "Ġforce": 2579,
      "Ġposs": 2580,
      "tra": 2581,
      "Ġshould": 2582,
      "2009": 2583,
      "inal": 2584,
      "mal": 2585,
      "84": 2586,
      "Ġindust": 2587,
      "inois": 2588,
      "Ġzealand": 2589,
      "Ġconnect": 2590,
      "Ġchange": 2591,
      "Ġprocess": 2592,
      "football": 2593,
      "ops": 2594,
      "Ġchinese": 2595,
      "67": 2596,
      "Ġmiddle": 2597,
      "Ġknow": 2598,
      "Ġmatch": 2599,
      "Ġdan": 2600,
      "sport": 2601,
      "ada": 2602,
      "Ġeastern": 2603,
      "ini": 2604,
      "lam": 2605,
      "Ġnob": 2606,
      "Ġmis": 2607,
      "Ġfact": 2608,
      "Ġ0": 2609,
      "Ġmakes": 2610,
      "Ġprot": 2611,
      "ols": 2612,
      "Ġrace": 2613,
      "Ġareas": 2614,
      "Ġbeh": 2615,
      "itzerland": 2616,
      "Ġparliament": 2617,
      "Ġwife": 2618,
      "iana": 2619,
      "Ġstudio": 2620,
      "aper": 2621,
      "Ġexec": 2622,
      "self": 2623,
      "Ġstudy": 2624,
      "Ġchristian": 2625,
      "unt": 2626,
      "ds": 2627,
      "Ġcla": 2628,
      "1999": 2629,
      "Ġcharacters": 2630,
      "ww": 2631,
      "Ġflorida": 2632,
      "ergy": 2633,
      "view": 2634,
      "Ġemperor": 2635,
      "Ġ50": 2636,
      "Ġelected": 2637,
      "adu": 2638,
      "ado": 2639,
      "Ġsant": 2640,
      "ering": 2641,
      "ope": 2642,
      "Ġ$": 2643,
      "Ġformed": 2644,
      "Ġmac": 2645,
      "Ġwood": 2646,
      "sportspeople": 2647,
      "93": 2648,
      "Ġnatural": 2649,
      "ari": 2650,
      "ests": 2651,
      "Ġmichael": 2652,
      "Ġcard": 2653,
      "Ġshows": 2654,
      "Ġillinois": 2655,
      "Ġinfl": 2656,
      "Ġprim": 2657,
      "Ġresearch": 2658,
      "british": 2659,
      "Ġproblems": 2660,
      "Ġgar": 2661,
      "ission": 2662,
      "bc": 2663,
      "atory": 2664,
      "gypt": 2665,
      "ny": 2666,
      "Ġrefer": 2667,
      "Ġisrael": 2668,
      "Ġamong": 2669,
      "vir": 2670,
      "ĠĊĠĊĠĊĠĊĠĊĠĊĠĊĠĊ": 2671,
      "57": 2672,
      "Ġproject": 2673,
      "ders": 2674,
      "Ġsociety": 2675,
      "Ġannounced": 2676,
      "Ġta": 2677,
      "ross": 2678,
      "ript": 2679,
      "Ġtoday": 2680,
      "Ġdefe": 2681,
      "Ġbrit": 2682,
      "Ġjoined": 2683,
      "aly": 2684,
      "Ġdutch": 2685,
      "Ġswitzerland": 2686,
      "Ġtrain": 2687,
      "pre": 2688,
      "Ġ#": 2689,
      "oma": 2690,
      "Ġfrank": 2691,
      "ender": 2692,
      "Ġatl": 2693,
      "Ġnews": 2694,
      "Ġha": 2695,
      "ored": 2696,
      "Ġder": 2697,
      "Ġcatholic": 2698,
      "Ġround": 2699,
      "Ġblue": 2700,
      "Ġcities": 2701,
      "Ġrussia": 2702,
      "fran": 2703,
      "Ġwoman": 2704,
      "Ġpun": 2705,
      "politicians": 2706,
      "ker": 2707,
      "Ġsett": 2708,
      "Ġsweden": 2709,
      "Ġtor": 2710,
      "ality": 2711,
      "92": 2712,
      "lished": 2713,
      "Ġmexico": 2714,
      "ched": 2715,
      "Ġwithin": 2716,
      "wards": 2717,
      "ita": 2718,
      "ached": 2719,
      "Ġq": 2720,
      "Ġhold": 2721,
      "Ġtreat": 2722,
      "awa": 2723,
      "Ġmos": 2724,
      "bon": 2725,
      "eball": 2726,
      "Ġrac": 2727,
      "Ġkansas": 2728,
      "Ġpolice": 2729,
      "Ġca": 2730,
      "state": 2731,
      "Ġwall": 2732,
      "Ġolympic": 2733,
      "Ġbay": 2734,
      "asons": 2735,
      "Ġlives": 2736,
      "64": 2737,
      "ima": 2738,
      "Ġ1987": 2739,
      "Ġcongress": 2740,
      ".,": 2741,
      "Ġrichard": 2742,
      "Ġprefect": 2743,
      "Ġconc": 2744,
      "Ġincluded": 2745,
      "Ġinf": 2746,
      "Ġ1986": 2747,
      "Ġadministr": 2748,
      "91": 2749,
      "german": 2750,
      "Ġcomputer": 2751,
      "year": 2752,
      "Ġ:": 2753,
      "Ġbrown": 2754,
      "Ġoh": 2755,
      "Ġvoc": 2756,
      "Ġpen": 2757,
      "Ġnetwork": 2758,
      "Ġoce": 2759,
      "ketball": 2760,
      "hemat": 2761,
      "Ġdevelopment": 2762,
      "Ġfemale": 2763,
      "Ġclos": 2764,
      "Ġpain": 2765,
      "Ġpeter": 2766,
      "no": 2767,
      "bu": 2768,
      "Ġiss": 2769,
      "Ġcart": 2770,
      "Ġscreen": 2771,
      "Ġben": 2772,
      "ront": 2773,
      "Ġcomposer": 2774,
      "Ġincludes": 2775,
      "ano": 2776,
      "Ġ=": 2777,
      "Ġlanguages": 2778,
      "Ġmodel": 2779,
      "za": 2780,
      "Ġdra": 2781,
      "Ġvirginia": 2782,
      "pa": 2783,
      "Ġboy": 2784,
      "Ġnever": 2785,
      "Ġeight": 2786,
      "icles": 2787,
      "aries": 2788,
      "though": 2789,
      "Ġchanged": 2790,
      "Ġlear": 2791,
      "comp": 2792,
      "gu": 2793,
      "oms": 2794,
      "Ġchann": 2795,
      "Ġhalf": 2796,
      "Ġcatal": 2797,
      "ireland": 2798,
      "Ġproduct": 2799,
      "Ġ1973": 2800,
      "Ġ1984": 2801,
      "Ġ1950": 2802,
      "ellow": 2803,
      "Ġfull": 2804,
      "gia": 2805,
      "Ġgreek": 2806,
      "Ġmusician": 2807,
      "1998": 2808,
      "Ġ1979": 2809,
      "Ġvan": 2810,
      "da": 2811,
      "Ġwil": 2812,
      "anies": 2813,
      "Ġol": 2814,
      "Ġcit": 2815,
      "Ġmr": 2816,
      "idents": 2817,
      "Ġanimals": 2818,
      "Ġut": 2819,
      "olf": 2820,
      "Ġbirth": 2821,
      "Ġhosp": 2822,
      "Ġcur": 2823,
      "Ã³n": 2824,
      "Ġdemocratic": 2825,
      "ims": 2826,
      "Ġprison": 2827,
      "Ġplaying": 2828,
      "Ġmark": 2829,
      "Ġstep": 2830,
      "Ġexp": 2831,
      "Ġbor": 2832,
      "Ġliter": 2833,
      "Ġpur": 2834,
      "Ġlet": 2835,
      "Ġcand": 2836,
      "olk": 2837,
      "Ġcoach": 2838,
      "2017": 2839,
      "hl": 2840,
      "Ġfish": 2841,
      "band": 2842,
      "ni": 2843,
      "ja": 2844,
      "hest": 2845,
      "eland": 2846,
      "net": 2847,
      "Ġgave": 2848,
      "do": 2849,
      "Ġ1977": 2850,
      "wa": 2851,
      "Ġ1985": 2852,
      "Ġincre": 2853,
      "ead": 2854,
      "Ġforces": 2855,
      "Ġbank": 2856,
      "uit": 2857,
      "ements": 2858,
      "ani": 2859,
      "roy": 2860,
      "01": 2861,
      "Ġtenn": 2862,
      "Ġbasketball": 2863,
      "itor": 2864,
      "Ġcome": 2865,
      "Ġwords": 2866,
      "Ġmostly": 2867,
      "lor": 2868,
      "Ġhaving": 2869,
      "song": 2870,
      "urrican": 2871,
      "Ġpenn": 2872,
      "herlands": 2873,
      "Ġdaughter": 2874,
      "craft": 2875,
      "like": 2876,
      "Ġappeared": 2877,
      "Ġmountain": 2878,
      "Ġviol": 2879,
      "Ġstreet": 2880,
      "Ġancient": 2881,
      "Ġqueen": 2882,
      "Ġkh": 2883,
      "onia": 2884,
      "Ġok": 2885,
      "Ġireland": 2886,
      "iff": 2887,
      "Ġairport": 2888,
      "war": 2889,
      "arian": 2890,
      "Ġ1976": 2891,
      "cul": 2892,
      "Ġchief": 2893,
      "Ġcarolina": 2894,
      "Ġ1983": 2895,
      "ogn": 2896,
      "Ġ1982": 2897,
      "Ġinvol": 2898,
      "Ġhenry": 2899,
      "1997": 2900,
      "Ġyour": 2901,
      "Ġaz": 2902,
      "don": 2903,
      "Ġet": 2904,
      "ware": 2905,
      "sing": 2906,
      "Ġscot": 2907,
      "Ġbetter": 2908,
      "Ġeducation": 2909,
      "iding": 2910,
      "Ġpan": 2911,
      "Ġegypt": 2912,
      "Ġmedia": 2913,
      "Ġdebut": 2914,
      "1996": 2915,
      "Ġfrancis": 2916,
      "Ġvictor": 2917,
      "Ġenergy": 2918,
      "Ġcomes": 2919,
      "Ġselect": 2920,
      "Ġculture": 2921,
      "68": 2922,
      "ser": 2923,
      "ither": 2924,
      "tar": 2925,
      "sur": 2926,
      "Ġalthough": 2927,
      "Ġdiscov": 2928,
      "Ġestablished": 2929,
      "uced": 2930,
      "Ġthink": 2931,
      "Ġbaseball": 2932,
      "04": 2933,
      "Ġview": 2934,
      "Ġdistrib": 2935,
      "towns": 2936,
      "Ġfest": 2937,
      "Ġdyn": 2938,
      "Ġinstead": 2939,
      "Ġcoll": 2940,
      "elect": 2941,
      "Ġprefecture": 2942,
      "Ġjose": 2943,
      "2014": 2944,
      "po": 2945,
      "Ġtoo": 2946,
      "Ġbud": 2947,
      "Ġsug": 2948,
      "ship": 2949,
      "iger": 2950,
      "Ġaction": 2951,
      "Ġsour": 2952,
      "ador": 2953,
      "Ġath": 2954,
      "Ġtaken": 2955,
      "des": 2956,
      "2019": 2957,
      "part": 2958,
      "Ġcho": 2959,
      "Ġ1972": 2960,
      "Ġinstr": 2961,
      "Ġbab": 2962,
      "ko": 2963,
      "Ġcam": 2964,
      "Ġey": 2965,
      "Ġmovement": 2966,
      "Ġmathemat": 2967,
      "count": 2968,
      "Ġsand": 2969,
      "Ġcomb": 2970,
      "ently": 2971,
      "Ġhom": 2972,
      "ications": 2973,
      "Ġepisode": 2974,
      "Ġcost": 2975,
      "gre": 2976,
      "ersey": 2977,
      "Ġphilos": 2978,
      "Ġappro": 2979,
      "Ġthough": 2980,
      "utes": 2981,
      "inning": 2982,
      "langu": 2983,
      "Ġkey": 2984,
      "Ġinflu": 2985,
      "Ġseven": 2986,
      "54": 2987,
      "Ġboard": 2988,
      "08": 2989,
      "Ġuses": 2990,
      "74": 2991,
      "rh": 2992,
      "Ġcentre": 2993,
      "Ġarab": 2994,
      "adian": 2995,
      "vious": 2996,
      "Ġbc": 2997,
      "ique": 2998,
      "Ġdead": 2999,
      "Ġonce": 3000,
      "Ġblood": 3001,
      "Ġsepar": 3002,
      "gb": 3003,
      "Ġwanted": 3004,
      "rial": 3005,
      "Ġ1978": 3006,
      "1995": 3007,
      "Ġstorm": 3008,
      "Ġdeveloped": 3009,
      "78": 3010,
      "Ġmusical": 3011,
      "ances": 3012,
      "board": 3013,
      "1980": 3014,
      "ube": 3015,
      "Ġaustria": 3016,
      "ned": 3017,
      "Ġthr": 3018,
      "isl": 3019,
      "Ġlower": 3020,
      "municipal": 3021,
      "ological": 3022,
      "Ġprince": 3023,
      "itect": 3024,
      "ification": 3025,
      "Ġintrod": 3026,
      "abit": 3027,
      "Ġplant": 3028,
      "french": 3029,
      "opher": 3030,
      "Ġ1975": 3031,
      "Ġthomas": 3032,
      "acy": 3033,
      "sa": 3034,
      "with": 3035,
      "ints": 3036,
      "Ġgun": 3037,
      "Ġnetherlands": 3038,
      "Ġfer": 3039,
      "ym": 3040,
      "zo": 3041,
      "Ġmeth": 3042,
      "ider": 3043,
      "Ġcrime": 3044,
      "Ġwriters": 3045,
      "Ġfur": 3046,
      "bers": 3047,
      "Ġfederal": 3048,
      "Ġrequ": 3049,
      "Ġabove": 3050,
      "Ġ1971": 3051,
      "à¤": 3052,
      "Ġaver": 3053,
      "Ġcase": 3054,
      "Ġwat": 3055,
      "mier": 3056,
      "Ġconsidered": 3057,
      "Ġalmost": 3058,
      "from": 3059,
      "igan": 3060,
      "Ġrepresentatives": 3061,
      "Ġjersey": 3062,
      "Ġiv": 3063,
      "Ġpot": 3064,
      "Ġwinners": 3065,
      "anian": 3066,
      "ately": 3067,
      "former": 3068,
      "leg": 3069,
      "Ġhale": 3070,
      "Ġspring": 3071,
      "Ġpie": 3072,
      "Ġfront": 3073,
      "Ġ1974": 3074,
      "Ġfootballers": 3075,
      "less": 3076,
      "ylv": 3077,
      "Ġaccording": 3078,
      "Ġjun": 3079,
      "Ġworking": 3080,
      "2018": 3081,
      "Ġohio": 3082,
      "elling": 3083,
      "win": 3084,
      "Ġshar": 3085,
      "56": 3086,
      "ination": 3087,
      "Ġmi": 3088,
      "Ġlibr": 3089,
      "Ġwrestling": 3090,
      "Ġnames": 3091,
      "Ġvarious": 3092,
      "Ġweek": 3093,
      "club": 3094,
      "bar": 3095,
      "lete": 3096,
      "ugu": 3097,
      "Ġdig": 3098,
      "Ġground": 3099,
      "Ġdone": 3100,
      "ho": 3101,
      "sl": 3102,
      "Ġdie": 3103,
      "char": 3104,
      "mont": 3105,
      "eds": 3106,
      "japan": 3107,
      "apt": 3108,
      "Ġposition": 3109,
      "gg": 3110,
      "Ġable": 3111,
      "iple": 3112,
      "Ġ40": 3113,
      "bab": 3114,
      "Ġsays": 3115,
      "Ġflight": 3116,
      "Ġobject": 3117,
      "Ġkeep": 3118,
      "known": 3119,
      "âĢĶ": 3120,
      "dist": 3121,
      "mark": 3122,
      "Ġminist": 3123,
      "Ġbul": 3124,
      "Ġdog": 3125,
      "Ġos": 3126,
      "72": 3127,
      "Ġkor": 3128,
      "agon": 3129,
      "Ġsurv": 3130,
      "acher": 3131,
      "used": 3132,
      "Ġplants": 3133,
      "ems": 3134,
      "aps": 3135,
      "yer": 3136,
      "eration": 3137,
      "Ġwild": 3138,
      "ban": 3139,
      "58": 3140,
      "Ġmach": 3141,
      "Ġmax": 3142,
      "Ġsus": 3143,
      "Ġbroadcast": 3144,
      "aff": 3145,
      "time": 3146,
      "ental": 3147,
      "Ġentertain": 3148,
      "Ġhospital": 3149,
      "2011": 3150,
      "ively": 3151,
      "Ġ(;": 3152,
      "Ġbecomes": 3153,
      "Ġran": 3154,
      "geography": 3155,
      "rich": 3156,
      "itch": 3157,
      "Ġpers": 3158,
      "\")": 3159,
      "Ġstudied": 3160,
      "Ġtravel": 3161,
      "1994": 3162,
      "Ġtransl": 3163,
      "Ġpast": 3164,
      "Ġpay": 3165,
      "see": 3166,
      "Ġ1968": 3167,
      "ira": 3168,
      "Ġmagaz": 3169,
      "sylv": 3170,
      "Ġobserv": 3171,
      "Ġhung": 3172,
      "Ġtar": 3173,
      "ola": 3174,
      "Ġcovid": 3175,
      "uf": 3176,
      "ox": 3177,
      "itan": 3178,
      "Ġargent": 3179,
      "Ġocean": 3180,
      "Ġpictures": 3181,
      "Ġmetal": 3182,
      "lement": 3183,
      "2015": 3184,
      "Ġperforman": 3185,
      "Ġgeorgia": 3186,
      "Ġhimself": 3187,
      "Ġjer": 3188,
      "Ġgoal": 3189,
      "Ġreview": 3190,
      "Ġident": 3191,
      "ato": 3192,
      "Ġrelations": 3193,
      "bour": 3194,
      "intern": 3195,
      "Ġcomplet": 3196,
      "Ġpriv": 3197,
      "aria": 3198,
      "Ġtemper": 3199,
      "face": 3200,
      "Ġmale": 3201,
      "early": 3202,
      "urricane": 3203,
      "Ġeos": 3204,
      "Ġproper": 3205,
      "Ġarchitect": 3206,
      "Ġnar": 3207,
      "Ġpsy": 3208,
      "Ġleast": 3209,
      "Ġbran": 3210,
      "Ġtree": 3211,
      "ention": 3212,
      "Ġbat": 3213,
      "Ġcounties": 3214,
      "ua": 3215,
      "ories": 3216,
      "Ġtropical": 3217,
      "iles": 3218,
      "list": 3219,
      "Ġindependent": 3220,
      "Ġnick": 3221,
      "2021": 3222,
      "Ġlee": 3223,
      "Ġmayor": 3224,
      "ucle": 3225,
      "Ġbox": 3226,
      "pher": 3227,
      "va": 3228,
      "bre": 3229,
      "Ġmater": 3230,
      "Ġchannel": 3231,
      "Ġhighest": 3232,
      "Ġmight": 3233,
      "Ġcolon": 3234,
      "Ġopened": 3235,
      "oh": 3236,
      "aka": 3237,
      "Ġmeas": 3238,
      "Ġhere": 3239,
      "viron": 3240,
      "Ġarm": 3241,
      "notes": 3242,
      "ashi": 3243,
      "sett": 3244,
      "Ġmusicians": 3245,
      "sch": 3246,
      "Ġsecretary": 3247,
      "Ġservices": 3248,
      "ella": 3249,
      "canadian": 3250,
      "Ġeth": 3251,
      "etts": 3252,
      "ondiss": 3253,
      "Ġsuccessful": 3254,
      "Ġfort": 3255,
      "Ġpian": 3256,
      "Ġdark": 3257,
      "Ġdoub": 3258,
      "ads": 3259,
      "rain": 3260,
      "Ġtheat": 3261,
      "Ġfig": 3262,
      "Ġren": 3263,
      "Ġcurrently": 3264,
      "Ġiii": 3265,
      "Ġdecl": 3266,
      "Ġmanager": 3267,
      "achus": 3268,
      "tr": 3269,
      "Ġ1964": 3270,
      "eg": 3271,
      "Ġgive": 3272,
      "Ġsoft": 3273,
      "Ġsilla": 3274,
      "Ġcer": 3275,
      "Ġglob": 3276,
      "Ġsmith": 3277,
      "inted": 3278,
      "ils": 3279,
      "Ġacross": 3280,
      "Ġtakes": 3281,
      "kh": 3282,
      "ote": 3283,
      "Ġdoc": 3284,
      "ivid": 3285,
      "posed": 3286,
      "Ġ1969": 3287,
      "heim": 3288,
      "Ġtim": 3289,
      "Ġproduction": 3290,
      "aign": 3291,
      "Ġsingers": 3292,
      "Ġbridge": 3293,
      "Ġwinning": 3294,
      "Ġappl": 3295,
      "Ġended": 3296,
      "Ġwales": 3297,
      "Ġaverage": 3298,
      "cks": 3299,
      "sylvania": 3300,
      "ense": 3301,
      "Ġtry": 3302,
      "ishop": 3303,
      "Ġess": 3304,
      "ending": 3305,
      "ji": 3306,
      "Ġfac": 3307,
      "Ġterritory": 3308,
      "Ġchampion": 3309,
      "Ġrain": 3310,
      "Ġmove": 3311,
      "Ġmethod": 3312,
      "Ġhaleak": 3313,
      "Ġconduct": 3314,
      "municipalities": 3315,
      "Ġcause": 3316,
      "Ġmedic": 3317,
      "Ġprofessor": 3318,
      "Ġtypes": 3319,
      "Ġwinter": 3320,
      "2016": 3321,
      "achusetts": 3322,
      "Ġassemb": 3323,
      "Ġ1930": 3324,
      "2012": 3325,
      "mad": 3326,
      "Ġpract": 3327,
      "1993": 3328,
      "Ġaud": 3329,
      "uth": 3330,
      "Ġmeet": 3331,
      "Ġcommit": 3332,
      "utive": 3333,
      "Ġlord": 3334,
      "sk": 3335,
      "Ġlu": 3336,
      "Ġaustrian": 3337,
      "ero": 3338,
      "Ġrecorded": 3339,
      "41": 3340,
      "Ġgard": 3341,
      "Ġcorn": 3342,
      "Ġsem": 3343,
      "Ġarrondiss": 3344,
      "1992": 3345,
      "Ġhaleakala": 3346,
      "language": 3347,
      "Ġscotland": 3348,
      "Ġchair": 3349,
      "pression": 3350,
      "itive": 3351,
      "care": 3352,
      "bro": 3353,
      "icial": 3354,
      "Ġ1967": 3355,
      "pal": 3356,
      "rie": 3357,
      "Ġretired": 3358,
      "era": 3359,
      "john": 3360,
      "Ġmeaning": 3361,
      "Å¡": 3362,
      "Ġrevolution": 3363,
      "dy": 3364,
      "Ġsequ": 3365,
      "ream": 3366,
      "Ġfore": 3367,
      "Ġfourth": 3368,
      "Ġscientists": 3369,
      "pop": 3370,
      "Ġ(\"": 3371,
      "Ġexist": 3372,
      "Ġsenate": 3373,
      "Ġperformed": 3374,
      "Ġfly": 3375,
      "Ġbuildings": 3376,
      "Ġaff": 3377,
      "Ġmonth": 3378,
      "Ġclose": 3379,
      "Ġcertain": 3380,
      "Ġpsych": 3381,
      "Ġrank": 3382,
      "Ġchemical": 3383,
      "Ġmaterial": 3384,
      "Ġvalley": 3385,
      "Ġcanton": 3386,
      "wer": 3387,
      "sec": 3388,
      "azz": 3389,
      "national": 3390,
      "shire": 3391,
      "Ġcitiz": 3392,
      "Ġfestival": 3393,
      "ales": 3394,
      "Ġkent": 3395,
      "09": 3396,
      "Ġmassachusetts": 3397,
      "03": 3398,
      "Ġpage": 3399,
      "Ġstudents": 3400,
      "Ġjr": 3401,
      "Ġcompanies": 3402,
      "met": 3403,
      "stein": 3404,
      "Ġpennsylvania": 3405,
      "Ġmurder": 3406,
      "Ġanimated": 3407,
      "Ġfailure": 3408,
      "ns": 3409,
      "Ġchanges": 3410,
      "Ġheavy": 3411,
      "ulf": 3412,
      "person": 3413,
      "rd": 3414,
      "ova": 3415,
      "zech": 3416,
      "2013": 3417,
      "43": 3418,
      "Ġfox": 3419,
      "Ġprotect": 3420,
      "Ġrecogn": 3421,
      "Ã¥": 3422,
      "Ġdom": 3423,
      "Ġelectric": 3424,
      "Ġbern": 3425,
      "Ġjournalist": 3426,
      "79": 3427,
      "Ġven": 3428,
      "ologist": 3429,
      "Ġalways": 3430,
      "Ġ1940": 3431,
      "Ġrepublican": 3432,
      "Ġdestroy": 3433,
      "Ġeither": 3434,
      "ĊĊĠ": 3435,
      "isher": 3436,
      "Ġbass": 3437,
      "vin": 3438,
      "souri": 3439,
      "bra": 3440,
      "Ġcycl": 3441,
      "Ġcandid": 3442,
      "Ġenviron": 3443,
      "83": 3444,
      "Ġsilver": 3445,
      "Ġwriting": 3446,
      "Ġbang": 3447,
      "Ġprevious": 3448,
      "ette": 3449,
      "Ġinstitute": 3450,
      "Ġna": 3451,
      "Ġartists": 3452,
      "settlements": 3453,
      "Ġeat": 3454,
      "Ġbomb": 3455,
      "Ġcampaign": 3456,
      "Ġkorea": 3457,
      "Ġreact": 3458,
      "Ġinvest": 3459,
      "Ġmonths": 3460,
      "idence": 3461,
      "pecially": 3462,
      "ken": 3463,
      "bel": 3464,
      "sen": 3465,
      "Ã´": 3466,
      "wan": 3467,
      "when": 3468,
      "Â°": 3469,
      "Ġarts": 3470,
      "Ġdrug": 3471,
      "vo": 3472,
      "Ġadvent": 3473,
      "Ġcastle": 3474,
      "Ġnorthwest": 3475,
      "ques": 3476,
      "Ġburn": 3477,
      "Ġgall": 3478,
      "Ġsom": 3479,
      "mo": 3480,
      "nam": 3481,
      "owa": 3482,
      "Ġrailway": 3483,
      "cel": 3484,
      "ipl": 3485,
      "urt": 3486,
      "59": 3487,
      "igr": 3488,
      "Ġtheory": 3489,
      "rey": 3490,
      "Ġcirc": 3491,
      "Ġislam": 3492,
      "49": 3493,
      "Ġinside": 3494,
      "Ġamount": 3495,
      "austral": 3496,
      "Ġnumbers": 3497,
      "Ġmedical": 3498,
      "Ġgradu": 3499,
      "use": 3500,
      "63": 3501,
      "Ġplat": 3502,
      "Ġpac": 3503,
      "Ġluc": 3504,
      "Ġfut": 3505,
      "1991": 3506,
      "Ġconserv": 3507,
      "81": 3508,
      "some": 3509,
      "acc": 3510,
      "Ġba": 3511,
      "Ġ2023": 3512,
      "Ġmainly": 3513,
      "Ġtourn": 3514,
      "Ġmicro": 3515,
      "orf": 3516,
      "Ġnative": 3517,
      "Ġcrick": 3518,
      "iated": 3519,
      "Ġsymb": 3520,
      "Ġhaw": 3521,
      "Ġjackson": 3522,
      "Ġbreak": 3523,
      "Ġscottish": 3524,
      "Ġbow": 3525,
      "Ġfriends": 3526,
      "Ġfiction": 3527,
      "Ġdynast": 3528,
      "text": 3529,
      "Ġoriginally": 3530,
      "Ġshown": 3531,
      "ends": 3532,
      "Ġinterest": 3533,
      "Ġfa": 3534,
      "Ġadult": 3535,
      "73": 3536,
      "iy": 3537,
      "Ġ1945": 3538,
      "oo": 3539,
      "Ġcell": 3540,
      "ume": 3541,
      "ateg": 3542,
      "Ġnations": 3543,
      "Ġroles": 3544,
      "Ġcele": 3545,
      "Ġsar": 3546,
      "Ġsystems": 3547,
      "Ġlibrary": 3548,
      "Ġ1966": 3549,
      "empt": 3550,
      "also": 3551,
      "bus": 3552,
      "Ġlaun": 3553,
      "Ġmartin": 3554,
      "Ġinh": 3555,
      "Ã§": 3556,
      "Ġsouthwest": 3557,
      "Ġavail": 3558,
      "Ġearl": 3559,
      "Ġtrack": 3560,
      "Ġban": 3561,
      "uan": 3562,
      "1970": 3563,
      "amm": 3564,
      "Ġmissouri": 3565,
      "Ġjim": 3566,
      "vey": 3567,
      "Ġstra": 3568,
      "Ġstructures": 3569,
      "Ġfame": 3570,
      "Ġrange": 3571,
      "Ġhonor": 3572,
      "owers": 3573,
      "Ġseats": 3574,
      "Ġgoes": 3575,
      "Ġmarket": 3576,
      "Ġresults": 3577,
      "icular": 3578,
      "Ġleaders": 3579,
      "Ġbrazilian": 3580,
      "Ġrang": 3581,
      "Ġminor": 3582,
      "Ġhelped": 3583,
      "Ġrelease": 3584,
      "Ġcolumb": 3585,
      "Ġirish": 3586,
      "stra": 3587,
      "Ġliber": 3588,
      "Ġoutside": 3589,
      "Ġlatin": 3590,
      "ites": 3591,
      "69": 3592,
      "42": 3593,
      "gro": 3594,
      "Ġmagazine": 3595,
      "Ġreached": 3596,
      "onom": 3597,
      "Ġnav": 3598,
      "reme": 3599,
      "adesh": 3600,
      "ift": 3601,
      "oto": 3602,
      "Ġpeace": 3603,
      "Ġtowns": 3604,
      "Ġprin": 3605,
      "71": 3606,
      "ication": 3607,
      "Ġstad": 3608,
      "Ġbeat": 3609,
      "ios": 3610,
      "Ġsigned": 3611,
      "abeth": 3612,
      "ray": 3613,
      "Ġ1965": 3614,
      "Ġfred": 3615,
      "Ġsomething": 3616,
      "read": 3617,
      "Ġgas": 3618,
      "dem": 3619,
      "Ġnucle": 3620,
      "Ġhurricane": 3621,
      "Ġassembly": 3622,
      "Ġic": 3623,
      "ĠĠĠ": 3624,
      "Ġdrum": 3625,
      "Ġfifa": 3626,
      "Ġkorean": 3627,
      "Ġswedish": 3628,
      "Ġdar": 3629,
      "mas": 3630,
      "Ġadded": 3631,
      "chester": 3632,
      "Ġopera": 3633,
      "edia": 3634,
      "Ġcatalina": 3635,
      "airs": 3636,
      "Ġpossible": 3637,
      "Ġinj": 3638,
      "Ġbron": 3639,
      "Ġespecially": 3640,
      "Ġprograms": 3641,
      "anda": 3642,
      "Ġdoctor": 3643,
      "may": 3644,
      "Ġidea": 3645,
      "Ġindivid": 3646,
      "Ġcra": 3647,
      "Ġwars": 3648,
      "//": 3649,
      "Ġcab": 3650,
      "Ġins": 3651,
      "mond": 3652,
      "Ġgoing": 3653,
      "Ġ1956": 3654,
      "Ã¡n": 3655,
      "Ġwid": 3656,
      "Ġlegisl": 3657,
      "Ġ1963": 3658,
      "Ġrelated": 3659,
      "uments": 3660,
      "ply": 3661,
      "Ġec": 3662,
      "Ġ)": 3663,
      "Ġpred": 3664,
      "rad": 3665,
      "Ġhus": 3666,
      "Ġenough": 3667,
      "Ġentertainment": 3668,
      "hood": 3669,
      "61": 3670,
      "Ġreturned": 3671,
      "Ġstan": 3672,
      "oke": 3673,
      "Ġpainter": 3674,
      "Ġjoseph": 3675,
      "Ġavailable": 3676,
      "Ġcut": 3677,
      "Ġreplaced": 3678,
      "Ġedward": 3679,
      "1989": 3680,
      "Ġtax": 3681,
      "Ġour": 3682,
      "Ġcommitte": 3683,
      "aining": 3684,
      "Ġenvironment": 3685,
      "Ġpresidential": 3686,
      "Ġ1947": 3687,
      "Ġconstr": 3688,
      "law": 3689,
      "Ġremov": 3690,
      "://": 3691,
      "cont": 3692,
      "Ġ1961": 3693,
      "Ġagre": 3694,
      "Ġcss": 3695,
      "Ġgh": 3696,
      "hire": 3697,
      "Ġmir": 3698,
      "aki": 3699,
      "ram": 3700,
      "2022": 3701,
      "Ġnominated": 3702,
      "gal": 3703,
      "uty": 3704,
      "Ġforeign": 3705,
      "Ġtext": 3706,
      "Ġsav": 3707,
      "Ġpersonal": 3708,
      "estab": 3709,
      "Ġbrand": 3710,
      "book": 3711,
      "Ġfle": 3712,
      "ength": 3713,
      "head": 3714,
      "Ġdiff": 3715,
      "Ġassist": 3716,
      "Ġofficer": 3717,
      "Ġdecided": 3718,
      "Ġpolish": 3719,
      "51": 3720,
      "Äĩ": 3721,
      "Ġdisney": 3722,
      "Ġstories": 3723,
      "Ġ1962": 3724,
      "Ġesc": 3725,
      "erb": 3726,
      "Ġtechnology": 3727,
      "Ġ1948": 3728,
      "Ġstudies": 3729,
      "Ġtransport": 3730,
      "Ġcompeted": 3731,
      "Ġcomed": 3732,
      "international": 3733,
      "ising": 3734,
      "Ġ80": 3735,
      "osh": 3736,
      "fir": 3737,
      "iller": 3738,
      "Ġsquare": 3739,
      "ati": 3740,
      "Ġcommission": 3741,
      "Ġparents": 3742,
      "Ġpoland": 3743,
      "Ġmountains": 3744,
      "Ġmichigan": 3745,
      "Ġorganization": 3746,
      "Ġlog": 3747,
      "Ġallowed": 3748,
      "lah": 3749,
      "Ġprinc": 3750,
      "Ġclimate": 3751,
      "82": 3752,
      "ole": 3753,
      "track": 3754,
      "Ġshoot": 3755,
      "house": 3756,
      "Ġschools": 3757,
      "din": 3758,
      "Ġimp": 3759,
      "world": 3760,
      "Ġseasons": 3761,
      "Ġhous": 3762,
      "Ġviet": 3763,
      "Ġbrought": 3764,
      "ali": 3765,
      "Ġasian": 3766,
      "ancer": 3767,
      "Ġdynasty": 3768,
      "aged": 3769,
      "ify": 3770,
      "Ġbritain": 3771,
      "Ġiowa": 3772,
      "official": 3773,
      "mir": 3774,
      "ropol": 3775,
      "Ġaircraft": 3776,
      "vill": 3777,
      "well": 3778,
      "Ġcompl": 3779,
      "ensive": 3780,
      "district": 3781,
      "Ġspir": 3782,
      "Ġhind": 3783,
      "Ġgoals": 3784,
      "hy": 3785,
      "Ġstay": 3786,
      "Ġpoints": 3787,
      "Ġarrest": 3788,
      "Ġlay": 3789,
      "rick": 3790,
      "idae": 3791,
      "1987": 3792,
      "Ġchampionships": 3793,
      "las": 3794,
      "sol": 3795,
      "chan": 3796,
      "uge": 3797,
      "mes": 3798,
      "Ġparticip": 3799,
      "Ġgolden": 3800,
      "kin": 3801,
      "Ġrow": 3802,
      "career": 3803,
      "bit": 3804,
      "publ": 3805,
      "Ġborder": 3806,
      "ila": 3807,
      "Ġpit": 3808,
      "Ġlaws": 3809,
      "govern": 3810,
      "icated": 3811,
      "ographer": 3812,
      "life": 3813,
      "Ġdomin": 3814,
      "Ġperformance": 3815,
      "ami": 3816,
      "Ġcarl": 3817,
      "nov": 3818,
      "Ġ60": 3819,
      "Ġpas": 3820,
      "Ġcommer": 3821,
      "izations": 3822,
      "Ġsoon": 3823,
      "1988": 3824,
      "Ġbob": 3825,
      "Ġship": 3826,
      "Ġfamil": 3827,
      "Ġquick": 3828,
      "ington": 3829,
      "Ġsize": 3830,
      "Ġvice": 3831,
      "Ġmu": 3832,
      "53": 3833,
      "Ġcannot": 3834,
      "Ġfeatures": 3835,
      "Ġ1942": 3836,
      "ela": 3837,
      "Ġsister": 3838,
      "Ġlonger": 3839,
      "Ġcommittee": 3840,
      "mers": 3841,
      "Ġdescribed": 3842,
      "Ġsaw": 3843,
      "tv": 3844,
      "iences": 3845,
      "Ġepisodes": 3846,
      "aine": 3847,
      "Ġdance": 3848,
      "Ġteacher": 3849,
      "Ġcode": 3850,
      "mi": 3851,
      "Ġpls": 3852,
      "more": 3853,
      "aska": 3854,
      "Ġcelebr": 3855,
      "oston": 3856,
      "62": 3857,
      "Ġcollection": 3858,
      "org": 3859,
      "02": 3860,
      "Ġstone": 3861,
      "Ġmunicipalities": 3862,
      "Ġduke": 3863,
      "ving": 3864,
      "Ġparish": 3865,
      "Ġquest": 3866,
      "Ġcub": 3867,
      "Ġfinished": 3868,
      "Ġstadium": 3869,
      "Ġoil": 3870,
      "Ġmaster": 3871,
      "russ": 3872,
      "illy": 3873,
      "Ġ1957": 3874,
      "Ġstations": 3875,
      "Ġtrade": 3876,
      "Ġach": 3877,
      "...": 3878,
      "Ġfoc": 3879,
      "Ġfair": 3880,
      "build": 3881,
      "Ġlie": 3882,
      "Ġmusl": 3883,
      "Ġsoldiers": 3884,
      "enced": 3885,
      "Ġcritic": 3886,
      "Ġastron": 3887,
      "Ġ1941": 3888,
      "1986": 3889,
      "Ġnobel": 3890,
      "Ġly": 3891,
      "Ġdate": 3892,
      "Ġshr": 3893,
      "Ġregular": 3894,
      "Ġhop": 3895,
      "Ġexecutive": 3896,
      "Ġid": 3897,
      "Ġ1958": 3898,
      "Ġnewsp": 3899,
      "Ġhigher": 3900,
      "Ġcases": 3901,
      "fil": 3902,
      "Ġrome": 3903,
      "Ġspeak": 3904,
      "Ġ1946": 3905,
      "inet": 3906,
      "Ġcontinued": 3907,
      "Ġindependence": 3908,
      "aches": 3909,
      "riage": 3910,
      "à¸": 3911,
      "isions": 3912,
      "orial": 3913,
      "Ġmah": 3914,
      "Ġmess": 3915,
      "Ġ1949": 3916,
      "Ġpil": 3917,
      "Ġod": 3918,
      "Ġshot": 3919,
      "vi": 3920,
      "Ġ1944": 3921,
      "Ġforest": 3922,
      "Ġcommunes": 3923,
      "Ġtun": 3924,
      "Ġjean": 3925,
      "Ġinvent": 3926,
      "Ġkilling": 3927,
      "Ġactivist": 3928,
      "Ġturk": 3929,
      "Ġappo": 3930,
      "Ġanth": 3931,
      "Ġcoup": 3932,
      "lahoma": 3933,
      "Ġgal": 3934,
      "Ġ1952": 3935,
      "ect": 3936,
      "Ġgenus": 3937,
      "Ġpolic": 3938,
      "Ġreligious": 3939,
      "Ġbav": 3940,
      "icult": 3941,
      "ploy": 3942,
      "sm": 3943,
      "Ġpub": 3944,
      "1983": 3945,
      "Ġspeed": 3946,
      "Ġbands": 3947,
      "south": 3948,
      "rid": 3949,
      "since": 3950,
      "Ġlouisiana": 3951,
      "Ġcas": 3952,
      "Ġparticular": 3953,
      "Ġczech": 3954,
      "Ġfrancisco": 3955,
      "chen": 3956,
      "Ġdor": 3957,
      "aya": 3958,
      "Ġbrain": 3959,
      "Ġsport": 3960,
      "Ġmiles": 3961,
      "Ġphilipp": 3962,
      "Äģ": 3963,
      "Ġattempt": 3964,
      "Ġ1959": 3965,
      "urity": 3966,
      "adel": 3967,
      "Ġawarded": 3968,
      "nel": 3969,
      "Ġnorthe": 3970,
      "Ġinterview": 3971,
      "Ġsouthe": 3972,
      "Ġ1954": 3973,
      "ounds": 3974,
      "Ġsmaller": 3975,
      "Ġpu": 3976,
      "Ġ1936": 3977,
      "Ġaccess": 3978,
      "Ġunders": 3979,
      "Ġemer": 3980,
      "Ġroll": 3981,
      "Ġonline": 3982,
      "Ġdivided": 3983,
      "elves": 3984,
      "ito": 3985,
      "rap": 3986,
      "Ġstandard": 3987,
      "Ġflag": 3988,
      "Ġ1939": 3989,
      "Ġfilms": 3990,
      "Ġforms": 3991,
      "water": 3992,
      "organ": 3993,
      "Ġvocals": 3994,
      "zy": 3995,
      "anger": 3996,
      "Ġcommand": 3997,
      "1985": 3998,
      ".)": 3999,
      "Ġminnes": 4000,
      "Ġ1938": 4001,
      "Ġkil": 4002,
      "Ġrule": 4003,
      "Ġmoon": 4004,
      "Ġnation": 4005,
      "Ġelectron": 4006,
      "Ġbeginning": 4007,
      "ucky": 4008,
      "thing": 4009,
      "gbt": 4010,
      "Ġoppos": 4011,
      "Ġ88": 4012,
      "dro": 4013,
      "wal": 4014,
      "Ġegg": 4015,
      "Ġpremier": 4016,
      "Ġ1934": 4017,
      "itted": 4018,
      "Ġminnesota": 4019,
      "Ġhistorical": 4020,
      "Ġbon": 4021,
      "ulation": 4022,
      "Ġdesigned": 4023,
      "real": 4024,
      "anth": 4025,
      "his": 4026,
      "umi": 4027,
      "italian": 4028,
      "1984": 4029,
      "Ġupper": 4030,
      "Ġfc": 4031,
      "Ġkenn": 4032,
      "Ġautom": 4033,
      "Ġ1920": 4034,
      "Ġarmen": 4035,
      "Ġles": 4036,
      "cell": 4037,
      "Ġfeel": 4038,
      "Ġpromot": 4039,
      "Ġeun": 4040,
      "Ġoldest": 4041,
      "Ġintroduced": 4042,
      "Ġwinner": 4043,
      "Ġprivate": 4044,
      "bach": 4045,
      "Ġtheatre": 4046,
      "footballers": 4047,
      "kyo": 4048,
      "Ġanton": 4049,
      "Ġarticle": 4050,
      "Ġcauses": 4051,
      "agn": 4052,
      "ĊĠĊĠĊ": 4053,
      "Ã£": 4054,
      "gl": 4055,
      "Ġ1955": 4056,
      "bell": 4057,
      "gers": 4058,
      "Ġfast": 4059,
      "Ġanimal": 4060,
      "australian": 4061,
      "Ġtournament": 4062,
      "Ġ90": 4063,
      "Ġpap": 4064,
      "Ġromantic": 4065,
      "Ġsingles": 4066,
      "Ġlawyer": 4067,
      "Ġatlantic": 4068,
      "Ġcells": 4069,
      "1981": 4070,
      "Ġinternet": 4071,
      "enth": 4072,
      "Ġnaz": 4073,
      "Ġfuture": 4074,
      "thur": 4075,
      "Ġmatches": 4076,
      "Ġlem": 4077,
      "iting": 4078,
      "ffic": 4079,
      "Ġorche": 4080,
      "Ġindustry": 4081,
      "iment": 4082,
      "Ġqual": 4083,
      "Ġimpro": 4084,
      "Ġtam": 4085,
      "lie": 4086,
      "Ġbelieved": 4087,
      "Ġexcept": 4088,
      "Ġeconomic": 4089,
      "Ġcitizens": 4090,
      "Ġoklahoma": 4091,
      "uses": 4092,
      "Ġkid": 4093,
      "eld": 4094,
      "Ġdiscovered": 4095,
      "52": 4096,
      "Ġclaim": 4097,
      "Ġtold": 4098,
      "1979": 4099,
      "Ġsurface": 4100,
      "Ġ1929": 4101,
      "Ġstock": 4102,
      "Ġcontains": 4103,
      "tic": 4104,
      "Ġberlin": 4105,
      "gree": 4106,
      "Ġthems": 4107,
      "Ġaffect": 4108,
      "value": 4109,
      "Ġprobab": 4110,
      "Ġjazz": 4111,
      "hann": 4112,
      "Ġjob": 4113,
      "Ġram": 4114,
      "Ġpope": 4115,
      "Ġtraditional": 4116,
      "inger": 4117,
      "Ġiran": 4118,
      "Ġhero": 4119,
      "mann": 4120,
      "ises": 4121,
      "Ġneigh": 4122,
      "ential": 4123,
      "Ġtable": 4124,
      "Ã±": 4125,
      "Ġ1951": 4126,
      "sort": 4127,
      "asy": 4128,
      "raine": 4129,
      "Ġ1933": 4130,
      "japanese": 4131,
      "Ġpacific": 4132,
      "Ġsir": 4133,
      "Ġbirds": 4134,
      "Ġthemselves": 4135,
      "Ġ1953": 4136,
      "Ġsenator": 4137,
      "ping": 4138,
      "lines": 4139,
      "agan": 4140,
      "phy": 4141,
      "mit": 4142,
      "Ġstarring": 4143,
      "Ġlabor": 4144,
      "Ġyellow": 4145,
      "Ġwindows": 4146,
      "Ġreported": 4147,
      "upt": 4148,
      "Ġtokyo": 4149,
      "Ġ1943": 4150,
      "Ġjustice": 4151,
      "Ã¢": 4152,
      "reg": 4153,
      "Ġsubject": 4154,
      "Ġliterature": 4155,
      "Ġko": 4156,
      "Ġjohnson": 4157,
      "mod": 4158,
      "Ġrivers": 4159,
      "icks": 4160,
      "Ġnord": 4161,
      "1960": 4162,
      "Ġsource": 4163,
      "Ġanti": 4164,
      "Ġlarger": 4165,
      "Ġcompetition": 4166,
      "Ġleading": 4167,
      "Ġbase": 4168,
      "Ġ70": 4169,
      "ropolitan": 4170,
      "Ġtrue": 4171,
      "Ġedition": 4172,
      "Ġgian": 4173,
      "Ġsomeone": 4174,
      "Ġface": 4175,
      "first": 4176,
      "Ġanal": 4177,
      "Ġkong": 4178,
      "Ġcreate": 4179,
      "Ġprincess": 4180,
      "Ġ1935": 4181,
      "Ġrelationship": 4182,
      "Ġgree": 4183,
      "Ġaddition": 4184,
      "Ġmedicine": 4185,
      "utions": 4186,
      "ients": 4187,
      "tran": 4188,
      "Ġhumans": 4189,
      "Ġrules": 4190,
      "Ġlov": 4191,
      "Ġlady": 4192,
      "Ġpand": 4193,
      "lers": 4194,
      "endo": 4195,
      "ffer": 4196,
      "Ġathlet": 4197,
      "Ġbell": 4198,
      "iced": 4199,
      "abama": 4200,
      "1982": 4201,
      "Ġgets": 4202,
      "hold": 4203,
      "Ġlength": 4204,
      "Ġdisestab": 4205,
      "during": 4206,
      "ippi": 4207,
      ",\"": 4208,
      "Ġinit": 4209,
      "obile": 4210,
      "inct": 4211,
      "elle": 4212,
      "Ġcorpor": 4213,
      "Ġlik": 4214,
      "Ġsyn": 4215,
      "Ġjones": 4216,
      "Ġwik": 4217,
      "akh": 4218,
      "Ġactive": 4219,
      "Ġ1937": 4220,
      "Ġhappened": 4221,
      "Ġdeep": 4222,
      "ias": 4223,
      "Ġweap": 4224,
      "osa": 4225,
      "Ġbol": 4226,
      "Ġark": 4227,
      "county": 4228,
      "Ġfant": 4229,
      "Ġitself": 4230,
      "wide": 4231,
      "yan": 4232,
      "tw": 4233,
      "Ġcook": 4234,
      "Ġdifficult": 4235,
      "imin": 4236,
      "Ġgram": 4237,
      "aven": 4238,
      "Ġsoftware": 4239,
      "ĠâĢ¢": 4240,
      "Ġamericans": 4241,
      "ictional": 4242,
      "Ġbelong": 4243,
      "hib": 4244,
      "Ġquart": 4245,
      "Ġhusband": 4246,
      "Ġself": 4247,
      "fred": 4248,
      "Ġaccept": 4249,
      "Ġperform": 4250,
      "Ġbelieve": 4251,
      "Ġgett": 4252,
      "Ġnavy": 4253,
      "istry": 4254,
      "cow": 4255,
      "Ġak": 4256,
      "Ġsax": 4257,
      "mil": 4258,
      "Ġtall": 4259,
      "Ġthroughout": 4260,
      "Ġ+": 4261,
      "Ġtried": 4262,
      "Ġdistributed": 4263,
      "Ġcover": 4264,
      "Ġvote": 4265,
      "jul": 4266,
      "Ġ1931": 4267,
      "Ġinhabit": 4268,
      "Ġelst": 4269,
      "Ġways": 4270,
      "Ġcontest": 4271,
      "Ġfollowed": 4272,
      "Ġschol": 4273,
      "Ġbusinessman": 4274,
      "Ġmap": 4275,
      "Ġsuggest": 4276,
      "Ġimm": 4277,
      "Ġcommonly": 4278,
      "Ġnature": 4279,
      "Ġ1928": 4280,
      "ores": 4281,
      "isa": 4282,
      "ros": 4283,
      "Ġray": 4284,
      "Ġreading": 4285,
      "enna": 4286,
      "izabeth": 4287,
      "spanish": 4288,
      "ights": 4289,
      "Ġjewish": 4290,
      "works": 4291,
      "su": 4292,
      "Ġbishop": 4293,
      "sup": 4294,
      "roke": 4295,
      "Ġministers": 4296,
      "asa": 4297,
      "rol": 4298,
      "Ġfurther": 4299,
      "Ġcold": 4300,
      "Ġconstitution": 4301,
      "Ã£o": 4302,
      "Ġalexander": 4303,
      "Ġdocument": 4304,
      "Ġowned": 4305,
      "ora": 4306,
      "Ġfund": 4307,
      "Ġring": 4308,
      "fam": 4309,
      "reat": 4310,
      "Ġsignif": 4311,
      "fin": 4312,
      "acter": 4313,
      "Ġoccup": 4314,
      "Ġamb": 4315,
      "Ġswim": 4316,
      "Ġphilosopher": 4317,
      "aching": 4318,
      "Ġguard": 4319,
      "Ġentire": 4320,
      "Ġmexican": 4321,
      "Ġalabama": 4322,
      "Ġrat": 4323,
      "Ġbeaut": 4324,
      "Ġlines": 4325,
      "uefa": 4326,
      "Ġcry": 4327,
      "phia": 4328,
      "Ġtri": 4329,
      "Ġkings": 4330,
      "Ġraised": 4331,
      "Ġvictoria": 4332,
      "issippi": 4333,
      "Ġcolumbia": 4334,
      "Ġolder": 4335,
      "Ã¼r": 4336,
      "ophy": 4337,
      "iÄĩ": 4338,
      "Ġdistricts": 4339,
      "Ġmultiple": 4340,
      "emic": 4341,
      "Ġengineer": 4342,
      "hu": 4343,
      "where": 4344,
      "ting": 4345,
      "Ġ(,": 4346,
      "Ġ1932": 4347,
      "Ġsecurity": 4348,
      "Ġfamilies": 4349,
      "Ġprimary": 4350,
      "ech": 4351,
      "Ġnine": 4352,
      "Ġlegal": 4353,
      "bridge": 4354,
      "Ġplann": 4355,
      "Ġreligion": 4356,
      "ilities": 4357,
      "Ġlett": 4358,
      "Ġspok": 4359,
      "Ġron": 4360,
      "kar": 4361,
      "songwriter": 4362,
      "cal": 4363,
      "Ġleon": 4364,
      "will": 4365,
      "oid": 4366,
      "Ġchap": 4367,
      "Ġboston": 4368,
      "Ġbelow": 4369,
      "Ġkr": 4370,
      "Ġvon": 4371,
      "Ġbavaria": 4372,
      "last": 4373,
      "astern": 4374,
      "Ġmaria": 4375,
      "Ġhours": 4376,
      "disc": 4377,
      "inson": 4378,
      "Ġstaff": 4379,
      "Ġwel": 4380,
      "Ġpath": 4381,
      "Ġkob": 4382,
      "Ġgrew": 4383,
      "Ġelections": 4384,
      "Ġselected": 4385,
      "Ġtemperature": 4386,
      "ois": 4387,
      "itude": 4388,
      "ãĥ": 4389,
      "burgh": 4390,
      "ston": 4391,
      "aijan": 4392,
      "Ġrespons": 4393,
      "Ġconv": 4394,
      "Ġmotor": 4395,
      "Ġcaptain": 4396,
      "Ġdefeated": 4397,
      "Ġjeff": 4398,
      "Ġga": 4399,
      "Ġjac": 4400,
      "1977": 4401,
      "amin": 4402,
      "Ġconference": 4403,
      "1974": 4404,
      "Ġarrondissement": 4405,
      "du": 4406,
      "enty": 4407,
      "Ġcamer": 4408,
      "adelphia": 4409,
      "Ġcontract": 4410,
      "Ġplanet": 4411,
      "Ġdun": 4412,
      "ava": 4413,
      "tor": 4414,
      "onto": 4415,
      "ners": 4416,
      "Ġproblem": 4417,
      "apore": 4418,
      "Ġgirls": 4419,
      "bury": 4420,
      "erbaijan": 4421,
      "san": 4422,
      "Ġeventually": 4423,
      "ĠÂ": 4424,
      "Ġmetropolitan": 4425,
      "anta": 4426,
      "uation": 4427,
      "Ġsanta": 4428,
      "Ġdirectors": 4429,
      "Ġwa": 4430,
      "Ġfav": 4431,
      "Ġfel": 4432,
      "Ã©e": 4433,
      "1976": 4434,
      "Ġreason": 4435,
      "Ġhunt": 4436,
      "Ġwilliams": 4437,
      "gium": 4438,
      "orpor": 4439,
      "Ġinfect": 4440,
      "russian": 4441,
      "oper": 4442,
      "Ġdegree": 4443,
      "ences": 4444,
      "Ġracing": 4445,
      "Ġspl": 4446,
      "ĠĠĠĠĠĠĠĠĠĠĠĠĠĠĠĠ": 4447,
      "bas": 4448,
      "Ġpaper": 4449,
      "Ġslow": 4450,
      "Ġalbert": 4451,
      "eda": 4452,
      "Ġspread": 4453,
      "Ġsky": 4454,
      "Ġfal": 4455,
      "Ġfounder": 4456,
      "Ġherit": 4457,
      "Ġclubs": 4458,
      "Ġoffer": 4459,
      "Ġfoundation": 4460,
      "Ġ1926": 4461,
      "Ġregions": 4462,
      "Ġexpress": 4463,
      "rem": 4464,
      "Ġveh": 4465,
      "1972": 4466,
      "musicians": 4467,
      "oman": 4468,
      "Ġfreed": 4469,
      "saint": 4470,
      "osl": 4471,
      "dis": 4472,
      "Ġtenness": 4473,
      "Ġstarting": 4474,
      "aga": 4475,
      "Ġkentucky": 4476,
      "anding": 4477,
      "1973": 4478,
      "down": 4479,
      "liga": 4480,
      "Ġsignifican": 4481,
      "Ġ1927": 4482,
      "Ġcontrib": 4483,
      "1978": 4484,
      "Ġsexual": 4485,
      "Ġneg": 4486,
      "ril": 4487,
      "Ġdesert": 4488,
      "Ġpoor": 4489,
      "Ġmississippi": 4490,
      "cial": 4491,
      "Ġbehind": 4492,
      "Ġwear": 4493,
      "Ġusa": 4494,
      "Ġtemple": 4495,
      "Ġterms": 4496,
      "Ġtennessee": 4497,
      "tot": 4498,
      "uries": 4499,
      "Ġyouth": 4500,
      "Ġletter": 4501,
      "Ġbranch": 4502,
      "ili": 4503,
      "Ġnorway": 4504,
      "istic": 4505,
      "Ġrunning": 4506,
      "Ġindones": 4507,
      "prod": 4508,
      "Ġheritage": 4509,
      "eder": 4510,
      "Ġpick": 4511,
      "Ġchile": 4512,
      "Ġleave": 4513,
      "hem": 4514,
      "dney": 4515,
      "Â²": 4516,
      "Ġfifth": 4517,
      "how": 4518,
      "ousand": 4519,
      "iest": 4520,
      "Ġtel": 4521,
      "Ġ1925": 4522,
      "Ġdeal": 4523,
      "pet": 4524,
      "Ġneeded": 4525,
      "ready": 4526,
      "div": 4527,
      "Ãº": 4528,
      "fort": 4529,
      "Ġjes": 4530,
      "Ġva": 4531,
      "Ġjoin": 4532,
      "Ġmachine": 4533,
      "Ġquickly": 4534,
      "igned": 4535,
      "Ġparaly": 4536,
      "Ġproducers": 4537,
      "fall": 4538,
      "quart": 4539,
      "box": 4540,
      "Ġenc": 4541,
      "Ġaccident": 4542,
      "Ġdaniel": 4543,
      "nat": 4544,
      "Ġspecific": 4545,
      "Ġbbc": 4546,
      "Ġpra": 4547,
      "Ġclear": 4548,
      "Ġcricket": 4549,
      "Ġappointed": 4550,
      "dess": 4551,
      "uten": 4552,
      "Ġacting": 4553,
      "Ġbiggest": 4554,
      "Ġeditor": 4555,
      "teen": 4556,
      "Ð°": 4557,
      "Ġwide": 4558,
      "Ġrespect": 4559,
      "rec": 4560,
      "Ġmission": 4561,
      "Ġcomplex": 4562,
      "Ġideas": 4563,
      "background": 4564,
      "Ġbeach": 4565,
      "Ġbronze": 4566,
      "Ġelev": 4567,
      "Ġ35": 4568,
      "Ġiron": 4569,
      "Ġimper": 4570,
      "tario": 4571,
      "Ġontario": 4572,
      "Ġash": 4573,
      "Ġinhabitants": 4574,
      "tim": 4575,
      "Ġnic": 4576,
      "Ġjoe": 4577,
      "Ġgenerally": 4578,
      "vert": 4579,
      "ugal": 4580,
      "elly": 4581,
      "Ġindiana": 4582,
      "Ġbrothers": 4583,
      "Ġpalace": 4584,
      "ori": 4585,
      "sour": 4586,
      "order": 4587,
      "attle": 4588,
      "onsin": 4589,
      "atl": 4590,
      "Ġsurround": 4591,
      "Ġorganis": 4592,
      "Ġmario": 4593,
      "dh": 4594,
      "Ġbull": 4595,
      "Ġharry": 4596,
      "Ġsab": 4597,
      "Ġott": 4598,
      "bec": 4599,
      "arm": 4600,
      "Ġenem": 4601,
      "Ġmarriage": 4602,
      "Ġhills": 4603,
      "erve": 4604,
      "Ġkim": 4605,
      "Ġblock": 4606,
      "ustr": 4607,
      "1975": 4608,
      "isconsin": 4609,
      "Ġprotest": 4610,
      "Ġrather": 4611,
      "Ġmyth": 4612,
      "Ġtaking": 4613,
      "Ġken": 4614,
      "Ġunit": 4615,
      "Ġgives": 4616,
      "Ġthousand": 4617,
      "Ġcomposers": 4618,
      "Ġjane": 4619,
      "Ġhydro": 4620,
      "ourg": 4621,
      "Ġtell": 4622,
      "Ġaqu": 4623,
      "indian": 4624,
      "Ġfeet": 4625,
      "Ġmole": 4626,
      "Ġmoscow": 4627,
      "Ġbecoming": 4628,
      "Ġruns": 4629,
      "Ġalph": 4630,
      "Ġera": 4631,
      "Ġachie": 4632,
      "Ġfrequ": 4633,
      "ription": 4634,
      "television": 4635,
      "Ġcateg": 4636,
      "uguese": 4637,
      "christ": 4638,
      "Ġ;": 4639,
      "Ġwhole": 4640,
      "Ġnorm": 4641,
      "ghan": 4642,
      "ulpt": 4643,
      "ails": 4644,
      "Ġdisestablishments": 4645,
      "ctions": 4646,
      "Ġtrump": 4647,
      "Ġpasseng": 4648,
      "Ġchairman": 4649,
      "intendo": 4650,
      "vention": 4651,
      "Ġhund": 4652,
      "Ġupon": 4653,
      "Ġskin": 4654,
      "Äį": 4655,
      "Ġcust": 4656,
      "Ġvietnam": 4657,
      "Ġdamage": 4658,
      "star": 4659,
      "Ġago": 4660,
      "Ġinvolved": 4661,
      "Ġcultural": 4662,
      "iac": 4663,
      "rence": 4664,
      "Ġasked": 4665,
      "ternal": 4666,
      "ysis": 4667,
      "Ġhorror": 4668,
      "ening": 4669,
      "asion": 4670,
      "Ġturkey": 4671,
      "Ġdeputy": 4672,
      "esc": 4673,
      "Ġros": 4674,
      "Ġparalymp": 4675,
      "Ġ1924": 4676,
      "icide": 4677,
      "Ġscored": 4678,
      "oral": 4679,
      "www": 4680,
      "Ġnuclear": 4681,
      "Ġts": 4682,
      "Ġrose": 4683,
      "Ġvisit": 4684,
      "kins": 4685,
      "Ġdrop": 4686,
      "una": 4687,
      "Ġsuffer": 4688,
      "alb": 4689,
      "Ġofficially": 4690,
      "Ġroom": 4691,
      "ingu": 4692,
      "Ġbangl": 4693,
      "Ġdin": 4694,
      "Ġsel": 4695,
      "light": 4696,
      "Ġheat": 4697,
      "Ġbillboard": 4698,
      "Ġmand": 4699,
      "Ġsubst": 4700,
      "Ġcomedian": 4701,
      "wegian": 4702,
      "Ġeag": 4703,
      "add": 4704,
      "omer": 4705,
      "Ġjon": 4706,
      "Ġformula": 4707,
      "Ġelizabeth": 4708,
      "Ġbehav": 4709,
      "Ġsud": 4710,
      "undes": 4711,
      ");": 4712,
      "Ġmcc": 4713,
      "Ġple": 4714,
      "Ġdoug": 4715,
      "Ġdestroyed": 4716,
      "yers": 4717,
      "Ġip": 4718,
      "Ġmechan": 4719,
      "Ġfunction": 4720,
      "Ġprobably": 4721,
      "Ġadditional": 4722,
      "Ġye": 4723,
      "Ġemploy": 4724,
      "Ġconstitu": 4725,
      "cala": 4726,
      "osaur": 4727,
      "Ġell": 4728,
      "Ġalready": 4729,
      "Ġbott": 4730,
      "Ġdipl": 4731,
      "Ġ1900": 4732,
      "1971": 4733,
      "villages": 4734,
      "Ġcarbon": 4735,
      "Ġtan": 4736,
      "ability": 4737,
      "Ġkept": 4738,
      "uv": 4739,
      "Ġanne": 4740,
      "Ġbrook": 4741,
      "ancy": 4742,
      "Ġbod": 4743,
      "Ġrug": 4744,
      "personal": 4745,
      "Ġwisconsin": 4746,
      "Ġparties": 4747,
      "Ġbh": 4748,
      "Ġniger": 4749,
      "Ġunderst": 4750,
      "bed": 4751,
      "Ġsearch": 4752,
      "Ġengineering": 4753,
      "utt": 4754,
      "inem": 4755,
      "Ġphysic": 4756,
      "now": 4757,
      "Ġmun": 4758,
      "Ġroute": 4759,
      "bal": 4760,
      "Ġhtt": 4761,
      "Ġaltern": 4762,
      "Ġtraining": 4763,
      "soft": 4764,
      "Ġnormal": 4765,
      "Ġsle": 4766,
      "ties": 4767,
      "Ġdigital": 4768,
      "nic": 4769,
      "Ġcreek": 4770,
      "Ġdriver": 4771,
      "origin": 4772,
      "Ġpack": 4773,
      "many": 4774,
      "Ġgreatest": 4775,
      "Ġlinks": 4776,
      "Ġguitarist": 4777,
      "uff": 4778,
      "Ġhundred": 4779,
      "Ġlas": 4780,
      "Ġ1922": 4781,
      "ikh": 4782,
      "Ġlung": 4783,
      "Ġsculpt": 4784,
      "1969": 4785,
      "ceed": 4786,
      "Ġfought": 4787,
      "Ġsnow": 4788,
      "Ġunits": 4789,
      "igation": 4790,
      "iot": 4791,
      "Ġclar": 4792,
      "Ġwrite": 4793,
      "ester": 4794,
      "Ġorchestra": 4795,
      "Ġuniverse": 4796,
      "Ġsoccer": 4797,
      "Ġ45": 4798,
      "Ġpier": 4799,
      "Ġconstant": 4800,
      "Ġsac": 4801,
      "musical": 4802,
      "Ġsection": 4803,
      "Ġqueens": 4804,
      "Ġstructure": 4805,
      "long": 4806,
      "Ġphysics": 4807,
      "Ġfighting": 4808,
      "Ġopt": 4809,
      "Ġsites": 4810,
      "ika": 4811,
      "Ġtells": 4812,
      "Ġthm": 4813,
      "atures": 4814,
      "Ġrot": 4815,
      "Ġswe": 4816,
      "align": 4817,
      "Ġgoddess": 4818,
      "Ġnewspaper": 4819,
      "icted": 4820,
      "arg": 4821,
      "Ġdraw": 4822,
      "eks": 4823,
      "Ġrecording": 4824,
      "Ġbird": 4825,
      "Ġblues": 4826,
      "Ġrub": 4827,
      "Ġgreece": 4828,
      "hr": 4829,
      "mic": 4830,
      "Ġ1923": 4831,
      "Ġswiss": 4832,
      "pp": 4833,
      "Ġwwe": 4834,
      "Ġger": 4835,
      "roll": 4836,
      "Ġkan": 4837,
      "Ġsupreme": 4838,
      "Ġkir": 4839,
      "sey": 4840,
      "Ġfigure": 4841,
      "etic": 4842,
      "Ġbillion": 4843,
      "Ġot": 4844,
      "Ġtalk": 4845,
      "Ġphilippines": 4846,
      "Ġdak": 4847,
      "Ġka": 4848,
      "100": 4849,
      "Ġlic": 4850,
      "Ġcomplete": 4851,
      "Ġkhan": 4852,
      "Ġprop": 4853,
      "Ġpublisher": 4854,
      "Ġtag": 4855,
      "ension": 4856,
      "Ġalt": 4857,
      "calais": 4858,
      "put": 4859,
      "izes": 4860,
      "Ã©n": 4861,
      "Ġgrant": 4862,
      "1968": 4863,
      "ricult": 4864,
      "Ġadministrative": 4865,
      "Ġazerbaijan": 4866,
      "inces": 4867,
      "station": 4868,
      "onne": 4869,
      "Ġtowards": 4870,
      "Ġfeatured": 4871,
      "Ġjudge": 4872,
      "Ġ65": 4873,
      "Ġelectr": 4874,
      "Ġspent": 4875,
      "Ġarkansas": 4876,
      "iny": 4877,
      "Ġspirit": 4878,
      "Ġcovered": 4879,
      "ipe": 4880,
      "total": 4881,
      "Ġapart": 4882,
      "Ġcrown": 4883,
      "Ġalum": 4884,
      "edit": 4885,
      "Ġrand": 4886,
      "Ġwhose": 4887,
      "Ġtrees": 4888,
      "Ġtroops": 4889,
      "Ġevolution": 4890,
      "Ġelements": 4891,
      "Ġtay": 4892,
      "Ġsund": 4893,
      "Ġbelgium": 4894,
      "usion": 4895,
      "Ġelement": 4896,
      "group": 4897,
      "road": 4898,
      "Ġandrew": 4899,
      "Ġalg": 4900,
      "aded": 4901,
      "Ġexplor": 4902,
      "Ġleaves": 4903,
      "Ġurban": 4904,
      "Ġhun": 4905,
      "Ġloss": 4906,
      "Ġweather": 4907,
      "Ġprofile": 4908,
      "Ġthir": 4909,
      "uki": 4910,
      "Ġaccount": 4911,
      "Ġadop": 4912,
      "Ġbegins": 4913,
      "och": 4914,
      "Ġwhy": 4915,
      "phil": 4916,
      "Ġbaby": 4917,
      "Ġtyp": 4918,
      "worth": 4919,
      "biography": 4920,
      "Ġmind": 4921,
      "change": 4922,
      "weight": 4923,
      "encies": 4924,
      "bir": 4925,
      "1967": 4926,
      "Ġtennis": 4927,
      "Ġstudent": 4928,
      "Ġky": 4929,
      "Ġphiladelphia": 4930,
      "iate": 4931,
      "Ġforced": 4932,
      "Ġabd": 4933,
      "Ġbush": 4934,
      "Ġ87": 4935,
      "Ġsingapore": 4936,
      "Ġletters": 4937,
      "Ġarthur": 4938,
      "stan": 4939,
      "ologists": 4940,
      "Ġcd": 4941,
      "gra": 4942,
      "Ġhan": 4943,
      "Ġpho": 4944,
      "Ġairlines": 4945,
      "Ġexamples": 4946,
      "Ġspr": 4947,
      "north": 4948,
      "Ġbarb": 4949,
      "ires": 4950,
      "Ġphysical": 4951,
      "roit": 4952,
      "Ġarms": 4953,
      "1950": 4954,
      "Ġnap": 4955,
      "Ġsaf": 4956,
      "Ġcontroll": 4957,
      "Ġtower": 4958,
      "Ġconfl": 4959,
      "orporated": 4960,
      "Ġmit": 4961,
      "Ġsciences": 4962,
      "Ġpowerful": 4963,
      "Ġfantasy": 4964,
      "Ġargentina": 4965,
      "Ġbond": 4966,
      "Ġstri": 4967,
      "Ġnortheast": 4968,
      "aq": 4969,
      "Ġspoken": 4970,
      "à¦": 4971,
      "Ġdeter": 4972,
      "business": 4973,
      "Ġdanger": 4974,
      "Ġturned": 4975,
      "Ġult": 4976,
      "Ġfoss": 4977,
      "Ġgreater": 4978,
      "Ġsupported": 4979,
      "Ġruled": 4980,
      "Ġlimited": 4981,
      "hum": 4982,
      "Ġearlier": 4983,
      "they": 4984,
      "Ġfoot": 4985,
      "ayashi": 4986,
      "Ġcandidate": 4987,
      "Ġcommercial": 4988,
      "Ġsignificant": 4989,
      "Ġ500": 4990,
      "Ġstephen": 4991,
      "Ġchris": 4992,
      "educ": 4993,
      "neum": 4994,
      "Ġcham": 4995,
      "Ġukraine": 4996,
      "Ġjews": 4997,
      "Ġgetting": 4998,
      "iang": 4999,
      "Ġlisted": 5000,
      "Ġmonarch": 5001,
      "Ġassistant": 5002,
      "Ġthriller": 5003,
      "Ġteen": 5004,
      "Ġsydney": 5005,
      "Ġsimple": 5006,
      "Ġcritics": 5007,
      "rainian": 5008,
      "Ġchall": 5009,
      "Ġobservatory": 5010,
      "Ġsoutheast": 5011,
      "ls": 5012,
      "Ġvalue": 5013,
      "itation": 5014,
      "Ġsoul": 5015,
      "Ġenter": 5016,
      "Ġplaced": 5017,
      "Ġrepresentative": 5018,
      "Ġpassed": 5019,
      "Ġconfir": 5020,
      "Ġreviews": 5021,
      "Ġregional": 5022,
      "sky": 5023,
      "Ġale": 5024,
      "bet": 5025,
      "Ġwrestler": 5026,
      "Ġmoving": 5027,
      "ÅĤ": 5028,
      "Ġ86": 5029,
      "Ġ1918": 5030,
      "ills": 5031,
      "Ġmanagement": 5032,
      "Ġborough": 5033,
      "igen": 5034,
      "Ġcarry": 5035,
      "Ġmajority": 5036,
      "Ġpicture": 5037,
      "aux": 5038,
      "Ġ84": 5039,
      "Ġhistoric": 5040,
      "lar": 5041,
      "Ġtele": 5042,
      "endar": 5043,
      "vis": 5044,
      "Ġboys": 5045,
      "Ġfolk": 5046,
      "Ġfu": 5047,
      "Ġholy": 5048,
      "Ġmanagers": 5049,
      "ci": 5050,
      "Ġcharge": 5051,
      "1940": 5052,
      "Ġmemorial": 5053,
      "Ġeffects": 5054,
      "imated": 5055,
      "Ġmarsh": 5056,
      "Ġminutes": 5057,
      "ogne": 5058,
      "Ġpiano": 5059,
      "asing": 5060,
      "ilton": 5061,
      "rane": 5062,
      "Ġ77": 5063,
      "Ġworkers": 5064,
      "Ġ1921": 5065,
      "Ġtas": 5066,
      "Ġali": 5067,
      "Ġrepresented": 5068,
      "Ġconstruction": 5069,
      "buildings": 5070,
      "Ġpositive": 5071,
      "Ġbah": 5072,
      "Ġcars": 5073,
      "Ġmixed": 5074,
      "ufact": 5075,
      "Ġadventure": 5076,
      "Ġseparate": 5077,
      "Ġjos": 5078,
      "Ġ64": 5079,
      "Ġillustr": 5080,
      "based": 5081,
      "Ġprovinces": 5082,
      "Ġmorn": 5083,
      "omen": 5084,
      "ashion": 5085,
      "lad": 5086,
      "Ġclin": 5087,
      "cr": 5088,
      "enez": 5089,
      "Ġorganizations": 5090,
      "Ġportugal": 5091,
      "Ġlaunched": 5092,
      "Ġmut": 5093,
      "oud": 5094,
      "Ġ75": 5095,
      "Ġtoronto": 5096,
      "Ġorange": 5097,
      "Ġuefa": 5098,
      "Ġsymbol": 5099,
      "Ġindividual": 5100,
      "pat": 5101,
      "ugg": 5102,
      "Ġhistorian": 5103,
      "Ġfinland": 5104,
      "Ġped": 5105,
      "1930": 5106,
      "Ġweeks": 5107,
      "Ġliver": 5108,
      "Ġhair": 5109,
      "Ġattacks": 5110,
      "Ġaffairs": 5111,
      "Ġdiplom": 5112,
      "icut": 5113,
      "Ġreign": 5114,
      "Ġafghan": 5115,
      "Ġfinanc": 5116,
      "Ġlisting": 5117,
      "di": 5118,
      "Ġdry": 5119,
      "Ã¨re": 5120,
      "ellig": 5121,
      "Ġuniversities": 5122,
      "wis": 5123,
      "aled": 5124,
      "Ġhong": 5125,
      "Ã¶r": 5126,
      "Ġappearance": 5127,
      "gall": 5128,
      "Ġfalls": 5129,
      "Ġadministration": 5130,
      "dam": 5131,
      "ĠÐ": 5132,
      "Ġdiam": 5133,
      "Ġprincip": 5134,
      "Ġstatus": 5135,
      "Ġbelgian": 5136,
      "Ġsher": 5137,
      "alled": 5138,
      "Ġnearly": 5139,
      "euro": 5140,
      "Ġlikely": 5141,
      "Ġdakota": 5142,
      "ogy": 5143,
      "Ġbring": 5144,
      "afr": 5145,
      "hon": 5146,
      "hal": 5147,
      "izona": 5148,
      "Ġhighway": 5149,
      "Ġpressure": 5150,
      "singers": 5151,
      "Ġpiece": 5152,
      "Ġmeters": 5153,
      "Ġstarts": 5154,
      "oven": 5155,
      "Ġstopped": 5156,
      "Ġmeant": 5157,
      "dutch": 5158,
      "Ġeyes": 5159,
      "Ġmedalists": 5160,
      "brazil": 5161,
      "Ġvotes": 5162,
      "Ġtwenty": 5163,
      "class": 5164,
      "Ġclosed": 5165,
      "Ġscientific": 5166,
      "inter": 5167,
      "chi": 5168,
      "Ġpoly": 5169,
      "Ġgraph": 5170,
      "died": 5171,
      "Ġpandemic": 5172,
      "Ġnik": 5173,
      "Ġproducts": 5174,
      "Ġdouble": 5175,
      "Ġah": 5176,
      "Ġhay": 5177,
      "hedral": 5178,
      "Ġconcert": 5179,
      "elled": 5180,
      "Ġcompleted": 5181,
      "Ġarran": 5182,
      "Ġglobal": 5183,
      "omy": 5184,
      "Ġassociated": 5185,
      "Ġfeature": 5186,
      "hard": 5187,
      "rock": 5188,
      "reng": 5189,
      "Ã©r": 5190,
      "Ġris": 5191,
      "Ġweight": 5192,
      "Ġwolf": 5193,
      "Ġpul": 5194,
      "stone": 5195,
      "500": 5196,
      "uals": 5197,
      "Ġworldwide": 5198,
      "Ġcomposed": 5199,
      "eman": 5200,
      "Ġsurvey": 5201,
      "Ġjesus": 5202,
      "Ġoxford": 5203,
      "general": 5204,
      "Ġagricult": 5205,
      "Ġacid": 5206,
      "pite": 5207,
      "jew": 5208,
      "Ġtai": 5209,
      "march": 5210,
      "found": 5211,
      "Ġgil": 5212,
      "iday": 5213,
      "yth": 5214,
      "ables": 5215,
      "Ġgeneration": 5216,
      "spec": 5217,
      "zen": 5218,
      "Ġconcept": 5219,
      "Ġrecent": 5220,
      "Ġfreedom": 5221,
      "Ġ32": 5222,
      "1964": 5223,
      "Ġmike": 5224,
      "Ġ83": 5225,
      "Ġdonald": 5226,
      "Ġthing": 5227,
      "Ġlegend": 5228,
      "hs": 5229,
      "Ġvolcan": 5230,
      "Ġeggs": 5231,
      "Ġwatch": 5232,
      "Ġgala": 5233,
      "Ġdream": 5234,
      "Ġdraft": 5235,
      "scient": 5236,
      "Ġdial": 5237,
      "Ġcommander": 5238,
      "Ġloire": 5239,
      "Ġvolley": 5240,
      "cha": 5241,
      "Ġshowed": 5242,
      "uy": 5243,
      "Ġcrew": 5244,
      "cycl": 5245,
      "undesliga": 5246,
      "cons": 5247,
      "Ġmom": 5248,
      "Ġnag": 5249,
      "umn": 5250,
      "Ġmerged": 5251,
      "Ġ76": 5252,
      "Ġcolomb": 5253,
      "Ġfinally": 5254,
      "haw": 5255,
      "ng": 5256,
      "ĠÃ©": 5257,
      "Ġheadquart": 5258,
      "Ġinte": 5259,
      "ados": 5260,
      "erst": 5261,
      "sequ": 5262,
      "Ġyounger": 5263,
      "Ġmaryland": 5264,
      "Ġfat": 5265,
      "aped": 5266,
      "Ġhouses": 5267,
      "''": 5268,
      "oka": 5269,
      "ĠĊĠĊĠĊĠĊĠĊĠĊĠĊĠĊĠĊĠĊĠĊĠĊĠĊĠĊĠĊĠĊ": 5270,
      "sect": 5271,
      "Ġpneum": 5272,
      "ovak": 5273,
      "Ġprogress": 5274,
      "Ġwilson": 5275,
      "Ġreve": 5276,
      "Ġpolitics": 5277,
      "Ġlif": 5278,
      "Ġwr": 5279,
      "Ġhotel": 5280,
      "Ġetc": 5281,
      "Ġhaut": 5282,
      "Ġtreaty": 5283,
      "august": 5284,
      "utenant": 5285,
      "bourne": 5286,
      "Ġmerc": 5287,
      "Ġissues": 5288,
      "Ġvienna": 5289,
      "music": 5290,
      "asc": 5291,
      "Ġjohann": 5292,
      "het": 5293,
      "1966": 5294,
      "Ġchristmas": 5295,
      "Ġju": 5296,
      "under": 5297,
      "pected": 5298,
      "Ġactivists": 5299,
      "coln": 5300,
      "Ġhyg": 5301,
      "Ġsail": 5302,
      "Ġkal": 5303,
      "Ġhart": 5304,
      "Ġdistance": 5305,
      "ager": 5306,
      "Ġevidence": 5307,
      "aily": 5308,
      "zh": 5309,
      "Ġkat": 5310,
      "kee": 5311,
      "Ð¾": 5312,
      "Ġconnecticut": 5313,
      "usc": 5314,
      "Ġconditions": 5315,
      "Ġmeasure": 5316,
      "Ġconflict": 5317,
      "Ġfile": 5318,
      "lyn": 5319,
      "Ġresour": 5320,
      "||||||||||": 5321,
      "Ġbiography": 5322,
      "mor": 5323,
      "Ġgang": 5324,
      "Ġ1919": 5325,
      "Ġ85": 5326,
      "die": 5327,
      "Ġnam": 5328,
      "Ġgene": 5329,
      "hammad": 5330,
      "osis": 5331,
      "Ġclim": 5332,
      "film": 5333,
      "ben": 5334,
      "election": 5335,
      "gn": 5336,
      "Ġsolo": 5337,
      "Ġfederation": 5338,
      "Ġcorporation": 5339,
      "Ġgab": 5340,
      "Ġrate": 5341,
      "ardo": 5342,
      "Ġflood": 5343,
      "Ġscreenwriter": 5344,
      "pson": 5345,
      "Ġdepression": 5346,
      "Ġ95": 5347,
      "uther": 5348,
      "Ġmorning": 5349,
      "Ġscore": 5350,
      "Ġbasic": 5351,
      "astic": 5352,
      "anced": 5353,
      "mel": 5354,
      "Ġsimply": 5355,
      "Ġkinds": 5356,
      "Ġconqu": 5357,
      "Ġ36": 5358,
      "Ġphilip": 5359,
      "osen": 5360,
      "Ġancest": 5361,
      "ione": 5362,
      "Ġcalendar": 5363,
      "anna": 5364,
      "pose": 5365,
      "Ġbit": 5366,
      "Ġcomic": 5367,
      "Ġmanchester": 5368,
      "Ġrapid": 5369,
      "ye": 5370,
      "Ġrab": 5371,
      "sex": 5372,
      "Ġweak": 5373,
      "Ġnhl": 5374,
      "geor": 5375,
      "Ġpieces": 5376,
      "pon": 5377,
      "Ġeye": 5378,
      "top": 5379,
      "Ġtaylor": 5380,
      "Ġbos": 5381,
      "ifor": 5382,
      "fish": 5383,
      "members": 5384,
      "iva": 5385,
      "Ġdrink": 5386,
      "Ġcommunities": 5387,
      "enburg": 5388,
      "--": 5389,
      "Ġjur": 5390,
      "Ġexhib": 5391,
      "Ġcharts": 5392,
      "Ġcathedral": 5393,
      "Ġkilomet": 5394,
      "Ġactually": 5395,
      "Ġappears": 5396,
      "Ġpolicy": 5397,
      "Ġlor": 5398,
      "rect": 5399,
      "Ġpad": 5400,
      "Ġmanufact": 5401,
      "ãĤ": 5402,
      "idel": 5403,
      "inary": 5404,
      "Ġmagn": 5405,
      "Ġbangladesh": 5406,
      "Ġraj": 5407,
      "Ġpractice": 5408,
      "Ġrugby": 5409,
      "Ġintellig": 5410,
      "Ġwhether": 5411,
      "Ġ78": 5412,
      "Ġproduce": 5413,
      "athan": 5414,
      "season": 5415,
      "Ġdenmark": 5416,
      "Ġlabel": 5417,
      "Ġinsp": 5418,
      "Ġislamic": 5419,
      "Ġkobayashi": 5420,
      "Ġwit": 5421,
      "Ġunknown": 5422,
      "Ġversions": 5423,
      "Ġcoun": 5424,
      "Ġsevent": 5425,
      "Ġabb": 5426,
      "january": 5427,
      "izumi": 5428,
      "video": 5429,
      "unk": 5430,
      "Ġdoing": 5431,
      "Ġsuicide": 5432,
      "Ġcommunist": 5433,
      "iber": 5434,
      "sub": 5435,
      "Ġfres": 5436,
      "Ġeconomy": 5437,
      "Ġsin": 5438,
      "Ġremains": 5439,
      "Ġbed": 5440,
      "Ġvia": 5441,
      "Ġromania": 5442,
      "Ġtreatment": 5443,
      "Ġpneumonia": 5444,
      "Ġsongwriter": 5445,
      "Ġvolleyball": 5446,
      "ters": 5447,
      "name": 5448,
      "Ġbright": 5449,
      "urb": 5450,
      "1965": 5451,
      "Ġextra": 5452,
      "Ġcomment": 5453,
      "Ġarizona": 5454,
      "Ġshape": 5455,
      "Ġbacter": 5456,
      "univers": 5457,
      "Ġpowers": 5458,
      "Ġdies": 5459,
      "Ġindustrial": 5460,
      "Ġ79": 5461,
      "Ġstroke": 5462,
      "Ġcos": 5463,
      "Ġfashion": 5464,
      "Ġprogramming": 5465,
      "agu": 5466,
      "aver": 5467,
      "Ġchess": 5468,
      "Ġgarden": 5469,
      "Ġliberal": 5470,
      "alia": 5471,
      "Ġstev": 5472,
      "Ġships": 5473,
      "Ġtherefore": 5474,
      "Ġresist": 5475,
      "Ġlevels": 5476,
      "Ġgalax": 5477,
      "itting": 5478,
      "Ġweapons": 5479,
      "Ġterror": 5480,
      "dra": 5481,
      "Ġdat": 5482,
      "Ġflu": 5483,
      "Ġconsist": 5484,
      "Ġsteve": 5485,
      "gas": 5486,
      "ista": 5487,
      "osed": 5488,
      "spe": 5489,
      "alo": 5490,
      "Ġkit": 5491,
      "ÃŃa": 5492,
      "Ġinfluence": 5493,
      "Ġproperty": 5494,
      "ĠÃ": 5495,
      "Ġstreng": 5496,
      "events": 5497,
      "Ġâ": 5498,
      "Ġnearby": 5499,
      "Ġsenior": 5500,
      "Ġjunior": 5501,
      "Ġ34": 5502,
      "Ġbene": 5503,
      "aro": 5504,
      "Ġtrains": 5505,
      "Ġoperation": 5506,
      "iance": 5507,
      "september": 5508,
      "Ġlux": 5509,
      "Ġreach": 5510,
      "Ġfinn": 5511,
      "uston": 5512,
      "Ġ74": 5513,
      "1963": 5514,
      "Ġcompounds": 5515,
      "Ġregard": 5516,
      "Ġgreg": 5517,
      "Ġhear": 5518,
      "Ġchamber": 5519,
      "Ġ1917": 5520,
      "enge": 5521,
      "lywood": 5522,
      "Ġcolorado": 5523,
      "republ": 5524,
      "Ġlyn": 5525,
      "Ġstore": 5526,
      "Ġserb": 5527,
      "Ġwidely": 5528,
      "fc": 5529,
      "Ġstarred": 5530,
      "ledge": 5531,
      "mid": 5532,
      "asters": 5533,
      "Ġisraeli": 5534,
      "Ġcomplications": 5535,
      "xim": 5536,
      "Ġtradition": 5537,
      "Ġkl": 5538,
      "Ġkam": 5539,
      "Ġvictory": 5540,
      "Ġearthqu": 5541,
      "Ġnepal": 5542,
      "run": 5543,
      "Ġsamp": 5544,
      "april": 5545,
      "Ġlemmon": 5546,
      "Ġdaily": 5547,
      "iden": 5548,
      "Ġends": 5549,
      "kes": 5550,
      "soviet": 5551,
      "cla": 5552,
      "Ġlearn": 5553,
      "july": 5554,
      "Ġremoved": 5555,
      "jab": 5556,
      "Ġturkish": 5557,
      "Ġstanley": 5558,
      "ãģ": 5559,
      "ĠdÃ©": 5560,
      "austrian": 5561,
      "Ġimperial": 5562,
      "Ġvin": 5563,
      "ebec": 5564,
      "Ġprevent": 5565,
      "Ġliga": 5566,
      "Ġkaz": 5567,
      "democratic": 5568,
      "Ġanalysis": 5569,
      "mission": 5570,
      "ographic": 5571,
      "Ġmuslim": 5572,
      "iful": 5573,
      "Ġreferred": 5574,
      "Ġow": 5575,
      "Ġax": 5576,
      "Ġmort": 5577,
      "east": 5578,
      "ÅŁ": 5579,
      "Ġcher": 5580,
      "Ġmention": 5581,
      "illed": 5582,
      "Ġtony": 5583,
      "ras": 5584,
      "Ġscientist": 5585,
      "ocks": 5586,
      "wall": 5587,
      "Ġni": 5588,
      "Ġ81": 5589,
      "Ġattract": 5590,
      "Ġlawrence": 5591,
      "anti": 5592,
      "Ġcav": 5593,
      "Ġactivities": 5594,
      "zz": 5595,
      "Å«": 5596,
      "anded": 5597,
      "design": 5598,
      "Ġiraq": 5599,
      "Ġhappen": 5600,
      "Ġquarter": 5601,
      "egon": 5602,
      "central": 5603,
      "Ã¼n": 5604,
      "Ġmadrid": 5605,
      "jewish": 5606,
      "vd": 5607,
      "Ġ120": 5608,
      "Ġele": 5609,
      "ensity": 5610,
      "Ġcomics": 5611,
      "Ġdivor": 5612,
      "Ġopening": 5613,
      "ante": 5614,
      "Ġclassical": 5615,
      "iat": 5616,
      "Ġford": 5617,
      "june": 5618,
      "Ġchemistry": 5619,
      "Ġtrial": 5620,
      "Ġbag": 5621,
      "Ġcartoon": 5622,
      "Ġmps": 5623,
      "ception": 5624,
      "Ġric": 5625,
      "Ġones": 5626,
      "mart": 5627,
      "Ġimage": 5628,
      "what": 5629,
      "Ġvocal": 5630,
      "iba": 5631,
      "Ġargentine": 5632,
      "Ġliqu": 5633,
      "Ġpersonality": 5634,
      "Ġentered": 5635,
      "Ġportuguese": 5636,
      "ti": 5637,
      "Ġreally": 5638,
      "Ġzone": 5639,
      "Ġcrash": 5640,
      "ef": 5641,
      "Ġmol": 5642,
      "eding": 5643,
      "serie": 5644,
      "Ġinstrument": 5645,
      "Ġkle": 5646,
      "wright": 5647,
      "Ġnumer": 5648,
      "Ġflat": 5649,
      "main": 5650,
      "Ġmarine": 5651,
      "Ġnorwegian": 5652,
      "Ġguide": 5653,
      "Ġtaught": 5654,
      "Ġhorn": 5655,
      "porary": 5656,
      "Ġconservative": 5657,
      "best": 5658,
      "Ġspeech": 5659,
      "Ġcerem": 5660,
      "Ġdrive": 5661,
      "sor": 5662,
      "Ġross": 5663,
      "onstr": 5664,
      "ayer": 5665,
      "Ġfans": 5666,
      "Ġsleep": 5667,
      "Ġburied": 5668,
      "ares": 5669,
      "Ġcinem": 5670,
      "businesspeople": 5671,
      "Ð¸": 5672,
      "Ġlabour": 5673,
      "sal": 5674,
      "ivity": 5675,
      "Ġwalter": 5676,
      "abor": 5677,
      "Ġmarc": 5678,
      "Ġcoal": 5679,
      "leveland": 5680,
      "Ġmaine": 5681,
      "Ġthreat": 5682,
      "Ġneeds": 5683,
      "udi": 5684,
      "Ġcopies": 5685,
      "sim": 5686,
      "Ġjam": 5687,
      "william": 5688,
      "Ġsplit": 5689,
      "Ġhorse": 5690,
      "Ġpreviously": 5691,
      "enezuel": 5692,
      "Ġwins": 5693,
      "Ġbac": 5694,
      "Ġthus": 5695,
      "Ġoregon": 5696,
      "Ġshin": 5697,
      "movie": 5698,
      "Ġcroat": 5699,
      "rupt": 5700,
      "Ġlincoln": 5701,
      "Ġagency": 5702,
      "onse": 5703,
      "Ġtwice": 5704,
      "Ġmissing": 5705,
      "october": 5706,
      "Ġacademic": 5707,
      "orter": 5708,
      "Ġinsect": 5709,
      "izing": 5710,
      "ging": 5711,
      "Ġdoll": 5712,
      "Ġrestaur": 5713,
      "Ġneighbor": 5714,
      "pan": 5715,
      "Ġconfirmed": 5716,
      "Ġ93": 5717,
      "Ġmatter": 5718,
      "Ġremained": 5719,
      "Ġobjects": 5720,
      "Ġ91": 5721,
      "'.": 5722,
      "kov": 5723,
      "Ġcrow": 5724,
      "rison": 5725,
      "cd": 5726,
      "iology": 5727,
      "Ġpig": 5728,
      "lets": 5729,
      "Ġallows": 5730,
      "which": 5731,
      "Ġphysicist": 5732,
      "non": 5733,
      "Ġplane": 5734,
      "Ġcool": 5735,
      "Ġscholar": 5736,
      "feb": 5737,
      "cancer": 5738,
      "Ġgods": 5739,
      "lot": 5740,
      "Ġthin": 5741,
      "ocol": 5742,
      "Ġnintendo": 5743,
      "Ġcreation": 5744,
      "1951": 5745,
      "african": 5746,
      "Ġchosen": 5747,
      "Ġoverall": 5748,
      "Ġprovide": 5749,
      "arus": 5750,
      "arily": 5751,
      "gallery": 5752,
      "Ġgay": 5753,
      "Ġpoll": 5754,
      "france": 5755,
      "Ġfix": 5756,
      "Ġtrust": 5757,
      "Ġeff": 5758,
      "Ġtermin": 5759,
      "Ġgraduated": 5760,
      "Ġsang": 5761,
      "iminal": 5762,
      "gold": 5763,
      "Ġflows": 5764,
      "Ġful": 5765,
      "ogle": 5766,
      "zburg": 5767,
      "abet": 5768,
      "brazilian": 5769,
      "cap": 5770,
      "ding": 5771,
      "rÃ©": 5772,
      "pur": 5773,
      "Ġpic": 5774,
      "Ġbros": 5775,
      "Ġfarm": 5776,
      "rhin": 5777,
      "Ġmp": 5778,
      "Ġ55": 5779,
      "Ġcontent": 5780,
      "Ġtrying": 5781,
      "Ġatom": 5782,
      "Ġsolar": 5783,
      "Ġvs": 5784,
      "bul": 5785,
      "Ġorth": 5786,
      "eller": 5787,
      "Ġslav": 5788,
      "Ġglass": 5789,
      "Ġjord": 5790,
      "ÃŁ": 5791,
      "Ġsurg": 5792,
      "Ġded": 5793,
      "Ġharv": 5794,
      "Ġequal": 5795,
      "Ġil": 5796,
      "inth": 5797,
      "Ġlyr": 5798,
      "Ġ(),": 5799,
      "umber": 5800,
      "swed": 5801,
      "Ġ48": 5802,
      "Ġquestion": 5803,
      "Ġwing": 5804,
      "Ġyout": 5805,
      "ographical": 5806,
      "Ġsuff": 5807,
      "Ġpainting": 5808,
      "Ġbound": 5809,
      "Ġ37": 5810,
      "ibility": 5811,
      "fur": 5812,
      "isi": 5813,
      "Ġrio": 5814,
      "Ġbought": 5815,
      "ez": 5816,
      "lan": 5817,
      "Ġdub": 5818,
      "prof": 5819,
      "Ġincreased": 5820,
      "Ġsaying": 5821,
      "Ġprint": 5822,
      "Ġshop": 5823,
      "1962": 5824,
      "Ġkennedy": 5825,
      "Ġdrugs": 5826,
      "Ġfellow": 5827,
      "Ġ1914": 5828,
      "Ġhawai": 5829,
      "bn": 5830,
      "Ġyet": 5831,
      "Ġcambridge": 5832,
      "Ġmak": 5833,
      "Ġconfeder": 5834,
      "cor": 5835,
      "ety": 5836,
      "uda": 5837,
      "Ġwheel": 5838,
      "Ġcras": 5839,
      "Ġdefense": 5840,
      "names": 5841,
      "Ġtransit": 5842,
      "Ġtaiwan": 5843,
      "erto": 5844,
      "Ġdisplay": 5845,
      "Ġlocation": 5846,
      "Ġattacked": 5847,
      "dav": 5848,
      "Ġsides": 5849,
      "ygen": 5850,
      "Ġsalt": 5851,
      "Ġincrease": 5852,
      "ees": 5853,
      "Ġ82": 5854,
      "black": 5855,
      "Ġarchitecture": 5856,
      "Ġdouglas": 5857,
      "tery": 5858,
      "Ġcontain": 5859,
      "ru": 5860,
      "Ġern": 5861,
      "Ġcel": 5862,
      "Ġdetroit": 5863,
      "Ġsixth": 5864,
      "Ġmathematician": 5865,
      "Ġlad": 5866,
      "Ġexperience": 5867,
      "november": 5868,
      "vol": 5869,
      "onic": 5870,
      "Ġdiscuss": 5871,
      "Ġdefeat": 5872,
      "government": 5873,
      "Ġwave": 5874,
      "Ġfreder": 5875,
      "Ġpup": 5876,
      "Ġ96": 5877,
      "Ġafghanistan": 5878,
      "Ġfinancial": 5879,
      "feld": 5880,
      "Ġscor": 5881,
      "Ġpercent": 5882,
      "Ġbackground": 5883,
      "oly": 5884,
      "Ġcourse": 5885,
      "Ġprec": 5886,
      "Ġhelps": 5887,
      "scientists": 5888,
      "Ġfictional": 5889,
      "ammals": 5890,
      "Ġhamp": 5891,
      "Ġalco": 5892,
      "Ġbeng": 5893,
      "uts": 5894,
      "Ġbear": 5895,
      "uma": 5896,
      "Ġcloth": 5897,
      "Ġbelief": 5898,
      "Ġeasily": 5899,
      "Ġmaxim": 5900,
      "rat": 5901,
      "Ġhip": 5902,
      "Ġgiving": 5903,
      "Ġsolid": 5904,
      "Ġtransfer": 5905,
      "ogen": 5906,
      "van": 5907,
      "Ġhug": 5908,
      "Ġ1912": 5909,
      "Ġnotable": 5910,
      "wart": 5911,
      "Ġarticles": 5912,
      "Ġeagle": 5913,
      "stat": 5914,
      "allas": 5915,
      "Ġrefers": 5916,
      "Ġhttp": 5917,
      "europe": 5918,
      "Ġcow": 5919,
      "Ġhu": 5920,
      "Ġkur": 5921,
      "Ġauthority": 5922,
      "lu": 5923,
      "pers": 5924,
      "Ġwings": 5925,
      "Ġmanip": 5926,
      "Ġhungary": 5927,
      "Ġranked": 5928,
      "Ðµ": 5929,
      "Ġwed": 5930,
      "Ġreasons": 5931,
      "1961": 5932,
      "Ġfruit": 5933,
      "Ġdespite": 5934,
      "Ġearned": 5935,
      "rele": 5936,
      "olis": 5937,
      "Ġindic": 5938,
      "Ġflow": 5939,
      "Ġconsists": 5940,
      "Ġactivity": 5941,
      "Ä±": 5942,
      "centr": 5943,
      "forms": 5944,
      "Ġserving": 5945,
      "Ġ89": 5946,
      "Ġmodels": 5947,
      "Ġdol": 5948,
      "Ġdirection": 5949,
      "bgcolor": 5950,
      "Ġtu": 5951,
      "robert": 5952,
      "Ġbrad": 5953,
      "1945": 5954,
      "Ġwants": 5955,
      "Ġpenins": 5956,
      "Ġindonesia": 5957,
      "Ġsources": 5958,
      "Ġhungarian": 5959,
      "Ġkelly": 5960,
      "Ġaired": 5961,
      "1956": 5962,
      "Ġcass": 5963,
      "Ġmarie": 5964,
      "Ġknight": 5965,
      "pool": 5966,
      "Ġgrass": 5967,
      "awards": 5968,
      "according": 5969,
      "ucted": 5970,
      "Ġcoming": 5971,
      "angel": 5972,
      "Ġexchange": 5973,
      "yo": 5974,
      "mich": 5975,
      "Ġelse": 5976,
      "Ġbuddh": 5977,
      "ski": 5978,
      "olas": 5979,
      "Ġru": 5980,
      "Ġ47": 5981,
      "Ġcomune": 5982,
      "bur": 5983,
      "Ġlewis": 5984,
      "onder": 5985,
      "Ġattorn": 5986,
      "Ġmythology": 5987,
      "ums": 5988,
      "Ġgrowth": 5989,
      "Ġdur": 5990,
      "Ġcovers": 5991,
      "Ġukrainian": 5992,
      "rier": 5993,
      "february": 5994,
      "Ġdj": 5995,
      "Ġreplace": 5996,
      "Ġoak": 5997,
      "child": 5998,
      "Ġdemocr": 5999,
      "Ġsquad": 6000,
      "chers": 6001,
      "nie": 6002,
      "Ġbible": 6003,
      "liest": 6004,
      "Ġlieutenant": 6005,
      "avia": 6006,
      "Ġresponsible": 6007,
      ";\"": 6008,
      "Ġmouth": 6009,
      "Ġpolo": 6010,
      "Ġagent": 6011,
      "Ġsteel": 6012,
      "Ġpilot": 6013,
      "Ġsons": 6014,
      "Ġcaptured": 6015,
      "onde": 6016,
      "Ġul": 6017,
      "Ġelectronic": 6018,
      "Ġaer": 6019,
      "Ġshooting": 6020,
      "Ġhans": 6021,
      "Ġpir": 6022,
      "Ġansw": 6023,
      "Ġdanc": 6024,
      "dorf": 6025,
      "itals": 6026,
      "Ġphilosophy": 6027,
      "Ġ92": 6028,
      "celona": 6029,
      "Ġtouch": 6030,
      "Ġ38": 6031,
      "Ġbuy": 6032,
      "father": 6033,
      "ando": 6034,
      "Ġnotes": 6035,
      "\").": 6036,
      "Ġprix": 6037,
      "Ġdiagn": 6038,
      "Ġsad": 6039,
      "Ġplate": 6040,
      "Ġconvention": 6041,
      "Ġstudios": 6042,
      "Ġquebec": 6043,
      "Ġegyptian": 6044,
      "Ġconductor": 6045,
      "kir": 6046,
      "Ġalumni": 6047,
      "Ġais": 6048,
      "ctors": 6049,
      "Ġdirectly": 6050,
      "Ġparalympics": 6051,
      "Ġcenturies": 6052,
      "Ġgrammy": 6053,
      "Ġburg": 6054,
      "Ġcategory": 6055,
      "Ġbrian": 6056,
      "Ġhousehold": 6057,
      "iop": 6058,
      "later": 6059,
      "Ġdeclared": 6060,
      "Ġbodies": 6061,
      "december": 6062,
      "Ġinstruments": 6063,
      "Ġglobe": 6064,
      "mill": 6065,
      "soc": 6066,
      "Ġwhom": 6067,
      "Ġiranian": 6068,
      "Ġdefin": 6069,
      "Ġleb": 6070,
      "Ġheadquarters": 6071,
      "Ġ33": 6072,
      "Ġattended": 6073,
      "two": 6074,
      "Ġserious": 6075,
      "Ġlyrics": 6076,
      "Ġoperating": 6077,
      "uter": 6078,
      "Ġwalk": 6079,
      "ju": 6080,
      "ordon": 6081,
      "iti": 6082,
      "1959": 6083,
      "Ġvariety": 6084,
      "Ġissue": 6085,
      "Ġsid": 6086,
      "Ġusers": 6087,
      "ÂłÂł": 6088,
      "Ġleaving": 6089,
      "Ġowner": 6090,
      "Ġsiding": 6091,
      "Ġguine": 6092,
      "Ġmobile": 6093,
      "Ġ44": 6094,
      "Ġanimation": 6095,
      "Ġprotection": 6096,
      "Ġarrested": 6097,
      "full": 6098,
      "Ġille": 6099,
      "Ġacts": 6100,
      "Ġ49": 6101,
      "Ġapple": 6102,
      "Ġgenes": 6103,
      "Ġsupporting": 6104,
      "Ġexact": 6105,
      "kan": 6106,
      "ache": 6107,
      "Ġhappens": 6108,
      "Ġmemory": 6109,
      "onian": 6110,
      "Ġ1910": 6111,
      "Ġadam": 6112,
      "Ġ67": 6113,
      "Ġsequel": 6114,
      "Ġannual": 6115,
      "Ġroy": 6116,
      "Ġrecognized": 6117,
      "hens": 6118,
      "Ġpink": 6119,
      "othes": 6120,
      "greg": 6121,
      "load": 6122,
      "ml": 6123,
      "anne": 6124,
      "Ġdro": 6125,
      "Ġgran": 6126,
      "Ġconcentr": 6127,
      "mex": 6128,
      "Ġpaintings": 6129,
      "Ġrural": 6130,
      "Ġmathematics": 6131,
      "Ġgor": 6132,
      "Ġaddress": 6133,
      "Ġfocus": 6134,
      "center": 6135,
      "Ġbulgar": 6136,
      "Ġhits": 6137,
      "sel": 6138,
      "Ġdiet": 6139,
      "kshire": 6140,
      "Ġpoetry": 6141,
      "cop": 6142,
      "mount": 6143,
      "Ġathlete": 6144,
      "Ġsor": 6145,
      "Ġquite": 6146,
      "tropical": 6147,
      "Ġbure": 6148,
      "pton": 6149,
      "oul": 6150,
      "Ġkash": 6151,
      "Ġrid": 6152,
      "presidents": 6153,
      "friend": 6154,
      "Ġcha": 6155,
      "Ġyam": 6156,
      "Ġdavis": 6157,
      "Ġtheor": 6158,
      "Ġconnected": 6159,
      "these": 6160,
      "iko": 6161,
      "Ġanthony": 6162,
      "Ġolympians": 6163,
      "Ġwalt": 6164,
      "Ġsilent": 6165,
      "Ġpatrick": 6166,
      "ingen": 6167,
      "Ġeasy": 6168,
      "Ġmeeting": 6169,
      "Ġ73": 6170,
      "Ġevil": 6171,
      "Ġoxygen": 6172,
      "Ġpin": 6173,
      "abad": 6174,
      "Ġalexand": 6175,
      "Ġrod": 6176,
      "Ġvolume": 6177,
      "republican": 6178,
      "Ġfear": 6179,
      "Ġdiscovery": 6180,
      "Ġpp": 6181,
      "Ġ39": 6182,
      "bird": 6183,
      "Ġsri": 6184,
      "Ġalone": 6185,
      "Ġund": 6186,
      "Ġages": 6187,
      "Ġvide": 6188,
      "Ġvert": 6189,
      "Ġlooks": 6190,
      "Ġsucceed": 6191,
      "Ġfrogs": 6192,
      "hatt": 6193,
      "family": 6194,
      "set": 6195,
      "Ġfern": 6196,
      "Ġrein": 6197,
      "place": 6198,
      "Ġvoices": 6199,
      "Ġfields": 6200,
      "Ġhang": 6201,
      "iano": 6202,
      "Ã©t": 6203,
      "Ġinteract": 6204,
      "Ġdal": 6205,
      "1957": 6206,
      "oli": 6207,
      "Ġpriest": 6208,
      "ods": 6209,
      "ucks": 6210,
      "Ġdragon": 6211,
      "Ġoizumi": 6212,
      "asia": 6213,
      "lishing": 6214,
      "Ġpattern": 6215,
      "Ġconcern": 6216,
      "Ġofficers": 6217,
      "Ġmalays": 6218,
      "Ġplatform": 6219,
      "gi": 6220,
      "Ġhour": 6221,
      "Ġ46": 6222,
      "Ġprovided": 6223,
      "Ġimpact": 6224,
      "enh": 6225,
      "Ġprisoners": 6226,
      "Ġtamil": 6227,
      "Ġmales": 6228,
      "Ġmaterials": 6229,
      "alpes": 6230,
      "Ġforward": 6231,
      "Ġchron": 6232,
      "frog": 6233,
      "Ġethnic": 6234,
      "contin": 6235,
      "military": 6236,
      "Ġcert": 6237,
      "natural": 6238,
      "Ġability": 6239,
      "Ġpeninsula": 6240,
      "oe": 6241,
      "rast": 6242,
      "Ġgi": 6243,
      "Ġambass": 6244,
      "Ġshare": 6245,
      "iki": 6246,
      "Ġhoward": 6247,
      "Ġallen": 6248,
      "Ġ69": 6249,
      "Ġcriminal": 6250,
      "Ġcompared": 6251,
      "Ġcouple": 6252,
      "Ġbeautiful": 6253,
      "urches": 6254,
      "cules": 6255,
      "Ġemerg": 6256,
      "Ġbart": 6257,
      "Ġlgbt": 6258,
      "Ġcontrovers": 6259,
      "Ġplanned": 6260,
      "ulty": 6261,
      "gram": 6262,
      "ifer": 6263,
      "atar": 6264,
      "Ġjenn": 6265,
      "Ġpaid": 6266,
      "Ġrapper": 6267,
      "1958": 6268,
      "aku": 6269,
      "cm": 6270,
      "Ġshel": 6271,
      "Ġcarried": 6272,
      "Ġspect": 6273,
      "ÃŃn": 6274,
      "usal": 6275,
      "Ġtracks": 6276,
      "Ġ118": 6277,
      "Ġ1916": 6278,
      "Ġedge": 6279,
      "Ġsoldier": 6280,
      "Ġtrip": 6281,
      "Ġlongest": 6282,
      "Ġviolin": 6283,
      "Ġward": 6284,
      "Ġfinish": 6285,
      "].": 6286,
      "ishes": 6287,
      "Ġpyr": 6288,
      "stract": 6289,
      "external": 6290,
      "sources": 6291,
      "Ġenemy": 6292,
      "Ã¸": 6293,
      "Ġlank": 6294,
      "Ġraw": 6295,
      "Ġvenezuel": 6296,
      "Ġrangers": 6297,
      "wing": 6298,
      "Ġstated": 6299,
      "Ġtheme": 6300,
      "Ġ1911": 6301,
      "Ġdecision": 6302,
      "ably": 6303,
      "league": 6304,
      "Ġquant": 6305,
      "Ġmyst": 6306,
      "Ġlegs": 6307,
      "ault": 6308,
      "Ġstran": 6309,
      "Ġjournalists": 6310,
      "Ġmethods": 6311,
      "Ġhabit": 6312,
      "Ġvel": 6313,
      "Ġserve": 6314,
      "Ġremix": 6315,
      "Ġbottom": 6316,
      "Ġmotion": 6317,
      "Ġmontreal": 6318,
      "Ġhampshire": 6319,
      "'m": 6320,
      "via": 6321,
      "Ġcolour": 6322,
      "Ġimages": 6323,
      "Ġpoets": 6324,
      "Ġattorney": 6325,
      "Ġfried": 6326,
      "Ġcomputers": 6327,
      "Ġcompletely": 6328,
      "ih": 6329,
      "Ð½": 6330,
      "Ġnote": 6331,
      "Ġlooking": 6332,
      "Ġclaimed": 6333,
      "james": 6334,
      "oa": 6335,
      "Ġagreement": 6336,
      "Ġgiant": 6337,
      "mand": 6338,
      "1955": 6339,
      "Ġ1913": 6340,
      "Ġoperations": 6341,
      "Ġutah": 6342,
      "Ġcontact": 6343,
      "imir": 6344,
      "prime": 6345,
      "Ġguy": 6346,
      "swedish": 6347,
      "jack": 6348,
      "Ġku": 6349,
      "Ġalaska": 6350,
      "Ġoblast": 6351,
      "1946": 6352,
      "Ġveget": 6353,
      "estic": 6354,
      "discography": 6355,
      "Ġfell": 6356,
      "Ġ1915": 6357,
      "Ġcalcul": 6358,
      "Ġborders": 6359,
      "Ġresources": 6360,
      "nia": 6361,
      "Ġforests": 6362,
      "lgbt": 6363,
      "Ġbot": 6364,
      "Ġbey": 6365,
      "Ġillness": 6366,
      "Ġrenamed": 6367,
      "Ġalphabet": 6368,
      "Ġmichel": 6369,
      "leman": 6370,
      "agen": 6371,
      "Ġfemales": 6372,
      "Ġinn": 6373,
      "Ġlack": 6374,
      "Ġvik": 6375,
      "Ġcape": 6376,
      "Ġstrip": 6377,
      "Ġdim": 6378,
      "Ã¤r": 6379,
      "Ġcondition": 6380,
      "iser": 6381,
      "Ġjump": 6382,
      "Ġrober": 6383,
      "Ġeveryone": 6384,
      "Ġhosted": 6385,
      "Ġll": 6386,
      "Ġcolors": 6387,
      "1948": 6388,
      "Ġivan": 6389,
      "while": 6390,
      "Ġimmigr": 6391,
      "cyclop": 6392,
      "mag": 6393,
      "Ġdna": 6394,
      "stit": 6395,
      "Ġperman": 6396,
      "Ġresponse": 6397,
      "Ġay": 6398,
      "Ġholds": 6399,
      "Ġosc": 6400,
      "Ġandre": 6401,
      "Ġbroke": 6402,
      "Ġmars": 6403,
      "Ġunderstand": 6404,
      "uble": 6405,
      "mouth": 6406,
      "otic": 6407,
      "cles": 6408,
      "Ġgray": 6409,
      "1947": 6410,
      "Ġministry": 6411,
      "Ġgrowing": 6412,
      "Ġgallery": 6413,
      "Ġpron": 6414,
      "ords": 6415,
      "designated": 6416,
      "iya": 6417,
      "Ġmanaged": 6418,
      "Ġfra": 6419,
      "Ġlith": 6420,
      "1939": 6421,
      "Ġdefence": 6422,
      "Ġadopted": 6423,
      "Ġdatab": 6424,
      "Ġ300": 6425,
      "Ġsense": 6426,
      "Ġdesigner": 6427,
      "Ġmist": 6428,
      "Ġkon": 6429,
      "ĠĊĠ": 6430,
      "Ġarmed": 6431,
      "Ġmilan": 6432,
      "Ġrecently": 6433,
      "elli": 6434,
      "awn": 6435,
      "Ġcolony": 6436,
      "Ã©s": 6437,
      "Ġhindu": 6438,
      ")\"": 6439,
      "Ġton": 6440,
      "Ġ68": 6441,
      "Ġprepar": 6442,
      "Ã¶n": 6443,
      "Ġ1908": 6444,
      "Ġacqu": 6445,
      "Ġknowledge": 6446,
      "netic": 6447,
      "een": 6448,
      "Ġign": 6449,
      "ptoms": 6450,
      "appear": 6451,
      "Ġappearances": 6452,
      "Ã¨s": 6453,
      "Ġwrong": 6454,
      "ĠdÃ©part": 6455,
      "bean": 6456,
      "Ġtol": 6457,
      "1934": 6458,
      "1936": 6459,
      "stad": 6460,
      "Ġaisne": 6461,
      "isters": 6462,
      "Ġarchae": 6463,
      "Ġsend": 6464,
      "Ġ97": 6465,
      "Ġmelbourne": 6466,
      "Ġtail": 6467,
      "osphere": 6468,
      "Ġpassengers": 6469,
      "Ġbruce": 6470,
      "political": 6471,
      "1949": 6472,
      "Ġeconomics": 6473,
      "Ġdevice": 6474,
      "you": 6475,
      "thew": 6476,
      "Ġrecip": 6477,
      "Ġbrief": 6478,
      "Ġvlad": 6479,
      "Ġpalest": 6480,
      "president": 6481,
      "Ġsugar": 6482,
      "green": 6483,
      "Ġearthquake": 6484,
      "Ġalfred": 6485,
      "1954": 6486,
      "Ġintelligence": 6487,
      "Ġorganized": 6488,
      "ĠjosÃ©": 6489,
      "Ġjay": 6490,
      "wind": 6491,
      "atively": 6492,
      "Ġcopy": 6493,
      "dan": 6494,
      "oshi": 6495,
      "tsburgh": 6496,
      "Ġmicrosoft": 6497,
      "Ġbrun": 6498,
      "Ġnormally": 6499,
      "Ġrud": 6500,
      "Ġmetres": 6501,
      "uces": 6502,
      "Ġrepe": 6503,
      "Ġyoutube": 6504,
      "Ø§": 6505,
      "Ġdancer": 6506,
      "Ġencyclop": 6507,
      "Ġterritories": 6508,
      "Ġsemi": 6509,
      "Ġcloud": 6510,
      "premier": 6511,
      "dale": 6512,
      "Ġanna": 6513,
      "Ġpresented": 6514,
      "ibli": 6515,
      "Ġny": 6516,
      "Ġmargar": 6517,
      "Ġcoc": 6518,
      "Ġsty": 6519,
      "Ġregister": 6520,
      "Ġshah": 6521,
      "Ġadams": 6522,
      "Ġunderground": 6523,
      "Ġbrid": 6524,
      "Ġwaters": 6525,
      "mis": 6526,
      "Ġhat": 6527,
      "andy": 6528,
      "Ġprice": 6529,
      "Ġescape": 6530,
      "Ġlam": 6531,
      "Ġgon": 6532,
      "Ġelectoral": 6533,
      "Ġlists": 6534,
      "Ġmetro": 6535,
      "Ġtitles": 6536,
      "Ġplans": 6537,
      "Ġgoogle": 6538,
      "Ġfollows": 6539,
      "Ġraces": 6540,
      "Ġgulf": 6541,
      "Ġsched": 6542,
      "Ġapproxim": 6543,
      "wealth": 6544,
      "Ġreaction": 6545,
      "uador": 6546,
      "Ġspin": 6547,
      "Ġnovels": 6548,
      "Ġmaint": 6549,
      "Ġvirt": 6550,
      "Ġbann": 6551,
      "Ġrare": 6552,
      "iami": 6553,
      "Ġhands": 6554,
      "Ġnazi": 6555,
      "Ġwy": 6556,
      "||||||": 6557,
      "Ġwarm": 6558,
      "Ġrequired": 6559,
      "tes": 6560,
      "aling": 6561,
      "Ġworth": 6562,
      "Ġbarcelona": 6563,
      "but": 6564,
      "Ġdebuts": 6565,
      "Ġsouthwestern": 6566,
      "Ġfresh": 6567,
      "Ġhappy": 6568,
      "enz": 6569,
      "1933": 6570,
      "Ġscale": 6571,
      "Ġsinging": 6572,
      "Ġresc": 6573,
      "Ġ150": 6574,
      "Ġlands": 6575,
      "Ġcorrect": 6576,
      "Ġdrums": 6577,
      "Ġdanish": 6578,
      "abe": 6579,
      "Ġuniversal": 6580,
      "Ġscript": 6581,
      "Ġconstituency": 6582,
      "Ġ54": 6583,
      "Ġclean": 6584,
      "Ġdistribution": 6585,
      "Ġdangerous": 6586,
      "Ġguinea": 6587,
      "mm": 6588,
      "Ġ57": 6589,
      "Ġsed": 6590,
      "Ġuser": 6591,
      "Ã©rie": 6592,
      "Ġguest": 6593,
      "Ġfavor": 6594,
      "âĢİ": 6595,
      "phone": 6596,
      "Ġparks": 6597,
      "Ġantonio": 6598,
      "bes": 6599,
      "Ġdia": 6600,
      "Ġsimon": 6601,
      "Ġclassification": 6602,
      "jac": 6603,
      "Ġarmenian": 6604,
      "histor": 6605,
      "ÑĢ": 6606,
      "Ġbun": 6607,
      "Ġalan": 6608,
      "Ġrise": 6609,
      "rome": 6610,
      "apes": 6611,
      "low": 6612,
      "Ġsie": 6613,
      "atin": 6614,
      "Ġmagic": 6615,
      "Ġenvironmental": 6616,
      "ĠdÃ©partement": 6617,
      "Ġard": 6618,
      "Ġfailed": 6619,
      "Ġpoems": 6620,
      "Ġaccepted": 6621,
      "Ġcontrolled": 6622,
      "igenous": 6623,
      "Ġsocialist": 6624,
      "tur": 6625,
      "Ġplaywright": 6626,
      "Ġcircle": 6627,
      "eline": 6628,
      "Ġry": 6629,
      "Ġzh": 6630,
      "1942": 6631,
      "Ġdefend": 6632,
      "cat": 6633,
      "si": 6634,
      "wick": 6635,
      "Ġ71": 6636,
      "1937": 6637,
      "achi": 6638,
      "Ġpunk": 6639,
      "Ġnaval": 6640,
      "mary": 6641,
      "oster": 6642,
      "Ġcabinet": 6643,
      "Ġalcohol": 6644,
      "just": 6645,
      "enue": 6646,
      "1929": 6647,
      "Ġfemin": 6648,
      "Ġcombined": 6649,
      "Ã´ne": 6650,
      "Ġambassador": 6651,
      "joy": 6652,
      "oda": 6653,
      "ipedia": 6654,
      "Ġdiego": 6655,
      "Ġ72": 6656,
      "aho": 6657,
      "timore": 6658,
      "var": 6659,
      "Ġagreed": 6660,
      "1920": 6661,
      "Ġdogs": 6662,
      "Ġchristopher": 6663,
      "Ġpurpose": 6664,
      "Ġdy": 6665,
      "Ġ51": 6666,
      "Ġalternative": 6667,
      "oba": 6668,
      "Ġdetect": 6669,
      "Ġlion": 6670,
      "1931": 6671,
      "Ġtheater": 6672,
      "Ġadapt": 6673,
      "Ġcorps": 6674,
      "game": 6675,
      "mitted": 6676,
      "Ġraf": 6677,
      "Ġmaur": 6678,
      "1941": 6679,
      "miss": 6680,
      "Ġcrimes": 6681,
      "Ġinvasion": 6682,
      "ailand": 6683,
      "Ġoccurr": 6684,
      "Ġkev": 6685,
      "Ġofficials": 6686,
      "elve": 6687,
      "Ġchurches": 6688,
      "Ġthrone": 6689,
      "1935": 6690,
      "Ġ400": 6691,
      "Ġassass": 6692,
      "Ġdifference": 6693,
      "1952": 6694,
      "Ġflying": 6695,
      "Ġmiller": 6696,
      "Ġnas": 6697,
      "ello": 6698,
      "Ġbuff": 6699,
      "Ġcalv": 6700,
      "Ġexplos": 6701,
      "david": 6702,
      "white": 6703,
      "Ġtarget": 6704,
      "Ġapplied": 6705,
      "Ġhors": 6706,
      "Ġsales": 6707,
      "frogs": 6708,
      "Ġgrey": 6709,
      "sters": 6710,
      "Ġshell": 6711,
      "Ġlasted": 6712,
      "Ġcontinue": 6713,
      "1938": 6714,
      "uche": 6715,
      "Ġ98": 6716,
      "Ġquality": 6717,
      "Ġsweet": 6718,
      "web": 6719,
      "academ": 6720,
      "second": 6721,
      "Ġbureau": 6722,
      "Ġsain": 6723,
      "aging": 6724,
      "Ġarrondissements": 6725,
      "Ġpuerto": 6726,
      "1944": 6727,
      "Ġeverything": 6728,
      "paul": 6729,
      "incorporated": 6730,
      "Ġdebuted": 6731,
      "Ġlev": 6732,
      "ults": 6733,
      "Ġemb": 6734,
      "Ġtribut": 6735,
      "Ġcircuit": 6736,
      "Ġsymbols": 6737,
      "oro": 6738,
      "odox": 6739,
      "Ġsounds": 6740,
      "Ġsafety": 6741,
      "usalem": 6742,
      "oes": 6743,
      "Äĥ": 6744,
      "Ġpunjab": 6745,
      "was": 6746,
      "Ġlies": 6747,
      "Ġvent": 6748,
      "Ġtreas": 6749,
      "Ġjordan": 6750,
      "Ġestimated": 6751,
      "Ġhighly": 6752,
      "mund": 6753,
      "lee": 6754,
      "tha": 6755,
      "Ġorbit": 6756,
      "Ġalliance": 6757,
      "Ġdescribe": 6758,
      "Ġpersian": 6759,
      "osaurs": 6760,
      "Ġthrow": 6761,
      "ayan": 6762,
      "Ġtries": 6763,
      "Ġfaculty": 6764,
      "hattan": 6765,
      "inner": 6766,
      "Ġhouston": 6767,
      "current": 6768,
      "Ġordered": 6769,
      "Ġchoice": 6770,
      "Ġnak": 6771,
      "ffe": 6772,
      "prov": 6773,
      "Ġker": 6774,
      "Ġlibert": 6775,
      "Ġentry": 6776,
      "Ġvillages": 6777,
      "Ġfaith": 6778,
      "page": 6779,
      "entine": 6780,
      "Ġsettlement": 6781,
      "Ġthousands": 6782,
      "Ġheight": 6783,
      "Ġkarl": 6784,
      "Ġcatch": 6785,
      "Ġbirthday": 6786,
      "aj": 6787,
      "super": 6788,
      "Ġtools": 6789,
      "Ġjuan": 6790,
      "Ġcooper": 6791,
      "Ġcris": 6792,
      "Ġnovelist": 6793,
      "Ñģ": 6794,
      "Ġsave": 6795,
      "Ġpow": 6796,
      "chinese": 6797,
      "adi": 6798,
      "oyd": 6799,
      "Ġhamilton": 6800,
      "Ġiceland": 6801,
      "Ġgained": 6802,
      "akers": 6803,
      "Ġtribe": 6804,
      "Ġbenef": 6805,
      "Ġhollywood": 6806,
      "Ġcontinu": 6807,
      "anthrop": 6808,
      "Ġvas": 6809,
      "1932": 6810,
      "anny": 6811,
      "drama": 6812,
      "Ġinvented": 6813,
      "Ġ66": 6814,
      "Ġliquid": 6815,
      "Ġsure": 6816,
      "cht": 6817,
      "Ġbacteria": 6818,
      "ipment": 6819,
      "Ġreserv": 6820,
      "Ġprovides": 6821,
      "aco": 6822,
      "Ġsell": 6823,
      "atsu": 6824,
      "onomy": 6825,
      "Ġreagan": 6826,
      "ourt": 6827,
      "Ġdisp": 6828,
      "nik": 6829,
      "alle": 6830,
      "Ġnich": 6831,
      "Ġnoted": 6832,
      "uku": 6833,
      "phys": 6834,
      "Ġpays": 6835,
      "Ġlearning": 6836,
      "Ġcolombia": 6837,
      "city": 6838,
      "Ġflower": 6839,
      "Ġspeaker": 6840,
      "Ġfloor": 6841,
      "Ġshrine": 6842,
      "Ġmentioned": 6843,
      "Ġatm": 6844,
      "Ġsingh": 6845,
      "vement": 6846,
      "Ġdc": 6847,
      "Ġwhit": 6848,
      "Ġwrestlers": 6849,
      "Ġoppon": 6850,
      "1953": 6851,
      "Ġbanks": 6852,
      "Ġwelsh": 6853,
      "Ġamaz": 6854,
      "Ġrunner": 6855,
      "Ġdocumentary": 6856,
      "Ġserge": 6857,
      "Ġattention": 6858,
      "Ġpianist": 6859,
      "further": 6860,
      "Ġ43": 6861,
      "books": 6862,
      "Ġpartner": 6863,
      "Ġkw": 6864,
      "Ġharris": 6865,
      "Ġremember": 6866,
      "holm": 6867,
      "Ġmong": 6868,
      "ibbean": 6869,
      "Ġmuslims": 6870,
      "Ġdallas": 6871,
      "Ġkids": 6872,
      "clus": 6873,
      "Ġsche": 6874,
      "before": 6875,
      "Ġsomme": 6876,
      "Ġsv": 6877,
      "Ġgers": 6878,
      "Ġconcer": 6879,
      "Ġrocks": 6880,
      "Ġcounter": 6881,
      "Ġsick": 6882,
      "Ġnel": 6883,
      "utional": 6884,
      "Ġjess": 6885,
      "ocra": 6886,
      "plot": 6887,
      "Ġnom": 6888,
      "irement": 6889,
      "Ġscen": 6890,
      "Ġreality": 6891,
      "bat": 6892,
      "Ġhuge": 6893,
      "Ġchain": 6894,
      "Ġuncle": 6895,
      "iley": 6896,
      "Ġtribes": 6897,
      "wise": 6898,
      "Ġneut": 6899,
      "Ġbry": 6900,
      "Ġanthe": 6901,
      "Ġimmed": 6902,
      "Ġcalvados": 6903,
      "bad": 6904,
      "Ġscene": 6905,
      "Ġoccur": 6906,
      "Ġnegative": 6907,
      "enne": 6908,
      "Ġroger": 6909,
      "Ġwarri": 6910,
      "grand": 6911,
      "atherine": 6912,
      "Ġvirus": 6913,
      "Ġhistorians": 6914,
      "aware": 6915,
      "Ġcuba": 6916,
      "Ġpull": 6917,
      "illes": 6918,
      "bishop": 6919,
      "avel": 6920,
      "Ġmoore": 6921,
      "||||||||||||||||": 6922,
      "Ġrisk": 6923,
      "Ġgordon": 6924,
      "force": 6925,
      "Ġbour": 6926,
      "Ġleaf": 6927,
      "Ġcred": 6928,
      "Ġopposition": 6929,
      "Ġbigger": 6930,
      "Ġlearned": 6931,
      "Ġdialect": 6932,
      "Ġvideos": 6933,
      "Ġnebr": 6934,
      "Ġsynd": 6935,
      "Ġsalv": 6936,
      "Ġri": 6937,
      "Ġconver": 6938,
      "live": 6939,
      "Ġara": 6940,
      "Ġproposed": 6941,
      "Ġmoves": 6942,
      "donald": 6943,
      "bing": 6944,
      "imal": 6945,
      "Ġunique": 6946,
      "Ġski": 6947,
      "Ġstream": 6948,
      "Ġexperim": 6949,
      "Ġmolec": 6950,
      "Ġbilly": 6951,
      "Ġcreating": 6952,
      "Ġremain": 6953,
      "Ġindividuals": 6954,
      "Ġnebraska": 6955,
      "Ġphotographer": 6956,
      "300": 6957,
      "wig": 6958,
      "Ġincome": 6959,
      "Ġdetermin": 6960,
      "Ġsr": 6961,
      "Ġopposite": 6962,
      "Ġatlanta": 6963,
      "Ġinvestig": 6964,
      "ugosl": 6965,
      "Ġhell": 6966,
      "burn": 6967,
      "Ġjerusalem": 6968,
      "sr": 6969,
      "tom": 6970,
      "Ġstraight": 6971,
      "Ġvehicles": 6972,
      "loc": 6973,
      "Ġfuel": 6974,
      "Ġfan": 6975,
      "lead": 6976,
      "ffff": 6977,
      "Ġtranslated": 6978,
      "Ġparticularly": 6979,
      "Ġpear": 6980,
      "Ġdensity": 6981,
      "Ġrick": 6982,
      "Ġcycle": 6983,
      "european": 6984,
      "dise": 6985,
      "Ġau": 6986,
      "Ġtoy": 6987,
      "Ġearliest": 6988,
      "Ġghost": 6989,
      "michael": 6990,
      "enos": 6991,
      "about": 6992,
      "ession": 6993,
      "Ġ42": 6994,
      "Ġsatell": 6995,
      "ipped": 6996,
      "\"),": 6997,
      "Ġlots": 6998,
      "Ġinfluenced": 6999,
      "Ġelectricity": 7000,
      "Ġronald": 7001,
      "rix": 7002,
      "Ġjimmy": 7003,
      "Ġpok": 7004,
      "essed": 7005,
      "Ġclay": 7006,
      "Ġjobs": 7007,
      "Ġfranch": 7008,
      "Ġfranklin": 7009,
      "Ġfinnish": 7010,
      "Ġitems": 7011,
      "Ġkills": 7012,
      "Ġequipment": 7013,
      "Ġmuhammad": 7014,
      "Ġdiseases": 7015,
      "'re": 7016,
      "igo": 7017,
      "1926": 7018,
      "Ġidentity": 7019,
      "ivor": 7020,
      "olo": 7021,
      "Ġteaching": 7022,
      "Ġphone": 7023,
      "original": 7024,
      "eing": 7025,
      "Ġending": 7026,
      "Ġextended": 7027,
      "Ġsymptoms": 7028,
      "Ġkevin": 7029,
      "uits": 7030,
      "usa": 7031,
      "Ġpositions": 7032,
      "Ġgalaxy": 7033,
      "Ġacted": 7034,
      "Ġlaur": 7035,
      "Ġclassic": 7036,
      "Ġflowers": 7037,
      "Ġmunich": 7038,
      "Ġorthodox": 7039,
      "Ġ121": 7040,
      "Ġtwelve": 7041,
      "Ġformerly": 7042,
      "somet": 7043,
      "Ġyor": 7044,
      "Ġexc": 7045,
      "Ġtrail": 7046,
      "Å¡n": 7047,
      "Ġcleveland": 7048,
      "Ġwien": 7049,
      "Ġpel": 7050,
      "Ġbrig": 7051,
      "Ġcarter": 7052,
      "Ġdatabase": 7053,
      "hero": 7054,
      "eva": 7055,
      "Ġpeters": 7056,
      "Ġpy": 7057,
      "Ġpersonnel": 7058,
      "Ġrussell": 7059,
      "1943": 7060,
      "production": 7061,
      "night": 7062,
      "Ġdre": 7063,
      "Ġdates": 7064,
      "anton": 7065,
      "1928": 7066,
      "Ġ59": 7067,
      "aza": 7068,
      "Ġbiology": 7069,
      "zi": 7070,
      "Ġsens": 7071,
      "Ġcontem": 7072,
      "Ġecuador": 7073,
      "Ġottoman": 7074,
      "à¥": 7075,
      "Ġgam": 7076,
      "colle": 7077,
      "Ġparam": 7078,
      "Ġcryst": 7079,
      "rus": 7080,
      "Ġbehavior": 7081,
      "named": 7082,
      "Ã«": 7083,
      "Ġhawaii": 7084,
      "Ġ1907": 7085,
      "Ġviolence": 7086,
      "ogue": 7087,
      "Ġperu": 7088,
      "Ġinjured": 7089,
      "Ġpromoted": 7090,
      "Ġsets": 7091,
      "Ġbegin": 7092,
      "Ġspider": 7093,
      "Ġnothing": 7094,
      "Ġcore": 7095,
      "Ġalger": 7096,
      "Ġanything": 7097,
      "Ġfrederick": 7098,
      "Ġgib": 7099,
      "Ġbaron": 7100,
      "Ġmilk": 7101,
      "Ġnomination": 7102,
      "tit": 7103,
      "arn": 7104,
      "obi": 7105,
      "Ġrif": 7106,
      "Ġarn": 7107,
      "sea": 7108,
      "Ġgenetic": 7109,
      "Ġpair": 7110,
      "Ġconsum": 7111,
      "who": 7112,
      "Ġom": 7113,
      "Ġproductions": 7114,
      "Ġluxemb": 7115,
      "Ġcem": 7116,
      "Ġlang": 7117,
      "ovich": 7118,
      "Ġphill": 7119,
      "Ġpurple": 7120,
      "sam": 7121,
      "Ġhope": 7122,
      "Ġpartners": 7123,
      "Ġzo": 7124,
      "ailed": 7125,
      "Ġaffected": 7126,
      "1927": 7127,
      "Ġcompar": 7128,
      "Ġ94": 7129,
      "Ġtrav": 7130,
      "boy": 7131,
      "Ġlakes": 7132,
      "Ġqueensland": 7133,
      "ocracy": 7134,
      "ancell": 7135,
      "Ġ1906": 7136,
      "Ġmaps": 7137,
      "heimer": 7138,
      "zer": 7139,
      "udio": 7140,
      "Ġdecor": 7141,
      "Ġtrophy": 7142,
      "Ġselection": 7143,
      "Ġinspired": 7144,
      "gh": 7145,
      "Ġplus": 7146,
      "Ġengines": 7147,
      "oir": 7148,
      "Ġ99": 7149,
      "Ġdidn": 7150,
      "Ġrevealed": 7151,
      "Ġtorn": 7152,
      "Ġpatri": 7153,
      "Ġresistance": 7154,
      "arts": 7155,
      "Ġcardinal": 7156,
      "Ġhiro": 7157,
      "ctic": 7158,
      "Ġcommonwealth": 7159,
      "Ġmanhattan": 7160,
      "Ġoccurs": 7161,
      "itter": 7162,
      "asian": 7163,
      "omers": 7164,
      "ĠsÃ£o": 7165,
      "enix": 7166,
      "Ġstayed": 7167,
      "ike": 7168,
      "jamin": 7169,
      "uins": 7170,
      "Ġ140": 7171,
      "Ġlink": 7172,
      "Ġade": 7173,
      "gun": 7174,
      "Ġhid": 7175,
      "ouver": 7176,
      "Ġadults": 7177,
      "hex": 7178,
      "Ġarc": 7179,
      "Ġseem": 7180,
      "Ġ1903": 7181,
      "Ġ1905": 7182,
      "Ġseventh": 7183,
      "big": 7184,
      "lou": 7185,
      "Ġactions": 7186,
      "Ġeric": 7187,
      "Ġperfect": 7188,
      "Ġtechnical": 7189,
      "Ġapproximately": 7190,
      "nn": 7191,
      "Ġfine": 7192,
      "Ġorient": 7193,
      "Ġholland": 7194,
      "Ġthailand": 7195,
      "Ġextrem": 7196,
      "Ġfeaturing": 7197,
      "Ġparticipated": 7198,
      "brew": 7199,
      "pen": 7200,
      "1901": 7201,
      "Ġadvert": 7202,
      "Ġcolumn": 7203,
      "Ġdefined": 7204,
      "Ġlegislative": 7205,
      "Ġreserve": 7206,
      "Ġtrin": 7207,
      "xual": 7208,
      "Ġanat": 7209,
      "Ġheard": 7210,
      "Ġreference": 7211,
      "Ġdisorder": 7212,
      "Ġappe": 7213,
      "Ã¥n": 7214,
      "Ġadventures": 7215,
      "Ġemergency": 7216,
      "Ġdoor": 7217,
      "george": 7218,
      "phe": 7219,
      "imed": 7220,
      "Ġ1909": 7221,
      "Ġunlike": 7222,
      "apolis": 7223,
      "Ġbroken": 7224,
      "Ġresidents": 7225,
      "Ġsalzburg": 7226,
      "illo": 7227,
      "resp": 7228,
      "Ġchristians": 7229,
      "gs": 7230,
      "haus": 7231,
      "Ġjerry": 7232,
      "Ġnigeria": 7233,
      "Ġvic": 7234,
      "Ġcoron": 7235,
      "Ġinfant": 7236,
      "esh": 7237,
      "ario": 7238,
      "Ġdedicated": 7239,
      "Ġillegal": 7240,
      "come": 7241,
      "Ġmargaret": 7242,
      "Ġbath": 7243,
      "Ġprior": 7244,
      "Ġjoint": 7245,
      "Ġtypically": 7246,
      "Ġdiamond": 7247,
      "Ġlanc": 7248,
      "Ġdram": 7249,
      "Ġruler": 7250,
      "mexican": 7251,
      "idency": 7252,
      "htt": 7253,
      "Ġwalls": 7254,
      "Ġthick": 7255,
      "Ġsecondary": 7256,
      "Ġ1901": 7257,
      "Ġnfl": 7258,
      "eless": 7259,
      "Ġedit": 7260,
      "Ġmoroc": 7261,
      "Ġrhyth": 7262,
      "companies": 7263,
      "Ġmental": 7264,
      "erse": 7265,
      "cott": 7266,
      "Ġreprod": 7267,
      "Ġcongressional": 7268,
      "Ġclothing": 7269,
      "Ġkashmir": 7270,
      "Ġchance": 7271,
      "vision": 7272,
      "Ġhurt": 7273,
      "ĠâĢĺ": 7274,
      "Ġhyp": 7275,
      "Ġballet": 7276,
      "Ġarmenia": 7277,
      "Ġwikipedia": 7278,
      "hung": 7279,
      "Ġ41": 7280,
      "ordin": 7281,
      "Ġtraffic": 7282,
      "Ġoperated": 7283,
      "Ġwonder": 7284,
      "Ġmiami": 7285,
      "Ġzoo": 7286,
      "Ġslight": 7287,
      "Ãł": 7288,
      "style": 7289,
      "Ġseg": 7290,
      "ancouver": 7291,
      "Ġroads": 7292,
      "Ġrobinson": 7293,
      "women": 7294,
      "Ġgriff": 7295,
      "Ġpublishing": 7296,
      "Ġ122": 7297,
      "Ġshir": 7298,
      "Ġpatients": 7299,
      "los": 7300,
      "rob": 7301,
      "presents": 7302,
      "Ġremaining": 7303,
      "Ġbroadcasting": 7304,
      "Ġrevolutionary": 7305,
      "Ġspot": 7306,
      "Ġliterary": 7307,
      "aceous": 7308,
      "Ġdick": 7309,
      "ilia": 7310,
      "oku": 7311,
      "oor": 7312,
      "Ġformation": 7313,
      "Ġagriculture": 7314,
      "Ġsurgery": 7315,
      "four": 7316,
      "alan": 7317,
      "urer": 7318,
      "Ġrebell": 7319,
      "Ġonto": 7320,
      "Ġrough": 7321,
      "sis": 7322,
      "inian": 7323,
      "Ġadvance": 7324,
      "called": 7325,
      "Ġgender": 7326,
      "Ġliked": 7327,
      "Ġexplorer": 7328,
      "bill": 7329,
      "iders": 7330,
      "Ġinsects": 7331,
      "sum": 7332,
      "Ġrepresents": 7333,
      "Ġ63": 7334,
      "Ġeconomist": 7335,
      "Ġsymph": 7336,
      "sir": 7337,
      "Ġwet": 7338,
      "Ġmonte": 7339,
      "Ġvehicle": 7340,
      "Ġneuro": 7341,
      "Ġnarr": 7342,
      "fr": 7343,
      "urray": 7344,
      "Ġpersonalities": 7345,
      "Ġmatt": 7346,
      "Ġreflect": 7347,
      "Ġseparated": 7348,
      "Ġcandidates": 7349,
      "cro": 7350,
      "far": 7351,
      "Ġrice": 7352,
      "lotte": 7353,
      "final": 7354,
      "Ġovers": 7355,
      "Ġmall": 7356,
      "Ġboat": 7357,
      "ivia": 7358,
      "1925": 7359,
      "Ġvisual": 7360,
      "Ġadvanced": 7361,
      "Ġcodes": 7362,
      "Ġcarn": 7363,
      "Ġ107": 7364,
      "Ġdivers": 7365,
      "ivan": 7366,
      "uba": 7367,
      "Ġens": 7368,
      "Ġresigned": 7369,
      "scott": 7370,
      "umbent": 7371,
      "Ġcous": 7372,
      "agues": 7373,
      "ichi": 7374,
      "Ġnorman": 7375,
      "Ġgef": 7376,
      "oria": 7377,
      "Ġmigr": 7378,
      "Ġcosta": 7379,
      "hop": 7380,
      "Ġcheck": 7381,
      "Ġaudio": 7382,
      "room": 7383,
      "Ġdomestic": 7384,
      "Ġshared": 7385,
      "ĠÎ": 7386,
      "Ġsul": 7387,
      "Ġproperties": 7388,
      "ĠÂ£": 7389,
      "omot": 7390,
      "standing": 7391,
      "emen": 7392,
      "Ġfunctions": 7393,
      "mass": 7394,
      "uties": 7395,
      "Ġteach": 7396,
      "polish": 7397,
      "Ġvictims": 7398,
      "Ġsaxony": 7399,
      "ido": 7400,
      "etime": 7401,
      "ultan": 7402,
      "Ġshortly": 7403,
      "Ġnumerous": 7404,
      "hors": 7405,
      "iations": 7406,
      "pret": 7407,
      "Ġnecess": 7408,
      "Ġteeth": 7409,
      "Ġmovements": 7410,
      "unc": 7411,
      "Ġkra": 7412,
      "othy": 7413,
      "Ġjohnny": 7414,
      "Ġig": 7415,
      "Ġsusp": 7416,
      "Ġjacob": 7417,
      "Ġobt": 7418,
      "Ġmoment": 7419,
      "leton": 7420,
      "Ġtitled": 7421,
      "Ġconsider": 7422,
      "pas": 7423,
      "Ġlav": 7424,
      "Ġsafe": 7425,
      "Ġvalues": 7426,
      "Ġarrived": 7427,
      "Ġdir": 7428,
      "cho": 7429,
      "itis": 7430,
      "Ġnut": 7431,
      "Ġaires": 7432,
      "ais": 7433,
      "aug": 7434,
      "Ġthro": 7435,
      "uka": 7436,
      "Ġclark": 7437,
      "Ġdh": 7438,
      "Ġcaribbean": 7439,
      "rum": 7440,
      "omas": 7441,
      "ifying": 7442,
      "],": 7443,
      "Ġ1800": 7444,
      "chel": 7445,
      "Ġpaulo": 7446,
      "education": 7447,
      "Ġpurch": 7448,
      "izu": 7449,
      "Ġperforming": 7450,
      "isha": 7451,
      "Ġnev": 7452,
      "Ġshall": 7453,
      "Ġstrength": 7454,
      "Ġfab": 7455,
      "Ġpregn": 7456,
      "cia": 7457,
      "ÑĤ": 7458,
      "Ġmedium": 7459,
      "Ġfinds": 7460,
      "tan": 7461,
      "Ġwinds": 7462,
      "Ġfossil": 7463,
      "Ġchlor": 7464,
      "plement": 7465,
      "Ġpresenter": 7466,
      "ranean": 7467,
      "Ġpercy": 7468,
      "ente": 7469,
      "Ġvit": 7470,
      "obiles": 7471,
      "Ġheavyweight": 7472,
      "Ġpittsburgh": 7473,
      "Ġsuffered": 7474,
      "Ãª": 7475,
      "Ġrevol": 7476,
      "Ġarabic": 7477,
      "Ġ1904": 7478,
      "Ġsitcom": 7479,
      "districts": 7480,
      "Ġintegr": 7481,
      "Ġshad": 7482,
      "Ġmatthew": 7483,
      "berry": 7484,
      "ĊĊĠĠĠ": 7485,
      "incial": 7486,
      "Ġcollabor": 7487,
      "Ġsunday": 7488,
      "wich": 7489,
      "otes": 7490,
      "Ġdivorced": 7491,
      "Ġbundesliga": 7492,
      "Ġpus": 7493,
      "population": 7494,
      "Ġmalaysia": 7495,
      "post": 7496,
      "prise": 7497,
      "itei": 7498,
      "Ġphysician": 7499,
      "Ġcarlos": 7500,
      "wald": 7501,
      "Ġpeng": 7502,
      "Ġpreserv": 7503,
      "Ġbutter": 7504,
      "ahl": 7505,
      "Ġdave": 7506,
      "Ġwol": 7507,
      "cs": 7508,
      "Ġlan": 7509,
      "py": 7510,
      "assic": 7511,
      "idelberg": 7512,
      "400": 7513,
      "nij": 7514,
      "Ġboss": 7515,
      "Ġexpected": 7516,
      "Ġfeed": 7517,
      "Ġexecuted": 7518,
      "songwriters": 7519,
      "Ġcrop": 7520,
      "Ġrav": 7521,
      "ivals": 7522,
      "Ġpradesh": 7523,
      "Ġshowing": 7524,
      "Ġromance": 7525,
      "Ġdivisions": 7526,
      "western": 7527,
      "Ġcritical": 7528,
      "Ġsamuel": 7529,
      "Ġhomes": 7530,
      "isation": 7531,
      "christian": 7532,
      "civil": 7533,
      "ously": 7534,
      "Ġrowspan": 7535,
      "Ġmouse": 7536,
      "olia": 7537,
      "Ġheaven": 7538,
      "jun": 7539,
      "Ġum": 7540,
      "Ġmeat": 7541,
      "Ġdemonstr": 7542,
      "Ġdvd": 7543,
      "Ġsenators": 7544,
      "Ġcemet": 7545,
      "Ġsoil": 7546,
      "Ġleadership": 7547,
      "ieval": 7548,
      "owski": 7549,
      "Ġprojects": 7550,
      "Ġcausing": 7551,
      "Ġgrav": 7552,
      "Ġconvicted": 7553,
      "Ġheav": 7554,
      "Ġspy": 7555,
      "Ġwag": 7556,
      "Ġinfection": 7557,
      "gov": 7558,
      "maker": 7559,
      "Ġcemetery": 7560,
      "Ġpoison": 7561,
      "Ġmontana": 7562,
      "borough": 7563,
      "iable": 7564,
      "Ġsupply": 7565,
      "mine": 7566,
      "oty": 7567,
      "Ġheidelberg": 7568,
      "Ġrear": 7569,
[...]
