{
  "version": "1.0",
  "truncation": null,
  "padding": null,
  "added_tokens": [
    {
      "id": 0,
      "content": "<|----|>",
      "single_word": false,
      "lstrip": false,
      "rstrip": false,
      "normalized": false,
      "special": true
    },
    {
      "id": 1,
      "content": "<|//|>",
      "single_word": false,
      "lstrip": false,
      "rstrip": false,
      "normalized": false,
      "special": true
    },
    {
      "id": 2,
      "content": "<|tokipona:>",
      "single_word": false,
      "lstrip": false,
      "rstrip": false,
      "normalized": false,
      "special": true
    },
    {
      "id": 3,
      "content": "<|english:>",
      "single_word": false,
      "lstrip": false,
      "rstrip": false,
      "normalized": false,
      "special": true
    },
    {
      "id": 4,
      "content": "</english:>",
      "single_word": false,
      "lstrip": false,
      "rstrip": false,
      "normalized": false,
      "special": true
    },
    {
      "id": 5,
      "content": "</tokipona:>",
      "single_word": false,
      "lstrip": false,
      "rstrip": false,
      "normalized": false,
      "special": true
    },
    {
      "id": 6,
      "content": "<|lq:>",
      "single_word": false,
      "lstrip": false,
      "rstrip": false,
      "normalized": false,
      "special": true
    },
    {
      "id": 7,
      "content": "<:lq|>",
      "single_word": false,
      "lstrip": false,
      "rstrip": false,
      "normalized": false,
      "special": true
    },
    {
      "id": 8,
      "content": "<|hq:>",
      "single_word": false,
      "lstrip": false,
      "rstrip": false,
      "normalized": false,
      "special": true
    },
    {
      "id": 9,
      "content": "<:hq|>",
      "single_word": false,
      "lstrip": false,
      "rstrip": false,
      "normalized": false,
      "special": true
    },
    {
      "id": 10,
      "content": "<|!:>",
      "single_word": false,
      "lstrip": false,
      "rstrip": false,
      "normalized": false,
      "special": true
    },
    {
      "id": 11,
      "content": "<:!|>",
      "single_word": false,
      "lstrip": false,
      "rstrip": false,
      "normalized": false,
      "special": true
    },
    {
      "id": 12,
      "content": "<|?:>",
      "single_word": false,
      "lstrip": false,
      "rstrip": false,
      "normalized": false,
      "special": true
    },
    {
      "id": 13,
      "content": "<:?|>",
      "single_word": false,
      "lstrip": false,
      "rstrip": false,
      "normalized": false,
      "special": true
    },
    {
      "id": 14,
      "content": "<|*:>",
      "single_word": false,
      "lstrip": false,
      "rstrip": false,
      "normalized": false,
      "special": true
    },
    {
      "id": 15,
      "content": "<:*|>",
      "single_word": false,
      "lstrip": false,
      "rstrip": false,
      "normalized": false,
      "special": true
    },
    {
      "id": 16,
      "content": "<|-:>",
      "single_word": false,
      "lstrip": false,
      "rstrip": false,
      "normalized": false,
      "special": true
    },
    {
      "id": 17,
      "content": "<:-|>",
      "single_word": false,
      "lstrip": false,
      "rstrip": false,
      "normalized": false,
      "special": true
    },
    {
      "id": 18,
      "content": "<|=:>",
      "single_word": false,
      "lstrip": false,
      "rstrip": false,
      "normalized": false,
      "special": true
    },
    {
      "id": 19,
      "content": "<:=|>",
      "single_word": false,
      "lstrip": false,
      "rstrip": false,
      "normalized": false,
      "special": true
    },
    {
      "id": 20,
      "content": "<|/:>",
      "single_word": false,
      "lstrip": false,
      "rstrip": false,
      "normalized": false,
      "special": true
    },
    {
      "id": 21,
      "content": "<:/|>",
      "single_word": false,
      "lstrip": false,
      "rstrip": false,
      "normalized": false,
      "special": true
    },
    {
      "id": 22,
      "content": "<|@:>",
      "single_word": false,
      "lstrip": false,
      "rstrip": false,
      "normalized": false,
      "special": true
    },
    {
      "id": 23,
      "content": "<:@|>",
      "single_word": false,
      "lstrip": false,
      "rstrip": false,
      "normalized": false,
      "special": true
    },
    {
      "id": 24,
      "content": "<|reject|>",
      "single_word": false,
      "lstrip": false,
      "rstrip": false,
      "normalized": false,
      "special": true
    },
    {
      "id": 25,
      "content": "<|think|>",
      "single_word": false,
      "lstrip": false,
      "rstrip": false,
      "normalized": false,
      "special": true
    },
    {
      "id": 26,
      "content": "<|p7|>",
      "single_word": false,
      "lstrip": false,
      "rstrip": false,
      "normalized": false,
      "special": true
    },
    {
      "id": 27,
      "content": "<|p6|>",
      "single_word": false,
      "lstrip": false,
      "rstrip": false,
      "normalized": false,
      "special": true
    },
    {
      "id": 28,
      "content": "<|p5|>",
      "single_word": false,
      "lstrip": false,
      "rstrip": false,
      "normalized": false,
      "special": true
    },
    {
      "id": 29,
      "content": "<|p4|>",
      "single_word": false,
      "lstrip": false,
      "rstrip": false,
      "normalized": false,
      "special": true
    },
    {
      "id": 30,
      "content": "<|p3|>",
      "single_word": false,
      "lstrip": false,
      "rstrip": false,
      "normalized": false,
      "special": true
    },
    {
      "id": 31,
      "content": "<|p2|>",
      "single_word": false,
      "lstrip": false,
      "rstrip": false,
      "normalized": false,
      "special": true
    },
    {
      "id": 32,
      "content": "<|p1|>",
      "single_word": false,
      "lstrip": false,
      "rstrip": false,
      "normalized": false,
      "special": true
    },
    {
      "id": 33,
      "content": "<|p0|>",
      "single_word": false,
      "lstrip": false,
      "rstrip": false,
      "normalized": false,
      "special": true
    },
    {
      "id": 34,
      "content": "<|reserved0|>",
      "single_word": false,
      "lstrip": false,
      "rstrip": false,
      "normalized": false,
      "special": true
    },
    {
      "id": 35,
      "content": "<|reserved1|>",
      "single_word": false,
      "lstrip": false,
      "rstrip": false,
      "normalized": false,
      "special": true
    },
    {
      "id": 36,
      "content": "<|reserved2|>",
      "single_word": false,
      "lstrip": false,
      "rstrip": false,
      "normalized": false,
      "special": true
    },
    {
      "id": 37,
      "content": "<|reserved3|>",
      "single_word": false,
      "lstrip": false,
      "rstrip": false,
      "normalized": false,
      "special": true
    },
    {
      "id": 38,
      "content": "<|reserved4|>",
      "single_word": false,
      "lstrip": false,
      "rstrip": false,
      "normalized": false,
      "special": true
    },
    {
      "id": 39,
      "content": "<|reserved5|>",
      "single_word": false,
      "lstrip": false,
      "rstrip": false,
      "normalized": false,
      "special": true
    },
    {
      "id": 40,
      "content": "<|reserved6|>",
      "single_word": false,
      "lstrip": false,
      "rstrip": false,
      "normalized": false,
      "special": true
    },
    {
      "id": 41,
      "content": "<|reserved7|>",
      "single_word": false,
      "lstrip": false,
      "rstrip": false,
      "normalized": false,
      "special": true
    }
  ],
  "normalizer": null,
  "pre_tokenizer": {
    "type": "ByteLevel",
    "add_prefix_space": false,
    "trim_offsets": true,
    "use_regex": true
  },
  "post_processor": {
    "type": "ByteLevel",
    "add_prefix_space": true,
    "trim_offsets": false,
    "use_regex": true
  },
  "decoder": {
    "type": "ByteLevel",
    "add_prefix_space": true,
    "trim_offsets": true,
    "use_regex": true
  },
  "model": {
    "type": "BPE",
    "dropout": null,
    "unk_token": null,
    "continuing_subword_prefix": null,
    "end_of_word_suffix": null,
    "fuse_unk": false,
    "byte_fallback": false,
    "ignore_merges": false,
    "vocab": {
      "<|----|>": 0,
      "<|//|>": 1,
      "<|tokipona:>": 2,
      "<|english:>": 3,
      "</english:>": 4,
      "</tokipona:>": 5,
      "<|lq:>": 6,
      "<:lq|>": 7,
      "<|hq:>": 8,
      "<:hq|>": 9,
      "<|!:>": 10,
      "<:!|>": 11,
      "<|?:>": 12,
      "<:?|>": 13,
      "<|*:>": 14,
      "<:*|>": 15,
      "<|-:>": 16,
      "<:-|>": 17,
      "<|=:>": 18,
      "<:=|>": 19,
      "<|/:>": 20,
      "<:/|>": 21,
      "<|@:>": 22,
      "<:@|>": 23,
      "<|reject|>": 24,
      "<|think|>": 25,
      "<|p7|>": 26,
      "<|p6|>": 27,
      "<|p5|>": 28,
      "<|p4|>": 29,
      "<|p3|>": 30,
      "<|p2|>": 31,
      "<|p1|>": 32,
      "<|p0|>": 33,
      "<|reserved0|>": 34,
      "<|reserved1|>": 35,
      "<|reserved2|>": 36,
      "<|reserved3|>": 37,
      "<|reserved4|>": 38,
      "<|reserved5|>": 39,
      "<|reserved6|>": 40,
      "<|reserved7|>": 41,
      "!": 42,
      "\"": 43,
      "#": 44,
      "$": 45,
      "%": 46,
      "&": 47,
      "'": 48,
      "(": 49,
      ")": 50,
      "*": 51,
      "+": 52,
      ",": 53,
      "-": 54,
      ".": 55,
      "/": 56,
      "0": 57,
      "1": 58,
      "2": 59,
      "3": 60,
      "4": 61,
      "5": 62,
      "6": 63,
      "7": 64,
      "8": 65,
      "9": 66,
      ":": 67,
      ";": 68,
      "<": 69,
      "=": 70,
      ">": 71,
      "?": 72,
      "@": 73,
      "A": 74,
      "B": 75,
      "C": 76,
      "D": 77,
      "E": 78,
      "F": 79,
      "G": 80,
      "H": 81,
      "I": 82,
      "J": 83,
      "K": 84,
      "L": 85,
      "M": 86,
      "N": 87,
      "O": 88,
      "P": 89,
      "Q": 90,
      "R": 91,
      "S": 92,
      "T": 93,
      "U": 94,
      "V": 95,
      "W": 96,
      "X": 97,
      "Y": 98,
      "Z": 99,
      "[": 100,
      "\\": 101,
      "]": 102,
      "^": 103,
      "_": 104,
      "`": 105,
      "a": 106,
      "b": 107,
      "c": 108,
      "d": 109,
      "e": 110,
      "f": 111,
      "g": 112,
      "h": 113,
      "i": 114,
      "j": 115,
      "k": 116,
      "l": 117,
      "m": 118,
      "n": 119,
      "o": 120,
      "p": 121,
      "q": 122,
      "r": 123,
      "s": 124,
      "t": 125,
      "u": 126,
      "v": 127,
      "w": 128,
      "x": 129,
      "y": 130,
      "z": 131,
      "{": 132,
      "|": 133,
      "}": 134,
      "~": 135,
      "¡": 136,
      "¢": 137,
      "£": 138,
      "¤": 139,
      "¥": 140,
      "¦": 141,
      "§": 142,
      "¨": 143,
      "©": 144,
      "ª": 145,
      "«": 146,
      "¬": 147,
      "®": 148,
      "¯": 149,
      "°": 150,
      "±": 151,
      "²": 152,
      "³": 153,
      "´": 154,
      "µ": 155,
      "¶": 156,
      "·": 157,
      "¸": 158,
      "¹": 159,
      "º": 160,
      "»": 161,
      "¼": 162,
      "½": 163,
      "¾": 164,
      "¿": 165,
      "À": 166,
      "Á": 167,
      "Â": 168,
      "Ã": 169,
      "Ä": 170,
      "Å": 171,
      "Æ": 172,
      "Ç": 173,
      "È": 174,
      "É": 175,
      "Ê": 176,
      "Ë": 177,
      "Ì": 178,
      "Í": 179,
      "Î": 180,
      "Ï": 181,
      "Ð": 182,
      "Ñ": 183,
      "Ò": 184,
      "Ó": 185,
      "Ô": 186,
      "Õ": 187,
      "Ö": 188,
      "×": 189,
      "Ø": 190,
      "Ù": 191,
      "Ú": 192,
      "Û": 193,
      "Ü": 194,
      "Ý": 195,
      "Þ": 196,
      "ß": 197,
      "à": 198,
      "á": 199,
      "â": 200,
      "ã": 201,
      "ä": 202,
      "å": 203,
      "æ": 204,
      "ç": 205,
      "è": 206,
      "é": 207,
      "ê": 208,
      "ë": 209,
      "ì": 210,
      "í": 211,
      "î": 212,
      "ï": 213,
      "ð": 214,
      "ñ": 215,
      "ò": 216,
      "ó": 217,
      "ô": 218,
      "õ": 219,
      "ö": 220,
      "÷": 221,
      "ø": 222,
      "ù": 223,
      "ú": 224,
      "û": 225,
      "ü": 226,
      "ý": 227,
      "þ": 228,
      "ÿ": 229,
      "Ā": 230,
      "ā": 231,
      "Ă": 232,
      "ă": 233,
      "Ą": 234,
      "ą": 235,
      "Ć": 236,
      "ć": 237,
      "Ĉ": 238,
      "ĉ": 239,
      "Ċ": 240,
      "ċ": 241,
      "Č": 242,
      "č": 243,
      "Ď": 244,
      "ď": 245,
      "Đ": 246,
      "đ": 247,
      "Ē": 248,
      "ē": 249,
      "Ĕ": 250,
      "ĕ": 251,
      "Ė": 252,
      "ė": 253,
      "Ę": 254,
      "ę": 255,
      "Ě": 256,
      "ě": 257,
      "Ĝ": 258,
      "ĝ": 259,
      "Ğ": 260,
      "ğ": 261,
      "Ġ": 262,
      "ġ": 263,
      "Ģ": 264,
      "ģ": 265,
      "Ĥ": 266,
      "ĥ": 267,
      "Ħ": 268,
      "ħ": 269,
      "Ĩ": 270,
      "ĩ": 271,
      "Ī": 272,
      "ī": 273,
      "Ĭ": 274,
      "ĭ": 275,
      "Į": 276,
      "į": 277,
      "İ": 278,
      "ı": 279,
      "Ĳ": 280,
      "ĳ": 281,
      "Ĵ": 282,
      "ĵ": 283,
      "Ķ": 284,
      "ķ": 285,
      "ĸ": 286,
      "Ĺ": 287,
      "ĺ": 288,
      "Ļ": 289,
      "ļ": 290,
      "Ľ": 291,
      "ľ": 292,
      "Ŀ": 293,
      "ŀ": 294,
      "Ł": 295,
      "ł": 296,
      "Ń": 297,
      "Ġt": 298,
      "Ġa": 299,
      "he": 300,
      "in": 301,
      "Ġthe": 302,
      "Ġo": 303,
      "re": 304,
      "Ġs": 305,
      "er": 306,
      "is": 307,
      "on": 308,
      "Ġw": 309,
      "Ġc": 310,
      "at": 311,
      "en": 312,
      "it": 313,
      "an": 314,
      "Ġp": 315,
      "Ġf": 316,
      "Ġb": 317,
      "or": 318,
      "ed": 319,
      "Ġin": 320,
      "es": 321,
      "al": 322,
      "Ġm": 323,
      "Ġof": 324,
      "Ġan": 325,
      "ar": 326,
      "as": 327,
      "ro": 328,
      "Ġd": 329,
      "Ġand": 330,
      "ic": 331,
      "ion": 332,
      "Ġl": 333,
      "Ġto": 334,
      "Ġh": 335,
      "Ġis": 336,
      "ing": 337,
      "Ġn": 338,
      "ou": 339,
      "le": 340,
      "Ġg": 341,
      "Ġth": 342,
      "Ġ1": 343,
      "ent": 344,
      "us": 345,
      "Ġe": 346,
      "Ġre": 347,
      "am": 348,
      "om": 349,
      "il": 350,
      "Ġon": 351,
      "ct": 352,
      "Ġ2": 353,
      "Ġit": 354,
      "Ġbe": 355,
      "ve": 356,
      "Ġwas": 357,
      "ol": 358,
      "st": 359,
      "the": 360,
      "Ġfor": 361,
      "un": 362,
      "ation": 363,
      "ig": 364,
      "Ġst": 365,
      "ot": 366,
      "id": 367,
      "ad": 368,
      "et": 369,
      "ly": 370,
      "ce": 371,
      "ch": 372,
      "ay": 373,
      "Ġhe": 374,
      "ut": 375,
      "ver": 376,
      "Ġ20": 377,
      "Ġ(": 378,
      "im": 379,
      "ow": 380,
      "Ġal": 381,
      "ur": 382,
      "th": 383,
      "Ġfro": 384,
      "el": 385,
      "ul": 386,
      "Ġas": 387,
      "Ġr": 388,
      "Ġ19": 389,
      "ir": 390,
      "Ġse": 391,
      "op": 392,
      "ter": 393,
      "Ġy": 394,
      "Ġj": 395,
      "um": 396,
      "Ġby": 397,
      "Ġare": 398,
      "and": 399,
      "Ġthat": 400,
      "Ġfrom": 401,
      "ith": 402,
      "ag": 403,
      "if": 404,
      "ist": 405,
      "se": 406,
      "Âł": 407,
      "Ġv": 408,
      "Ġk": 409,
      "Ġwith": 410,
      "Ġmo": 411,
      "Ġat": 412,
      "ra": 413,
      "Ġcom": 414,
      "Ġde": 415,
      "ere": 416,
      "Ġch": 417,
      "ri": 418,
      "Ġcon": 419,
      "Ġwh": 420,
      "ber": 421,
      "ac": 422,
      "est": 423,
      "Ġor": 424,
      "art": 425,
      "Ġun": 426,
      "Ġpl": 427,
      "Ġpro": 428,
      "qu": 429,
      "Ġthis": 430,
      "iv": 431,
      "all": 432,
      "ia": 433,
      "em": 434,
      "up": 435,
      "Ġne": 436,
      "ld": 437,
      "oun": 438,
      "ity": 439,
      "ate": 440,
      "res": 441,
      "ub": 442,
      "âĢ": 443,
      "oc": 444,
      "ab": 445,
      "ers": 446,
      "igh": 447,
      "Ġus": 448,
      "ther": 449,
      "ies": 450,
      "pe": 451,
      "ain": 452,
      "ill": 453,
      "'s": 454,
      "od": 455,
      "Ġle": 456,
      "ian": 457,
      "ud": 458,
      "os": 459,
      "ĊĠ": 460,
      "ak": 461,
      "ort": 462,
      "og": 463,
      "end": 464,
      "Ġha": 465,
      "00": 466,
      "ment": 467,
      "Ġ201": 468,
      "Ġnot": 469,
      "Ġex": 470,
      "Ġwor": 471,
      "our": 472,
      "Ġhas": 473,
      "ame": 474,
      "ant": 475,
      "Ġsh": 476,
      "ive": 477,
      "ust": 478,
      "ated": 479,
      "ary": 480,
      "so": 481,
      "ich": 482,
      "ction": 483,
      "Ġro": 484,
      "Ġcan": 485,
      "Ġ200": 486,
      "ong": 487,
      "ip": 488,
      "ap": 489,
      "Ġ\"": 490,
      "Ġab": 491,
      "ang": 492,
      "Ġhave": 493,
      "ast": 494,
      "ial": 495,
      "Ġ3": 496,
      "ure": 497,
      "Ġad": 498,
      "Ġpe": 499,
      "Ġone": 500,
      "ight": 501,
      "ie": 502,
      "Ġalso": 503,
      "ide": 504,
      "ess": 505,
      "ug": 506,
      "age": 507,
      "ical": 508,
      "Ġcomp": 509,
      "are": 510,
      "Ġte": 511,
      "Ġgo": 512,
      "ore": 513,
      "Ġthey": 514,
      "Ġpart": 515,
      "ard": 516,
      "ople": 517,
      "--": 518,
      "Ġen": 519,
      "ine": 520,
      "Ġall": 521,
      "land": 522,
      "ome": 523,
      "Ġyou": 524,
      "Ġwere": 525,
      "Ġpeople": 526,
      "ell": 527,
      "ear": 528,
      "Ġnew": 529,
      "ish": 530,
      "Ġman": 531,
      "Ġar": 532,
      "Ġsp": 533,
      "Ġwhich": 534,
      "te": 535,
      "ok": 536,
      "Ġwhe": 537,
      "rit": 538,
      "ĠâĢ": 539,
      "pt": 540,
      "Ġthere": 541,
      "ous": 542,
      "vers": 543,
      "ik": 544,
      "ational": 545,
      "Ġhis": 546,
      "ge": 547,
      "Ġbut": 548,
      "own": 549,
      "ire": 550,
      "ount": 551,
      "Ġwe": 552,
      "Ġaf": 553,
      "Ġmar": 554,
      "cl": 555,
      "for": 556,
      "ree": 557,
      "der": 558,
      "Ġbec": 559,
      "Ġplay": 560,
      "Ġpub": 561,
      "Ġqu": 562,
      "her": 563,
      "Ġother": 564,
      "out": 565,
      "Ġap": 566,
      "Ġyear": 567,
      "pl": 568,
      "ib": 569,
      "ign": 570,
      "ations": 571,
      "Ġind": 572,
      "ond": 573,
      "Ġcl": 574,
      "port": 575,
      "mer": 576,
      "ans": 577,
      "Ġsc": 578,
      "ĊĊĠ": 579,
      "per": 580,
      "ack": 581,
      "act": 582,
      "ÂłÂł": 583,
      "Ġno": 584,
      "orn": 585,
      "nt": 586,
      "Ġco": 587,
      ").": 588,
      "ral": 589,
      "ult": 590,
      "Ġ[": 591,
      "Ġcomm": 592,
      "we": 593,
      "iz": 594,
      "one": 595,
      "vel": 596,
      "ric": 597,
      "Ġdis": 598,
      "fere": 599,
      "Ġim": 600,
      "ry": 601,
      "hy": 602,
      "ime": 603,
      "ect": 604,
      "Ġ199": 605,
      "ions": 606,
      "ence": 607,
      "Ġac": 608,
      "Ġcont": 609,
      "Ġres": 610,
      "ade": 611,
      "Ġ4": 612,
      "ould": 613,
      "ach": 614,
      "Ġdo": 615,
      "ased": 616,
      "ue": 617,
      "Ġworld": 618,
      "man": 619,
      "Ġso": 620,
      "ice": 621,
      "ces": 622,
      "Ġtw": 623,
      "ents": 624,
      "Ġtheir": 625,
      "Ġ5": 626,
      "ass": 627,
      "Ġrec": 628,
      "tern": 629,
      "Ġme": 630,
      "Ġwho": 631,
      "Ġgro": 632,
      "Ġits": 633,
      "Ġnum": 634,
      "Ġmost": 635,
      "Ġi": 636,
      "und": 637,
      "ater": 638,
      "Ġused": 639,
      "Ġint": 640,
      "Ġstud": 641,
      "Ġbo": 642,
      "du": 643,
      "ful": 644,
      "ual": 645,
      "ace": 646,
      "ory": 647,
      "Ġpres": 648,
      "Ġser": 649,
      "Ġabout": 650,
      "Ġpar": 651,
      "ĠĠ": 652,
      "ail": 653,
      "ase": 654,
      "av": 655,
      "Ġbeen": 656,
      "Ġfrog": 657,
      "Ġout": 658,
      "Ġnational": 659,
      "Ġup": 660,
      "Ġwill": 661,
      "use": 662,
      "Ġnumber": 663,
      "Ġag": 664,
      "Ġmay": 665,
      "ors": 666,
      "Ġtr": 667,
      "ord": 668,
      "Ġele": 669,
      "ied": 670,
      "io": 671,
      "ite": 672,
      "med": 673,
      "Ġev": 674,
      "xt": 675,
      "Ġmore": 676,
      "Ġcol": 677,
      "ild": 678,
      "ound": 679,
      "able": 680,
      "Ġsome": 681,
      "Ġper": 682,
      "Ġspe": 683,
      "Ġ202": 684,
      "Ġmany": 685,
      "ance": 686,
      "ind": 687,
      "Ġ18": 688,
      "Ġbet": 689,
      "ost": 690,
      "Ġpubl": 691,
      "Ġsou": 692,
      "Ġtwo": 693,
      "ics": 694,
      "ks": 695,
      "Ġsu": 696,
      "Ġkn": 697,
      "very": 698,
      "Ġcent": 699,
      "Ġdif": 700,
      "olog": 701,
      "ĠâĢ¢": 702,
      "Ġnor": 703,
      "ivers": 704,
      "Ġcall": 705,
      "ited": 706,
      "irst": 707,
      "Ġfe": 708,
      "amp": 709,
      "Ġbl": 710,
      "Ġsec": 711,
      "Ġeng": 712,
      "Ġoff": 713,
      "ike": 714,
      "hed": 715,
      "ition": 716,
      "Ġonly": 717,
      "ff": 718,
      "Ġcount": 719,
      "Ġpre": 720,
      "Ġfirst": 721,
      "ft": 722,
      "Ġafter": 723,
      "Ġgen": 724,
      "ween": 725,
      "ates": 726,
      "ake": 727,
      "way": 728,
      "Ġteam": 729,
      "ens": 730,
      "Ġwhen": 731,
      "opul": 732,
      "ru": 733,
      "Ġaust": 734,
      "Ġfam": 735,
      "Ġmade": 736,
      "Ġbetween": 737,
      "ph": 738,
      "Ġ198": 739,
      "),": 740,
      "ne": 741,
      "Ġdist": 742,
      "Ġdiffere": 743,
      "Ġ6": 744,
      "ause": 745,
      "Ġshe": 746,
      "ames": 747,
      "low": 748,
      "Ġtime": 749,
      "aw": 750,
      "Ġunivers": 751,
      "arch": 752,
      "Ġcalled": 753,
      "Ġrele": 754,
      "Ġpol": 755,
      "ep": 756,
      "ms": 757,
      "Ġ|": 758,
      "Ġhad": 759,
      "wn": 760,
      "Ġam": 761,
      "ember": 762,
      "ient": 763,
      "aly": 764,
      "ball": 765,
      "mber": 766,
      "Ġliv": 767,
      "Ġsy": 768,
      "gh": 769,
      "Ġmin": 770,
      "ily": 771,
      "Ġpopul": 772,
      "Ġfo": 773,
      "Ġreg": 774,
      "Ġrep": 775,
      "ck": 776,
      "edit": 777,
      "vern": 778,
      "rib": 779,
      "Ġuniversity": 780,
      "Ġcre": 781,
      "Ġgre": 782,
      "ings": 783,
      "ident": 784,
      "Ġhow": 785,
      "Ġ197": 786,
      "ove": 787,
      "ath": 788,
      "Ġrel": 789,
      "ince": 790,
      "Ġbu": 791,
      "ative": 792,
      "Ġstate": 793,
      "Ġaustral": 794,
      "int": 795,
      "lo": 796,
      "Ġover": 797,
      "Ġif": 798,
      "ved": 799,
      "Ġgovern": 800,
      "Ġtra": 801,
      "Ġbecause": 802,
      "ile": 803,
      "ĊĊ": 804,
      "ugh": 805,
      "Ġmon": 806,
      "ten": 807,
      "Ġmet": 808,
      "Ġspec": 809,
      "cted": 810,
      "sh": 811,
      "clud": 812,
      "ced": 813,
      "Ġ8": 814,
      "ctor": 815,
      "Ġz": 816,
      "Ġ7": 817,
      "ons": 818,
      "Ġfound": 819,
      "Ġass": 820,
      "Ġgroup": 821,
      "Ġthan": 822,
      "ose": 823,
      "Ġsm": 824,
      "Ġsup": 825,
      "Ġlar": 826,
      "ists": 827,
      "Ġwork": 828,
      "ution": 829,
      "ific": 830,
      "Ġpr": 831,
      "mp": 832,
      "inal": 833,
      "Ġop": 834,
      "Ġjan": 835,
      "Ġyears": 836,
      "ward": 837,
      "lp": 838,
      "Ġlike": 839,
      "Ġhigh": 840,
      "Ġdifferent": 841,
      "ress": 842,
      "les": 843,
      "Ġcar": 844,
      "Ġcity": 845,
      "Ġknown": 846,
      "iew": 847,
      "form": 848,
      "Ġmus": 849,
      "Ġjo": 850,
      "Ġinto": 851,
      "old": 852,
      "Ġunited": 853,
      "pro": 854,
      "Ġend": 855,
      "Ġart": 856,
      "Ġsub": 857,
      "Ġunder": 858,
      "19": 859,
      "Ġchang": 860,
      "Ġreleased": 861,
      "uring": 862,
      "Ġpublis": 863,
      "ren": 864,
      "Ġloc": 865,
      "Ġalb": 866,
      "Ġright": 867,
      "Ġatt": 868,
      "Ġsecond": 869,
      "Ġwar": 870,
      "ough": 871,
      "urn": 872,
      "Ġ9": 873,
      "Ġter": 874,
      "ins": 875,
      "Ġthem": 876,
      "Ġinclud": 877,
      "ages": 878,
      "com": 879,
      "ale": 880,
      "Ġdes": 881,
      "Ġ10": 882,
      "Ġhelp": 883,
      "Ġwhere": 884,
      "Ġsouth": 885,
      "Ġstart": 886,
      "ract": 887,
      "Ġadd": 888,
      "imes": 889,
      "cess": 890,
      "Ġthese": 891,
      "Ġborn": 892,
      "Ġma": 893,
      "Ġcons": 894,
      "Ġfoot": 895,
      "Ġu": 896,
      "Ġget": 897,
      "this": 898,
      "Ġalbum": 899,
      "che": 900,
      "erson": 901,
      "Ġuse": 902,
      "Ġher": 903,
      "Ġprov": 904,
      "Ġfr": 905,
      "Ġmed": 906,
      "lic": 907,
      "Ġbr": 908,
      "Ġday": 909,
      "gan": 910,
      "Ġsa": 911,
      "----": 912,
      "ject": 913,
      "Ġlong": 914,
      "eral": 915,
      "velop": 916,
      "].": 917,
      "Ġchar": 918,
      "..": 919,
      "Ġact": 920,
      "ĊĊĠĠĠ": 921,
      "Ġfootball": 922,
      "rom": 923,
      "iss": 924,
      "ious": 925,
      "Ġname": 926,
      "Ġ196": 927,
      "Ġking": 928,
      "Ġany": 929,
      "Ġsong": 930,
      "round": 931,
      "fore": 932,
      "Ġsch": 933,
      "Ġ17": 934,
      "ick": 935,
      "Ġli": 936,
      "Ġ-": 937,
      "Ġsame": 938,
      "Ġmain": 939,
      "rough": 940,
      "Ġhy": 941,
      "ork": 942,
      "Ġmod": 943,
      "Ġdevelop": 944,
      "ology": 945,
      "uro": 946,
      "Ġhist": 947,
      "Ġsuch": 948,
      "Ġgr": 949,
      "Ġplayed": 950,
      "Ġnorth": 951,
      "ool": 952,
      "ww": 953,
      "Ġeach": 954,
      "Ġmov": 955,
      "Ġway": 956,
      "ities": 957,
      "Ġfol": 958,
      "Ġinter": 959,
      "Ġfamily": 960,
      "Ġdep": 961,
      "Ġsum": 962,
      "ision": 963,
      "aces": 964,
      "ll": 965,
      "ink": 966,
      "Ġfl": 967,
      "Ġinc": 968,
      "uary": 969,
      "Ġsing": 970,
      "Ġ12": 971,
      "Ġphy": 972,
      "Ġann": 973,
      "Ġyour": 974,
      "text": 975,
      "ature": 976,
      "Ġgu": 977,
      "oci": 978,
      "Ġduring": 979,
      "Ġbook": 980,
      "Ġwater": 981,
      "omet": 982,
      "Ġvery": 983,
      "Ġwould": 984,
      "angu": 985,
      "Ġisland": 986,
      "Ġpresident": 987,
      "10": 988,
      "ert": 989,
      "Ġthree": 990,
      "ctions": 991,
      "ible": 992,
      "ood": 993,
      "ict": 994,
      "co": 995,
      "als": 996,
      "Ġret": 997,
      "gest": 998,
      "Ġdat": 999,
      "ife": 1000,
      "Ġagain": 1001,
      "Ġprodu": 1002,
      "Ġgovernment": 1003,
      "Ġgame": 1004,
      "con": 1005,
      "Ġfollow": 1006,
      "ician": 1007,
      "Ġjanuary": 1008,
      "oth": 1009,
      "Ġtest": 1010,
      "Ġintern": 1011,
      "Ġmy": 1012,
      "ases": 1013,
      "Ġes": 1014,
      "Ġwell": 1015,
      "Ġinf": 1016,
      "stem": 1017,
      "000": 1018,
      "Ġeuro": 1019,
      "ts": 1020,
      "Ġlangu": 1021,
      "Ġold": 1022,
      "Ġpos": 1023,
      "Ġ195": 1024,
      "Ġaustralia": 1025,
      "red": 1026,
      "Ġshow": 1027,
      "Ġrecord": 1028,
      "Ġset": 1029,
      "gr": 1030,
      "20": 1031,
      "dom": 1032,
      "Ġmat": 1033,
      "Ġmake": 1034,
      "âĢĿ": 1035,
      "Ġarea": 1036,
      "Ġwrit": 1037,
      "bo": 1038,
      "ple": 1039,
      "ise": 1040,
      "Ġthrough": 1041,
      "Ġmarch": 1042,
      "Ġsystem": 1043,
      "Ġob": 1044,
      "Ġsim": 1045,
      "Ġanaly": 1046,
      "Ġsequ": 1047,
      "âĢĻ": 1048,
      "full": 1049,
      "cy": 1050,
      "Ġ/": 1051,
      "Ġent": 1052,
      "Ġlives": 1053,
      "ey": 1054,
      "ix": 1055,
      "Ġpo": 1056,
      "Ġsea": 1057,
      "ered": 1058,
      "Ġbecame": 1059,
      "cto": 1060,
      "ower": 1061,
      "Ġimport": 1062,
      "ating": 1063,
      "Ġfore": 1064,
      "ote": 1065,
      "Ġtrans": 1066,
      "Ġconst": 1067,
      "apan": 1068,
      "lish": 1069,
      "Ġear": 1070,
      "ÂłÂłÂłÂł": 1071,
      "erman": 1072,
      "alth": 1073,
      "ouse": 1074,
      "riend": 1075,
      "Ġcommun": 1076,
      "Ġed": 1077,
      "Ġaward": 1078,
      "Ġsince": 1079,
      "Ġopen": 1080,
      "Ġfour": 1081,
      "Ġpubmed": 1082,
      "tt": 1083,
      "uc": 1084,
      "Ġoly": 1085,
      "Ġbrit": 1086,
      "Ġbel": 1087,
      "Ġjapan": 1088,
      "ually": 1089,
      "Ġsmall": 1090,
      "Ġolymp": 1091,
      "Ġaut": 1092,
      "Ġche": 1093,
      "Ġph": 1094,
      "Ġplace": 1095,
      "Ġbuild": 1096,
      "hip": 1097,
      "iel": 1098,
      "Ġsw": 1099,
      "ular": 1100,
      "Ġbus": 1101,
      "ries": 1102,
      "Ġleft": 1103,
      "Ġav": 1104,
      "Ġgames": 1105,
      "Ġdece": 1106,
      "ctober": 1107,
      "<|": 1108,
      "|>": 1109,
      "ister": 1110,
      "Ġbar": 1111,
      "ĠâĢľ": 1112,
      "----|>": 1113,
      "Ġeurope": 1114,
      "Ġinst": 1115,
      "Ġstar": 1116,
      "az": 1117,
      "iver": 1118,
      "til": 1119,
      "Ġoctober": 1120,
      "Ġcal": 1121,
      "Ġwhat": 1122,
      "Ġsign": 1123,
      "Ġpublisher": 1124,
      "uss": 1125,
      "Ġnear": 1126,
      ".\"": 1127,
      "Ġthen": 1128,
      "Ġdown": 1129,
      "Ġdied": 1130,
      "Ġlo": 1131,
      "Ġju": 1132,
      "Ġwom": 1133,
      "Ġlast": 1134,
      "Ġgerman": 1135,
      "Ġhead": 1136,
      "rict": 1137,
      "ever": 1138,
      "ier": 1139,
      "ugust": 1140,
      "Ġphys": 1141,
      "ital": 1142,
      "Ġparty": 1143,
      "Ġserv": 1144,
      "Ġcountry": 1145,
      "ss": 1146,
      "ures": 1147,
      "Ġvers": 1148,
      "ines": 1149,
      "Ġfriend": 1150,
      "ason": 1151,
      "hn": 1152,
      "sis": 1153,
      "Ġcor": 1154,
      "Ġpat": 1155,
      "Ġbefore": 1156,
      "une": 1157,
      "Ġrepres": 1158,
      "Ġuntil": 1159,
      "Ġseries": 1160,
      "Ġsaid": 1161,
      "ina": 1162,
      "meric": 1163,
      "Ġenglish": 1164,
      "be": 1165,
      "Ġperson": 1166,
      "Ġ15": 1167,
      "thern": 1168,
      "Ġcommon": 1169,
      "other": 1170,
      "Ġameric": 1171,
      "Ġhim": 1172,
      "Ġgiv": 1173,
      "ird": 1174,
      "Ġorig": 1175,
      "Ġplaces": 1176,
      "Ġnove": 1177,
      "Ġwal": 1178,
      "Ġfar": 1179,
      "Ġdr": 1180,
      "Ġ16": 1181,
      "Ġchild": 1182,
      "ments": 1183,
      "sc": 1184,
      "erv": 1185,
      "Ġlaw": 1186,
      "Ġsee": 1187,
      "Ġabove": 1188,
      "ptember": 1189,
      "Ġmodel": 1190,
      "Ġnovember": 1191,
      "Ġair": 1192,
      "Ġfact": 1193,
      "cept": 1194,
      "Ġkingdom": 1195,
      "ank": 1196,
      "Ġbro": 1197,
      "Ġevery": 1198,
      "Ġstates": 1199,
      "ton": 1200,
      "Ġtem": 1201,
      "Ġaugust": 1202,
      "Ġdecember": 1203,
      "br": 1204,
      "vent": 1205,
      "Ġcap": 1206,
      "Ġweb": 1207,
      "Ġhistory": 1208,
      "ield": 1209,
      "\".": 1210,
      "Ġhum": 1211,
      "Ġ14": 1212,
      "Ġdec": 1213,
      "ants": 1214,
      "acter": 1215,
      "Ġschool": 1216,
      "Ġimportant": 1217,
      "born": 1218,
      "Ġaround": 1219,
      "Ġrev": 1220,
      "stract": 1221,
      "Ġseptember": 1222,
      "Ġjust": 1223,
      "Ġartic": 1224,
      "ket": 1225,
      "Ġwon": 1226,
      "Ġback": 1227,
      "Ġ11": 1228,
      "Ġcolle": 1229,
      "Ġsomet": 1230,
      "Ġmember": 1231,
      "Ġtop": 1232,
      "Ġem": 1233,
      "abstract": 1234,
      "Ġjuly": 1235,
      "Ġboth": 1236,
      "Ġ13": 1237,
      "Ġbeing": 1238,
      "Ġvar": 1239,
      "Ġview": 1240,
      "Ġengland": 1241,
      "day": 1242,
      "ger": 1243,
      "Ġsur": 1244,
      "feren": 1245,
      "Ġhowever": 1246,
      "Ġtre": 1247,
      "Ġcould": 1248,
      "Ġrem": 1249,
      "otes": 1250,
      "cer": 1251,
      "ues": 1252,
      "Ġir": 1253,
      "Ġchamp": 1254,
      "Ġlead": 1255,
      "Ġpolit": 1256,
      "):": 1257,
      "uch": 1258,
      "ientists": 1259,
      "Ġwomen": 1260,
      "min": 1261,
      "ning": 1262,
      "Ġcur": 1263,
      "Ġbased": 1264,
      "Ġoften": 1265,
      "Ġla": 1266,
      "ury": 1267,
      "ource": 1268,
      "ample": 1269,
      "Ġcreated": 1270,
      "ax": 1271,
      "ode": 1272,
      "ivid": 1273,
      "'t": 1274,
      "11": 1275,
      "uk": 1276,
      "rop": 1277,
      "Ġsearch": 1278,
      "search": 1279,
      "Ġdef": 1280,
      "Ġlevel": 1281,
      "Ġdise": 1282,
      "Ġspecies": 1283,
      "ai": 1284,
      "ices": 1285,
      "amed": 1286,
      "chi": 1287,
      "Ġacc": 1288,
      "Ġtak": 1289,
      "Ġseen": 1290,
      "ogra": 1291,
      "25": 1292,
      "air": 1293,
      "Ġwin": 1294,
      "Ġdire": 1295,
      "there": 1296,
      "Ġval": 1297,
      "ains": 1298,
      "ional": 1299,
      "olution": 1300,
      "Ġcompet": 1301,
      "Ġplayer": 1302,
      "hing": 1303,
      "Ġge": 1304,
      "bru": 1305,
      "gy": 1306,
      "ty": 1307,
      "rent": 1308,
      "Ġsk": 1309,
      "Ġsay": 1310,
      "Ġbest": 1311,
      "Ġdet": 1312,
      "Ġstr": 1313,
      "Ġneed": 1314,
      "Ġext": 1315,
      "Ġeven": 1316,
      "by": 1317,
      "mar": 1318,
      "nd": 1319,
      "pos": 1320,
      "Ġtimes": 1321,
      "ural": 1322,
      "ock": 1323,
      "Ġword": 1324,
      "Ġpublic": 1325,
      "Ġour": 1326,
      "Ġbi": 1327,
      "Ġnow": 1328,
      "Ġep": 1329,
      "Ġ2010": 1330,
      "Ġversion": 1331,
      "ble": 1332,
      "ov": 1333,
      "Ġca": 1334,
      "Ġland": 1335,
      "Ġleg": 1336,
      "Ġgeneral": 1337,
      "Ġinternational": 1338,
      "bruary": 1339,
      "Ġoper": 1340,
      "its": 1341,
      "ament": 1342,
      "ium": 1343,
      "tle": 1344,
      "ama": 1345,
      "Ġbritish": 1346,
      "ted": 1347,
      "Ġinform": 1348,
      "Ġmill": 1349,
      "ublic": 1350,
      "Ġshould": 1351,
      "Ġ2008": 1352,
      "Ġcomple": 1353,
      "Ġfebruary": 1354,
      "Ġmaj": 1355,
      "ttp": 1356,
      "cent": 1357,
      "ene": 1358,
      "Ġbig": 1359,
      "Ġstudy": 1360,
      "de": 1361,
      "hen": 1362,
      "ump": 1363,
      "Ġ2013": 1364,
      "ized": 1365,
      "Ġpopulation": 1366,
      "Ġmovie": 1367,
      ":/": 1368,
      "Ġsoc": 1369,
      "Ġwest": 1370,
      "ather": 1371,
      "Ġhome": 1372,
      "Ġ194": 1373,
      "Ġyork": 1374,
      "Ġjune": 1375,
      "Ġson": 1376,
      "ency": 1377,
      "Ġlist": 1378,
      "Ġhiv": 1379,
      "Ġprof": 1380,
      "Ġ2012": 1381,
      "Ġassoci": 1382,
      "Ġstarted": 1383,
      "Ġ.": 1384,
      "Ġlater": 1385,
      "Ġgood": 1386,
      "Ġze": 1387,
      "Ġsingle": 1388,
      "Ġtown": 1389,
      "Ġstre": 1390,
      "Ġprote": 1391,
      "Ġcountries": 1392,
      "Ġgreat": 1393,
      "Ġsummer": 1394,
      "://": 1395,
      "Ġpage": 1396,
      "Ġinv": 1397,
      "Ġform": 1398,
      "ute": 1399,
      "Ġcentral": 1400,
      "Ġoffic": 1401,
      "Ġfun": 1402,
      "12": 1403,
      "Ġconf": 1404,
      "Ġminister": 1405,
      "Ġmonth": 1406,
      "my": 1407,
      "par": 1408,
      "ences": 1409,
      "Ġfre": 1410,
      "ility": 1411,
      "Ġriver": 1412,
      "Ġagainst": 1413,
      "Ġrepresent": 1414,
      "13": 1415,
      "ex": 1416,
      "Ġred": 1417,
      "Ġ193": 1418,
      "Ġ2011": 1419,
      "Ġcompan": 1420,
      "Ġblack": 1421,
      "Ġgiven": 1422,
      "tal": 1423,
      "Ġeas": 1424,
      "Ġmajor": 1425,
      "cc": 1426,
      "Ġwik": 1427,
      "Ġcat": 1428,
      "Ġvis": 1429,
      "Ġinformation": 1430,
      "Ġtree": 1431,
      "Ġlife": 1432,
      "ows": 1433,
      "âĢī": 1434,
      "ience": 1435,
      "po": 1436,
      "eng": 1437,
      "Ġdid": 1438,
      "Ġhouse": 1439,
      "Ġstation": 1440,
      "Ġoriginal": 1441,
      "14": 1442,
      "ril": 1443,
      "ret": 1444,
      "sts": 1445,
      "Ġorgan": 1446,
      "ially": 1447,
      "ared": 1448,
      "Ġdata": 1449,
      "Ġown": 1450,
      "Ġpower": 1451,
      "Ġstat": 1452,
      "Ġhealth": 1453,
      "Ġexample": 1454,
      "Ġ2006": 1455,
      "Ġdistrict": 1456,
      "Ġlarge": 1457,
      "Ġjohn": 1458,
      "Ġphysician": 1459,
      "Ġbas": 1460,
      "Ġmil": 1461,
      "Ġreal": 1462,
      "Ġarticle": 1463,
      "ae": 1464,
      "Ġins": 1465,
      "ley": 1466,
      "Ġeast": 1467,
      "Ġ25": 1468,
      "Ġstill": 1469,
      "Ġpark": 1470,
      "Ġamong": 1471,
      "Ġlanguage": 1472,
      "gen": 1473,
      "to": 1474,
      "rel": 1475,
      "Ġcare": 1476,
      "Ġfil": 1477,
      "Ġfind": 1478,
      "Ġrun": 1479,
      "Ġcanad": 1480,
      "Ġapril": 1481,
      "ults": 1482,
      "Ġdeath": 1483,
      "ired": 1484,
      "line": 1485,
      "ished": 1486,
      "Ġref": 1487,
      "Ġformer": 1488,
      "Ġorder": 1489,
      "Ġelection": 1490,
      "Ġrepublic": 1491,
      "ery": 1492,
      "Ġcour": 1493,
      "ague": 1494,
      "Ġvide": 1495,
      "Ġappe": 1496,
      "hor": 1497,
      "Ġlive": 1498,
      "Ġvol": 1499,
      "ounced": 1500,
      "osp": 1501,
      "org": 1502,
      "Ġanother": 1503,
      "Ġ30": 1504,
      "ize": 1505,
      "Ġsochi": 1506,
      "ism": 1507,
      "Ġpri": 1508,
      "Ġnamed": 1509,
      "Ġke": 1510,
      "Ġrock": 1511,
      "ondon": 1512,
      "af": 1513,
      "ner": 1514,
      "Ġsit": 1515,
      "Ġmak": 1516,
      "Ġrest": 1517,
      "Ġposs": 1518,
      "Ġcurrent": 1519,
      "ah": 1520,
      "Ġband": 1521,
      "ams": 1522,
      "Ġclub": 1523,
      "Ġclass": 1524,
      "Ġhelpful": 1525,
      "Ġfollowing": 1526,
      "Ġchildren": 1527,
      "27": 1528,
      "ined": 1529,
      "ship": 1530,
      "Ġlargest": 1531,
      "Ġhuman": 1532,
      "Ġchampions": 1533,
      "cul": 1534,
      "ior": 1535,
      "iet": 1536,
      "ting": 1537,
      "Ġdisc": 1538,
      "ĠÂłÂł": 1539,
      "Ġbra": 1540,
      "Ġmount": 1541,
      "Ġlondon": 1542,
      "Ġthose": 1543,
      "igen": 1544,
      "Ġheld": 1545,
      "Ġ2014": 1546,
      "Ġexper": 1547,
      "Ġdoes": 1548,
      "Ġincluding": 1549,
      "Ġcharacter": 1550,
      "Ġdepart": 1551,
      "Ġpass": 1552,
      "Ġvotes": 1553,
      "Ġ2005": 1554,
      "Ġ2007": 1555,
      "Ġtele": 1556,
      "Ġquote": 1557,
      "Ġaustralian": 1558,
      "Ġannounced": 1559,
      "Ġavail": 1560,
      "18": 1561,
      "Ġcr": 1562,
      "ator": 1563,
      "ane": 1564,
      "ann": 1565,
      "Ġmal": 1566,
      "Ġmid": 1567,
      "Ġreport": 1568,
      "ody": 1569,
      "Ġroad": 1570,
      "Ġ2009": 1571,
      "Ġstudio": 1572,
      "Ġwent": 1573,
      "Ġport": 1574,
      "Ġdem": 1575,
      "Ġplat": 1576,
      "ically": 1577,
      "Ġ2020": 1578,
      "Ġpopular": 1579,
      "ribut": 1580,
      "Ġvideo": 1581,
      "ried": 1582,
      "Ġindivid": 1583,
      "Ġdevelopment": 1584,
      "Ġx": 1585,
      "Ġmuch": 1586,
      "Ġsele": 1587,
      "Ġ2018": 1588,
      "Ġexp": 1589,
      "Ġmembers": 1590,
      "me": 1591,
      "Ġfree": 1592,
      "Ġ24": 1593,
      "Ġmusic": 1594,
      "Ġanalysis": 1595,
      "Ġchampionship": 1596,
      "igenous": 1597,
      "led": 1598,
      "Ġty": 1599,
      "Ġcro": 1600,
      "Ġpost": 1601,
      "estern": 1602,
      "Ġdiv": 1603,
      "Ġhig": 1604,
      "urch": 1605,
      "elf": 1606,
      "Ġusing": 1607,
      "Ġnews": 1608,
      "Ġlook": 1609,
      "Ġgermany": 1610,
      "Ġavailable": 1611,
      "Ġdy": 1612,
      "Ġdom": 1613,
      "Ġhttp": 1614,
      "Ġthird": 1615,
      "Ġ21": 1616,
      "oles": 1617,
      "ters": 1618,
      "Ġleague": 1619,
      "Ġpartic": 1620,
      "Ġmillion": 1621,
      "li": 1622,
      "ense": 1623,
      "Ġanim": 1624,
      "Ġgod": 1625,
      "Ġsupport": 1626,
      "Ġpoint": 1627,
      "Ġlit": 1628,
      "ived": 1629,
      "arent": 1630,
      "Ġterm": 1631,
      "son": 1632,
      "Ġcontro": 1633,
      "Ġolympics": 1634,
      "ves": 1635,
      "Ġ0": 1636,
      "ont": 1637,
      "Ġfem": 1638,
      "Ġel": 1639,
      "Ġoffice": 1640,
      "Ġrelig": 1641,
      "...": 1642,
      "Â°": 1643,
      "Ġbor": 1644,
      "Ġline": 1645,
      "Ġeff": 1646,
      "idence": 1647,
      "Ġhere": 1648,
      "Ġproject": 1649,
      "Ġ2001": 1650,
      "epend": 1651,
      "Ġregion": 1652,
      "www": 1653,
      "Ġesv": 1654,
      "Ġwritten": 1655,
      "Ġindividual": 1656,
      "aut": 1657,
      "ze": 1658,
      "Ġsl": 1659,
      "anc": 1660,
      "igure": 1661,
      "Ġseason": 1662,
      "Ġpresent": 1663,
      "Ġlocal": 1664,
      "Ġdesc": 1665,
      "Ġuk": 1666,
      "ertain": 1667,
      "ients": 1668,
      "read": 1669,
      "ats": 1670,
      "ives": 1671,
      "Ġaff": 1672,
      "Ġrecent": 1673,
      "itional": 1674,
      "ven": 1675,
      "Ġsource": 1676,
      "ised": 1677,
      "itions": 1678,
      "Ġthough": 1679,
      "Ġbegan": 1680,
      "verage": 1681,
      "istan": 1682,
      "Ġprogr": 1683,
      "que": 1684,
      "Ġcentury": 1685,
      "load": 1686,
      "Ġchange": 1687,
      "vision": 1688,
      "atic": 1689,
      "Ġwithin": 1690,
      "Ġorth": 1691,
      "Ġlocated": 1692,
      "Ġamerica": 1693,
      "ew": 1694,
      "mb": 1695,
      "ness": 1696,
      "Ġ=": 1697,
      "Ġlot": 1698,
      "ilar": 1699,
      "Ġrail": 1700,
      "Ġruss": 1701,
      "raft": 1702,
      "Ġusually": 1703,
      "ches": 1704,
      "Ġcompany": 1705,
      "Ġocc": 1706,
      "Ġcup": 1707,
      "Ġlow": 1708,
      "Ġtour": 1709,
      "Ġappl": 1710,
      "Ġpublished": 1711,
      "Ġeuropean": 1712,
      "Ġtemper": 1713,
      "17": 1714,
      "ele": 1715,
      "oy": 1716,
      "Ġve": 1717,
      "Ġmult": 1718,
      "Ġ100": 1719,
      "Ġ()": 1720,
      "Ġnorthern": 1721,
      "Ġfew": 1722,
      "Ġprovid": 1723,
      "Ġsimilar": 1724,
      "50": 1725,
      "dro": 1726,
      "Ġfin": 1727,
      "Ġ2000": 1728,
      "Ġshort": 1729,
      "Ġgrow": 1730,
      "Ġknow": 1731,
      "Ġprev": 1732,
      "Ġsuper": 1733,
      "Ġchem": 1734,
      "\",": 1735,
      "22": 1736,
      "Ġsite": 1737,
      "Ġwant": 1738,
      "enn": 1739,
      "Ġmen": 1740,
      "Ġtotal": 1741,
      "Ġstand": 1742,
      "Ġ31": 1743,
      "Ġpossible": 1744,
      "fam": 1745,
      "gin": 1746,
      "she": 1747,
      "ones": 1748,
      "arn": 1749,
      "veral": 1750,
      "pect": 1751,
      "Ġallow": 1752,
      "Ġelect": 1753,
      "Ġbelie": 1754,
      "Ġdisease": 1755,
      "ĠÂłÂłĊ": 1756,
      "cle": 1757,
      "from": 1758,
      "Ġcle": 1759,
      "ement": 1760,
      "Ġsport": 1761,
      "Ġcoin": 1762,
      "Ġ2021": 1763,
      "Ġ2022": 1764,
      "Ġbuilding": 1765,
      "action": 1766,
      "here": 1767,
      "Ġlic": 1768,
      "Ġec": 1769,
      "ott": 1770,
      "ull": 1771,
      "Ġ2017": 1772,
      "Ġmeans": 1773,
      "ission": 1774,
      "go": 1775,
      "pp": 1776,
      "Ġ'": 1777,
      "Ġest": 1778,
      "isl": 1779,
      "Ġpi": 1780,
      "Ġfinal": 1781,
      "Ġlat": 1782,
      "Ġ27": 1783,
      "igation": 1784,
      "chn": 1785,
      "ources": 1786,
      "Ġtesting": 1787,
      "Ġrecords": 1788,
      "Ġphysicians": 1789,
      "Ġdepartment": 1790,
      "23": 1791,
      "sa": 1792,
      "work": 1793,
      "Ġwestern": 1794,
      "Ġthink": 1795,
      "Ġ28": 1796,
      "Ġbecome": 1797,
      "Ġgreen": 1798,
      "Ġdesign": 1799,
      "Ġincre": 1800,
      "Ġfriends": 1801,
      "Ġprofess": 1802,
      "pr": 1803,
      "Ġfed": 1804,
      "Ġfive": 1805,
      "Ġbre": 1806,
      "Ġdon": 1807,
      "Ġra": 1808,
      "ified": 1809,
      "Ġchr": 1810,
      "ange": 1811,
      "ireland": 1812,
      "Ġmeters": 1813,
      "ec": 1814,
      "ys": 1815,
      "Ġside": 1816,
      "Ġalong": 1817,
      "Ġseveral": 1818,
      "Ġwhile": 1819,
      "Ġparts": 1820,
      "Ġmanag": 1821,
      "Ġafric": 1822,
      "Ġscientists": 1823,
      "get": 1824,
      "phy": 1825,
      "ison": 1826,
      "ese": 1827,
      "Ġlight": 1828,
      "Ġtool": 1829,
      "Ġnon": 1830,
      "ela": 1831,
      "Ġvir": 1832,
      "Ġexpl": 1833,
      "Ġsuc": 1834,
      "ways": 1835,
      "Ġliving": 1836,
      "Ġterrit": 1837,
      "Ġconsid": 1838,
      "30": 1839,
      "ave": 1840,
      "Ġireland": 1841,
      "ances": 1842,
      "Ġpal": 1843,
      "Ġanc": 1844,
      "ument": 1845,
      "cles": 1846,
      "Ġindepend": 1847,
      "Ġprovince": 1848,
      "Ġsometimes": 1849,
      "200": 1850,
      "ham": 1851,
      "ii": 1852,
      "ob": 1853,
      "ware": 1854,
      "Ġsol": 1855,
      "Ġdue": 1856,
      "Ġheart": 1857,
      "Ġnext": 1858,
      "Ġexam": 1859,
      "Ġappro": 1860,
      "Ġpress": 1861,
      "Ġactiv": 1862,
      "Ġsequence": 1863,
      "Ġpatients": 1864,
      "ograph": 1865,
      "16": 1866,
      "zil": 1867,
      "Ġsn": 1868,
      "Ġfif": 1869,
      "ality": 1870,
      "ilt": 1871,
      "add": 1872,
      "pec": 1873,
      "Ġ2019": 1874,
      "Ġcontin": 1875,
      "Ġmean": 1876,
      "Ġcommunity": 1877,
      "ony": 1878,
      "Ġmale": 1879,
      "Ġnet": 1880,
      "Ġresearch": 1881,
      "ung": 1882,
      "Ġchurch": 1883,
      "ript": 1884,
      "avigation": 1885,
      "Ġperfor": 1886,
      "Ġappear": 1887,
      "iod": 1888,
      "Ġaway": 1889,
      "Ġaverage": 1890,
      "inc": 1891,
      "Ġlet": 1892,
      "Ġhost": 1893,
      "Ġnat": 1894,
      "Ġindia": 1895,
      "Ġfrance": 1896,
      "Ġdays": 1897,
      "Ġislands": 1898,
      "Ġauthor": 1899,
      "Ġsocial": 1900,
      "bor": 1901,
      "ked": 1902,
      "ĠÂ": 1903,
      "Ġedit": 1904,
      "Ġtit": 1905,
      "Ġple": 1906,
      "Ġpet": 1907,
      "Ġequ": 1908,
      "adem": 1909,
      "play": 1910,
      "ization": 1911,
      "Ġpolitical": 1912,
      "Ġfrequ": 1913,
      "mal": 1914,
      "oid": 1915,
      "ving": 1916,
      "Ġ<": 1917,
      "Ġide": 1918,
      "Ġciv": 1919,
      "Ġcrit": 1920,
      "used": 1921,
      "Ġrequ": 1922,
      "Ġunion": 1923,
      "ained": 1924,
      "Ġapp": 1925,
      "Ġgovernor": 1926,
      "Ġlanguages": 1927,
      "but": 1928,
      "Ġtake": 1929,
      "anch": 1930,
      "Ġbody": 1931,
      "Ġhot": 1932,
      "Ġthings": 1933,
      "Ġ26": 1934,
      "Ġ29": 1935,
      "Ġbeh": 1936,
      "Ġroom": 1937,
      "Ġwee": 1938,
      "Ġaccess": 1939,
      "Ġcenter": 1940,
      "Ġgene": 1941,
      "ruct": 1942,
      "ribution": 1943,
      "Ġchanges": 1944,
      "Ġsequences": 1945,
      "Ġforests": 1946,
      "Ġearly": 1947,
      "Ġstreet": 1948,
      "Ġbrazil": 1949,
      "Ġcivil": 1950,
      "28": 1951,
      "alian": 1952,
      "Ġ23": 1953,
      "ster": 1954,
      "Ġ2015": 1955,
      "Ġtechn": 1956,
      "ignment": 1957,
      "Ġattack": 1958,
      "ference": 1959,
      "26": 1960,
      "mat": 1961,
      "Ġtal": 1962,
      "Ġbat": 1963,
      "Ġhal": 1964,
      "Ġhosp": 1965,
      "aced": 1966,
      "anger": 1967,
      "elling": 1968,
      "conom": 1969,
      "Ġservice": 1970,
      "Ġsuccess": 1971,
      "gress": 1972,
      "lu": 1973,
      "tar": 1974,
      "Ġparent": 1975,
      "Ġhol": 1976,
      "Ġsex": 1977,
      "Ġcoast": 1978,
      "Ġ1990": 1979,
      "Ġperiod": 1980,
      "rench": 1981,
      "log": 1982,
      "nam": 1983,
      "Ġtax": 1984,
      "Ġwind": 1985,
      "Ġmight": 1986,
      "Ġlab": 1987,
      "Ġtext": 1988,
      "Ġolympic": 1989,
      "craft": 1990,
      "herom": 1991,
      "iness": 1992,
      "ories": 1993,
      "edia": 1994,
      "Ġhand": 1995,
      "andib": 1996,
      "Ġintere": 1997,
      "Ġstudies": 1998,
      "Ġparli": 1999,
      "Ġmeth": 2000,
      "Ġadded": 2001,
      "Ġconstit": 2002,
      "Ġphil": 2003,
      "Ġzeal": 2004,
      "Ġvisit": 2005,
      "Ġprogram": 2006,
      "15": 2007,
      "dd": 2008,
      "ls": 2009,
      "most": 2010,
      "Ġsen": 2011,
      "Ġsix": 2012,
      "eration": 2013,
      "ana": 2014,
      "Ġhar": 2015,
      "ention": 2016,
      "idge": 2017,
      "Ġcome": 2018,
      "Ġscience": 2019,
      "Ġsecret": 2020,
      "Ġfamous": 2021,
      "Ġfounded": 2022,
      "Ġprime": 2023,
      "Ġsignific": 2024,
      "Ġfunction": 2025,
      "Ġfemale": 2026,
      "Ġzealand": 2027,
      "right": 2028,
      "wh": 2029,
      "ark": 2030,
      "Ġrich": 2031,
      "abit": 2032,
      "odes": 2033,
      "Ġleast": 2034,
      "ĊĠĠĠ": 2035,
      "Ġelected": 2036,
      "Ġpopulations": 2037,
      "Ġtrain": 2038,
      "iation": 2039,
      "ler": 2040,
      "Ġsqu": 2041,
      "Ġcoun": 2042,
      "Ġpur": 2043,
      "Ġpak": 2044,
      "Ġlim": 2045,
      "Ġrepl": 2046,
      "Ġ22": 2047,
      "Ġitaly": 2048,
      "utes": 2049,
      "els": 2050,
      "Ġ190": 2051,
      "Ġmove": 2052,
      "Ġcomput": 2053,
      "Ġresp": 2054,
      "Ġproduct": 2055,
      "Ġassociated": 2056,
      "Ġfilm": 2057,
      "Ġcanada": 2058,
      "Ġtelevision": 2059,
      "bre": 2060,
      "view": 2061,
      "year": 2062,
      "Ġ,": 2063,
      "Ġage": 2064,
      "inks": 2065,
      "Ġcult": 2066,
      "Ġcode": 2067,
      "Ġput": 2068,
      "Ġfac": 2069,
      "etic": 2070,
      "Ġrad": 2071,
      "Ġplan": 2072,
      "Ġ2002": 2073,
      "Ġquest": 2074,
      "Ġfamil": 2075,
      "Ġchanged": 2076,
      "Ġcollege": 2077,
      "Ġdivision": 2078,
      "Ġparliament": 2079,
      "Ġfield": 2080,
      "Ġfrench": 2081,
      "Ġdri": 2082,
      "Ġdoc": 2083,
      "Ġdanger": 2084,
      "Ġiss": 2085,
      "Ġgot": 2086,
      "Ġread": 2087,
      "Ġrece": 2088,
      "Ġvict": 2089,
      "Ġindigenous": 2090,
      "Ġdifferen": 2091,
      "Ġprim": 2092,
      "Ġmilit": 2093,
      "],": 2094,
      "king": 2095,
      "mary": 2096,
      "not": 2097,
      "ĊÂł": 2098,
      "ĠL": 2099,
      "ergy": 2100,
      "Ġcases": 2101,
      "Ġlign": 2102,
      "stand": 2103,
      "Ġacadem": 2104,
      "Ġstudied": 2105,
      "ording": 2106,
      "Ġevent": 2107,
      "Ġamount": 2108,
      "Ġwales": 2109,
      "Ġsomething": 2110,
      "Ġlegisl": 2111,
      "Ġdescrib": 2112,
      "Ġhospital": 2113,
      "ke": 2114,
      "ml": 2115,
      "oide": 2116,
      "por": 2117,
      "side": 2118,
      "Ġtri": 2119,
      "Ġpherom": 2120,
      "Ġfall": 2121,
      "row": 2122,
      "Ġdel": 2123,
      "Ġdest": 2124,
      "Ġnight": 2125,
      "Ġvill": 2126,
      "Ġnever": 2127,
      "Ġshown": 2128,
      "Ġbuilt": 2129,
      "Ġmuscles": 2130,
      "Ġepis": 2131,
      "Ġplatform": 2132,
      "Ġchrist": 2133,
      "Ġ+": 2134,
      "Ġopt": 2135,
      "atures": 2136,
      "ash": 2137,
      "Ġdi": 2138,
      "Ġnames": 2139,
      "Ġstop": 2140,
      "ays": 2141,
      "Ġyoun": 2142,
      "see": 2143,
      "ipp": 2144,
      "Ġsouthern": 2145,
      "Ġgroups": 2146,
      "Ġawards": 2147,
      "Ġofficial": 2148,
      "Ġhigher": 2149,
      "Ġsignificant": 2150,
      ".âĢĿ": 2151,
      "24": 2152,
      "ĠH": 2153,
      "Ġcop": 2154,
      "Ġtoge": 2155,
      "ateg": 2156,
      "osed": 2157,
      "Ġrole": 2158,
      "Ġ2004": 2159,
      "Ġevolution": 2160,
      "Ġspeak": 2161,
      "Ġearth": 2162,
      "Ġchemical": 2163,
      "Ġtogether": 2164,
      "Ġfoc": 2165,
      "Ġless": 2166,
      "ades": 2167,
      "Ġlearn": 2168,
      "Ġ2016": 2169,
      "Ġresults": 2170,
      "Ġstudents": 2171,
      "Ġfactors": 2172,
      "Ġeffect": 2173,
      "Ġterritory": 2174,
      "29": 2175,
      "cher": 2176,
      "ched": 2177,
      "of": 2178,
      "sw": 2179,
      "Ġtable": 2180,
      "ened": 2181,
      "Ġfur": 2182,
      "ication": 2183,
      "let": 2184,
      "Ġgold": 2185,
      "ste": 2186,
      "ago": 2187,
      "Ġcond": 2188,
      "Ġmarket": 2189,
      "Ġmarried": 2190,
      "ification": 2191,
      "Ġcapital": 2192,
      "21": 2193,
      "ma": 2194,
      "Ġver": 2195,
      "ither": 2196,
      "Ġbill": 2197,
      "Ġmer": 2198,
      "aster": 2199,
      "Ġlon": 2200,
      "Ġlog": 2201,
      "stra": 2202,
      "Ġable": 2203,
      "Ġothers": 2204,
      "Ġreturn": 2205,
      "Ġcalif": 2206,
      "scientists": 2207,
      "Ġtools": 2208,
      ",âĢĿ": 2209,
      "bra": 2210,
      "ses": 2211,
      "Ġer": 2212,
      "Ġsun": 2213,
      "Ġsold": 2214,
      "Ġwood": 2215,
      "Ġpract": 2216,
      "Ġfile": 2217,
      "Ġmust": 2218,
      "Ġant": 2219,
      "Ġhill": 2220,
      "Ġhour": 2221,
      "Ġformed": 2222,
      "Ġcho": 2223,
      "Ġwhite": 2224,
      "aper": 2225,
      "Ġarch": 2226,
      "ford": 2227,
      "Ġcontent": 2228,
      "Ġsouthe": 2229,
      "cont": 2230,
      "Ġservices": 2231,
      "ferences": 2232,
      "Ġcompeted": 2233,
      "after": 2234,
      "Ġtemperature": 2235,
      "Ġnatural": 2236,
      "Ġlignin": 2237,
      "44": 2238,
      "ka": 2239,
      "Ġwat": 2240,
      "Ġcast": 2241,
      "Ġcell": 2242,
      "Ġdone": 2243,
      "Ġtook": 2244,
      "Ġet": 2245,
      "Ġmoder": 2246,
      "Ġdev": 2247,
      "eller": 2248,
      "Ġquery": 2249,
      "Ġ1998": 2250,
      "Ġii": 2251,
      "ductor": 2252,
      "ffic": 2253,
      "ney": 2254,
      "Ġsmok": 2255,
      "Ġlikely": 2256,
      "Ġhistor": 2257,
      "Ġlittle": 2258,
      "Ġprevious": 2259,
      "Ġhalf": 2260,
      "ino": 2261,
      "isk": 2262,
      "Ġcase": 2263,
      "Ġbur": 2264,
      "Ġinit": 2265,
      "Ġmiss": 2266,
      "Ġtoday": 2267,
      "outh": 2268,
      "uses": 2269,
      "Ġste": 2270,
      "istr": 2271,
      "Ġ2003": 2272,
      "lands": 2273,
      "Ġ1996": 2274,
      "Ġ1999": 2275,
      "Ġcentre": 2276,
      "Ġsummary": 2277,
      "Ġdatab": 2278,
      "Ġobject": 2279,
      "Ġwebs": 2280,
      "Ġaccording": 2281,
      "Ġcaliforn": 2282,
      "ged": 2283,
      "ination": 2284,
      "eth": 2285,
      "ula": 2286,
      "Ġwithout": 2287,
      "ogn": 2288,
      "Ġroman": 2289,
      "Ġadoles": 2290,
      "Ġ1980": 2291,
      "awa": 2292,
      "ÂłÂłÂłÂłÂłÂłÂłÂł": 2293,
      "Ġtrees": 2294,
      "Ġtaken": 2295,
      "37": 2296,
      "cil": 2297,
      "fer": 2298,
      "fish": 2299,
      "loc": 2300,
      "hes": 2301,
      "ini": 2302,
      "Ġcame": 2303,
      "Ġpages": 2304,
      "Ġmag": 2305,
      "Ġlib": 2306,
      "Ġnom": 2307,
      "Ġgra": 2308,
      "Ġenergy": 2309,
      "Ġque": 2310,
      "Ġevents": 2311,
      "vention": 2312,
      "Ġdetail": 2313,
      "Ġmilitary": 2314,
      "Ġfurther": 2315,
      "nect": 2316,
      "Ġcertain": 2317,
      "Ġmot": 2318,
      "ross": 2319,
      "Ġlink": 2320,
      "Ġtoo": 2321,
      "Ġkill": 2322,
      "ogle": 2323,
      "Ġcommit": 2324,
      "Ġdisplay": 2325,
      "Ġinclude": 2326,
      "Ġpheromone": 2327,
      "Ġyoung": 2328,
      "hol": 2329,
      "pes": 2330,
      "yal": 2331,
      "inated": 2332,
      "Ġbir": 2333,
      "Ġmass": 2334,
      "adu": 2335,
      "though": 2336,
      "Ġrio": 2337,
      "ods": 2338,
      "ended": 2339,
      "Ġadult": 2340,
      "Ġarr": 2341,
      "Ġ50": 2342,
      "Ġground": 2343,
      "Ġtravel": 2344,
      "Ġbooks": 2345,
      "Ġbusiness": 2346,
      "Ġinterest": 2347,
      "40": 2348,
      "ape": 2349,
      "less": 2350,
      "mit": 2351,
      "sp": 2352,
      "sy": 2353,
      "table": 2354,
      "vir": 2355,
      "ĠA": 2356,
      "Ġill": 2357,
      "Ġsoci": 2358,
      "alog": 2359,
      "Ġgir": 2360,
      "ently": 2361,
      "Ġemp": 2362,
      "Ġeither": 2363,
      "oted": 2364,
      "ety": 2365,
      "Ġran": 2366,
      "Ġjud": 2367,
      "Ġkore": 2368,
      "ians": 2369,
      "Ġhapp": 2370,
      "Ġexist": 2371,
      "Ġadv": 2372,
      "ored": 2373,
      "Ġcontribut": 2374,
      "Ġdoor": 2375,
      "Ġspecial": 2376,
      "Ġrights": 2377,
      "Ġinstit": 2378,
      "Ġlaun": 2379,
      "ography": 2380,
      "Ġstatus": 2381,
      "relia": 2382,
      "Ġanimals": 2383,
      "Ġcalifornia": 2384,
      "ron": 2385,
      "Ġsat": 2386,
      "Ġcut": 2387,
      "Ġfans": 2388,
      "Ġang": 2389,
      "Ġhall": 2390,
      "Ġhard": 2391,
      "omb": 2392,
      "Ġru": 2393,
      "Ġrul": 2394,
      "semb": 2395,
      "Ġconnect": 2396,
      "Ġproble": 2397,
      "oss": 2398,
      "ending": 2399,
      "Ġmostly": 2400,
      "Ġserved": 2401,
      "ression": 2402,
      "Ġadditional": 2403,
      "Ġdeveloped": 2404,
      "Ġinflu": 2405,
      "Ġtreat": 2406,
      "Ġgeograph": 2407,
      "Ġmaking": 2408,
      "Ġreported": 2409,
      "Ġweek": 2410,
      "66": 2411,
      "actions": 2412,
      "iate": 2413,
      "Ġsal": 2414,
      "Ġcamp": 2415,
      "Ġtourn": 2416,
      "Ġalways": 2417,
      "Ġassemb": 2418,
      "ocr": 2419,
      "ief": 2420,
      "Ġgoing": 2421,
      "Ġ1992": 2422,
      "Ġsoft": 2423,
      "ological": 2424,
      "Ġteams": 2425,
      "Ġdiseases": 2426,
      "Ġwinter": 2427,
      "Ġdirect": 2428,
      "Ġcontrol": 2429,
      "Ġsports": 2430,
      "Ġnetwork": 2431,
      "Ġcouncil": 2432,
      "figure": 2433,
      "ring": 2434,
      "wor": 2435,
      "when": 2436,
      "Ġpast": 2437,
      "Ġfull": 2438,
      "Ġdam": 2439,
      "ica": 2440,
      "Ġni": 2441,
      "Ġeconom": 2442,
      "Ġalthough": 2443,
      "ify": 2444,
      "Ġatl": 2445,
      "rie": 2446,
      "Ġprom": 2447,
      "ude": 2448,
      "oney": 2449,
      "Ġfrogs": 2450,
      "Ġcolor": 2451,
      "Ġcolum": 2452,
      "Ġlived": 2453,
      "Ġended": 2454,
      "Ġincluded": 2455,
      "Ġhydro": 2456,
      "Ġeduc": 2457,
      "Ġamerican": 2458,
      "Ġbroad": 2459,
      "Ġreview": 2460,
      "Ġstrong": 2461,
      "Ġmonths": 2462,
      "Ġkeep": 2463,
      "Ġpakistan": 2464,
      "Ġassembly": 2465,
      "38": 2466,
      "do": 2467,
      "dle": 2468,
      "person": 2469,
      "za": 2470,
      "ĠF": 2471,
      "ĠP": 2472,
      "atives": 2473,
      "ential": 2474,
      "Ġreaction": 2475,
      "imate": 2476,
      "Ġkm": 2477,
      "Ġkey": 2478,
      "Ġplants": 2479,
      "endar": 2480,
      "Ġadmin": 2481,
      "ples": 2482,
      "Ġindust": 2483,
      "Ġaged": 2484,
      "Ġwikip": 2485,
      "Ġcourt": 2486,
      "Ġortholog": 2487,
      "oideus": 2488,
      "''": 2489,
      "cast": 2490,
      "life": 2491,
      "no": 2492,
      "Ġsug": 2493,
      "Ġsound": 2494,
      "Ġpa": 2495,
      "arm": 2496,
      "Ġlinks": 2497,
      "Ġstruct": 2498,
      "otation": 2499,
      "Ġsepar": 2500,
      "Ġkind": 2501,
      "Ġplot": 2502,
      "Ġprot": 2503,
      "Ġcompared": 2504,
      "new": 2505,
      "Ġ1970": 2506,
      "Ġunderstand": 2507,
      "Ġstarting": 2508,
      "Ġfourth": 2509,
      "Ġjapanese": 2510,
      "Ġtakes": 2511,
      "Ġmodern": 2512,
      "bur": 2513,
      "zer": 2514,
      "ata": 2515,
      "itch": 2516,
      "Ġdig": 2517,
      "Ġonce": 2518,
      "Ġonline": 2519,
      "Ġitalian": 2520,
      "ets": 2521,
      "urb": 2522,
      "Ġjump": 2523,
      "Ġvi": 2524,
      "ria": 2525,
      "Ġclose": 2526,
      "Ġacross": 2527,
      "Ġrecogn": 2528,
      "Ġrelations": 2529,
      "box": 2530,
      "Ġcalendar": 2531,
      "Ġiran": 2532,
      "Ġcomplex": 2533,
      "Ġlicense": 2534,
      "Ġfederal": 2535,
      "Ġvictor": 2536,
      "Ġvillage": 2537,
      "36": 2538,
      "=\"": 2539,
      "aur": 2540,
      "ground": 2541,
      "jump": 2542,
      "put": 2543,
      "time": 2544,
      "rest": 2545,
      "ering": 2546,
      "Ġpy": 2547,
      "arian": 2548,
      "asons": 2549,
      "rodu": 2550,
      "ico": 2551,
      "Ġlower": 2552,
      "Ġnavigation": 2553,
      "ope": 2554,
      "Ġmoved": 2555,
      "Ġdebut": 2556,
      "Ġchart": 2557,
      "âĢĵ": 2558,
      "Ġgoogle": 2559,
      "Ġscot": 2560,
      "Ġimp": 2561,
      "Ġ1995": 2562,
      "ruction": 2563,
      "Ġrelease": 2564,
      "Ġrelated": 2565,
      "Ġmatch": 2566,
      "Ġdeter": 2567,
      "Ġstandard": 2568,
      "Ġtitle": 2569,
      "Ġwebsite": 2570,
      "80": 2571,
      "gree": 2572,
      "mond": 2573,
      "over": 2574,
      "self": 2575,
      "xas": 2576,
      "Ġturn": 2577,
      "Ġsan": 2578,
      "Ġcam": 2579,
      "itive": 2580,
      "Ġmuse": 2581,
      "Ġhur": 2582,
      "ides": 2583,
      "Ġround": 2584,
      "Ġroyal": 2585,
      "Ġspir": 2586,
      "Ġimm": 2587,
      "Ġpolic": 2588,
      "lob": 2589,
      "Ġopened": 2590,
      "Ġleader": 2591,
      "posed": 2592,
      "point": 2593,
      "Ġrailway": 2594,
      "Ġoccur": 2595,
      "Ġconsidered": 2596,
      "Ġindependent": 2597,
      "Ġsnow": 2598,
      "pecially": 2599,
      "Ġbehav": 2600,
      "90": 2601,
      "jo": 2602,
      "kn": 2603,
      "ling": 2604,
      "ators": 2605,
      "Ġeth": 2606,
      "Ġbelow": 2607,
      "ids": 2608,
      "Ġcomes": 2609,
      "Ġchina": 2610,
      "acy": 2611,
      "udd": 2612,
      "Ġexec": 2613,
      "Ġupd": 2614,
      "Ġ2023": 2615,
      "Ġminutes": 2616,
      "ovecraft": 2617,
      "Ġmedia": 2618,
      "Ġassociation": 2619,
      "Ġzebra": 2620,
      "Ġpriv": 2621,
      "Ġmountains": 2622,
      "Ġdying": 2623,
      "viron": 2624,
      "Ġzebrafish": 2625,
      "35": 2626,
      "au": 2627,
      "na": 2628,
      "ps": 2629,
      "uck": 2630,
      "yle": 2631,
      "Ġut": 2632,
      "ising": 2633,
      "Ġpot": 2634,
      "Ġpath": 2635,
      "Ġmm": 2636,
      "Ġhon": 2637,
      "Ġgl": 2638,
      "Ġstep": 2639,
      "Ġalph": 2640,
      "Ġareas": 2641,
      "iff": 2642,
      "rael": 2643,
      "Ġprocess": 2644,
      "Ġworks": 2645,
      "Ġspok": 2646,
      "Ġmeas": 2647,
      "Ġenter": 2648,
      "Ġbelieve": 2649,
      "Ġsquare": 2650,
      "ĠLovecraft": 2651,
      "Ġsmoking": 2652,
      ",\"": 2653,
      "86": 2654,
      "cus": 2655,
      "cript": 2656,
      "lished": 2657,
      "ming": 2658,
      "ns": 2659,
      "nes": 2660,
      "ror": 2661,
      "ras": 2662,
      "Ġ$": 2663,
      "ald": 2664,
      "Ġmel": 2665,
      "oud": 2666,
      "Ġstor": 2667,
      "Ġsection": 2668,
      "Ġjour": 2669,
      "ably": 2670,
      "Ġtexas": 2671,
      "Ġenviron": 2672,
      "Ġarg": 2673,
      "tee": 2674,
      "Ġresult": 2675,
      "Ġblood": 2676,
      "Ġbranch": 2677,
      "Ġflag": 2678,
      "Ġretelling": 2679,
      "Ġairport": 2680,
      "Ġcomplete": 2681,
      "central": 2682,
      "Ġmakes": 2683,
      "Ġmiddle": 2684,
      "Ġdemocr": 2685,
      "Ġthought": 2686,
      "Ġrussia": 2687,
      "Ġancient": 2688,
      "Ġreceived": 2689,
      "Ġacademy": 2690,
      "Ġbirth": 2691,
      "Ġadministr": 2692,
      "Ġwikipedia": 2693,
      "Ġmuseum": 2694,
      "33": 2695,
      "IX": 2696,
      "ME": 2697,
      "jan": 2698,
      "more": 2699,
      "pre": 2700,
      "where": 2701,
      "Ġcand": 2702,
      "Ġgive": 2703,
      "iles": 2704,
      "Ġheav": 2705,
      "Ġrank": 2706,
      "Ġcongress": 2707,
      "Ġadductor": 2708,
      "Ġspan": 2709,
      "Ġplays": 2710,
      "Ġindic": 2711,
      "Ġtrue": 2712,
      "Ġpolitician": 2713,
      "Ġselected": 2714,
      "Ġmultip": 2715,
      "Ġallowed": 2716,
      "ĠAdd": 2717,
      "Ġempire": 2718,
      "Ġtournament": 2719,
      "ĠFIX": 2720,
      "Ġsuggest": 2721,
      "ĠFIXME": 2722,
      "70": 2723,
      "The": 2724,
      "aff": 2725,
      "bac": 2726,
      "fe": 2727,
      "lam": 2728,
      "nal": 2729,
      "pose": 2730,
      "Ġwild": 2731,
      "Ġfather": 2732,
      "Ġmic": 2733,
      "Ġnations": 2734,
      "Ġprob": 2735,
      "âĢĶ": 2736,
      "Ġmark": 2737,
      "Ġindian": 2738,
      "Ġcommons": 2739,
      "Ġtrad": 2740,
      "Ġprem": 2741,
      "Ġforeign": 2742,
      "Ġswed": 2743,
      "Ġdecade": 2744,
      "Ġdirector": 2745,
      "Ġextra": 2746,
      "Ġwords": 2747,
      "Ġsites": 2748,
      "Ġindividuals": 2749,
      "Ġperformed": 2750,
      "Ġdocument": 2751,
      "Ġcommittee": 2752,
      "60": 2753,
      "ba": 2754,
      "fort": 2755,
      "gor": 2756,
      "tr": 2757,
      "Ġten": 2758,
      "Ġtas": 2759,
      "Ġsaw": 2760,
      "Ġpack": 2761,
      "Ġfut": 2762,
      "Ġflo": 2763,
      "Ġbay": 2764,
      "Ġlate": 2765,
      "Ġlove": 2766,
      "Ġgas": 2767,
      "omm": 2768,
      "Ġforce": 2769,
      "Ġstory": 2770,
      "iday": 2771,
      "adium": 2772,
      "bert": 2773,
      "uplic": 2774,
      "Ġimage": 2775,
      "Ġ1997": 2776,
      "Ġ40": 2777,
      "Ġboot": 2778,
      "Ġ2024": 2779,
      "Ġrelative": 2780,
      "wards": 2781,
      "Ġhighway": 2782,
      "Ġsubst": 2783,
      "Ġincidence": 2784,
      "Ġespecially": 2785,
      "Ġvarious": 2786,
      "Ġparticip": 2787,
      "Ġparticular": 2788,
      "Ġafrica": 2789,
      "elaide": 2790,
      "Ġidea": 2791,
      "Ġparents": 2792,
      "logen": 2793,
      "Ġsociety": 2794,
      "Ġsoftware": 2795,
      "45": 2796,
      "names": 2797,
      "ued": 2798,
      "val": 2799,
      "Ġ&": 2800,
      "Ġip": 2801,
      "Ġtrop": 2802,
      "hemat": 2803,
      "Ġsources": 2804,
      "ona": 2805,
      "Ġpfam": 2806,
      "Ġmap": 2807,
      "Ġda": 2808,
      "ental": 2809,
      "cean": 2810,
      "Ġrange": 2811,
      "Ġrisk": 2812,
      "ender": 2813,
      "Ġcompar": 2814,
      "Ġaccept": 2815,
      "Ġrecomm": 2816,
      "Ġengine": 2817,
      "Ġ1989": 2818,
      "Ġdistance": 2819,
      "Ġtrack": 2820,
      "Ġterms": 2821,
      "Ġconserv": 2822,
      "Ġcross": 2823,
      "Ġvector": 2824,
      "Ġreplaced": 2825,
      "Ġhours": 2826,
      ".,": 2827,
      "39": 2828,
      "bi": 2829,
      "ca": 2830,
      "fic": 2831,
      "lin": 2832,
      "lit": 2833,
      "rary": 2834,
      "sk": 2835,
      "Ġident": 2836,
      "Ġtheat": 2837,
      "Ġcy": 2838,
      "Ġcele": 2839,
      "Ġcateg": 2840,
      "Ġstadium": 2841,
      "thing": 2842,
      "Ġdecl": 2843,
      "Ġchann": 2844,
      "Ġhaving": 2845,
      "Ġarmy": 2846,
      "Ġimpro": 2847,
      "Ġmax": 2848,
      "Ġfront": 2849,
      "Ġfriendship": 2850,
      "Ġwalk": 2851,
      "Ġfarms": 2852,
      "Ġdrug": 2853,
      "Ġinvol": 2854,
      "Ġsitu": 2855,
      "Ġcurrently": 2856,
      "Ġdiscuss": 2857,
      "Ġradio": 2858,
      "Ġdifferences": 2859,
      "Ġfocus": 2860,
      "Ġrelationship": 2861,
      "Ġscotland": 2862,
      "49": 2863,
      "back": 2864,
      "viet": 2865,
      "Ġq": 2866,
      "Ġtan": 2867,
      "Ġsil": 2868,
      "itan": 2869,
      "Ġpie": 2870,
      "Ġfire": 2871,
      "Ġbit": 2872,
      "Ġinte": 2873,
      "ala": 2874,
      "Ġmr": 2875,
      "Ġmoney": 2876,
      "Ġhold": 2877,
      "Ġisrael": 2878,
      "Ġreason": 2879,
      "omy": 2880,
      "ige": 2881,
      "Ġseem": 2882,
      "ander": 2883,
      "Ġcomb": 2884,
      "Ġwhy": 2885,
      "Ġproper": 2886,
      "aint": 2887,
      "aka": 2888,
      "endo": 2889,
      "Ġshop": 2890,
      "Ġship": 2891,
      "Ġsoviet": 2892,
      "Ġmeet": 2893,
      "Ġelector": 2894,
      "Ġgrand": 2895,
      "Ġinfect": 2896,
      "Ġposition": 2897,
      "Ġmathemat": 2898,
      "Ġeastern": 2899,
      "Ġcourse": 2900,
      "Ġdomain": 2901,
      "Ġborrelia": 2902,
      "Ġelectric": 2903,
      "Ġclear": 2904,
      "Ġfamilies": 2905,
      "Ġalphab": 2906,
      "gre": 2907,
      "hors": 2908,
      "off": 2909,
      "hest": 2910,
      "Ġcust": 2911,
      "att": 2912,
      "Ġmandib": 2913,
      "Ġden": 2914,
      "olf": 2915,
      "idd": 2916,
      "Ġrace": 2917,
      "Ġrates": 2918,
      "Ġvia": 2919,
      "Ġshine": 2920,
      "Ġspace": 2921,
      "Ġ1991": 2922,
      "Ġintrodu": 2923,
      "Ġparas": 2924,
      "Ġoutside": 2925,
      "Ġ1988": 2926,
      "Ġjob": 2927,
      "Ġmedical": 2928,
      "Ġphylogen": 2929,
      "Ġretired": 2930,
      "Ġproduction": 2931,
      "Ġinternet": 2932,
      "Ġobs": 2933,
      "Ġcalcul": 2934,
      "Ġcanadian": 2935,
      "Ġmales": 2936,
      "Ġprofessional": 2937,
      "Ġfifa": 2938,
      "Ġcastle": 2939,
      "Ġadolesc": 2940,
      "31": 2941,
      "71": 2942,
      "ead": 2943,
      "wise": 2944,
      "Ġid": 2945,
      "Ġaure": 2946,
      "Ġsam": 2947,
      "Ġsize": 2948,
      "Ġpric": 2949,
      "Ġfight": 2950,
      "Ġfigure": 2951,
      "Ġbase": 2952,
      "Ġmor": 2953,
      "Ġmention": 2954,
      "Ġduplic": 2955,
      "ush": 2956,
      "ille": 2957,
      "olic": 2958,
      "ada": 2959,
      "elves": 2960,
      "Ġrap": 2961,
      "oph": 2962,
      "Ġuses": 2963,
      "Ġcancer": 2964,
      "Ġenough": 2965,
      "clus": 2966,
      "Ġresources": 2967,
      "ternal": 2968,
      "Ġbetter": 2969,
      "Ġfood": 2970,
      "Ġregional": 2971,
      "Ġmainly": 2972,
      "Ġcorre": 2973,
      "Ġvalue": 2974,
      "hington": 2975,
      "Ġprotein": 2976,
      "Ġeducation": 2977,
      "burg": 2978,
      "Ġspanish": 2979,
      "Ġaureus": 2980,
      "can": 2981,
      "host": 2982,
      "ires": 2983,
      "ios": 2984,
      "oo": 2985,
      "Ġcit": 2986,
      "Ġpict": 2987,
      "Ġbb": 2988,
      "orial": 2989,
      "Ġinn": 2990,
      "Ġmc": 2991,
      "Ġdate": 2992,
      "Ġnick": 2993,
      "Ġeg": 2994,
      "Ġbegin": 2995,
      "Ġstri": 2996,
      "Ġhen": 2997,
      "istics": 2998,
      "rian": 2999,
      "Ġ35": 3000,
      "Ġadelaide": 3001,
      "Ġcost": 3002,
      "Ġcounty": 3003,
      "intendo": 3004,
      "Ġincludes": 3005,
      "Ġproduced": 3006,
      "Ġinfe": 3007,
      "Ġinstead": 3008,
      "Ġsurve": 3009,
      "Ġbiology": 3010,
      "Ġvirgin": 3011,
      "Ġwindows": 3012,
      "Ġatlant": 3013,
      "Ġexecut": 3014,
      "Ġprivate": 3015,
      "Ġenvironment": 3016,
      "34": 3017,
      "bl": 3018,
      "bour": 3019,
      "ha": 3020,
      "lim": 3021,
      "ox": 3022,
      "wide": 3023,
      "Ġ...": 3024,
      "Ġocean": 3025,
      "erve": 3026,
      "Ġcs": 3027,
      "Ġcard": 3028,
      "Ġcath": 3029,
      "Ġcities": 3030,
      "enc": 3031,
      "Ġpen": 3032,
      "Ġpan": 3033,
      "Ġbene": 3034,
      "roy": 3035,
      "Ġlord": 3036,
      "Ġlake": 3037,
      "Ġnation": 3038,
      "Ġona": 3039,
      "cell": 3040,
      "Ġasian": 3041,
      "ached": 3042,
      "ability": 3043,
      "Ġcannot": 3044,
      "Ġadop": 3045,
      "Ġcompos": 3046,
      "ellow": 3047,
      "Ġwhether": 3048,
      "Ġcreate": 3049,
      "Ġcreative": 3050,
      "Ġassignment": 3051,
      "Ġmedal": 3052,
      "Ġmovies": 3053,
      "Ġsinger": 3054,
      "iction": 3055,
      "Ġforest": 3056,
      "mark": 3057,
      "Ġreligious": 3058,
      "Ġestab": 3059,
      "Ġprimary": 3060,
      "Ġepisodes": 3061,
      "Ġstructure": 3062,
      "bacco": 3063,
      "don": 3064,
      "ges": 3065,
      "ping": 3066,
      "ym": 3067,
      "inations": 3068,
      "erved": 3069,
      "Ġmater": 3070,
      "Ġhit": 3071,
      "Ġthus": 3072,
      "ots": 3073,
      "urity": 3074,
      "Ġrate": 3075,
      "Ġyet": 3076,
      "Ġyield": 3077,
      "Ġchief": 3078,
      "acol": 3079,
      "iab": 3080,
      "ends": 3081,
      "Ġsprit": 3082,
      "Ġqual": 3083,
      "Ġnumbers": 3084,
      "Ġ189": 3085,
      "Ġblog": 3086,
      "phone": 3087,
      "Ġ1972": 3088,
      "share": 3089,
      "Ġgradu": 3090,
      "Ġguai": 3091,
      "Ġoldest": 3092,
      "Ġsimple": 3093,
      "Ġrepresents": 3094,
      "ropol": 3095,
      "Ġcaused": 3096,
      "Ġmountain": 3097,
      "Ġprovided": 3098,
      "Ġtechnology": 3099,
      "Ġsenate": 3100,
      "Ġsouthend": 3101,
      "Ġcelebr": 3102,
      "Ġalphabet": 3103,
      ".)": 3104,
      "aim": 3105,
      "Ġult": 3106,
      "Ġsab": 3107,
      "Ġber": 3108,
      "Ġbad": 3109,
      "Ġbird": 3110,
      "Ġdark": 3111,
      "Ġlu": 3112,
      "Ġled": 3113,
      "Ġnature": 3114,
      "Ġreasons": 3115,
      "omes": 3116,
      "Ġje": 3117,
      "Ġsho": 3118,
      "elled": 3119,
      "ploy": 3120,
      "Ġscient": 3121,
      "ricket": 3122,
      "hydro": 3123,
      "Ġparish": 3124,
      "ensive": 3125,
      "Ġworked": 3126,
      "Ġworking": 3127,
      "Ġsubject": 3128,
      "Ġgram": 3129,
      "Ġways": 3130,
      "Ġshows": 3131,
      "Ġbritain": 3132,
      "Ġvalues": 3133,
      "type": 3134,
      "Ġrecently": 3135,
      "Ġrussian": 3136,
      "Ġapplic": 3137,
      "ĠÂ·": 3138,
      "Ġsecretary": 3139,
      "Ġgirls": 3140,
      "Ġkorea": 3141,
      "personal": 3142,
      "known": 3143,
      "Ġjournal": 3144,
      "Ġcustom": 3145,
      "Ġegg": 3146,
      "Ġvirginia": 3147,
      "Ġguaiacol": 3148,
      ");": 3149,
      ".[": 3150,
      "bia": 3151,
      "cks": 3152,
      "di": 3153,
      "hide": 3154,
      "ken": 3155,
      "uel": 3156,
      "Ġ:": 3157,
      "Ġaw": 3158,
      "head": 3159,
      "inct": 3160,
      "Ġoh": 3161,
      "Ġsent": 3162,
      "isse": 3163,
      "Ġwro": 3164,
      "Ġcricket": 3165,
      "itation": 3166,
      "Ġflow": 3167,
      "eds": 3168,
      "eding": 3169,
      "Ġinh": 3170,
      "Ġmi": 3171,
      "aria": 3172,
      "Ġdou": 3173,
      "Ġnintendo": 3174,
      "Ġemer": 3175,
      "Ġalignment": 3176,
      "eline": 3177,
      "ĠâĢĵ": 3178,
      "Ġmarri": 3179,
      "Ġquar": 3180,
      "Ġcommission": 3181,
      "hyoideus": 3182,
      "Ġ1993": 3183,
      "Ġboard": 3184,
      "Ġupon": 3185,
      "Ġmont": 3186,
      "Ġattribution": 3187,
      "Ġlonger": 3188,
      "cohol": 3189,
      "Ġsystems": 3190,
      "Ġcommunities": 3191,
      "Ġaccount": 3192,
      "ength": 3193,
      "Ġinside": 3194,
      "Ġdynam": 3195,
      "Ġsuccessful": 3196,
      "Ġpurpose": 3197,
      "Ġlibrary": 3198,
      "Ġnominated": 3199,
      "Ġlaunched": 3200,
      "Ġmultiple": 3201,
      "Ġbootstra": 3202,
      "Ġtheatre": 3203,
      "Ġchannel": 3204,
      "Ġmaterial": 3205,
      "Ġwrote": 3206,
      "down": 3207,
      "ij": 3208,
      "km": 3209,
      "pite": 3210,
      "Ġtry": 3211,
      "Ġpaper": 3212,
      "Ġmem": 3213,
      "Ġmach": 3214,
      "Ġhor": 3215,
      "Ġhock": 3216,
      "Ġhabit": 3217,
      "Ġgree": 3218,
      "ilities": 3219,
      "Ġbeach": 3220,
      "olar": 3221,
      "these": 3222,
      "istic": 3223,
      "Ġvice": 3224,
      "Ġdeep": 3225,
      "Ġnote": 3226,
      "Ġgoes": 3227,
      "ondisse": 3228,
      "Ġcontain": 3229,
      "Ġreserv": 3230,
      "Ġmex": 3231,
      "Ġupper": 3232,
      "Ġpercent": 3233,
      "Ġblue": 3234,
      "Ġmoving": 3235,
      "Ġtypes": 3236,
      "Ġpoints": 3237,
      "Ġfrequently": 3238,
      "Ġrespons": 3239,
      "Ġculture": 3240,
      "Ġquestion": 3241,
      "Ġarrondisse": 3242,
      "Ġspoken": 3243,
      "Ġcandid": 3244,
      "Ġmicro": 3245,
      "bel": 3246,
      "fr": 3247,
      "fect": 3248,
      "iro": 3249,
      "mon": 3250,
      "mission": 3251,
      "oon": 3252,
      "pm": 3253,
      "popul": 3254,
      "Ġice": 3255,
      "Ġtar": 3256,
      "Ġtell": 3257,
      "Ġwide": 3258,
      "Ġcou": 3259,
      "Ġcir": 3260,
      "orth": 3261,
      "Ġder": 3262,
      "Ġgeller": 3263,
      "Ġey": 3264,
      "Ġever": 3265,
      "Ġwashington": 3266,
      "Ġstage": 3267,
      "aya": 3268,
      "Ġasia": 3269,
      "ume": 3270,
      "seus": 3271,
      "Ġkil": 3272,
      "Ġchic": 3273,
      "uge": 3274,
      "Ġplayers": 3275,
      "Ġappoint": 3276,
      "igned": 3277,
      "Ġboys": 3278,
      "dule": 3279,
      "indigenous": 3280,
      "Ġsecurity": 3281,
      "Ġ1984": 3282,
      "ghan": 3283,
      "Ġregular": 3284,
      "Ġspecific": 3285,
      "book": 3286,
      "Ġhumans": 3287,
      "Ġwiki": 3288,
      "Ġexperim": 3289,
      "Ġplease": 3290,
      "Ġlimited": 3291,
      "Ġconditions": 3292,
      "Ġkilled": 3293,
      "Ġcorrect": 3294,
      "'ll": 3295,
      "69": 3296,
      "][": 3297,
      "car": 3298,
      "nic": 3299,
      "oir": 3300,
      "py": 3301,
      "ply": 3302,
      "sm": 3303,
      "varian": 3304,
      "Ġ)": 3305,
      "Ġath": 3306,
      "Ġthems": 3307,
      "Ġwall": 3308,
      "Ġface": 3309,
      "Ġbank": 3310,
      "ally": 3311,
      "also": 3312,
      "Ġmol": 3313,
      "Ġmort": 3314,
      "Ġmix": 3315,
      "Ġtobacco": 3316,
      "Ġren": 3317,
      "Ġreach": 3318,
      "chan": 3319,
      "Ġalmost": 3320,
      "Ġrather": 3321,
      "Ġconc": 3322,
      "berg": 3323,
      "Ġplant": 3324,
      "Ġusers": 3325,
      "Ġlev": 3326,
      "aking": 3327,
      "Ġrot": 3328,
      "apt": 3329,
      "Ġenc": 3330,
      "Ġspain": 3331,
      "Ġquality": 3332,
      "ibility": 3333,
      "Ġscre": 3334,
      "Ġcontains": 3335,
      "Ġbox": 3336,
      "Ġdistances": 3337,
      "Ġ1973": 3338,
      "Ġjoined": 3339,
      "Ġsongs": 3340,
      "Ġwriting": 3341,
      "Ġlaws": 3342,
      "Ġstreams": 3343,
      "Ġconfir": 3344,
      "Ġcataly": 3345,
      "Ġcareer": 3346,
      "Ġexperience": 3347,
      "Ġhighest": 3348,
      "Ġprofessor": 3349,
      "Ġancest": 3350,
      "Ġpressure": 3351,
      "Ġconstitution": 3352,
      "Ġrichmond": 3353,
      "Ġcomputer": 3354,
      "Ġdestroy": 3355,
      "Ġdatabase": 3356,
      "Ġgeographical": 3357,
      "Ġdemocratic": 3358,
      "Ġelectoral": 3359,
      "Ġsprite": 3360,
      "ropolitan": 3361,
      "'re": 3362,
      "48": 3363,
      "face": 3364,
      "field": 3365,
      "ht": 3366,
      "ped": 3367,
      "some": 3368,
      "wood": 3369,
      "you": 3370,
      "Ġtur": 3371,
      "Ġtawa": 3372,
      "eria": 3373,
      "Ġphen": 3374,
      "Ġansw": 3375,
      "Ġdut": 3376,
      "Ġly": 3377,
      "Ġham": 3378,
      "Ġgave": 3379,
      "omas": 3380,
      "str": 3381,
      "ston": 3382,
      "Ġrang": 3383,
      "agn": 3384,
      "ÂłĊ": 3385,
      "Ġdead": 3386,
      "Ġadults": 3387,
      "Ġspat": 3388,
      "Ġspread": 3389,
      "ĠâĢĶ": 3390,
      "Ġmario": 3391,
      "wealth": 3392,
      "Ġwhole": 3393,
      "Ġago": 3394,
      "ensus": 3395,
      "Ġ1982": 3396,
      "Ġmetropolitan": 3397,
      "comp": 3398,
      "Ġfludd": 3399,
      "board": 3400,
      "Ġauthors": 3401,
      "Ġinstall": 3402,
      "Ġbrown": 3403,
      "Ġrevolution": 3404,
      "Ġarticles": 3405,
      "Ġcollection": 3406,
      "ivided": 3407,
      "airs": 3408,
      "Ġeasy": 3409,
      "ready": 3410,
      "Ġprovides": 3411,
      "Ġlatin": 3412,
      "Ġcells": 3413,
      "Ġorthologs": 3414,
      "Ġvictoria": 3415,
      "Ġmeasure": 3416,
      "Ġadolescents": 3417,
      "Ġmentioned": 3418,
      "Ġbenef": 3419,
      "Ġmexico": 3420,
      "Ġthemselves": 3421,
      "32": 3422,
      "59": 3423,
      "http": 3424,
      "pa": 3425,
      "part": 3426,
      "ram": 3427,
      "set": 3428,
      "tree": 3429,
      "west": 3430,
      "Ġara": 3431,
      "Ġtheory": 3432,
      "reme": 3433,
      "erous": 3434,
      "Ġpers": 3435,
      "orge": 3436,
      "Ġlos": 3437,
      "Ġlost": 3438,
      "Ġlength": 3439,
      "Ġglob": 3440,
      "Ġeat": 3441,
      "Ġeight": 3442,
      "Ġreve": 3443,
      "ili": 3444,
      "Ġbeings": 3445,
      "Ġbeaut": 3446,
      "ided": 3447,
      "adp": 3448,
      "Ġseven": 3449,
      "oper": 3450,
      "opter": 3451,
      "istry": 3452,
      "sec": 3453,
      "ests": 3454,
      "ube": 3455,
      "people": 3456,
      "Ġ37": 3457,
      "Ġcoach": 3458,
      "Ġ1994": 3459,
      "Ġrespect": 3460,
      "Ġwilli": 3461,
      "mediate": 3462,
      "Ġcoll": 3463,
      "Ġsuff": 3464,
      "Ġnormal": 3465,
      "Ġgreater": 3466,
      "ĊĊÂłÂłÂłÂłÂłÂłÂłÂł": 3467,
      "Ġ170": 3468,
      "Ġcommonwealth": 3469,
      "uke": 3470,
      "Ġsky": 3471,
      "Ġofficially": 3472,
      "Ġoriginally": 3473,
      "Ġchampionships": 3474,
      "Ġlooking": 3475,
      "Ġlicens": 3476,
      "Ġafrican": 3477,
      "Ġbattle": 3478,
      "Ġfuture": 3479,
      "Ġtropical": 3480,
      "Ġexecutive": 3481,
      "Ġarrondissement": 3482,
      "Ġchicago": 3483,
      "Ġappointed": 3484,
      "des": 3485,
      "ga": 3486,
      "paces": 3487,
      "sen": 3488,
      "inary": 3489,
      "itzer": 3490,
      "Ġmur": 3491,
      "Ġlines": 3492,
      "Ġislam": 3493,
      "Ġgard": 3494,
      "Ġstay": 3495,
      "Ġstyle": 3496,
      "verb": 3497,
      "Ġalas": 3498,
      "Ġalready": 3499,
      "Ġjew": 3500,
      "istant": 3501,
      "Ġnether": 3502,
      "Ġusa": 3503,
      "Ġshare": 3504,
      "ellig": 3505,
      "Ġafghan": 3506,
      "Ġnov": 3507,
      "Ġnovel": 3508,
      "Ġmechan": 3509,
      "Ġcolon": 3510,
      "Ġsomeone": 3511,
      "Ġdiffic": 3512,
      "Ġfeatures": 3513,
      "Ġ1983": 3514,
      "Ġ1985": 3515,
      "Ġdistribution": 3516,
      "Ġpoly": 3517,
      "Ġregard": 3518,
      "Ġ1976": 3519,
      "Ġprinc": 3520,
      "Ġfollows": 3521,
      "Ġrecorded": 3522,
      "Ġtransport": 3523,
      "Ġbelong": 3524,
      "Ġsays": 3525,
      "Ġrepresentative": 3526,
      "Ġselection": 3527,
      "family": 3528,
      "Ġincreased": 3529,
      "Ġactivity": 3530,
      "Ġfrequency": 3531,
      "Ġconstitu": 3532,
      "Ġdescribed": 3533,
      "Ġinstitute": 3534,
      "Ġimpact": 3535,
      "Ġdetermin": 3536,
      "Ġbootstrap": 3537,
      "Ġhockey": 3538,
      "Ġdifficult": 3539,
      "47": 3540,
      "77": 3541,
      "based": 3542,
      "ee": 3543,
      "iences": 3544,
      "ky": 3545,
      "ker": 3546,
      "key": 3547,
      "men": 3548,
      "ĠS": 3549,
      "ining": 3550,
      "Ġcause": 3551,
      "Ġmart": 3552,
      "Ġdra": 3553,
      "Ġhun": 3554,
      "Ġnuc": 3555,
      "Ġgar": 3556,
      "ils": 3557,
      "Ġstaff": 3558,
      "ida": 3559,
      "idem": 3560,
      "Ġrat": 3561,
      "Ġven": 3562,
      "Ġdehydro": 3563,
      "Ġconcer": 3564,
      "ables": 3565,
      "Ġuser": 3566,
      "aphy": 3567,
      "Ġability": 3568,
      "Ġspin": 3569,
      "Ġcoal": 3570,
      "many": 3571,
      "mance": 3572,
      "Ġoffer": 3573,
      "Ġ60": 3574,
      "Ġsym": 3575,
      "overed": 3576,
      "Ġtraffic": 3577,
      "Ġcarol": 3578,
      "ĊĊĠĠĠĠĠ": 3579,
      "Ġscholar": 3580,
      "Ġanalyz": 3581,
      "Ġpoor": 3582,
      "Ġautom": 3583,
      "Ġbuildings": 3584,
      "bec": 3585,
      "Ġschools": 3586,
      "Ġviews": 3587,
      "Ġcompetition": 3588,
      "Ġepidem": 3589,
      "Ġbiggest": 3590,
      "Ġprojects": 3591,
      "Ġukra": 3592,
      "Ġraised": 3593,
      "Ġmanagement": 3594,
      "Ġactivities": 3595,
      "Ġmovement": 3596,
      "Ġlegislature": 3597,
      "Ġrules": 3598,
      "Ġtreatment": 3599,
      "Ġhurric": 3600,
      "Ġethnic": 3601,
      "Ġintegr": 3602,
      "Ġcatholic": 3603,
      "Ġestablished": 3604,
      "variants": 3605,
      "Ġnetherlands": 3606,
      "Ġnucle": 3607,
      "Ġdehydrogen": 3608,
      "55": 3609,
      "89": 3610,
      "ault": 3611,
      "cal": 3612,
      "ds": 3613,
      "fig": 3614,
      "navigation": 3615,
      "sub": 3616,
      "van": 3617,
      "wer": 3618,
      "Ã£": 3619,
      "Ġta": 3620,
      "Ġale": 3621,
      "isions": 3622,
      "ites": 3623,
      "Ġmess": 3624,
      "station": 3625,
      "Ġstro": 3626,
      "ador": 3627,
      "Ġalcohol": 3628,
      "eli": 3629,
      "Ġseat": 3630,
      "Ġvent": 3631,
      "Ġcommer": 3632,
      "erem": 3633,
      "Ġcontext": 3634,
      "Ġord": 3635,
      "ival": 3636,
      "osen": 3637,
      "ively": 3638,
      "Ġpeak": 3639,
      "Ġyouth": 3640,
      "Ġplaying": 3641,
      "Ġimages": 3642,
      "Ġgeneration": 3643,
      "Ġ1974": 3644,
      "Ġ1979": 3645,
      "Ġtrains": 3646,
      "ught": 3647,
      "proverb": 3648,
      "Ġaddition": 3649,
      "Ġprovide": 3650,
      "Ġmedic": 3651,
      "Ġannual": 3652,
      "Ġpresidential": 3653,
      "grad": 3654,
      "Ġconstruction": 3655,
      "Ġfactor": 3656,
      "bridge": 3657,
      "Ġrepresentatives": 3658,
      "Ġorganization": 3659,
      "Ġreally": 3660,
      "Ġborder": 3661,
      "Ġapplied": 3662,
      "Ġtemperatures": 3663,
      "Ġfifth": 3664,
      "Ġhotel": 3665,
      "Ġtraining": 3666,
      "Ġhistoric": 3667,
      "namespaces": 3668,
      "Ġsurvey": 3669,
      "Ġquarter": 3670,
      "Ġkilomet": 3671,
      "Ġglobal": 3672,
      "cial": 3673,
      "gal": 3674,
      "hood": 3675,
      "ki": 3676,
      "la": 3677,
      "like": 3678,
      "mod": 3679,
      "rast": 3680,
      "war": 3681,
      "inet": 3682,
      "Ġoil": 3683,
      "Ġwa": 3684,
      "Ġpp": 3685,
      "Ġbott": 3686,
      "edom": 3687,
      "arily": 3688,
      "Ġredu": 3689,
      "oms": 3690,
      "they": 3691,
      "ota": 3692,
      "eter": 3693,
      "ulae": 3694,
      "Ġkama": 3695,
      "Ġchall": 3696,
      "Ġcondu": 3697,
      "Ġneigh": 3698,
      "ategy": 3699,
      "Ġexcept": 3700,
      "oke": 3701,
      "forms": 3702,
      "Ġcoins": 3703,
      "aves": 3704,
      "Ġperform": 3705,
      "Ġ186": 3706,
      "Ġblock": 3707,
      "Ġ1986": 3708,
      "Ġ1987": 3709,
      "Ġpolo": 3710,
      "Ġ1978": 3711,
      "Ġ1960": 3712,
      "Ġbookmar": 3713,
      "Ġmatches": 3714,
      "Ġentire": 3715,
      "inese": 3716,
      "Ġbrother": 3717,
      "Ġtemple": 3718,
      "borne": 3719,
      "Ġchampion": 3720,
      "Ġcauses": 3721,
      "Ġlisted": 3722,
      "Ġlisting": 3723,
      "Ġprotect": 3724,
      "Ġinvest": 3725,
      "Ġrepresented": 3726,
      "Ġrestaur": 3727,
      "Ġtype": 3728,
      "Ġliter": 3729,
      "Ġelse": 3730,
      "Ġorthology": 3731,
      "Ġindependence": 3732,
      "Ġissue": 3733,
      "Ġissues": 3734,
      "Ġdiagn": 3735,
      "Ġreturned": 3736,
      "Ġpractice": 3737,
      "Ġchoice": 3738,
      "Ġpolicy": 3739,
      "Ġpotential": 3740,
      "Ġcitiz": 3741,
      "Ġnickel": 3742,
      "encies": 3743,
      "Ġmarriage": 3744,
      "Ġreservoir": 3745,
      "'m": 3746,
      "bu": 3747,
      "bon": 3748,
      "bar": 3749,
      "cur": 3750,
      "ique": 3751,
      "mo": 3752,
      "ned": 3753,
      "tical": 3754,
      "word": 3755,
      "Â·": 3756,
      "Ġtam": 3757,
      "Ġactor": 3758,
      "Ġsand": 3759,
      "Ġsure": 3760,
      "onia": 3761,
      "enced": 3762,
      "iting": 3763,
      "itude": 3764,
      "Ġpay": 3765,
      "Ġpac": 3766,
      "Ġfis": 3767,
      "Ġfish": 3768,
      "Ġbang": 3769,
      "Ġmad": 3770,
      "Ġmich": 3771,
      "astern": 3772,
      "Ġdivided": 3773,
      "Ġlists": 3774,
      "Ġho": 3775,
      "Ġreached": 3776,
      "cts": 3777,
      "Ġforces": 3778,
      "Ġrain": 3779,
      "Ġjames": 3780,
      "agon": 3781,
      "Ġmother": 3782,
      "Ġcoming": 3783,
      "Ġchance": 3784,
      "aches": 3785,
      "Ġparties": 3786,
      "Ġtherefore": 3787,
      "Ġapple": 3788,
      "Ġscale": 3789,
      "Ġscott": 3790,
      "Ġacqu": 3791,
      "Ġpolice": 3792,
      "Ġsymb": 3793,
      "Ġbridge": 3794,
      "Ġactually": 3795,
      "Ġhyo": 3796,
      "Ġfollowed": 3797,
      "Ġentertain": 3798,
      "Ġavoid": 3799,
      "Ġtaking": 3800,
      "Ġstrategy": 3801,
      "Ġcompanies": 3802,
      "related": 3803,
      "ledge": 3804,
      "Ġreligion": 3805,
      "Ġperformance": 3806,
      "Ġmethods": 3807,
      "Ġvisitors": 3808,
      "Ġdetails": 3809,
      "Ġproblem": 3810,
      "Ġindustry": 3811,
      "Ġpaul": 3812,
      "Ġspirit": 3813,
      "Ġscientific": 3814,
      "%)": 3815,
      "51": 3816,
      "care": 3817,
      "cular": 3818,
      "fact": 3819,
      "iers": 3820,
      "lar": 3821,
      "net": 3822,
      "rd": 3823,
      "source": 3824,
      "tool": 3825,
      "Ã¼": 3826,
      "ĠÂł": 3827,
      "Ġtick": 3828,
      "ises": 3829,
      "Ġwife": 3830,
      "ales": 3831,
      "Ġmary": 3832,
      "asing": 3833,
      "Ġlou": 3834,
      "Ġtowards": 3835,
      "Ġthomas": 3836,
      "Ġfort": 3837,
      "Ġstations": 3838,
      "oting": 3839,
      "Ġaltern": 3840,
      "terior": 3841,
      "Ġvote": 3842,
      "Ġmodule": 3843,
      "Ġchinese": 3844,
      "ocks": 3845,
      "Ġleigh": 3846,
      "Ġ32": 3847,
      "Ġ33": 3848,
      "Ġ36": 3849,
      "ption": 3850,
      "Ġindex": 3851,
      "Ġcloud": 3852,
      "Ġcover": 3853,
      "Ġagency": 3854,
      "Ġwars": 3855,
      "Ġflor": 3856,
      "Ġguide": 3857,
      "plement": 3858,
      "Ġtransfer": 3859,
      "Ġdownload": 3860,
      "Ġcommonly": 3861,
      "Ġemploy": 3862,
      "Ġleading": 3863,
      "Ġdefe": 3864,
      "Ġeasily": 3865,
      "Ġbasic": 3866,
      "Ġruns": 3867,
      "Ġvolley": 3868,
      "Ġrocket": 3869,
      "culi": 3870,
      "Ġplatforms": 3871,
      "Ġoccup": 3872,
      "Ġmulti": 3873,
      "Ġincrease": 3874,
      "address": 3875,
      "ĊĠĠĠĠĠ": 3876,
      "Ġquestions": 3877,
      "Ġepisode": 3878,
      "Ġhills": 3879,
      "Ġwatch": 3880,
      "Ġmotor": 3881,
      "Ġproblems": 3882,
      "Ġbroadcast": 3883,
      "Ġrecommend": 3884,
      "Ġcomposition": 3885,
      "Ġinhabit": 3886,
      "Ġmortality": 3887,
      "85": 3888,
      "95": 3889,
      "ael": 3890,
      "cite": 3891,
      "dis": 3892,
      "han": 3893,
      "how": 3894,
      "hold": 3895,
      "ius": 3896,
      "joy": 3897,
      "kins": 3898,
      "oe": 3899,
      "tl": 3900,
      "yl": 3901,
      "hel": 3902,
      "Ġsin": 3903,
      "Ġcorn": 3904,
      "Ġbal": 3905,
      "Ġinj": 3906,
      "Ġmac": 3907,
      "omed": 3908,
      "unity": 3909,
      "Ġstra": 3910,
      "Ġstaphy": 3911,
      "lying": 3912,
      "thon": 3913,
      "ulf": 3914,
      "Ġrh": 3915,
      "Ġrare": 3916,
      "Ġyellow": 3917,
      "ift": 3918,
      "sea": 3919,
      "sey": 3920,
      "Ġvo": 3921,
      "Ġdegrad": 3922,
      "Ġchosen": 3923,
      "Ġconference": 3924,
      "Ġrob": 3925,
      "ips": 3926,
      "Ġ300": 3927,
      "ights": 3928,
      "Ġcompon": 3929,
      "Ġallows": 3930,
      "ricts": 3931,
      "Ġcontact": 3932,
      "Ġresort": 3933,
      "Ġelections": 3934,
      "Ġperm": 3935,
      "Ġ2025": 3936,
      "ension": 3937,
      "Ġdistinct": 3938,
      "Ġcreation": 3939,
      "Ġoppos": 3940,
      "Ġdespite": 3941,
      "chester": 3942,
      "Ġgrass": 3943,
      "Ġpositive": 3944,
      "Ġsequel": 3945,
      "Ġphysical": 3946,
      "Ġorigin": 3947,
      "Ġvariab": 3948,
      "Ġirish": 3949,
      "Ġskill": 3950,
      "Ġneeded": 3951,
      "Ġfunctions": 3952,
      "Ġjohnson": 3953,
      "Ġbasket": 3954,
      "Ġrunning": 3955,
      "Ġrefer": 3956,
      "anned": 3957,
      "Ġexpress": 3958,
      "Ġaffect": 3959,
      "Ġfederation": 3960,
      "Ġmanager": 3961,
      "Ġtalk": 3962,
      "Ġsexual": 3963,
      "breeding": 3964,
      "Ġdatabases": 3965,
      "lococ": 3966,
      "mitted": 3967,
      "Ġhappened": 3968,
      "Ġrecognized": 3969,
      "Ġtraditional": 3970,
      "Ġimprove": 3971,
      "Ġbbc": 3972,
      "Ġemerg": 3973,
      "Ġathlet": 3974,
      "Ġspatial": 3975,
      "Ġarab": 3976,
      "Ġafghanistan": 3977,
      "Ã£o": 3978,
      "Ġvolleyball": 3979,
      "Ġdegradation": 3980,
      "Ġvariables": 3981,
      "03": 3982,
      "41": 3983,
      "gian": 3984,
      "hib": 3985,
      "house": 3986,
      "md": 3987,
      "ores": 3988,
      "rich": 3989,
      "vid": 3990,
      "yan": 3991,
      "Ġ#": 3992,
      "Ġic": 3993,
      "Ġur": 3994,
      "Ġige": 3995,
      "Ġtag": 3996,
      "Ġaction": 3997,
      "Ġwww": 3998,
      "Ġce": 3999,
      "atory": 4000,
      "atics": 4001,
      "Ġpow": 4002,
      "Ġpick": 4003,
      "Ġben": 4004,
      "Ġmun": 4005,
      "ican": 4006,
      "Ġnar": 4007,
      "Ġech": 4008,
      "Ġrear": 4009,
      "Ġbeew": 4010,
      "Ġstone": 4011,
      "Ġ(,": 4012,
      "uments": 4013,
      "âĢľ": 4014,
      "Ġexact": 4015,
      "soft": 4016,
      "Ġspring": 4017,
      "Ġmarine": 4018,
      "formed": 4019,
      "Ġnose": 4020,
      "Ġcontest": 4021,
      "Ġdoctor": 4022,
      "Ġitself": 4023,
      "Ġintellig": 4024,
      "Ġfeature": 4025,
      "Ġgener": 4026,
      "Ġminor": 4027,
      "Ġ1975": 4028,
      "Ġoverall": 4029,
      "Ġmetal": 4030,
      "Ġ1966": 4031,
      "Ġ1969": 4032,
      "Ġinterp": 4033,
      "Ġ1950": 4034,
      "Ġanalyses": 4035,
      "Ġsmaller": 4036,
      "Ġswim": 4037,
      "Ġswitzer": 4038,
      "Ġmodels": 4039,
      "Ġwebcite": 4040,
      "Ġsurround": 4041,
      "Ġneeds": 4042,
      "Ġcompleted": 4043,
      "Ġmajority": 4044,
      "Ġmeaning": 4045,
      "Ġrequired": 4046,
      "Ġtaxi": 4047,
      "Ġdifference": 4048,
      "Ġsignificantly": 4049,
      "Ġlearned": 4050,
      "Ġangel": 4051,
      "Ġinfluence": 4052,
      "Ġviol": 4053,
      "john": 4054,
      "Ġpackage": 4055,
      "Ġparasite": 4056,
      "Ġadopted": 4057,
      "Ġdynamics": 4058,
      "html": 4059,
      "Ġphenol": 4060,
      "Ġanalyzed": 4061,
      "Ġnuclear": 4062,
      "Ġbottom": 4063,
      "Ġsymbol": 4064,
      "Ġstaphylococ": 4065,
      "Ġbasketball": 4066,
      "bors": 4067,
      "crit": 4068,
      "den": 4069,
      "during": 4070,
      "fa": 4071,
      "fl": 4072,
      "just": 4073,
      "mc": 4074,
      "ng": 4075,
      "nel": 4076,
      "num": 4077,
      "since": 4078,
      "ta": 4079,
      "ya": 4080,
      "Ġox": 4081,
      "rew": 4082,
      "Ġsav": 4083,
      "Ġfill": 4084,
      "Ġfav": 4085,
      "Ġgall": 4086,
      "Ġthalian": 4087,
      "olk": 4088,
      "oly": 4089,
      "otations": 4090,
      "uth": 4091,
      "Ġ(;": 4092,
      "opus": 4093,
      "Ġjer": 4094,
      "iful": 4095,
      "Ġviet": 4096,
      "Ġcomfort": 4097,
      "Ġdeb": 4098,
      "Ġorche": 4099,
      "quar": 4100,
      "empt": 4101,
      "Ġleap": 4102,
      "Ġexternal": 4103,
      "Ġsplit": 4104,
      "Ġplaystation": 4105,
      "Ġquite": 4106,
      "Ġclin": 4107,
      "Ġclosed": 4108,
      "Ġclaim": 4109,
      "acters": 4110,
      "aily": 4111,
      "Ġagre": 4112,
      "Ġtrade": 4113,
      "Ġelement": 4114,
      "Ġperseus": 4115,
      "Ġaustria": 4116,
      "neigh": 4117,
      "Ġ64": 4118,
      "Ġfoundation": 4119,
      "Ġlarger": 4120,
      "Ġprison": 4121,
      "Ġopport": 4122,
      "Ġmuscle": 4123,
      "Ġarts": 4124,
      "Ġcharles": 4125,
      "Ġcharacters": 4126,
      "Ġhypo": 4127,
      "Ġ1952": 4128,
      "Ġ1956": 4129,
      "Ġedge": 4130,
      "Ġcorpor": 4131,
      "Ġgives": 4132,
      "Ġoperculi": 4133,
      "Ġorganis": 4134,
      "Ġmiles": 4135,
      "Ġappeared": 4136,
      "Ġportug": 4137,
      "Ġaffairs": 4138,
      "Ġbelieved": 4139,
      "Ġpeter": 4140,
      "Ġphilipp": 4141,
      "Ġproducts": 4142,
      "years": 4143,
      "Ġchristian": 4144,
      "adesh": 4145,
      "Ġeffects": 4146,
      "Ġanti": 4147,
      "Ġiniti": 4148,
      "Ġdirectly": 4149,
      "Ġseparate": 4150,
      "Ġdebuted": 4151,
      "Ġupdate": 4152,
      "Ġadministration": 4153,
      "Ġsweden": 4154,
      "Ġaccepted": 4155,
      "Ġcategory": 4156,
      "Ġrapid": 4157,
      "Ġconcert": 4158,
      "Ġconfirmed": 4159,
      "Ġcarolina": 4160,
      "Ġhurricane": 4161,
      "Ġconducted": 4162,
      "Ġliterature": 4163,
      "Ġinhabitants": 4164,
      "Ġthaliana": 4165,
      "500": 4166,
      "73": 4167,
      "99": 4168,
      "df": 4169,
      "dney": 4170,
      "his": 4171,
      "met": 4172,
      "ny": 4173,
      "name": 4174,
      "pri": 4175,
      "rs": 4176,
      "rim": 4177,
      "tain": 4178,
      "ua": 4179,
      "va": 4180,
      "vis": 4181,
      "wik": 4182,
      "Ġtv": 4183,
      "Ġses": 4184,
      "Ġsample": 4185,
      "Ġcin": 4186,
      "Ġpun": 4187,
      "Ġfast": 4188,
      "Ġbc": 4189,
      "Ġbul": 4190,
      "Ġbacter": 4191,
      "Ġdaily": 4192,
      "Ġhm": 4193,
      "ingu": 4194,
      "enty": 4195,
      "oming": 4196,
      "Ġones": 4197,
      "idents": 4198,
      "chol": 4199,
      "Ġhero": 4200,
      "Ġdeal": 4201,
      "Ġdegree": 4202,
      "Ġconcept": 4203,
      "pected": 4204,
      "iance": 4205,
      "Ġshall": 4206,
      "Ġenjoy": 4207,
      "Ġquint": 4208,
      "izza": 4209,
      "Ġworldwide": 4210,
      "associ": 4211,
      "Ġparis": 4212,
      "Ġparks": 4213,
      "Ġfeel": 4214,
      "Ġoffers": 4215,
      "Ġ70": 4216,
      "ifications": 4217,
      "Ġsubtree": 4218,
      "Ġconsum": 4219,
      "chem": 4220,
      "Ġuseful": 4221,
      "Ġbring": 4222,
      "Ġcharge": 4223,
      "Ġ1964": 4224,
      "Ġawarded": 4225,
      "iverse": 4226,
      "Ġpatient": 4227,
      "Ġhimself": 4228,
      "Ġdrink": 4229,
      "Ġleaders": 4230,
      "Ġgeorg": 4231,
      "Ġgeorge": 4232,
      "Ġgenerally": 4233,
      "Ġgreatest": 4234,
      "Ġnewsp": 4235,
      "Ġsupported": 4236,
      "Ġbillboard": 4237,
      "Ġdevice": 4238,
      "Ġhistorical": 4239,
      "Ġqueen": 4240,
      "Ġraney": 4241,
      "Ġstorm": 4242,
      "Ġargent": 4243,
      "Ġfloor": 4244,
      "Ġelectricity": 4245,
      "Ġphylogenetic": 4246,
      "Ġprices": 4247,
      "Ġgraduated": 4248,
      "Ġeggs": 4249,
      "Ġreveal": 4250,
      "Ġdehydrogenase": 4251,
      "Ġmedicine": 4252,
      "Ġpacific": 4253,
      "toolbox": 4254,
      "Ġinterpret": 4255,
      "Ġswitzerland": 4256,
      "\"/": 4257,
      "42": 4258,
      "='": 4259,
      "pub": 4260,
      "top": 4261,
      "tag": 4262,
      "win": 4263,
      "wat": 4264,
      "Ġtenn": 4265,
      "help": 4266,
      "Ġsus": 4267,
      "atically": 4268,
      "Ġfa": 4269,
      "Ġfig": 4270,
      "edy": 4271,
      "alu": 4272,
      "alike": 4273,
      "Ġmes": 4274,
      "road": 4275,
      "icated": 4276,
      "Ġlik": 4277,
      "Ġnine": 4278,
      "Ġnative": 4279,
      "Ġgal": 4280,
      "uscript": 4281,
      "Ġreferences": 4282,
      "olished": 4283,
      "olves": 4284,
      "Ġhear": 4285,
      "Ġherit": 4286,
      "Ġask": 4287,
      "Ġjun": 4288,
      "sequ": 4289,
      "Ġmob": 4290,
      "Ġmole": 4291,
      "rial": 4292,
      "Ġproced": 4293,
      "iable": 4294,
      "Ġshape": 4295,
      "Ġroot": 4296,
      "Ġrout": 4297,
      "ured": 4298,
      "ugs": 4299,
      "Ġgoals": 4300,
      "ardi": 4301,
      "Ġmanuscript": 4302,
      "Ġcovid": 4303,
      "Ġsoon": 4304,
      "Ġnumerous": 4305,
      "Ġmayor": 4306,
      "Ġeleg": 4307,
      "Ġevidence": 4308,
      "Ġ1981": 4309,
      "Ġdistricts": 4310,
      "Ġsydney": 4311,
      "Ġcred": 4312,
      "Ġsuburb": 4313,
      "Ġwarm": 4314,
      "Ġgetting": 4315,
      "Ġ1962": 4316,
      "Ġ1967": 4317,
      "Ġ1968": 4318,
      "Ġanyone": 4319,
      "rought": 4320,
      "Ġwrite": 4321,
      "Ġconstell": 4322,
      "azine": 4323,
      "Ġsurv": 4324,
      "Ġdefense": 4325,
      "Ġvalley": 4326,
      "Ġskin": 4327,
      "Ġconfed": 4328,
      "Ġfreedom": 4329,
      "Ġeffort": 4330,
      "Ġknowledge": 4331,
      "Ġsolid": 4332,
      "Ġappears": 4333,
      "ĠÂ£": 4334,
      "Ġdrive": 4335,
      "Ġlegislative": 4336,
      "Ġoptions": 4337,
      "Ġevolutionary": 4338,
      "Ġetc": 4339,
      "Ġqueens": 4340,
      "Ġdetailed": 4341,
      "Ġcambridge": 4342,
      "Ġbehavior": 4343,
      "Ġbeginning": 4344,
      "Ġdouble": 4345,
      "Ġscreen": 4346,
      "Ġentertainment": 4347,
      "Ġlouis": 4348,
      "associated": 4349,
      "\"/>": 4350,
      "01": 4351,
      "05": 4352,
      "06": 4353,
      "79": 4354,
      "dc": 4355,
      "har": 4356,
      "ladesh": 4357,
      "ners": 4358,
      "och": 4359,
      "rated": 4360,
      "sud": 4361,
      "spec": 4362,
      "south": 4363,
      "tion": 4364,
      "ux": 4365,
      "vant": 4366,
      "wing": 4367,
      "with": 4368,
      "Ġtadp": 4369,
      "Ġaim": 4370,
      "Ġslow": 4371,
      "erior": 4372,
      "ita": 4373,
      "Ġpil": 4374,
      "Ġpain": 4375,
      "Ġfail": 4376,
      "Ġburn": 4377,
      "alle": 4378,
      "Ġanterior": 4379,
      "rol": 4380,
      "Ġdav": 4381,
      "Ġlack": 4382,
      "Ġhom": 4383,
      "Ġhung": 4384,
      "adow": 4385,
      "lysis": 4386,
      "imum": 4387,
      "Ġrivers": 4388,
      "Ġseats": 4389,
      "Ġyidd": 4390,
      "ithm": 4391,
      "sex": 4392,
      "Ġmos": 4393,
      "ravel": 4394,
      "Ġprogress": 4395,
      "atechol": 4396,
      "ogen": 4397,
      "Ġpeace": 4398,
      "Ġarms": 4399,
      "Ġarcus": 4400,
      "Ġquotation": 4401,
      "Ġimmediate": 4402,
      "Ġimplement": 4403,
      "Ġ500": 4404,
      "fully": 4405,
      "Ġoutput": 4406,
      "Ġspeed": 4407,
      "Ġprec": 4408,
      "Ġpred": 4409,
      "Ġregions": 4410,
      "Ġbuy": 4411,
      "Ġmonarch": 4412,
      "shire": 4413,
      "Ġcars": 4414,
      "Ġ1961": 4415,
      "Ġgrant": 4416,
      "Ġinterview": 4417,
      "Ġflat": 4418,
      "Ġtested": 4419,
      "Ġolder": 4420,
      "Ġ1958": 4421,
      "Ġstars": 4422,
      "Ġjustice": 4423,
      "Ġvariet": 4424,
      "Ġwinner": 4425,
      "Ġsaying": 4426,
      "Ġoperating": 4427,
      "Ġsona": 4428,
      "Ġofficer": 4429,
      "Ġdidn": 4430,
      "Ġdoesn": 4431,
      "Ġcharacteristics": 4432,
      "Ġdomin": 4433,
      "Ġcontroll": 4434,
      "Ġfinished": 4435,
      "Ġgrowth": 4436,
      "Ġpreval": 4437,
      "Ġbreak": 4438,
      "Ġapprox": 4439,
      "Ġfacilities": 4440,
      "Ġcopies": 4441,
      "Ġmagazine": 4442,
      "Ġrule": 4443,
      "Ġcampa": 4444,
      "Ġdamage": 4445,
      "Ġeconomic": 4446,
      "Ġcolumn": 4447,
      "greek": 4448,
      "Ġheavy": 4449,
      "Ġranked": 4450,
      "Ġwildlife": 4451,
      "Ġprobably": 4452,
      "Ġpremier": 4453,
      "Ġdaugh": 4454,
      "Ġpiece": 4455,
      "iosity": 4456,
      "Ġpicture": 4457,
      "bourne": 4458,
      "Ġgrammy": 4459,
      "Ġgreek": 4460,
      "Ġcouple": 4461,
      "Ġlevator": 4462,
      "Ġlicensed": 4463,
      "Ġalaska": 4464,
      "Ġprincip": 4465,
      "Ġbangladesh": 4466,
      "Ġalternative": 4467,
      "Ġheritage": 4468,
      "Ġroutine": 4469,
      "Ġtadpoles": 4470,
      "Ġyiddish": 4471,
      "04": 4472,
      "56": 4473,
      "88": 4474,
      "econom": 4475,
      "gion": 4476,
      "gers": 4477,
      "pi": 4478,
      "ray": 4479,
      "rance": 4480,
      "ĠC": 4481,
      "Ġach": 4482,
      "inf": 4483,
      "Ġori": 4484,
      "ream": 4485,
      "Ġsund": 4486,
      "Ġwile": 4487,
      "Ġcensus": 4488,
      "itravel": 4489,
      "Ġpenn": 4490,
      "Ġbrought": 4491,
      "Ġmaster": 4492,
      "Ġdors": 4493,
      "Ġlie": 4494,
      "Ġtower": 4495,
      "Ġnig": 4496,
      "Ġnav": 4497,
      "Ġgender": 4498,
      "amela": 4499,
      "ilit": 4500,
      "Ġ(\"": 4501,
      "Ġkar": 4502,
      "bers": 4503,
      "berry": 4504,
      "Ġplac": 4505,
      "Ġproposed": 4506,
      "iah": 4507,
      "Ġnecess": 4508,
      "iana": 4509,
      "akes": 4510,
      "Ġroute": 4511,
      "Ġabs": 4512,
      "ards": 4513,
      "Ġspr": 4514,
      "ptoms": 4515,
      "Ġmarked": 4516,
      "Ġcool": 4517,
      "Ġcovers": 4518,
      "Ġcommand": 4519,
      "Ġ45": 4520,
      "Ġwhose": 4521,
      "Ġevalu": 4522,
      "Ġ1800": 4523,
      "Ġblocks": 4524,
      "hedral": 4525,
      "Ġregister": 4526,
      "Ġ1971": 4527,
      "Ġ1977": 4528,
      "Ġzone": 4529,
      "Ġassum": 4530,
      "Ġattention": 4531,
      "comm": 4532,
      "Ġaddress": 4533,
      "Ġlongest": 4534,
      "Ġanything": 4535,
      "Ġliber": 4536,
      "Ġhyoid": 4537,
      "before": 4538,
      "Ġsocio": 4539,
      "Ġ1948": 4540,
      "owser": 4541,
      "Ġdeaths": 4542,
      "Ġrestrict": 4543,
      "Ġterminal": 4544,
      "Ġprograms": 4545,
      "Ġdesigned": 4546,
      "Ġvirt": 4547,
      "Ġweeks": 4548,
      "Ġholiday": 4549,
      "Ġmethod": 4550,
      "inois": 4551,
      "Ġillinois": 4552,
      "Ġjudge": 4553,
      "Ġextracted": 4554,
      "Ġinvolved": 4555,
      "Ġinfectious": 4556,
      "Ġmandibulae": 4557,
      "Ġpenins": 4558,
      "Ġbeautiful": 4559,
      "Ġconstituency": 4560,
      "Ġalex": 4561,
      "Ġcommercial": 4562,
      "Ġorchestra": 4563,
      "Ġconstellation": 4564,
      "Ġvariety": 4565,
      "78": 4566,
      "bus": 4567,
      "data": 4568,
      "east": 4569,
      "gl": 4570,
      "hm": 4571,
      "hr": 4572,
      "iades": 4573,
      "mid": 4574,
      "non": 4575,
      "now": 4576,
      "sad": 4577,
      "sup": 4578,
      "tra": 4579,
      "ville": 4580,
      "wal": 4581,
      "well": 4582,
      "yright": 4583,
      "Ġ;": 4584,
      "Ġtim": 4585,
      "Ġtel": 4586,
      "Ġos": 4587,
      "rec": 4588,
      "Ġsar": 4589,
      "isf": 4590,
      "Ġcm": 4591,
      "Ġcatechol": 4592,
      "atini": 4593,
      "Ġpair": 4594,
      "Ġpsy": 4595,
      "Ġbow": 4596,
      "Ġmind": 4597,
      "Ġmouth": 4598,
      "Ġdates": 4599,
      "Ġthing": 4600,
      "iled": 4601,
      "Ġforms": 4602,
      "igan": 4603,
      "idae": 4604,
      "char": 4605,
      "Ġalgor": 4606,
      "ulup": 4607,
      "ophy": 4608,
      "umb": 4609,
      "Ġcomment": 4610,
      "Ġcham": 4611,
      "Ġprop": 4612,
      "resp": 4613,
      "ocol": 4614,
      "ocardi": 4615,
      "Ġleave": 4616,
      "Ġworth": 4617,
      "pled": 4618,
      "ignments": 4619,
      "Ġcove": 4620,
      "Ġdisp": 4621,
      "mann": 4622,
      "Ġserve": 4623,
      "Ġparam": 4624,
      "Ġprevention": 4625,
      "ruit": 4626,
      "Ġdistribut": 4627,
      "Ġbuff": 4628,
      "Ġconsist": 4629,
      "Ġframe": 4630,
      "Ġ1965": 4631,
      "Ġdeput": 4632,
      "Ġ1951": 4633,
      "Ġ1954": 4634,
      "Ġcommunication": 4635,
      "Ġedited": 4636,
      "Ġedition": 4637,
      "Ġphot": 4638,
      "Ġsigned": 4639,
      "Ġnearly": 4640,
      "Ġwoman": 4641,
      "Ġaircraft": 4642,
      "venth": 4643,
      "Ġdecre": 4644,
      "Ġemail": 4645,
      "gypt": 4646,
      "ova": 4647,
      "Ġlegal": 4648,
      "Ġsonic": 4649,
      "Ġwikitravel": 4650,
      "Ġcathedral": 4651,
      "Ġvolume": 4652,
      "Ġdiscovered": 4653,
      "Ġanimal": 4654,
      "Ġgrowing": 4655,
      "Ġlatest": 4656,
      "Ġpalatini": 4657,
      "Ġpleiades": 4658,
      "Ġrichard": 4659,
      "Ġplanet": 4660,
      "stein": 4661,
      "Ġhonor": 4662,
      "Ġswedish": 4663,
      "trans": 4664,
      "Ġsubstance": 4665,
      "Ġconservative": 4666,
      "Ġsilver": 4667,
      "Ġmathematical": 4668,
      "Ġcalculated": 4669,
      "Ġduplication": 4670,
      "Ġenvironmental": 4671,
      "Ġbirds": 4672,
      "Ġdutch": 4673,
      "Ġ1702": 4674,
      "Ġukraine": 4675,
      "Ġhyohyoideus": 4676,
      "Ġflorida": 4677,
      "neighbors": 4678,
      "Ġprevalence": 4679,
      "Ġcampaign": 4680,
      "economic": 4681,
      "Ġpeninsula": 4682,
      "ulupu": 4683,
      ".:": 4684,
      "46": 4685,
      "58": 4686,
      "84": 4687,
      "96": 4688,
      "bro": 4689,
      "band": 4690,
      "cop": 4691,
      "dr": 4692,
      "gu": 4693,
      "geller": 4694,
      "hl": 4695,
      "lor": 4696,
      "mi": 4697,
      "tained": 4698,
      "ĠÎ": 4699,
      "Ġâ": 4700,
      "Ġ--": 4701,
      "Ġurn": 4702,
      "Ġaud": 4703,
      "Ġodd": 4704,
      "Ġsell": 4705,
      "Ġwis": 4706,
      "Ġcas": 4707,
      "Ġcab": 4708,
      "Ġfal": 4709,
      "Ġban": 4710,
      "Ġball": 4711,
      "Ġbowser": 4712,
      "orm": 4713,
      "esco": 4714,
      "Ġante": 4715,
      "icks": 4716,
      "Ġlay": 4717,
      "Ġhous": 4718,
      "Ġthous": 4719,
      "using": 4720,
      "Ġegypt": 4721,
      "Ġreact": 4722,
      "amer": 4723,
      "oma": 4724,
      "state": 4725,
      "Ġstories": 4726,
      "ett": 4727,
      "ceived": 4728,
      "chr": 4729,
      "ura": 4730,
      "Ġasked": 4731,
      "Ġride": 4732,
      "Ġrise": 4733,
      "iring": 4734,
      "Ġsear": 4735,
      "Ġvan": 4736,
      "Ġchair": 4737,
      "Ġconvention": 4738,
      "acos": 4739,
      "Ġplus": 4740,
      "akh": 4741,
      "Ġshar": 4742,
      "Ġshadow": 4743,
      "Ġcomplic": 4744,
      "Ġarri": 4745,
      "Ġquick": 4746,
      "Ġquotes": 4747,
      "Ġclient": 4748,
      "ansas": 4749,
      "Ġreserve": 4750,
      "Ġspect": 4751,
      "ologies": 4752,
      "Ġgenus": 4753,
      "Ġgenetic": 4754,
      "Ġminnes": 4755,
      "Ġchanging": 4756,
      "Ġfrank": 4757,
      "Ġfriday": 4758,
      "Ġannotation": 4759,
      "Ġshowing": 4760,
      "Ġconstant": 4761,
      "Ġopening": 4762,
      "azz": 4763,
      "Ġnearby": 4764,
      "Ġdecided": 4765,
      "Ġiron": 4766,
      "Ġdefined": 4767,
      "Ġdefault": 4768,
      "2566": 4769,
      "Ġlandsc": 4770,
      "def": 4771,
      "Ġsoccer": 4772,
      "Ġtowns": 4773,
      "Ġvisual": 4774,
      "Ġrepublican": 4775,
      "Ġkept": 4776,
      "270": 4777,
      "Ġpassed": 4778,
      "Ġselect": 4779,
      "Ġcontrovers": 4780,
      "Ġfemales": 4781,
      "Ġreligiosity": 4782,
      "Ġapplication": 4783,
      "Ġexamples": 4784,
      "Ġcritic": 4785,
      "Ġcritical": 4786,
      "Ġhands": 4787,
      "Ġfunctional": 4788,
      "brew": 4789,
      "Ġplanning": 4790,
      "Ġprimarily": 4791,
      "Ġpractices": 4792,
      "Ġobjects": 4793,
      "syl": 4794,
      "Ġreviews": 4795,
      "Ġintroduced": 4796,
      "Ġobserved": 4797,
      "Ġinfections": 4798,
      "Ġatlantic": 4799,
      "Ġcandidate": 4800,
      "Ġtarget": 4801,
      "Ġdestroyed": 4802,
      "Ġsymptoms": 4803,
      "Ġneighbor": 4804,
      "tlg": 4805,
      "Ġechocardi": 4806,
      "Ġbeewolves": 4807,
      "Ġangeles": 4808,
      "critical": 4809,
      "number": 4810,
      "wiki": 4811,
      "Ġargentina": 4812,
      "Ġrevealed": 4813,
      "Ġmobile": 4814,
      "Ġachie": 4815,
      "Ġthousand": 4816,
      "Ġminnesota": 4817,
      "2566270": 4818,
      ")-": 4819,
      "75": 4820,
      "81": 4821,
      "ben": 4822,
      "cons": 4823,
      "fs": 4824,
      "gov": 4825,
      "last": 4826,
      "pan": 4827,
      "rate": 4828,
      "sal": 4829,
      "somet": 4830,
      "tw": 4831,
      "wan": 4832,
      "Ġtor": 4833,
      "Ġsurn": 4834,
      "Ġself": 4835,
      "Ġsaint": 4836,
      "ero": 4837,
      "error": 4838,
      "Ġwright": 4839,
      "Ġfc": 4840,
      "Ġfer": 4841,
      "Ġfate": 4842,
      "Ġfund": 4843,
      "Ġbol": 4844,
      "orig": 4845,
      "Ġdun": 4846,
      "Ġdie": 4847,
      "Ġhund": 4848,
      "leg": 4849,
      "leep": 4850,
      "Ġgam": 4851,
      "Ġgolf": 4852,
      "enth": 4853,
      "otic": 4854,
      "ado": 4855,
      "ady": 4856,
      "cel": 4857,
      "imb": 4858,
      "imens": 4859,
      "Ġala": 4860,
      "that": 4861,
      "uli": 4862,
      "Ġseventh": 4863,
      "Ġjul": 4864,
      "istical": 4865,
      "istered": 4866,
      "Ġkin": 4867,
      "Ġkulupu": 4868,
      "acc": 4869,
      "acity": 4870,
      "ements": 4871,
      "Ġexcell": 4872,
      "Ġexhib": 4873,
      "ipl": 4874,
      "Ġadler": 4875,
      "okia": 4876,
      "Ġweather": 4877,
      "class": 4878,
      "Ġscore": 4879,
      "izations": 4880,
      "Ġrecre": 4881,
      "Ġoutbreeding": 4882,
      "Ġdistingu": 4883,
      "cker": 4884,
      "project": 4885,
      "Ġattempt": 4886,
      "Ġseconds": 4887,
      "Ġ90": 4888,
      "Ġ95": 4889,
      "Ġfranc": 4890,
      "Ġbron": 4891,
      "Ġacting": 4892,
      "Ġdevelopers": 4893,
      "Ġdepending": 4894,
      "Ġdepression": 4895,
      "Ġdatas": 4896,
      "Ġproduce": 4897,
      "Ġtests": 4898,
      "Ġthroughout": 4899,
      "Ġimportance": 4900,
      "Ġswitch": 4901,
      "Ġbush": 4902,
      "Ġbarri": 4903,
      "Ġinstr": 4904,
      "Ġpattern": 4905,
      "Ġpersonal": 4906,
      "Ġeverything": 4907,
      "Ġpolitics": 4908,
      "Ġextended": 4909,
      "dev": 4910,
      "Ġinvas": 4911,
      "Ġformation": 4912,
      "Ġowned": 4913,
      "Ġinsp": 4914,
      "Ġbrain": 4915,
      "Ġpresented": 4916,
      "Ġecu": 4917,
      "Ġexaminations": 4918,
      "Ġcontinu": 4919,
      "Ġcontinued": 4920,
      "Ġletters": 4921,
      "Ġauthority": 4922,
      "Ġideas": 4923,
      "Ġapparent": 4924,
      "Ġbrazilian": 4925,
      "Ġtechnical": 4926,
      "Ġlabor": 4927,
      "Ġreplace": 4928,
      "Ġcultural": 4929,
      "Ġgolden": 4930,
      "Ġinitial": 4931,
      "Ġconnected": 4932,
      "works": 4933,
      "Ġdigital": 4934,
      "Ġdeterm": 4935,
      "Ġbehavi": 4936,
      "Ġdiscussion": 4937,
      "Ġmrsa": 4938,
      "Ġmandibular": 4939,
      "Ġinfection": 4940,
      "Ġcatalyst": 4941,
      "Ġkilometres": 4942,
      "Ġscottish": 4943,
      "Ġskills": 4944,
      "Ġphilippines": 4945,
      "Ġelegans": 4946,
      "Ġorient": 4947,
      "respond": 4948,
      "Ġechocardiography": 4949,
      "Ġhundred": 4950,
      "\")": 4951,
      "'ve": 4952,
      "bet": 4953,
      "bury": 4954,
      "da": 4955,
      "fall": 4956,
      "iar": 4957,
      "light": 4958,
      "mas": 4959,
      "mandib": 4960,
      "ni": 4961,
      "public": 4962,
      "rup": 4963,
      "vae": 4964,
      "Ġess": 4965,
      "Ġike": 4966,
      "Ġurb": 4967,
      "Ġast": 4968,
      "inian": 4969,
      "reg": 4970,
      "isure": 4971,
      "onic": 4972,
      "onse": 4973,
      "Ġcry": 4974,
      "itect": 4975,
      "itable": 4976,
      "ano": 4977,
      "anes": 4978,
      "Ġpier": 4979,
      "orpor": 4980,
      "edi": 4981,
      "Ġinvent": 4982,
      "esus": 4983,
      "Ġmand": 4984,
      "Ġdrop": 4985,
      "Ġnas": 4986,
      "Ġnim": 4987,
      "Ġgc": 4988,
      "Ġgh": 4989,
      "Ġthre": 4990,
      "ctic": 4991,
      "olved": 4992,
      "thew": 4993,
      "under": 4994,
      "change": 4995,
      "Ġaspect": 4996,
      "aged": 4997,
      "aging": 4998,
      "Ġkras": 4999,
      "acher": 5000,
      "estic": 5001,
      "artner": 5002,
      "Ġunique": 5003,
      "Ġproport": 5004,
      "abeth": 5005,
      "aining": 5006,
      "Ġleisure": 5007,
      "Ġnoted": 5008,
      "Ġ34": 5009,
      "Ġgoal": 5010,
      "Ġsciences": 5011,
      "Ġscopus": 5012,
      "Ġcontrast": 5013,
      "Ġ43": 5014,
      "Ġtwice": 5015,
      "Ġmeant": 5016,
      "Ġcolomb": 5017,
      "Ġcounties": 5018,
      "Ġamaz": 5019,
      "ribute": 5020,
      "Ġgregor": 5021,
      "ĊĊĊ": 5022,
      "Ġmetres": 5023,
      "Ġassess": 5024,
      "Ġlarvae": 5025,
      "Ġmuslim": 5026,
      "Ġlocations": 5027,
      "Ġhelped": 5028,
      "Ġconsult": 5029,
      "icians": 5030,
      "Ġentered": 5031,
      "Ġcorrespond": 5032,
      "Ġfarm": 5033,
      "Ġlawa": 5034,
      "Ġrevision": 5035,
      "Ġcollected": 5036,
      "Ġsurface": 5037,
      "Ġremains": 5038,
      "ukon": 5039,
      "Ġdirection": 5040,
      "Ġprofile": 5041,
      "Ġeasier": 5042,
      "Ġcatalog": 5043,
      "Ġprize": 5044,
      "Ġpassage": 5045,
      "Ġportion": 5046,
      "Ġexpelled": 5047,
      "Ġeliz": 5048,
      "Ġwanted": 5049,
      "Ġelectron": 5050,
      "going": 5051,
      "Ġfinally": 5052,
      "Ġconsider": 5053,
      "Ġeditor": 5054,
      "Ġrequire": 5055,
      "Ġbehind": 5056,
      "what": 5057,
      "Ġreading": 5058,
      "Ġoption": 5059,
      "chers": 5060,
      "Ġarchitect": 5061,
      "Ġadolescent": 5062,
      "Ġseparated": 5063,
      "Ġmelaka": 5064,
      "Ġsuggested": 5065,
      "Ġdrugs": 5066,
      "Ġsituation": 5067,
      "Ġcombined": 5068,
      "Ġshoot": 5069,
      "Ġohio": 5070,
      "Ġresponsible": 5071,
      "Ġmicrosoft": 5072,
      "Ġmoli": 5073,
      "Ġanswer": 5074,
      "optery": 5075,
      "Ġwilliam": 5076,
      "Ġsuffolk": 5077,
      "Ġjewish": 5078,
      "Ġchalleng": 5079,
      "Ġbookmarked": 5080,
      "Ġqueensland": 5081,
      "sudo": 5082,
      "Ġecuador": 5083,
      "mandibular": 5084,
      "Ġurban": 5085,
      "Ġgregorian": 5086,
      "100": 5087,
      "300": 5088,
      "63": 5089,
      "65": 5090,
      "67": 5091,
      "bed": 5092,
      "blog": 5093,
      "cing": 5094,
      "dy": 5095,
      "fol": 5096,
      "national": 5097,
      "note": 5098,
      "north": 5099,
      "pat": 5100,
      "pal": 5101,
      "ties": 5102,
      "vi": 5103,
      "Ġil": 5104,
      "Ġtro": 5105,
      "Ġtren": 5106,
      "Ġtai": 5107,
      "Ġoste": 5108,
      "references": 5109,
      "Ġsolution": 5110,
      "onstr": 5111,
      "Ġcant": 5112,
      "ito": 5113,
      "itor": 5114,
      "anial": 5115,
      "Ġpand": 5116,
      "Ġfit": 5117,
      "Ġfle": 5118,
      "Ġfly": 5119,
      "Ġfame": 5120,
      "Ġfuel": 5121,
      "Ġbah": 5122,
      "Ġbomb": 5123,
      "Ġmd": 5124,
      "Ġmis": 5125,
      "Ġmate": 5126,
      "aries": 5127,
      "Ġdan": 5128,
      "Ġded": 5129,
      "Ġdol": 5130,
      "Ġdaw": 5131,
      "icill": 5132,
      "Ġlaz": 5133,
      "Ġtom": 5134,
      "Ġhat": 5135,
      "Ġnokia": 5136,
      "Ġgun": 5137,
      "Ġ1000": 5138,
      "Ġeu": 5139,
      "Ġell": 5140,
      "Ġrecept": 5141,
      "Ġreference": 5142,
      "vere": 5143,
      "star": 5144,
      "unt": 5145,
      "Ġstore": 5146,
      "verse": 5147,
      "urs": 5148,
      "eland": 5149,
      "Ġrug": 5150,
      "Ġrating": 5151,
      "Ġvs": 5152,
      "Ġker": 5153,
      "Ġkur": 5154,
      "Ġmoon": 5155,
      "Ġcomments": 5156,
      "Ġplanned": 5157,
      "Ġpros": 5158,
      "Ġneg": 5159,
      "peken": 5160,
      "osis": 5161,
      "Ġnothing": 5162,
      "Ġexpected": 5163,
      "aps": 5164,
      "anged": 5165,
      "astic": 5166,
      "ightly": 5167,
      "Ġcompound": 5168,
      "Ġteach": 5169,
      "oregion": 5170,
      "Ġmanu": 5171,
      "ĠâĢĺ": 5172,
      "Ġbecomes": 5173,
      "ibly": 5174,
      "Ġclimate": 5175,
      "Ġscored": 5176,
      "web": 5177,
      "rick": 5178,
      "Ġcontract": 5179,
      "Ġ48": 5180,
      "Ġevil": 5181,
      "Ġaustrian": 5182,
      "Ġsyn": 5183,
      "loh": 5184,
      "Ġsuperv": 5185,
      "Ġends": 5186,
      "Ġadditions": 5187,
      "Ġalbums": 5188,
      "Ġliqu": 5189,
      "Ġfamilysearch": 5190,
      "Ġsingles": 5191,
      "Ġ1955": 5192,
      "2011": 5193,
      "Ġsimply": 5194,
      "although": 5195,
      "Ġsmallest": 5196,
      "Ġheadquar": 5197,
      "Ġcoral": 5198,
      "Ġirsad": 5199,
      "Ġleads": 5200,
      "Ġcompete": 5201,
      "Ġdetect": 5202,
      "Ġextreme": 5203,
      "Ġcatch": 5204,
      "Ġorganized": 5205,
      "Ġbasis": 5206,
      "Ġbaseline": 5207,
      "Ġkepeken": 5208,
      "Ġteleost": 5209,
      "author": 5210,
      "ancial": 5211,
      "Ġtourists": 5212,
      "Ġsimilarity": 5213,
      "Ġfinland": 5214,
      "Ġincreasing": 5215,
      "Ġvirus": 5216,
      "Ġapproach": 5217,
      "Ġletter": 5218,
      "Ġlabel": 5219,
      "while": 5220,
      "Ġtriang": 5221,
      "Ġstopped": 5222,
      "Ġspeakers": 5223,
      "Ġkorean": 5224,
      "Ġexisted": 5225,
      "Ġlaunch": 5226,
      "Ġcolumbia": 5227,
      "Ġindustrial": 5228,
      "Ġenterpr": 5229,
      "cription": 5230,
      "Ġhence": 5231,
      "Ġjeff": 5232,
      "Ġhabitat": 5233,
      "Ġrenamed": 5234,
      "Ġdetermined": 5235,
      "Ġepidemi": 5236,
      "vania": 5237,
      "Ġrestaurant": 5238,
      "Ġdiagnosed": 5239,
      "Ġcitizens": 5240,
      "Ġnewspaper": 5241,
      "Ġinterpretation": 5242,
      "Ġprocedure": 5243,
      "allel": 5244,
      "Ġdorsal": 5245,
      "Ġcovered": 5246,
      "Ġjulian": 5247,
      "Ġdataset": 5248,
      "Ġkrasn": 5249,
      "Ġcolombia": 5250,
      "Ġelizabeth": 5251,
      "icillin": 5252,
      "09": 5253,
      "64": 5254,
      "72": 5255,
      "bit": 5256,
      "col": 5257,
      "cers": 5258,
      "come": 5259,
      "friend": 5260,
      "faction": 5261,
      "hone": 5262,
      "mail": 5263,
      "pack": 5264,
      "uff": 5265,
      "was": 5266,
      "wag": 5267,
      "western": 5268,
      "Ã©": 5269,
      "ÃŃ": 5270,
      "ĠD": 5271,
      "Ġaqu": 5272,
      "Ġaware": 5273,
      "hem": 5274,
      "inter": 5275,
      "Ġwii": 5276,
      "Ġwrest": 5277,
      "Ġcra": 5278,
      "Ġcart": 5279,
      "Ġcub": 5280,
      "enue": 5281,
      "Ġfix": 5282,
      "Ġbab": 5283,
      "Ġbio": 5284,
      "Ġinference": 5285,
      "Ġmission": 5286,
      "arning": 5287,
      "Ġdar": 5288,
      "Ġdil": 5289,
      "Ġlip": 5290,
      "Ġtold": 5291,
      "Ġhier": 5292,
      "Ġhuge": 5293,
      "Ġnam": 5294,
      "Ġnone": 5295,
      "Ġnaz": 5296,
      "lead": 5297,
      "Ġthir": 5298,
      "Ġonto": 5299,
      "Ġforward": 5300,
      "etts": 5301,
      "utions": 5302,
      "uries": 5303,
      "urance": 5304,
      "thy": 5305,
      "Ġrand": 5306,
      "Ġrac": 5307,
      "Ġ1920": 5308,
      "Ġjesus": 5309,
      "Ġkal": 5310,
      "emic": 5311,
      "ounder": 5312,
      "thermal": 5313,
      "Ġlearning": 5314,
      "Ġnotes": 5315,
      "Ġexpect": 5316,
      "Ġshr": 5317,
      "sochi": 5318,
      "Ġroll": 5319,
      "Ġrobert": 5320,
      "Ġabolished": 5321,
      "Ġ38": 5322,
      "Ġadvent": 5323,
      "Ġency": 5324,
      "inea": 5325,
      "ello": 5326,
      "Ġarm": 5327,
      "Ġweight": 5328,
      "clop": 5329,
      "place": 5330,
      "Ġclos": 5331,
      "izing": 5332,
      "Ġdisco": 5333,
      "Ġ42": 5334,
      "Ġ47": 5335,
      "Ġtrump": 5336,
      "Ġtruth": 5337,
      "Ġnorthe": 5338,
      "hedul": 5339,
      "Ġprevent": 5340,
      "alymp": 5341,
      "ĊĊÂłĊ": 5342,
      "Ġ80": 5343,
      "Ġprint": 5344,
      "Ġcarry": 5345,
      "Ġjoin": 5346,
      "Ġlocation": 5347,
      "ought": 5348,
      "inson": 5349,
      "Ġgets": 5350,
      "Ġbrand": 5351,
      "Ġhyoideus": 5352,
      "Ġdepend": 5353,
      "Ġguard": 5354,
      "Ġsett": 5355,
      "Ġsettle": 5356,
      "boot": 5357,
      "Ġentrance": 5358,
      "Ġcommunist": 5359,
      "Ġload": 5360,
      "Ġwalking": 5361,
      "Ġcapacity": 5362,
      "Ġmembership": 5363,
      "Ġremained": 5364,
      "uesday": 5365,
      "Ġdirected": 5366,
      "Ġbiological": 5367,
      "Ġprotected": 5368,
      "Ġ1932": 5369,
      "general": 5370,
      "Ġfiles": 5371,
      "Ġcrude": 5372,
      "Ġcranial": 5373,
      "Ġdemand": 5374,
      "Ġdevelopmental": 5375,
      "Ġlooks": 5376,
      "Ġborough": 5377,
      "Ġecoregion": 5378,
      "Ġcontinue": 5379,
      "ription": 5380,
      "Ġequal": 5381,
      "Ġgenealog": 5382,
      "Ġcoastal": 5383,
      "Ġphilos": 5384,
      "Ġsixth": 5385,
      "Ġpakala": 5386,
      "Ġfamilial": 5387,
      "Ġfields": 5388,
      "Ġdescribe": 5389,
      "Ġchoose": 5390,
      "contin": 5391,
      "contents": 5392,
      "Ġmagn": 5393,
      "Ġexisting": 5394,
      "Ġconnects": 5395,
      "ifying": 5396,
      "Ġkinds": 5397,
      "Ġpython": 5398,
      "Ġimmun": 5399,
      "Ġglass": 5400,
      "Ġcompletely": 5401,
      "Ġbirthday": 5402,
      "Ġindicate": 5403,
      "Ġtaso": 5404,
      "Ġrelatively": 5405,
      "Ġiphone": 5406,
      "Ġmaximum": 5407,
      "Ġpieces": 5408,
      "Ġmathematics": 5409,
      "clusion": 5410,
      "Ġpictures": 5411,
      "Ġmachine": 5412,
      "populations": 5413,
      "Ġcircle": 5414,
      "Ġmixed": 5415,
      "Ġancestry": 5416,
      "Ġranges": 5417,
      "Ġbenefit": 5418,
      "Ġinvestig": 5419,
      "Ġcomponents": 5420,
      "Ġcorporation": 5421,
      "Ġgeorgia": 5422,
      "published": 5423,
      "Ġfaith": 5424,
      "Ġmolecular": 5425,
      "Ġconfeder": 5426,
      "Ġefforts": 5427,
      "Ġimmediately": 5428,
      "Ġcontrolled": 5429,
      "Ġpairwise": 5430,
      "Ġbronze": 5431,
      "Ġmanufact": 5432,
      "Ġheadquarters": 5433,
      "Ġencyclop": 5434,
      "61": 5435,
      "91": 5436,
      "big": 5437,
      "dist": 5438,
      "eed": 5439,
      "free": 5440,
      "gra": 5441,
      "hal": 5442,
      "kh": 5443,
      "pen": 5444,
      "pet": 5445,
      "rsa": 5446,
      "vsk": 5447,
      "wa": 5448,
      "zburg": 5449,
      "ĊÂłÂł": 5450,
      "Ġ),": 5451,
      "Ġtun": 5452,
      "Ġtall": 5453,
      "inform": 5454,
      "Ġod": 5455,
      "Ġsuli": 5456,
      "Ġcru": 5457,
      "Ġcert": 5458,
      "Ġpit": 5459,
      "Ġpool": 5460,
      "Ġpurch": 5461,
      "Ġpope": 5462,
      "Ġfiv": 5463,
      "Ġfoss": 5464,
      "Ġba": 5465,
      "Ġbond": 5466,
      "Ġbord": 5467,
      "Ġbible": 5468,
      "Ġmam": 5469,
      "Ġmond": 5470,
      "Ġanthe": 5471,
      "Ġanth": 5472,
      "Ġanpa": 5473,
      "rob": 5474,
      "Ġdog": 5475,
      "icello": 5476,
      "Ġhope": 5477,
      "ouri": 5478,
      "user": 5479,
      "usetts": 5480,
      "omot": 5481,
      "omatically": 5482,
      "Ġitem": 5483,
      "igr": 5484,
      "idel": 5485,
      "etics": 5486,
      "ima": 5487,
      "Ġalignments": 5488,
      "elle": 5489,
      "ulation": 5490,
      "Ġri": 5491,
      "Ġjur": 5492,
      "seud": 5493,
      "Ġvary": 5494,
      "Ġko": 5495,
      "Ġkong": 5496,
      "Ġchain": 5497,
      "Ġchap": 5498,
      "Ġchile": 5499,
      "rio": 5500,
      "riz": 5501,
      "Ġuniverse": 5502,
      "results": 5503,
      "about": 5504,
      "osh": 5505,
      "Ġrooted": 5506,
      "Ġrocks": 5507,
      "apers": 5508,
      "angered": 5509,
      "aret": 5510,
      "Ġalliance": 5511,
      "irect": 5512,
      "Ġbecoming": 5513,
      "Ġscen": 5514,
      "Ġschedul": 5515,
      "peror": 5516,
      "Ġcommander": 5517,
      "Ġimper": 5518,
      "Ġaccom": 5519,
      "Ġresource": 5520,
      "Ġ46": 5521,
      "achusetts": 5522,
      "Ġdoing": 5523,
      "Ġboy": 5524,
      "Ġparallel": 5525,
      "Ġparalymp": 5526,
      "ordin": 5527,
      "Ġelements": 5528,
      "Ġpreferences": 5529,
      "Ġ67": 5530,
      "Ġpoland": 5531,
      "ribe": 5532,
      "Ġgrew": 5533,
      "Ġ75": 5534,
      "Ġcarried": 5535,
      "Ġmusical": 5536,
      "Ġendangered": 5537,
      "Ġmedals": 5538,
      "Ġintervention": 5539,
      "Ġincorpor": 5540,
      "Ġguinea": 5541,
      "Ġinternal": 5542,
      "Ġ1959": 5543,
      "Ġshowed": 5544,
      "Ġsets": 5545,
      "Ġtransl": 5546,
      "Ġtransmission": 5547,
      "Ġcheck": 5548,
      "Ġbuses": 5549,
      "Ġsigns": 5550,
      "Ġdragon": 5551,
      "ervation": 5552,
      "Ġseek": 5553,
      "Ġlevels": 5554,
      "uralchem": 5555,
      "Ġ1945": 5556,
      "Ġ1947": 5557,
      "Ġ1949": 5558,
      "exp": 5559,
      "Ġstatistical": 5560,
      "Ġfinding": 5561,
      "osphere": 5562,
      "Ġcrime": 5563,
      "Ġroads": 5564,
      "Ġdemonstr": 5565,
      "Ġexpand": 5566,
      "Ġcrown": 5567,
      "automatically": 5568,
      "ancing": 5569,
      "Ġfinancial": 5570,
      "Ġterritories": 5571,
      "Ġpalace": 5572,
      "Ġexamination": 5573,
      "anchial": 5574,
      "Ġinterests": 5575,
      "Ġresponse": 5576,
      "Ġdevices": 5577,
      "fficient": 5578,
      "Ġmissouri": 5579,
      "Ġgirl": 5580,
      "Ġcontributing": 5581,
      "Ġcontributions": 5582,
      "Ġsatur": 5583,
      "Ġruins": 5584,
      "Ġgeographic": 5585,
      "Ġsales": 5586,
      "door": 5587,
      "news": 5588,
      "Ġcharts": 5589,
      "Ġpolicies": 5590,
      "rasound": 5591,
      "Ġheaven": 5592,
      "Ġholding": 5593,
      "Ġproperty": 5594,
      "Ġmeeting": 5595,
      "Ġdenmark": 5596,
      "Ġbaseball": 5597,
      "Ġultrasound": 5598,
      "Ġhabitats": 5599,
      "Ġeye": 5600,
      "Ġencour": 5601,
      "Ġventral": 5602,
      "Ġopposite": 5603,
      "Ġintelligence": 5604,
      "Ġstaphylococcus": 5605,
      "Ġgallery": 5606,
      "Ġclinical": 5607,
      "Ġportugal": 5608,
      "Ġpredict": 5609,
      "Ġdaughter": 5610,
      "Ġpsych": 5611,
      "Ġalgorithm": 5612,
      "Ġdeputy": 5613,
      "sylvania": 5614,
      "sometimes": 5615,
      "Ġdetermine": 5616,
      "mandibularis": 5617,
      "Ġdedicated": 5618,
      "Ġliquid": 5619,
      "Ġfivb": 5620,
      "08": 5621,
      "53": 5622,
      "98": 5623,
      "==": 5624,
      "bs": 5625,
      "ci": 5626,
      "cre": 5627,
      "case": 5628,
      "eia": 5629,
      "ection": 5630,
      "ho": 5631,
      "mic": 5632,
      "mov": 5633,
      "oved": 5634,
      "pf": 5635,
      "pres": 5636,
      "sou": 5637,
      "sch": 5638,
      "soc": 5639,
      "town": 5640,
      "vious": 5641,
      "writ": 5642,
      "wick": 5643,
      "Ġ>": 5644,
      "Ġia": 5645,
      "Ġue": 5646,
      "Ġtu": 5647,
      "Ġtuesday": 5648,
      "Ġaired": 5649,
      "heim": 5650,
      "Ġok": 5651,
      "research": 5652,
      "Ġsi": 5653,
      "Ġsleep": 5654,
      "Ġcig": 5655,
      "itter": 5656,
      "Ġpseud": 5657,
      "Ġfu": 5658,
      "Ġfair": 5659,
      "Ġfruit": 5660,
      "Ġbid": 5661,
      "Ġbud": 5662,
      "Ġinhe": 5663,
      "Ġmas": 5664,
      "Ġmom": 5665,
      "Ġmut": 5666,
      "Ġmath": 5667,
      "Ġmental": 5668,
      "Ġanne": 5669,
      "ara": 5670,
      "ars": 5671,
      "Ġdial": 5672,
      "Ġlanc": 5673,
      "Ġloss": 5674,
      "Ġhong": 5675,
      "Ġgate": 5676,
      "Ġgartner": 5677,
      "Ġree": 5678,
      "Ġrepe": 5679,
      "Ġontar": 5680,
      "Ġbeat": 5681,
      "step": 5682,
      "thes": 5683,
      "unch": 5684,
      "iga": 5685,
      "Ġalt": 5686,
      "elve": 5687,
      "Ġrazz": 5688,
      "ira": 5689,
      "Ġjack": 5690,
      "Ġvoted": 5691,
      "Ġwithd": 5692,
      "artic": 5693,
      "Ġunesco": 5694,
      "Ġplate": 5695,
      "ivar": 5696,
      "email": 5697,
      "ately": 5698,
      "apore": 5699,
      "ession": 5700,
      "Ġcomposed": 5701,
      "Ġquotations": 5702,
      "Ġclus": 5703,
      "Ġsche": 5704,
      "pert": 5705,
      "Ġacid": 5706,
      "Ġ44": 5707,
      "Ġ400": 5708,
      "Ġtwenty": 5709,
      "Ġ58": 5710,
      "Ġiii": 5711,
      "Ġstudent": 5712,
      "aving": 5713,
      "Ġupload": 5714,
      "iversity": 5715,
      "Ġprep": 5716,
      "ructed": 5717,
      "Ġregression": 5718,
      "Ġmonitor": 5719,
      "Ġprince": 5720,
      "Ġcarib": 5721,
      "Ġlocomot": 5722,
      "Ġattra": 5723,
      "Ġattract": 5724,
      "Ġfootballer": 5725,
      "Ġ1963": 5726,
      "Ġlique": 5727,
      "Ġintermandibularis": 5728,
      "Ġretrie": 5729,
      "Ġobama": 5730,
      "Ġanalyze": 5731,
      "Ġearl": 5732,
      "ucas": 5733,
      "Ġbars": 5734,
      "Ġtemples": 5735,
      "Ġcapit": 5736,
      "Ġremoved": 5737,
      "Ġ1940": 5738,
      "Ġ1934": 5739,
      "Ġ1939": 5740,
      "Ġprior": 5741,
      "Ġdiscrim": 5742,
      "Ġslightly": 5743,
      "loading": 5744,
      "Ġtourist": 5745,
      "Ġestim": 5746,
      "Ġmanaged": 5747,
      "phys": 5748,
      "Ġapproved": 5749,
      "Ġrequires": 5750,
      "Ġdrivers": 5751,
      "Ġacademic": 5752,
      "Ġchemicals": 5753,
      "Ġinteresting": 5754,
      "Ġillust": 5755,
      "Ġcolorado": 5756,
      "Ġhydrothermal": 5757,
      "imately": 5758,
      "Ġprotra": 5759,
      "Ġspirits": 5760,
      "Ġmelbourne": 5761,
      "Ġresulting": 5762,
      "Ġparticularly": 5763,
      "Ġsituations": 5764,
      "Ġduplications": 5765,
      "Ġpanel": 5766,
      "Ġapplications": 5767,
      "Ġohloh": 5768,
      "Ġmaterials": 5769,
      "download": 5770,
      "Ġmachines": 5771,
      "Ġpercentage": 5772,
      "front": 5773,
      "Ġgarden": 5774,
      "Ġnovices": 5775,
      "Ġethnicity": 5776,
      "Ġfilled": 5777,
      "Ġcomfortable": 5778,
      "Ġrapidly": 5779,
      "Ġquintiles": 5780,
      "Ġcredit": 5781,
      "Ġdavid": 5782,
      "Ġsprings": 5783,
      "Ġdistributed": 5784,
      "Ġframework": 5785,
      "Ġlandscape": 5786,
      "Ġfrancis": 5787,
      "Ġosteich": 5788,
      "Ġencyclopedia": 5789,
      "Ġsaturday": 5790,
      "Ġontario": 5791,
      "Ġliquefaction": 5792,
      "52": 5793,
      "97": 5794,
      "brow": 5795,
      "cd": 5796,
      "cut": 5797,
      "gp": 5798,
      "gar": 5799,
      "ging": 5800,
      "hi": 5801,
      "ja": 5802,
      "jug": 5803,
      "oh": 5804,
      "pol": 5805,
      "press": 5806,
      "rad": 5807,
      "rison": 5808,
      "su": 5809,
      "spe": 5810,
      "take": 5811,
      "uay": 5812,
      "why": 5813,
      "yond": 5814,
      "Ãº": 5815,
      "ĠE": 5816,
      "ī¥": 5817,
      "Ġts": 5818,
      "inition": 5819,
      "revision": 5820,
      "Ġsides": 5821,
      "err": 5822,
      "isp": 5823,
      "isms": 5824,
      "isons": 5825,
      "isible": 5826,
      "Ġwing": 5827,
      "ato": 5828,
      "atus": 5829,
      "any": 5830,
      "Ġfi": 5831,
      "Ġfel": 5832,
      "Ġbones": 5833,
      "Ġinse": 5834,
      "Ġinput": 5835,
      "alan": 5836,
      "Ġmouse": 5837,
      "arab": 5838,
      "Ġlies": 5839,
      "Ġtoki": 5840,
      "Ġhide": 5841,
      "lets": 5842,
      "Ġeld": 5843,
      "amas": 5844,
      "aments": 5845,
      "illy": 5846,
      "Ġbeyond": 5847,
      "oln": 5848,
      "Ġstages": 5849,
      "Ġstores": 5850,
      "iding": 5851,
      "Ġheight": 5852,
      "vert": 5853,
      "Ġ(),": 5854,
      "iment": 5855,
      "Ġring": 5856,
      "Ġray": 5857,
      "Ġjr": 5858,
      "ums": 5859,
      "section": 5860,
      "Ġvon": 5861,
      "Ġkent": 5862,
      "Ġkem": 5863,
      "Ġchrom": 5864,
      "Ġunits": 5865,
      "Ġplaced": 5866,
      "iving": 5867,
      "ivity": 5868,
      "alled": 5869,
      "resh": 5870,
      "ighth": 5871,
      "aki": 5872,
      "Ġabund": 5873,
      "Ġaddu": 5874,
      "Ġcompr": 5875,
      "arest": 5876,
      "arevsk": 5877,
      "Ġteacher": 5878,
      "Ġmanchester": 5879,
      "Ġarmed": 5880,
      "Ġarcher": 5881,
      "Ġweak": 5882,
      "Ġapart": 5883,
      "Ġindeed": 5884,
      "active": 5885,
      "orning": 5886,
      "Ġcoat": 5887,
      "Ġdiss": 5888,
      "Ġdisney": 5889,
      "Ġresidents": 5890,
      "Ġdoors": 5891,
      "Ġtwelve": 5892,
      "Ġ56": 5893,
      "Ġcold": 5894,
      "Ġcolors": 5895,
      "Ġcolony": 5896,
      "Ġperman": 5897,
      "Ġsuitable": 5898,
      "Ġcenters": 5899,
      "Ġ65": 5900,
      "Ġministry": 5901,
      "lov": 5902,
      "Ġ85": 5903,
      "Ġzo": 5904,
      "Ġsuppl": 5905,
      "Ġattribut": 5906,
      "Ġconsists": 5907,
      "Ġprovinc": 5908,
      "Ġsafe": 5909,
      "Ġactive": 5910,
      "Ġhyp": 5911,
      "Ġmodified": 5912,
      "Ġmoves": 5913,
      "Ġsingapore": 5914,
      "Ġproducer": 5915,
      "Ġmyers": 5916,
      "Ġesc": 5917,
      "Ġ1953": 5918,
      "Ġobtained": 5919,
      "Ġoblast": 5920,
      "tty": 5921,
      "Ġswarm": 5922,
      "branchial": 5923,
      "Ġrevisions": 5924,
      "Ġbackground": 5925,
      "Ġviewed": 5926,
      "axy": 5927,
      "Ġopera": 5928,
      "Ġproteins": 5929,
      "Ġblackberry": 5930,
      "1471": 5931,
      "Ġpowerful": 5932,
      "Ġstatement": 5933,
      "Ġhealthcare": 5934,
      "Ġinsurance": 5935,
      "Ġclasses": 5936,
      "Ġmalays": 5937,
      "Ġxml": 5938,
      "Ġxbox": 5939,
      "ependent": 5940,
      "Ġsupercritical": 5941,
      "Ġecology": 5942,
      "Ġlatter": 5943,
      "Ġcontinues": 5944,
      "incoln": 5945,
      "matthew": 5946,
      "Ġmethicillin": 5947,
      "Ġharv": 5948,
      "Ġlimit": 5949,
      "Ġrespond": 5950,
      "Ġfacult": 5951,
      "Ġchristmas": 5952,
      "Ġfocused": 5953,
      "Ġsoutheast": 5954,
      "Ġpreviously": 5955,
      "Ġburied": 5956,
      "Ġmassachusetts": 5957,
      "world": 5958,
      "Ġeconomy": 5959,
      "Ġatlas": 5960,
      "rief": 5961,
      "Ġpromoted": 5962,
      "Ġiranian": 5963,
      "Ġtasman": 5964,
      "Ġconservation": 5965,
      "Ġidentified": 5966,
      "Ġcycl": 5967,
      "Ġseems": 5968,
      "Ġshopping": 5969,
      "Ġidc": 5970,
      "Ġatlantis": 5971,
      "Ġcustomers": 5972,
      "Ġawen": 5973,
      "population": 5974,
      "secret": 5975,
      "Ġwilliams": 5976,
      "Ġgardens": 5977,
      "Ġmartin": 5978,
      "Ġcoalition": 5979,
      "Ġautomated": 5980,
      "because": 5981,
      "words": 5982,
      "Ã¼r": 5983,
      "Ġreferred": 5984,
      "Ġathletes": 5985,
      "Ġexactly": 5986,
      "Ġjersey": 5987,
      "Ġinitiative": 5988,
      "Ġgalaxy": 5989,
      "Ġfailed": 5990,
      "Ġhungary": 5991,
      "Ġsunday": 5992,
      "Ġquickly": 5993,
      "original": 5994,
      "Ġpandemic": 5995,
      "Ġjefferson": 5996,
      "Ġfixed": 5997,
      "Ġhierarch": 5998,
      "Ġanthem": 5999
    },
    "merges": [
      [
        "Ġ",
        "t"
      ],
      [
        "Ġ",
        "a"
      ],
      [
        "h",
        "e"
      ],
      [
        "i",
        "n"
      ],
      [
        "Ġt",
        "he"
      ],
      [
        "Ġ",
        "o"
      ],
      [
        "r",
        "e"
      ],
      [
        "Ġ",
        "s"
      ],
      [
        "e",
        "r"
      ],
      [
        "i",
        "s"
      ],
      [
        "o",
        "n"
      ],
      [
        "Ġ",
        "w"
      ],
      [
        "Ġ",
        "c"
      ],
      [
        "a",
        "t"
      ],
      [
        "e",
        "n"
      ],
      [
        "i",
        "t"
      ],
      [
        "a",
        "n"
      ],
      [
        "Ġ",
        "p"
      ],
      [
        "Ġ",
        "f"
      ],
      [
        "Ġ",
        "b"
      ],
      [
        "o",
        "r"
      ],
      [
        "e",
        "d"
      ],
      [
        "Ġ",
        "in"
      ],
      [
        "e",
        "s"
      ],
      [
        "a",
        "l"
      ],
      [
        "Ġ",
        "m"
      ],
      [
        "Ġo",
        "f"
      ],
      [
        "Ġa",
        "n"
      ],
      [
        "a",
        "r"
      ],
      [
        "a",
        "s"
      ],
      [
        "r",
        "o"
      ],
      [
        "Ġ",
        "d"
      ],
      [
        "Ġan",
        "d"
      ],
      [
        "i",
        "c"
      ],
      [
        "i",
        "on"
      ],
      [
        "Ġ",
        "l"
      ],
      [
        "Ġt",
        "o"
      ],
      [
        "Ġ",
        "h"
      ],
      [
        "Ġ",
        "is"
      ],
      [
        "in",
        "g"
      ],
      [
        "Ġ",
        "n"
      ],
      [
        "o",
        "u"
      ],
      [
        "l",
        "e"
      ],
      [
        "Ġ",
        "g"
      ],
      [
        "Ġt",
        "h"
      ],
      [
        "Ġ",
        "1"
      ],
      [
        "en",
        "t"
      ],
      [
        "u",
        "s"
      ],
      [
        "Ġ",
        "e"
      ],
      [
        "Ġ",
        "re"
      ],
      [
        "a",
        "m"
      ],
      [
        "o",
        "m"
      ],
      [
        "i",
        "l"
      ],
      [
        "Ġo",
        "n"
      ],
      [
        "c",
        "t"
      ],
      [
        "Ġ",
        "2"
      ],
      [
        "Ġ",
        "it"
      ],
      [
        "Ġb",
        "e"
      ],
      [
        "v",
        "e"
      ],
      [
        "Ġw",
        "as"
      ],
      [
        "o",
        "l"
      ],
      [
        "s",
        "t"
      ],
      [
        "t",
        "he"
      ],
      [
        "Ġf",
        "or"
      ],
      [
        "u",
        "n"
      ],
      [
        "at",
        "ion"
      ],
      [
        "i",
        "g"
      ],
      [
        "Ġs",
        "t"
      ],
      [
        "o",
        "t"
      ],
      [
        "i",
        "d"
      ],
      [
        "a",
        "d"
      ],
      [
        "e",
        "t"
      ],
      [
        "l",
        "y"
      ],
      [
        "c",
        "e"
      ],
      [
        "c",
        "h"
      ],
      [
        "a",
        "y"
      ],
      [
        "Ġ",
        "he"
      ],
      [
        "u",
        "t"
      ],
      [
        "v",
        "er"
      ],
      [
        "Ġ2",
        "0"
      ],
      [
        "Ġ",
        "("
      ],
      [
        "i",
        "m"
      ],
      [
        "o",
        "w"
      ],
      [
        "Ġa",
        "l"
      ],
      [
        "u",
        "r"
      ],
      [
        "t",
        "h"
      ],
      [
        "Ġf",
        "ro"
      ],
      [
        "e",
        "l"
      ],
      [
        "u",
        "l"
      ],
      [
        "Ġa",
        "s"
      ],
      [
        "Ġ",
        "r"
      ],
      [
        "Ġ1",
        "9"
      ],
      [
        "i",
        "r"
      ],
      [
        "Ġs",
        "e"
      ],
      [
        "o",
        "p"
      ],
      [
        "t",
        "er"
      ],
      [
        "Ġ",
        "y"
      ],
      [
        "Ġ",
        "j"
      ],
      [
        "u",
        "m"
      ],
      [
        "Ġb",
        "y"
      ],
      [
        "Ġa",
        "re"
      ],
      [
        "an",
        "d"
      ],
      [
        "Ġth",
        "at"
      ],
      [
        "Ġfro",
        "m"
      ],
      [
        "it",
        "h"
      ],
      [
        "a",
        "g"
      ],
      [
        "i",
        "f"
      ],
      [
        "is",
        "t"
      ],
      [
        "s",
        "e"
      ],
      [
        "Â",
        "ł"
      ],
      [
        "Ġ",
        "v"
      ],
      [
        "Ġ",
        "k"
      ],
      [
        "Ġw",
        "ith"
      ],
      [
        "Ġm",
        "o"
      ],
      [
        "Ġa",
        "t"
      ],
      [
        "r",
        "a"
      ],
      [
        "Ġc",
        "om"
      ],
      [
        "Ġd",
        "e"
      ],
      [
        "e",
        "re"
      ],
      [
        "Ġc",
        "h"
      ],
      [
        "r",
        "i"
      ],
      [
        "Ġc",
        "on"
      ],
      [
        "Ġw",
        "h"
      ],
      [
        "b",
        "er"
      ],
      [
        "a",
        "c"
      ],
      [
        "es",
        "t"
      ],
      [
        "Ġo",
        "r"
      ],
      [
        "ar",
        "t"
      ],
      [
        "Ġ",
        "un"
      ],
      [
        "Ġp",
        "l"
      ],
      [
        "Ġp",
        "ro"
      ],
      [
        "q",
        "u"
      ],
      [
        "Ġth",
        "is"
      ],
      [
        "i",
        "v"
      ],
      [
        "al",
        "l"
      ],
      [
        "i",
        "a"
      ],
      [
        "e",
        "m"
      ],
      [
        "u",
        "p"
      ],
      [
        "Ġn",
        "e"
      ],
      [
        "l",
        "d"
      ],
      [
        "ou",
        "n"
      ],
      [
        "it",
        "y"
      ],
      [
        "at",
        "e"
      ],
      [
        "re",
        "s"
      ],
      [
        "u",
        "b"
      ],
      [
        "â",
        "Ģ"
      ],
      [
        "o",
        "c"
      ],
      [
        "a",
        "b"
      ],
      [
        "er",
        "s"
      ],
      [
        "ig",
        "h"
      ],
      [
        "Ġ",
        "us"
      ],
      [
        "the",
        "r"
      ],
      [
        "i",
        "es"
      ],
      [
        "p",
        "e"
      ],
      [
        "a",
        "in"
      ],
      [
        "il",
        "l"
      ],
      [
        "'",
        "s"
      ],
      [
        "o",
        "d"
      ],
      [
        "Ġl",
        "e"
      ],
      [
        "i",
        "an"
      ],
      [
        "u",
        "d"
      ],
      [
        "o",
        "s"
      ],
      [
        "Ċ",
        "Ġ"
      ],
      [
        "a",
        "k"
      ],
      [
        "or",
        "t"
      ],
      [
        "o",
        "g"
      ],
      [
        "en",
        "d"
      ],
      [
        "Ġh",
        "a"
      ],
      [
        "0",
        "0"
      ],
      [
        "m",
        "ent"
      ],
      [
        "Ġ20",
        "1"
      ],
      [
        "Ġn",
        "ot"
      ],
      [
        "Ġe",
        "x"
      ],
      [
        "Ġw",
        "or"
      ],
      [
        "ou",
        "r"
      ],
      [
        "Ġh",
        "as"
      ],
      [
        "am",
        "e"
      ],
      [
        "an",
        "t"
      ],
      [
        "Ġs",
        "h"
      ],
      [
        "i",
        "ve"
      ],
      [
        "us",
        "t"
      ],
      [
        "at",
        "ed"
      ],
      [
        "ar",
        "y"
      ],
      [
        "s",
        "o"
      ],
      [
        "ic",
        "h"
      ],
      [
        "ct",
        "ion"
      ],
      [
        "Ġ",
        "ro"
      ],
      [
        "Ġc",
        "an"
      ],
      [
        "Ġ20",
        "0"
      ],
      [
        "on",
        "g"
      ],
      [
        "i",
        "p"
      ],
      [
        "a",
        "p"
      ],
      [
        "Ġ",
        "\""
      ],
      [
        "Ġa",
        "b"
      ],
      [
        "an",
        "g"
      ],
      [
        "Ġha",
        "ve"
      ],
      [
        "as",
        "t"
      ],
      [
        "i",
        "al"
      ],
      [
        "Ġ",
        "3"
      ],
      [
        "u",
        "re"
      ],
      [
        "Ġa",
        "d"
      ],
      [
        "Ġp",
        "e"
      ],
      [
        "Ġon",
        "e"
      ],
      [
        "igh",
        "t"
      ],
      [
        "i",
        "e"
      ],
      [
        "Ġal",
        "so"
      ],
      [
        "id",
        "e"
      ],
      [
        "es",
        "s"
      ],
      [
        "u",
        "g"
      ],
      [
        "ag",
        "e"
      ],
      [
        "ic",
        "al"
      ],
      [
        "Ġcom",
        "p"
      ],
      [
        "a",
        "re"
      ],
      [
        "Ġt",
        "e"
      ],
      [
        "Ġg",
        "o"
      ],
      [
        "o",
        "re"
      ],
      [
        "Ġthe",
        "y"
      ],
      [
        "Ġp",
        "art"
      ],
      [
        "ar",
        "d"
      ],
      [
        "op",
        "le"
      ],
      [
        "-",
        "-"
      ],
      [
        "Ġ",
        "en"
      ],
      [
        "in",
        "e"
      ],
      [
        "Ġal",
        "l"
      ],
      [
        "l",
        "and"
      ],
      [
        "om",
        "e"
      ],
      [
        "Ġy",
        "ou"
      ],
      [
        "Ġw",
        "ere"
      ],
      [
        "Ġpe",
        "ople"
      ],
      [
        "el",
        "l"
      ],
      [
        "e",
        "ar"
      ],
      [
        "Ġne",
        "w"
      ],
      [
        "is",
        "h"
      ],
      [
        "Ġm",
        "an"
      ],
      [
        "Ġa",
        "r"
      ],
      [
        "Ġs",
        "p"
      ],
      [
        "Ġwh",
        "ich"
      ],
      [
        "t",
        "e"
      ],
      [
        "o",
        "k"
      ],
      [
        "Ġw",
        "he"
      ],
      [
        "r",
        "it"
      ],
      [
        "Ġ",
        "âĢ"
      ],
      [
        "p",
        "t"
      ],
      [
        "Ġthe",
        "re"
      ],
      [
        "ou",
        "s"
      ],
      [
        "ver",
        "s"
      ],
      [
        "i",
        "k"
      ],
      [
        "ation",
        "al"
      ],
      [
        "Ġh",
        "is"
      ],
      [
        "g",
        "e"
      ],
      [
        "Ġb",
        "ut"
      ],
      [
        "ow",
        "n"
      ],
      [
        "i",
        "re"
      ],
      [
        "oun",
        "t"
      ],
      [
        "Ġw",
        "e"
      ],
      [
        "Ġa",
        "f"
      ],
      [
        "Ġm",
        "ar"
      ],
      [
        "c",
        "l"
      ],
      [
        "f",
        "or"
      ],
      [
        "re",
        "e"
      ],
      [
        "d",
        "er"
      ],
      [
        "Ġbe",
        "c"
      ],
      [
        "Ġpl",
        "ay"
      ],
      [
        "Ġp",
        "ub"
      ],
      [
        "Ġ",
        "qu"
      ],
      [
        "he",
        "r"
      ],
      [
        "Ġo",
        "ther"
      ],
      [
        "ou",
        "t"
      ],
      [
        "Ġa",
        "p"
      ],
      [
        "Ġy",
        "ear"
      ],
      [
        "p",
        "l"
      ],
      [
        "i",
        "b"
      ],
      [
        "ig",
        "n"
      ],
      [
        "ation",
        "s"
      ],
      [
        "Ġin",
        "d"
      ],
      [
        "on",
        "d"
      ],
      [
        "Ġc",
        "l"
      ],
      [
        "p",
        "ort"
      ],
      [
        "m",
        "er"
      ],
      [
        "an",
        "s"
      ],
      [
        "Ġs",
        "c"
      ],
      [
        "Ċ",
        "ĊĠ"
      ],
      [
        "p",
        "er"
      ],
      [
        "ac",
        "k"
      ],
      [
        "a",
        "ct"
      ],
      [
        "Âł",
        "Âł"
      ],
      [
        "Ġn",
        "o"
      ],
      [
        "or",
        "n"
      ],
      [
        "n",
        "t"
      ],
      [
        "Ġc",
        "o"
      ],
      [
        ")",
        "."
      ],
      [
        "r",
        "al"
      ],
      [
        "ul",
        "t"
      ],
      [
        "Ġ",
        "["
      ],
      [
        "Ġcom",
        "m"
      ],
      [
        "w",
        "e"
      ],
      [
        "i",
        "z"
      ],
      [
        "on",
        "e"
      ],
      [
        "ve",
        "l"
      ],
      [
        "r",
        "ic"
      ],
      [
        "Ġd",
        "is"
      ],
      [
        "f",
        "ere"
      ],
      [
        "Ġ",
        "im"
      ],
      [
        "r",
        "y"
      ],
      [
        "h",
        "y"
      ],
      [
        "im",
        "e"
      ],
      [
        "e",
        "ct"
      ],
      [
        "Ġ19",
        "9"
      ],
      [
        "ion",
        "s"
      ],
      [
        "en",
        "ce"
      ],
      [
        "Ġa",
        "c"
      ],
      [
        "Ġcon",
        "t"
      ],
      [
        "Ġre",
        "s"
      ],
      [
        "ad",
        "e"
      ],
      [
        "Ġ",
        "4"
      ],
      [
        "ou",
        "ld"
      ],
      [
        "a",
        "ch"
      ],
      [
        "Ġd",
        "o"
      ],
      [
        "as",
        "ed"
      ],
      [
        "u",
        "e"
      ],
      [
        "Ġwor",
        "ld"
      ],
      [
        "m",
        "an"
      ],
      [
        "Ġs",
        "o"
      ],
      [
        "ic",
        "e"
      ],
      [
        "c",
        "es"
      ],
      [
        "Ġt",
        "w"
      ],
      [
        "ent",
        "s"
      ],
      [
        "Ġthe",
        "ir"
      ],
      [
        "Ġ",
        "5"
      ],
      [
        "as",
        "s"
      ],
      [
        "Ġre",
        "c"
      ],
      [
        "ter",
        "n"
      ],
      [
        "Ġm",
        "e"
      ],
      [
        "Ġwh",
        "o"
      ],
      [
        "Ġg",
        "ro"
      ],
      [
        "Ġit",
        "s"
      ],
      [
        "Ġn",
        "um"
      ],
      [
        "Ġmo",
        "st"
      ],
      [
        "Ġ",
        "i"
      ],
      [
        "un",
        "d"
      ],
      [
        "at",
        "er"
      ],
      [
        "Ġus",
        "ed"
      ],
      [
        "Ġin",
        "t"
      ],
      [
        "Ġst",
        "ud"
      ],
      [
        "Ġb",
        "o"
      ],
      [
        "d",
        "u"
      ],
      [
        "f",
        "ul"
      ],
      [
        "u",
        "al"
      ],
      [
        "a",
        "ce"
      ],
      [
        "or",
        "y"
      ],
      [
        "Ġp",
        "res"
      ],
      [
        "Ġs",
        "er"
      ],
      [
        "Ġab",
        "out"
      ],
      [
        "Ġp",
        "ar"
      ],
      [
        "Ġ",
        "Ġ"
      ],
      [
        "a",
        "il"
      ],
      [
        "as",
        "e"
      ],
      [
        "a",
        "v"
      ],
      [
        "Ġbe",
        "en"
      ],
      [
        "Ġfro",
        "g"
      ],
      [
        "Ġo",
        "ut"
      ],
      [
        "Ġn",
        "ational"
      ],
      [
        "Ġ",
        "up"
      ],
      [
        "Ġw",
        "ill"
      ],
      [
        "us",
        "e"
      ],
      [
        "Ġnum",
        "ber"
      ],
      [
        "Ġa",
        "g"
      ],
      [
        "Ġm",
        "ay"
      ],
      [
        "or",
        "s"
      ],
      [
        "Ġt",
        "r"
      ],
      [
        "or",
        "d"
      ],
      [
        "Ġe",
        "le"
      ],
      [
        "i",
        "ed"
      ],
      [
        "i",
        "o"
      ],
      [
        "it",
        "e"
      ],
      [
        "m",
        "ed"
      ],
      [
        "Ġe",
        "v"
      ],
      [
        "x",
        "t"
      ],
      [
        "Ġmo",
        "re"
      ],
      [
        "Ġc",
        "ol"
      ],
      [
        "il",
        "d"
      ],
      [
        "oun",
        "d"
      ],
      [
        "ab",
        "le"
      ],
      [
        "Ġs",
        "ome"
      ],
      [
        "Ġp",
        "er"
      ],
      [
        "Ġs",
        "pe"
      ],
      [
        "Ġ20",
        "2"
      ],
      [
        "Ġman",
        "y"
      ],
      [
        "an",
        "ce"
      ],
      [
        "in",
        "d"
      ],
      [
        "Ġ1",
        "8"
      ],
      [
        "Ġbe",
        "t"
      ],
      [
        "o",
        "st"
      ],
      [
        "Ġpub",
        "l"
      ],
      [
        "Ġs",
        "ou"
      ],
      [
        "Ġtw",
        "o"
      ],
      [
        "ic",
        "s"
      ],
      [
        "k",
        "s"
      ],
      [
        "Ġs",
        "u"
      ],
      [
        "Ġk",
        "n"
      ],
      [
        "ver",
        "y"
      ],
      [
        "Ġc",
        "ent"
      ],
      [
        "Ġd",
        "if"
      ],
      [
        "ol",
        "og"
      ],
      [
        "ĠâĢ",
        "¢"
      ],
      [
        "Ġn",
        "or"
      ],
      [
        "i",
        "vers"
      ],
      [
        "Ġc",
        "all"
      ],
      [
        "it",
        "ed"
      ],
      [
        "ir",
        "st"
      ],
      [
        "Ġf",
        "e"
      ],
      [
        "am",
        "p"
      ],
      [
        "Ġb",
        "l"
      ],
      [
        "Ġse",
        "c"
      ],
      [
        "Ġen",
        "g"
      ],
      [
        "Ġof",
        "f"
      ],
      [
        "ik",
        "e"
      ],
      [
        "he",
        "d"
      ],
      [
        "it",
        "ion"
      ],
      [
        "Ġon",
        "ly"
      ],
      [
        "f",
        "f"
      ],
      [
        "Ġc",
        "ount"
      ],
      [
        "Ġp",
        "re"
      ],
      [
        "Ġf",
        "irst"
      ],
      [
        "f",
        "t"
      ],
      [
        "Ġaf",
        "ter"
      ],
      [
        "Ġg",
        "en"
      ],
      [
        "we",
        "en"
      ],
      [
        "at",
        "es"
      ],
      [
        "ak",
        "e"
      ],
      [
        "w",
        "ay"
      ],
      [
        "Ġte",
        "am"
      ],
      [
        "en",
        "s"
      ],
      [
        "Ġwhe",
        "n"
      ],
      [
        "op",
        "ul"
      ],
      [
        "r",
        "u"
      ],
      [
        "Ġa",
        "ust"
      ],
      [
        "Ġf",
        "am"
      ],
      [
        "Ġm",
        "ade"
      ],
      [
        "Ġbet",
        "ween"
      ],
      [
        "p",
        "h"
      ],
      [
        "Ġ19",
        "8"
      ],
      [
        ")",
        ","
      ],
      [
        "n",
        "e"
      ],
      [
        "Ġd",
        "ist"
      ],
      [
        "Ġdif",
        "fere"
      ],
      [
        "Ġ",
        "6"
      ],
      [
        "a",
        "use"
      ],
      [
        "Ġs",
        "he"
      ],
      [
        "am",
        "es"
      ],
      [
        "l",
        "ow"
      ],
      [
        "Ġt",
        "ime"
      ],
      [
        "a",
        "w"
      ],
      [
        "Ġun",
        "ivers"
      ],
      [
        "ar",
        "ch"
      ],
      [
        "Ġcall",
        "ed"
      ],
      [
        "Ġre",
        "le"
      ],
      [
        "Ġp",
        "ol"
      ],
      [
        "e",
        "p"
      ],
      [
        "m",
        "s"
      ],
      [
        "Ġ",
        "|"
      ],
      [
        "Ġh",
        "ad"
      ],
      [
        "w",
        "n"
      ],
      [
        "Ġa",
        "m"
      ],
      [
        "em",
        "ber"
      ],
      [
        "i",
        "ent"
      ],
      [
        "al",
        "y"
      ],
      [
        "b",
        "all"
      ],
      [
        "m",
        "ber"
      ],
      [
        "Ġl",
        "iv"
      ],
      [
        "Ġs",
        "y"
      ],
      [
        "g",
        "h"
      ],
      [
        "Ġm",
        "in"
      ],
      [
        "il",
        "y"
      ],
      [
        "Ġp",
        "opul"
      ],
      [
        "Ġf",
        "o"
      ],
      [
        "Ġre",
        "g"
      ],
      [
        "Ġre",
        "p"
      ],
      [
        "c",
        "k"
      ],
      [
        "ed",
        "it"
      ],
      [
        "ver",
        "n"
      ],
      [
        "ri",
        "b"
      ],
      [
        "Ġunivers",
        "ity"
      ],
      [
        "Ġc",
        "re"
      ],
      [
        "Ġg",
        "re"
      ],
      [
        "ing",
        "s"
      ],
      [
        "id",
        "ent"
      ],
      [
        "Ġh",
        "ow"
      ],
      [
        "Ġ19",
        "7"
      ],
      [
        "o",
        "ve"
      ],
      [
        "at",
        "h"
      ],
      [
        "Ġre",
        "l"
      ],
      [
        "in",
        "ce"
      ],
      [
        "Ġb",
        "u"
      ],
      [
        "at",
        "ive"
      ],
      [
        "Ġst",
        "ate"
      ],
      [
        "Ġaust",
        "ral"
      ],
      [
        "in",
        "t"
      ],
      [
        "l",
        "o"
      ],
      [
        "Ġo",
        "ver"
      ],
      [
        "Ġ",
        "if"
      ],
      [
        "v",
        "ed"
      ],
      [
        "Ġgo",
        "vern"
      ],
      [
        "Ġt",
        "ra"
      ],
      [
        "Ġbec",
        "ause"
      ],
      [
        "i",
        "le"
      ],
      [
        "Ċ",
        "Ċ"
      ],
      [
        "ug",
        "h"
      ],
      [
        "Ġm",
        "on"
      ],
      [
        "t",
        "en"
      ],
      [
        "Ġm",
        "et"
      ],
      [
        "Ġspe",
        "c"
      ],
      [
        "ct",
        "ed"
      ],
      [
        "s",
        "h"
      ],
      [
        "cl",
        "ud"
      ],
      [
        "c",
        "ed"
      ],
      [
        "Ġ",
        "8"
      ],
      [
        "ct",
        "or"
      ],
      [
        "Ġ",
        "z"
      ],
      [
        "Ġ",
        "7"
      ],
      [
        "on",
        "s"
      ],
      [
        "Ġf",
        "ound"
      ],
      [
        "Ġas",
        "s"
      ],
      [
        "Ġgro",
        "up"
      ],
      [
        "Ġth",
        "an"
      ],
      [
        "o",
        "se"
      ],
      [
        "Ġs",
        "m"
      ],
      [
        "Ġs",
        "up"
      ],
      [
        "Ġl",
        "ar"
      ],
      [
        "ist",
        "s"
      ],
      [
        "Ġwor",
        "k"
      ],
      [
        "ut",
        "ion"
      ],
      [
        "if",
        "ic"
      ],
      [
        "Ġp",
        "r"
      ],
      [
        "m",
        "p"
      ],
      [
        "in",
        "al"
      ],
      [
        "Ġo",
        "p"
      ],
      [
        "Ġj",
        "an"
      ],
      [
        "Ġyear",
        "s"
      ],
      [
        "w",
        "ard"
      ],
      [
        "l",
        "p"
      ],
      [
        "Ġl",
        "ike"
      ],
      [
        "Ġh",
        "igh"
      ],
      [
        "Ġdiffere",
        "nt"
      ],
      [
        "res",
        "s"
      ],
      [
        "l",
        "es"
      ],
      [
        "Ġc",
        "ar"
      ],
      [
        "Ġc",
        "ity"
      ],
      [
        "Ġkn",
        "own"
      ],
      [
        "ie",
        "w"
      ],
      [
        "for",
        "m"
      ],
      [
        "Ġm",
        "us"
      ],
      [
        "Ġj",
        "o"
      ],
      [
        "Ġint",
        "o"
      ],
      [
        "ol",
        "d"
      ],
      [
        "Ġun",
        "ited"
      ],
      [
        "p",
        "ro"
      ],
      [
        "Ġ",
        "end"
      ],
      [
        "Ġar",
        "t"
      ],
      [
        "Ġs",
        "ub"
      ],
      [
        "Ġun",
        "der"
      ],
      [
        "1",
        "9"
      ],
      [
        "Ġch",
        "ang"
      ],
      [
        "Ġrele",
        "ased"
      ],
      [
        "ur",
        "ing"
      ],
      [
        "Ġpubl",
        "is"
      ],
      [
        "re",
        "n"
      ],
      [
        "Ġl",
        "oc"
      ],
      [
        "Ġal",
        "b"
      ],
      [
        "Ġr",
        "ight"
      ],
      [
        "Ġat",
        "t"
      ],
      [
        "Ġsec",
        "ond"
      ],
      [
        "Ġw",
        "ar"
      ],
      [
        "ou",
        "gh"
      ],
      [
        "ur",
        "n"
      ],
      [
        "Ġ",
        "9"
      ],
      [
        "Ġt",
        "er"
      ],
      [
        "in",
        "s"
      ],
      [
        "Ġthe",
        "m"
      ],
      [
        "Ġin",
        "clud"
      ],
      [
        "ag",
        "es"
      ],
      [
        "c",
        "om"
      ],
      [
        "al",
        "e"
      ],
      [
        "Ġd",
        "es"
      ],
      [
        "Ġ1",
        "0"
      ],
      [
        "Ġhe",
        "lp"
      ],
      [
        "Ġwhe",
        "re"
      ],
      [
        "Ġsou",
        "th"
      ],
      [
        "Ġst",
        "art"
      ],
      [
        "ra",
        "ct"
      ],
      [
        "Ġad",
        "d"
      ],
      [
        "im",
        "es"
      ],
      [
        "c",
        "ess"
      ],
      [
        "Ġthe",
        "se"
      ],
      [
        "Ġb",
        "orn"
      ],
      [
        "Ġm",
        "a"
      ],
      [
        "Ġcon",
        "s"
      ],
      [
        "Ġfo",
        "ot"
      ],
      [
        "Ġ",
        "u"
      ],
      [
        "Ġg",
        "et"
      ],
      [
        "th",
        "is"
      ],
      [
        "Ġalb",
        "um"
      ],
      [
        "c",
        "he"
      ],
      [
        "ers",
        "on"
      ],
      [
        "Ġus",
        "e"
      ],
      [
        "Ġhe",
        "r"
      ],
      [
        "Ġpro",
        "v"
      ],
      [
        "Ġf",
        "r"
      ],
      [
        "Ġm",
        "ed"
      ],
      [
        "l",
        "ic"
      ],
      [
        "Ġb",
        "r"
      ],
      [
        "Ġd",
        "ay"
      ],
      [
        "g",
        "an"
      ],
      [
        "Ġs",
        "a"
      ],
      [
        "--",
        "--"
      ],
      [
        "j",
        "ect"
      ],
      [
        "Ġl",
        "ong"
      ],
      [
        "er",
        "al"
      ],
      [
        "vel",
        "op"
      ],
      [
        "]",
        "."
      ],
      [
        "Ġch",
        "ar"
      ],
      [
        ".",
        "."
      ],
      [
        "Ġa",
        "ct"
      ],
      [
        "ĊĊĠ",
        "ĠĠ"
      ],
      [
        "Ġfoot",
        "ball"
      ],
      [
        "ro",
        "m"
      ],
      [
        "is",
        "s"
      ],
      [
        "i",
        "ous"
      ],
      [
        "Ġn",
        "ame"
      ],
      [
        "Ġ19",
        "6"
      ],
      [
        "Ġk",
        "ing"
      ],
      [
        "Ġan",
        "y"
      ],
      [
        "Ġs",
        "ong"
      ],
      [
        "ro",
        "und"
      ],
      [
        "f",
        "ore"
      ],
      [
        "Ġs",
        "ch"
      ],
      [
        "Ġ1",
        "7"
      ],
      [
        "ic",
        "k"
      ],
      [
        "Ġl",
        "i"
      ],
      [
        "Ġ",
        "-"
      ],
      [
        "Ġs",
        "ame"
      ],
      [
        "Ġm",
        "ain"
      ],
      [
        "ro",
        "ugh"
      ],
      [
        "Ġh",
        "y"
      ],
      [
        "or",
        "k"
      ],
      [
        "Ġmo",
        "d"
      ],
      [
        "Ġde",
        "velop"
      ],
      [
        "olog",
        "y"
      ],
      [
        "u",
        "ro"
      ],
      [
        "Ġh",
        "ist"
      ],
      [
        "Ġsu",
        "ch"
      ],
      [
        "Ġg",
        "r"
      ],
      [
        "Ġplay",
        "ed"
      ],
      [
        "Ġnor",
        "th"
      ],
      [
        "o",
        "ol"
      ],
      [
        "w",
        "w"
      ],
      [
        "Ġe",
        "ach"
      ],
      [
        "Ġmo",
        "v"
      ],
      [
        "Ġw",
        "ay"
      ],
      [
        "it",
        "ies"
      ],
      [
        "Ġf",
        "ol"
      ],
      [
        "Ġin",
        "ter"
      ],
      [
        "Ġfam",
        "ily"
      ],
      [
        "Ġde",
        "p"
      ],
      [
        "Ġs",
        "um"
      ],
      [
        "is",
        "ion"
      ],
      [
        "ac",
        "es"
      ],
      [
        "l",
        "l"
      ],
      [
        "in",
        "k"
      ],
      [
        "Ġf",
        "l"
      ],
      [
        "Ġin",
        "c"
      ],
      [
        "u",
        "ary"
      ],
      [
        "Ġs",
        "ing"
      ],
      [
        "Ġ1",
        "2"
      ],
      [
        "Ġp",
        "hy"
      ],
      [
        "Ġan",
        "n"
      ],
      [
        "Ġy",
        "our"
      ],
      [
        "te",
        "xt"
      ],
      [
        "at",
        "ure"
      ],
      [
        "Ġg",
        "u"
      ],
      [
        "oc",
        "i"
      ],
      [
        "Ġd",
        "uring"
      ],
      [
        "Ġbo",
        "ok"
      ],
      [
        "Ġw",
        "ater"
      ],
      [
        "om",
        "et"
      ],
      [
        "Ġ",
        "very"
      ],
      [
        "Ġw",
        "ould"
      ],
      [
        "ang",
        "u"
      ],
      [
        "Ġis",
        "land"
      ],
      [
        "Ġpres",
        "ident"
      ],
      [
        "1",
        "0"
      ],
      [
        "er",
        "t"
      ],
      [
        "Ġth",
        "ree"
      ],
      [
        "ction",
        "s"
      ],
      [
        "ib",
        "le"
      ],
      [
        "o",
        "od"
      ],
      [
        "ic",
        "t"
      ],
      [
        "c",
        "o"
      ],
      [
        "al",
        "s"
      ],
      [
        "Ġre",
        "t"
      ],
      [
        "g",
        "est"
      ],
      [
        "Ġd",
        "at"
      ],
      [
        "if",
        "e"
      ],
      [
        "Ġag",
        "ain"
      ],
      [
        "Ġpro",
        "du"
      ],
      [
        "Ġgovern",
        "ment"
      ],
      [
        "Ġg",
        "ame"
      ],
      [
        "c",
        "on"
      ],
      [
        "Ġfol",
        "low"
      ],
      [
        "ic",
        "ian"
      ],
      [
        "Ġjan",
        "uary"
      ],
      [
        "ot",
        "h"
      ],
      [
        "Ġt",
        "est"
      ],
      [
        "Ġin",
        "tern"
      ],
      [
        "Ġm",
        "y"
      ],
      [
        "as",
        "es"
      ],
      [
        "Ġ",
        "es"
      ],
      [
        "Ġw",
        "ell"
      ],
      [
        "Ġin",
        "f"
      ],
      [
        "st",
        "em"
      ],
      [
        "00",
        "0"
      ],
      [
        "Ġe",
        "uro"
      ],
      [
        "t",
        "s"
      ],
      [
        "Ġl",
        "angu"
      ],
      [
        "Ġo",
        "ld"
      ],
      [
        "Ġp",
        "os"
      ],
      [
        "Ġ19",
        "5"
      ],
      [
        "Ġaustral",
        "ia"
      ],
      [
        "re",
        "d"
      ],
      [
        "Ġsh",
        "ow"
      ],
      [
        "Ġrec",
        "ord"
      ],
      [
        "Ġs",
        "et"
      ],
      [
        "g",
        "r"
      ],
      [
        "2",
        "0"
      ],
      [
        "d",
        "om"
      ],
      [
        "Ġm",
        "at"
      ],
      [
        "Ġm",
        "ake"
      ],
      [
        "âĢ",
        "Ŀ"
      ],
      [
        "Ġare",
        "a"
      ],
      [
        "Ġw",
        "rit"
      ],
      [
        "b",
        "o"
      ],
      [
        "p",
        "le"
      ],
      [
        "is",
        "e"
      ],
      [
        "Ġth",
        "rough"
      ],
      [
        "Ġmar",
        "ch"
      ],
      [
        "Ġsy",
        "stem"
      ],
      [
        "Ġo",
        "b"
      ],
      [
        "Ġs",
        "im"
      ],
      [
        "Ġan",
        "aly"
      ],
      [
        "Ġse",
        "qu"
      ],
      [
        "âĢ",
        "Ļ"
      ],
      [
        "ful",
        "l"
      ],
      [
        "c",
        "y"
      ],
      [
        "Ġ",
        "/"
      ],
      [
        "Ġ",
        "ent"
      ],
      [
        "Ġliv",
        "es"
      ],
      [
        "e",
        "y"
      ],
      [
        "i",
        "x"
      ],
      [
        "Ġp",
        "o"
      ],
      [
        "Ġse",
        "a"
      ],
      [
        "ere",
        "d"
      ],
      [
        "Ġbec",
        "ame"
      ],
      [
        "ct",
        "o"
      ],
      [
        "ow",
        "er"
      ],
      [
        "Ġim",
        "port"
      ],
      [
        "at",
        "ing"
      ],
      [
        "Ġf",
        "ore"
      ],
      [
        "ot",
        "e"
      ],
      [
        "Ġtr",
        "ans"
      ],
      [
        "Ġcon",
        "st"
      ],
      [
        "ap",
        "an"
      ],
      [
        "l",
        "ish"
      ],
      [
        "Ġe",
        "ar"
      ],
      [
        "ÂłÂł",
        "ÂłÂł"
      ],
      [
        "er",
        "man"
      ],
      [
        "al",
        "th"
      ],
      [
        "ou",
        "se"
      ],
      [
        "ri",
        "end"
      ],
      [
        "Ġcomm",
        "un"
      ],
      [
        "Ġ",
        "ed"
      ],
      [
        "Ġa",
        "ward"
      ],
      [
        "Ġs",
        "ince"
      ],
      [
        "Ġop",
        "en"
      ],
      [
        "Ġf",
        "our"
      ],
      [
        "Ġpub",
        "med"
      ],
      [
        "t",
        "t"
      ],
      [
        "u",
        "c"
      ],
      [
        "Ġo",
        "ly"
      ],
      [
        "Ġb",
        "rit"
      ],
      [
        "Ġbe",
        "l"
      ],
      [
        "Ġj",
        "apan"
      ],
      [
        "ual",
        "ly"
      ],
      [
        "Ġsm",
        "all"
      ],
      [
        "Ġoly",
        "mp"
      ],
      [
        "Ġa",
        "ut"
      ],
      [
        "Ġc",
        "he"
      ],
      [
        "Ġp",
        "h"
      ],
      [
        "Ġpl",
        "ace"
      ],
      [
        "Ġbu",
        "ild"
      ],
      [
        "h",
        "ip"
      ],
      [
        "i",
        "el"
      ],
      [
        "Ġs",
        "w"
      ],
      [
        "ul",
        "ar"
      ],
      [
        "Ġb",
        "us"
      ],
      [
        "ri",
        "es"
      ],
      [
        "Ġle",
        "ft"
      ],
      [
        "Ġa",
        "v"
      ],
      [
        "Ġg",
        "ames"
      ],
      [
        "Ġde",
        "ce"
      ],
      [
        "cto",
        "ber"
      ],
      [
        "<",
        "|"
      ],
      [
        "|",
        ">"
      ],
      [
        "is",
        "ter"
      ],
      [
        "Ġb",
        "ar"
      ],
      [
        "ĠâĢ",
        "ľ"
      ],
      [
        "----",
        "|>"
      ],
      [
        "Ġeuro",
        "pe"
      ],
      [
        "<|",
        "----|>"
      ],
      [
        "Ġin",
        "st"
      ],
      [
        "Ġst",
        "ar"
      ],
      [
        "a",
        "z"
      ],
      [
        "i",
        "ver"
      ],
      [
        "t",
        "il"
      ],
      [
        "Ġo",
        "ctober"
      ],
      [
        "Ġc",
        "al"
      ],
      [
        "Ġwh",
        "at"
      ],
      [
        "Ġs",
        "ign"
      ],
      [
        "Ġpublis",
        "her"
      ],
      [
        "us",
        "s"
      ],
      [
        "Ġne",
        "ar"
      ],
      [
        ".",
        "\""
      ],
      [
        "Ġthe",
        "n"
      ],
      [
        "Ġd",
        "own"
      ],
      [
        "Ġd",
        "ied"
      ],
      [
        "Ġl",
        "o"
      ],
      [
        "Ġj",
        "u"
      ],
      [
        "Ġw",
        "om"
      ],
      [
        "Ġl",
        "ast"
      ],
      [
        "Ġg",
        "erman"
      ],
      [
        "Ġhe",
        "ad"
      ],
      [
        "ric",
        "t"
      ],
      [
        "e",
        "ver"
      ],
      [
        "i",
        "er"
      ],
      [
        "ug",
        "ust"
      ],
      [
        "Ġphy",
        "s"
      ],
      [
        "it",
        "al"
      ],
      [
        "Ġpart",
        "y"
      ],
      [
        "Ġser",
        "v"
      ],
      [
        "Ġcount",
        "ry"
      ],
      [
        "s",
        "s"
      ],
      [
        "u",
        "res"
      ],
      [
        "Ġ",
        "vers"
      ],
      [
        "in",
        "es"
      ],
      [
        "Ġf",
        "riend"
      ],
      [
        "as",
        "on"
      ],
      [
        "h",
        "n"
      ],
      [
        "s",
        "is"
      ],
      [
        "Ġc",
        "or"
      ],
      [
        "Ġp",
        "at"
      ],
      [
        "Ġbe",
        "fore"
      ],
      [
        "un",
        "e"
      ],
      [
        "Ġrep",
        "res"
      ],
      [
        "Ġun",
        "til"
      ],
      [
        "Ġser",
        "ies"
      ],
      [
        "Ġsa",
        "id"
      ],
      [
        "in",
        "a"
      ],
      [
        "mer",
        "ic"
      ],
      [
        "Ġeng",
        "lish"
      ],
      [
        "b",
        "e"
      ],
      [
        "Ġp",
        "erson"
      ],
      [
        "Ġ1",
        "5"
      ],
      [
        "ther",
        "n"
      ],
      [
        "Ġcomm",
        "on"
      ],
      [
        "o",
        "ther"
      ],
      [
        "Ġa",
        "meric"
      ],
      [
        "Ġh",
        "im"
      ],
      [
        "Ġg",
        "iv"
      ],
      [
        "ir",
        "d"
      ],
      [
        "Ġor",
        "ig"
      ],
      [
        "Ġpl",
        "aces"
      ],
      [
        "Ġno",
        "ve"
      ],
      [
        "Ġw",
        "al"
      ],
      [
        "Ġf",
        "ar"
      ],
      [
        "Ġd",
        "r"
      ],
      [
        "Ġ1",
        "6"
      ],
      [
        "Ġch",
        "ild"
      ],
      [
        "ment",
        "s"
      ],
      [
        "s",
        "c"
      ],
      [
        "er",
        "v"
      ],
      [
        "Ġl",
        "aw"
      ],
      [
        "Ġse",
        "e"
      ],
      [
        "Ġab",
        "ove"
      ],
      [
        "pt",
        "ember"
      ],
      [
        "Ġmod",
        "el"
      ],
      [
        "Ġnove",
        "mber"
      ],
      [
        "Ġa",
        "ir"
      ],
      [
        "Ġf",
        "act"
      ],
      [
        "ce",
        "pt"
      ],
      [
        "Ġking",
        "dom"
      ],
      [
        "an",
        "k"
      ],
      [
        "Ġb",
        "ro"
      ],
      [
        "Ġe",
        "very"
      ],
      [
        "Ġst",
        "ates"
      ],
      [
        "t",
        "on"
      ],
      [
        "Ġt",
        "em"
      ],
      [
        "Ġa",
        "ugust"
      ],
      [
        "Ġdece",
        "mber"
      ],
      [
        "b",
        "r"
      ],
      [
        "v",
        "ent"
      ],
      [
        "Ġc",
        "ap"
      ],
      [
        "Ġwe",
        "b"
      ],
      [
        "Ġhist",
        "ory"
      ],
      [
        "iel",
        "d"
      ],
      [
        "\"",
        "."
      ],
      [
        "Ġh",
        "um"
      ],
      [
        "Ġ1",
        "4"
      ],
      [
        "Ġde",
        "c"
      ],
      [
        "ant",
        "s"
      ],
      [
        "act",
        "er"
      ],
      [
        "Ġsch",
        "ool"
      ],
      [
        "Ġimport",
        "ant"
      ],
      [
        "b",
        "orn"
      ],
      [
        "Ġa",
        "round"
      ],
      [
        "Ġre",
        "v"
      ],
      [
        "st",
        "ract"
      ],
      [
        "Ġse",
        "ptember"
      ],
      [
        "Ġj",
        "ust"
      ],
      [
        "Ġart",
        "ic"
      ],
      [
        "k",
        "et"
      ],
      [
        "Ġw",
        "on"
      ],
      [
        "Ġb",
        "ack"
      ],
      [
        "Ġ1",
        "1"
      ],
      [
        "Ġcol",
        "le"
      ],
      [
        "Ġs",
        "omet"
      ],
      [
        "Ġm",
        "ember"
      ],
      [
        "Ġto",
        "p"
      ],
      [
        "Ġe",
        "m"
      ],
      [
        "ab",
        "stract"
      ],
      [
        "Ġju",
        "ly"
      ],
      [
        "Ġb",
        "oth"
      ],
      [
        "Ġ1",
        "3"
      ],
      [
        "Ġbe",
        "ing"
      ],
      [
        "Ġv",
        "ar"
      ],
      [
        "Ġv",
        "iew"
      ],
      [
        "Ġeng",
        "land"
      ],
      [
        "d",
        "ay"
      ],
      [
        "g",
        "er"
      ],
      [
        "Ġs",
        "ur"
      ],
      [
        "fere",
        "n"
      ],
      [
        "Ġhow",
        "ever"
      ],
      [
        "Ġt",
        "re"
      ],
      [
        "Ġc",
        "ould"
      ],
      [
        "Ġre",
        "m"
      ],
      [
        "ot",
        "es"
      ],
      [
        "c",
        "er"
      ],
      [
        "u",
        "es"
      ],
      [
        "Ġ",
        "ir"
      ],
      [
        "Ġch",
        "amp"
      ],
      [
        "Ġle",
        "ad"
      ],
      [
        "Ġpol",
        "it"
      ],
      [
        ")",
        ":"
      ],
      [
        "u",
        "ch"
      ],
      [
        "ient",
        "ists"
      ],
      [
        "Ġwom",
        "en"
      ],
      [
        "m",
        "in"
      ],
      [
        "n",
        "ing"
      ],
      [
        "Ġc",
        "ur"
      ],
      [
        "Ġb",
        "ased"
      ],
      [
        "Ġof",
        "ten"
      ],
      [
        "Ġl",
        "a"
      ],
      [
        "ur",
        "y"
      ],
      [
        "our",
        "ce"
      ],
      [
        "amp",
        "le"
      ],
      [
        "Ġcre",
        "ated"
      ],
      [
        "a",
        "x"
      ],
      [
        "od",
        "e"
      ],
      [
        "iv",
        "id"
      ],
      [
        "'",
        "t"
      ],
      [
        "1",
        "1"
      ],
      [
        "u",
        "k"
      ],
      [
        "ro",
        "p"
      ],
      [
        "Ġse",
        "arch"
      ],
      [
        "se",
        "arch"
      ],
      [
        "Ġde",
        "f"
      ],
      [
        "Ġle",
        "vel"
      ],
      [
        "Ġdis",
        "e"
      ],
      [
        "Ġspec",
        "ies"
      ],
      [
        "a",
        "i"
      ],
      [
        "ic",
        "es"
      ],
      [
        "am",
        "ed"
      ],
      [
        "ch",
        "i"
      ],
      [
        "Ġac",
        "c"
      ],
      [
        "Ġt",
        "ak"
      ],
      [
        "Ġse",
        "en"
      ],
      [
        "og",
        "ra"
      ],
      [
        "2",
        "5"
      ],
      [
        "a",
        "ir"
      ],
      [
        "Ġw",
        "in"
      ],
      [
        "Ġd",
        "ire"
      ],
      [
        "the",
        "re"
      ],
      [
        "Ġv",
        "al"
      ],
      [
        "ain",
        "s"
      ],
      [
        "ion",
        "al"
      ],
      [
        "ol",
        "ution"
      ],
      [
        "Ġcomp",
        "et"
      ],
      [
        "Ġplay",
        "er"
      ],
      [
        "h",
        "ing"
      ],
      [
        "Ġg",
        "e"
      ],
      [
        "b",
        "ru"
      ],
      [
        "g",
        "y"
      ],
      [
        "t",
        "y"
      ],
      [
        "re",
        "nt"
      ],
      [
        "Ġs",
        "k"
      ],
      [
        "Ġs",
        "ay"
      ],
      [
        "Ġb",
        "est"
      ],
      [
        "Ġd",
        "et"
      ],
      [
        "Ġst",
        "r"
      ],
      [
        "Ġne",
        "ed"
      ],
      [
        "Ġex",
        "t"
      ],
      [
        "Ġev",
        "en"
      ],
      [
        "b",
        "y"
      ],
      [
        "m",
        "ar"
      ],
      [
        "n",
        "d"
      ],
      [
        "p",
        "os"
      ],
      [
        "Ġt",
        "imes"
      ],
      [
        "ur",
        "al"
      ],
      [
        "oc",
        "k"
      ],
      [
        "Ġwor",
        "d"
      ],
      [
        "Ġpubl",
        "ic"
      ],
      [
        "Ġo",
        "ur"
      ],
      [
        "Ġb",
        "i"
      ],
      [
        "Ġn",
        "ow"
      ],
      [
        "Ġe",
        "p"
      ],
      [
        "Ġ201",
        "0"
      ],
      [
        "Ġvers",
        "ion"
      ],
      [
        "b",
        "le"
      ],
      [
        "o",
        "v"
      ],
      [
        "Ġc",
        "a"
      ],
      [
        "Ġl",
        "and"
      ],
      [
        "Ġle",
        "g"
      ],
      [
        "Ġgen",
        "eral"
      ],
      [
        "Ġintern",
        "ational"
      ],
      [
        "bru",
        "ary"
      ],
      [
        "Ġo",
        "per"
      ],
      [
        "it",
        "s"
      ],
      [
        "am",
        "ent"
      ],
      [
        "i",
        "um"
      ],
      [
        "t",
        "le"
      ],
      [
        "am",
        "a"
      ],
      [
        "Ġbrit",
        "ish"
      ],
      [
        "t",
        "ed"
      ],
      [
        "Ġin",
        "form"
      ],
      [
        "Ġm",
        "ill"
      ],
      [
        "ub",
        "lic"
      ],
      [
        "Ġsh",
        "ould"
      ],
      [
        "Ġ200",
        "8"
      ],
      [
        "Ġcomp",
        "le"
      ],
      [
        "Ġfe",
        "bruary"
      ],
      [
        "Ġma",
        "j"
      ],
      [
        "tt",
        "p"
      ],
      [
        "c",
        "ent"
      ],
      [
        "en",
        "e"
      ],
      [
        "Ġb",
        "ig"
      ],
      [
        "Ġstud",
        "y"
      ],
      [
        "d",
        "e"
      ],
      [
        "he",
        "n"
      ],
      [
        "um",
        "p"
      ],
      [
        "Ġ201",
        "3"
      ],
      [
        "iz",
        "ed"
      ],
      [
        "Ġpopul",
        "ation"
      ],
      [
        "Ġmov",
        "ie"
      ],
      [
        ":",
        "/"
      ],
      [
        "Ġs",
        "oc"
      ],
      [
        "Ġw",
        "est"
      ],
      [
        "at",
        "her"
      ],
      [
        "Ġh",
        "ome"
      ],
      [
        "Ġ19",
        "4"
      ],
      [
        "Ġy",
        "ork"
      ],
      [
        "Ġj",
        "une"
      ],
      [
        "Ġs",
        "on"
      ],
      [
        "en",
        "cy"
      ],
      [
        "Ġl",
        "ist"
      ],
      [
        "Ġh",
        "iv"
      ],
      [
        "Ġpro",
        "f"
      ],
      [
        "Ġ201",
        "2"
      ],
      [
        "Ġass",
        "oci"
      ],
      [
        "Ġstart",
        "ed"
      ],
      [
        "Ġ",
        "."
      ],
      [
        "Ġl",
        "ater"
      ],
      [
        "Ġgo",
        "od"
      ],
      [
        "Ġz",
        "e"
      ],
      [
        "Ġsing",
        "le"
      ],
      [
        "Ġto",
        "wn"
      ],
      [
        "Ġst",
        "re"
      ],
      [
        "Ġpro",
        "te"
      ],
      [
        "Ġcount",
        "ries"
      ],
      [
        "Ġgre",
        "at"
      ],
      [
        "Ġsum",
        "mer"
      ],
      [
        ":/",
        "/"
      ],
      [
        "Ġp",
        "age"
      ],
      [
        "Ġin",
        "v"
      ],
      [
        "Ġfor",
        "m"
      ],
      [
        "ut",
        "e"
      ],
      [
        "Ġcent",
        "ral"
      ],
      [
        "Ġoff",
        "ic"
      ],
      [
        "Ġf",
        "un"
      ],
      [
        "1",
        "2"
      ],
      [
        "Ġcon",
        "f"
      ],
      [
        "Ġmin",
        "ister"
      ],
      [
        "Ġmon",
        "th"
      ],
      [
        "m",
        "y"
      ],
      [
        "p",
        "ar"
      ],
      [
        "en",
        "ces"
      ],
      [
        "Ġf",
        "re"
      ],
      [
        "il",
        "ity"
      ],
      [
        "Ġr",
        "iver"
      ],
      [
        "Ġagain",
        "st"
      ],
      [
        "Ġrepres",
        "ent"
      ],
      [
        "1",
        "3"
      ],
      [
        "e",
        "x"
      ],
      [
        "Ġre",
        "d"
      ],
      [
        "Ġ19",
        "3"
      ],
      [
        "Ġ201",
        "1"
      ],
      [
        "Ġcomp",
        "an"
      ],
      [
        "Ġbl",
        "ack"
      ],
      [
        "Ġgiv",
        "en"
      ],
      [
        "t",
        "al"
      ],
      [
        "Ġe",
        "as"
      ],
      [
        "Ġmaj",
        "or"
      ],
      [
        "c",
        "c"
      ],
      [
        "Ġw",
        "ik"
      ],
      [
        "Ġc",
        "at"
      ],
      [
        "Ġv",
        "is"
      ],
      [
        "Ġinform",
        "ation"
      ],
      [
        "Ġt",
        "ree"
      ],
      [
        "Ġl",
        "ife"
      ],
      [
        "ow",
        "s"
      ],
      [
        "âĢ",
        "ī"
      ],
      [
        "i",
        "ence"
      ],
      [
        "p",
        "o"
      ],
      [
        "en",
        "g"
      ],
      [
        "Ġd",
        "id"
      ],
      [
        "Ġh",
        "ouse"
      ],
      [
        "Ġst",
        "ation"
      ],
      [
        "Ġorig",
        "inal"
      ],
      [
        "1",
        "4"
      ],
      [
        "r",
        "il"
      ],
      [
        "re",
        "t"
      ],
      [
        "st",
        "s"
      ],
      [
        "Ġor",
        "gan"
      ],
      [
        "ial",
        "ly"
      ],
      [
        "are",
        "d"
      ],
      [
        "Ġdat",
        "a"
      ],
      [
        "Ġo",
        "wn"
      ],
      [
        "Ġp",
        "ower"
      ],
      [
        "Ġst",
        "at"
      ],
      [
        "Ġhe",
        "alth"
      ],
      [
        "Ġex",
        "ample"
      ],
      [
        "Ġ200",
        "6"
      ],
      [
        "Ġdist",
        "rict"
      ],
      [
        "Ġlar",
        "ge"
      ],
      [
        "Ġjo",
        "hn"
      ],
      [
        "Ġphys",
        "ician"
      ],
      [
        "Ġb",
        "as"
      ],
      [
        "Ġm",
        "il"
      ],
      [
        "Ġre",
        "al"
      ],
      [
        "Ġartic",
        "le"
      ],
      [
        "a",
        "e"
      ],
      [
        "Ġin",
        "s"
      ],
      [
        "le",
        "y"
      ],
      [
        "Ġe",
        "ast"
      ],
      [
        "Ġ2",
        "5"
      ],
      [
        "Ġst",
        "ill"
      ],
      [
        "Ġpar",
        "k"
      ],
      [
        "Ġam",
        "ong"
      ],
      [
        "Ġlangu",
        "age"
      ],
      [
        "g",
        "en"
      ],
      [
        "t",
        "o"
      ],
      [
        "re",
        "l"
      ],
      [
        "Ġc",
        "are"
      ],
      [
        "Ġf",
        "il"
      ],
      [
        "Ġf",
        "ind"
      ],
      [
        "Ġr",
        "un"
      ],
      [
        "Ġcan",
        "ad"
      ],
      [
        "Ġap",
        "ril"
      ],
      [
        "ult",
        "s"
      ],
      [
        "Ġde",
        "ath"
      ],
      [
        "ire",
        "d"
      ],
      [
        "l",
        "ine"
      ],
      [
        "is",
        "hed"
      ],
      [
        "Ġre",
        "f"
      ],
      [
        "Ġfor",
        "mer"
      ],
      [
        "Ġor",
        "der"
      ],
      [
        "Ġele",
        "ction"
      ],
      [
        "Ġrep",
        "ublic"
      ],
      [
        "er",
        "y"
      ],
      [
        "Ġc",
        "our"
      ],
      [
        "ag",
        "ue"
      ],
      [
        "Ġv",
        "ide"
      ],
      [
        "Ġap",
        "pe"
      ],
      [
        "h",
        "or"
      ],
      [
        "Ġl",
        "ive"
      ],
      [
        "Ġv",
        "ol"
      ],
      [
        "oun",
        "ced"
      ],
      [
        "os",
        "p"
      ],
      [
        "or",
        "g"
      ],
      [
        "Ġan",
        "other"
      ],
      [
        "Ġ3",
        "0"
      ],
      [
        "iz",
        "e"
      ],
      [
        "Ġso",
        "chi"
      ],
      [
        "is",
        "m"
      ],
      [
        "Ġp",
        "ri"
      ],
      [
        "Ġn",
        "amed"
      ],
      [
        "Ġk",
        "e"
      ],
      [
        "Ġro",
        "ck"
      ],
      [
        "ond",
        "on"
      ],
      [
        "a",
        "f"
      ],
      [
        "n",
        "er"
      ],
      [
        "Ġs",
        "it"
      ],
      [
        "Ġm",
        "ak"
      ],
      [
        "Ġre",
        "st"
      ],
      [
        "Ġpos",
        "s"
      ],
      [
        "Ġcur",
        "rent"
      ],
      [
        "a",
        "h"
      ],
      [
        "Ġb",
        "and"
      ],
      [
        "am",
        "s"
      ],
      [
        "Ġcl",
        "ub"
      ],
      [
        "Ġcl",
        "ass"
      ],
      [
        "Ġhelp",
        "ful"
      ],
      [
        "Ġfollow",
        "ing"
      ],
      [
        "Ġchild",
        "ren"
      ],
      [
        "2",
        "7"
      ],
      [
        "in",
        "ed"
      ],
      [
        "sh",
        "ip"
      ],
      [
        "Ġlar",
        "gest"
      ],
      [
        "Ġhum",
        "an"
      ],
      [
        "Ġchamp",
        "ions"
      ],
      [
        "c",
        "ul"
      ],
      [
        "i",
        "or"
      ],
      [
        "i",
        "et"
      ],
      [
        "t",
        "ing"
      ],
      [
        "Ġdis",
        "c"
      ],
      [
        "Ġ",
        "ÂłÂł"
      ],
      [
        "Ġb",
        "ra"
      ],
      [
        "Ġm",
        "ount"
      ],
      [
        "Ġl",
        "ondon"
      ],
      [
        "Ġth",
        "ose"
      ],
      [
        "ig",
        "en"
      ],
      [
        "Ġhe",
        "ld"
      ],
      [
        "Ġ201",
        "4"
      ],
      [
        "Ġex",
        "per"
      ],
      [
        "Ġdo",
        "es"
      ],
      [
        "Ġinclud",
        "ing"
      ],
      [
        "Ġchar",
        "acter"
      ],
      [
        "Ġdep",
        "art"
      ],
      [
        "Ġp",
        "ass"
      ],
      [
        "Ġv",
        "otes"
      ],
      [
        "Ġ200",
        "5"
      ],
      [
        "Ġ200",
        "7"
      ],
      [
        "Ġte",
        "le"
      ],
      [
        "Ġqu",
        "ote"
      ],
      [
        "Ġaustral",
        "ian"
      ],
      [
        "Ġann",
        "ounced"
      ],
      [
        "Ġav",
        "ail"
      ],
      [
        "1",
        "8"
      ],
      [
        "Ġc",
        "r"
      ],
      [
        "at",
        "or"
      ],
      [
        "an",
        "e"
      ],
      [
        "an",
        "n"
      ],
      [
        "Ġm",
        "al"
      ],
      [
        "Ġm",
        "id"
      ],
      [
        "Ġre",
        "port"
      ],
      [
        "od",
        "y"
      ],
      [
        "Ġro",
        "ad"
      ],
      [
        "Ġ200",
        "9"
      ],
      [
        "Ġstud",
        "io"
      ],
      [
        "Ġw",
        "ent"
      ],
      [
        "Ġp",
        "ort"
      ],
      [
        "Ġde",
        "m"
      ],
      [
        "Ġpl",
        "at"
      ],
      [
        "ical",
        "ly"
      ],
      [
        "Ġ202",
        "0"
      ],
      [
        "Ġpopul",
        "ar"
      ],
      [
        "rib",
        "ut"
      ],
      [
        "Ġvide",
        "o"
      ],
      [
        "ri",
        "ed"
      ],
      [
        "Ġind",
        "ivid"
      ],
      [
        "Ġdevelop",
        "ment"
      ],
      [
        "Ġ",
        "x"
      ],
      [
        "Ġm",
        "uch"
      ],
      [
        "Ġse",
        "le"
      ],
      [
        "Ġ201",
        "8"
      ],
      [
        "Ġex",
        "p"
      ],
      [
        "Ġmember",
        "s"
      ],
      [
        "m",
        "e"
      ],
      [
        "Ġf",
        "ree"
      ],
      [
        "Ġ2",
        "4"
      ],
      [
        "Ġmus",
        "ic"
      ],
      [
        "Ġanaly",
        "sis"
      ],
      [
        "Ġchampions",
        "hip"
      ],
      [
        "igen",
        "ous"
      ],
      [
        "l",
        "ed"
      ],
      [
        "Ġt",
        "y"
      ],
      [
        "Ġc",
        "ro"
      ],
      [
        "Ġp",
        "ost"
      ],
      [
        "es",
        "tern"
      ],
      [
        "Ġd",
        "iv"
      ],
      [
        "Ġh",
        "ig"
      ],
      [
        "ur",
        "ch"
      ],
      [
        "el",
        "f"
      ],
      [
        "Ġus",
        "ing"
      ],
      [
        "Ġnew",
        "s"
      ],
      [
        "Ġlo",
        "ok"
      ],
      [
        "Ġgerman",
        "y"
      ],
      [
        "Ġavail",
        "able"
      ],
      [
        "Ġd",
        "y"
      ],
      [
        "Ġd",
        "om"
      ],
      [
        "Ġh",
        "ttp"
      ],
      [
        "Ġth",
        "ird"
      ],
      [
        "Ġ2",
        "1"
      ],
      [
        "ol",
        "es"
      ],
      [
        "ter",
        "s"
      ],
      [
        "Ġle",
        "ague"
      ],
      [
        "Ġpart",
        "ic"
      ],
      [
        "Ġmill",
        "ion"
      ],
      [
        "l",
        "i"
      ],
      [
        "en",
        "se"
      ],
      [
        "Ġan",
        "im"
      ],
      [
        "Ġg",
        "od"
      ],
      [
        "Ġsup",
        "port"
      ],
      [
        "Ġpo",
        "int"
      ],
      [
        "Ġl",
        "it"
      ],
      [
        "iv",
        "ed"
      ],
      [
        "are",
        "nt"
      ],
      [
        "Ġter",
        "m"
      ],
      [
        "s",
        "on"
      ],
      [
        "Ġcont",
        "ro"
      ],
      [
        "Ġolymp",
        "ics"
      ],
      [
        "v",
        "es"
      ],
      [
        "Ġ",
        "0"
      ],
      [
        "on",
        "t"
      ],
      [
        "Ġf",
        "em"
      ],
      [
        "Ġe",
        "l"
      ],
      [
        "Ġoff",
        "ice"
      ],
      [
        "Ġrel",
        "ig"
      ],
      [
        "..",
        "."
      ],
      [
        "Â",
        "°"
      ],
      [
        "Ġb",
        "or"
      ],
      [
        "Ġl",
        "ine"
      ],
      [
        "Ġe",
        "ff"
      ],
      [
        "id",
        "ence"
      ],
      [
        "Ġhe",
        "re"
      ],
      [
        "Ġpro",
        "ject"
      ],
      [
        "Ġ200",
        "1"
      ],
      [
        "ep",
        "end"
      ],
      [
        "Ġreg",
        "ion"
      ],
      [
        "ww",
        "w"
      ],
      [
        "Ġes",
        "v"
      ],
      [
        "Ġwrit",
        "ten"
      ],
      [
        "Ġindivid",
        "ual"
      ],
      [
        "a",
        "ut"
      ],
      [
        "z",
        "e"
      ],
      [
        "Ġs",
        "l"
      ],
      [
        "an",
        "c"
      ],
      [
        "ig",
        "ure"
      ],
      [
        "Ġse",
        "ason"
      ],
      [
        "Ġpres",
        "ent"
      ],
      [
        "Ġloc",
        "al"
      ],
      [
        "Ġdes",
        "c"
      ],
      [
        "Ġu",
        "k"
      ],
      [
        "ert",
        "ain"
      ],
      [
        "i",
        "ents"
      ],
      [
        "re",
        "ad"
      ],
      [
        "at",
        "s"
      ],
      [
        "iv",
        "es"
      ],
      [
        "Ġaf",
        "f"
      ],
      [
        "Ġrec",
        "ent"
      ],
      [
        "ition",
        "al"
      ],
      [
        "v",
        "en"
      ],
      [
        "Ġs",
        "ource"
      ],
      [
        "is",
        "ed"
      ],
      [
        "it",
        "ions"
      ],
      [
        "Ġth",
        "ough"
      ],
      [
        "Ġbe",
        "gan"
      ],
      [
        "ver",
        "age"
      ],
      [
        "ist",
        "an"
      ],
      [
        "Ġpro",
        "gr"
      ],
      [
        "qu",
        "e"
      ],
      [
        "Ġcent",
        "ury"
      ],
      [
        "lo",
        "ad"
      ],
      [
        "Ġchang",
        "e"
      ],
      [
        "v",
        "ision"
      ],
      [
        "at",
        "ic"
      ],
      [
        "Ġwith",
        "in"
      ],
      [
        "Ġor",
        "th"
      ],
      [
        "Ġloc",
        "ated"
      ],
      [
        "Ġameric",
        "a"
      ],
      [
        "e",
        "w"
      ],
      [
        "m",
        "b"
      ],
      [
        "n",
        "ess"
      ],
      [
        "Ġ",
        "="
      ],
      [
        "Ġl",
        "ot"
      ],
      [
        "il",
        "ar"
      ],
      [
        "Ġr",
        "ail"
      ],
      [
        "Ġr",
        "uss"
      ],
      [
        "ra",
        "ft"
      ],
      [
        "Ġus",
        "ually"
      ],
      [
        "che",
        "s"
      ],
      [
        "Ġcompan",
        "y"
      ],
      [
        "Ġo",
        "cc"
      ],
      [
        "Ġc",
        "up"
      ],
      [
        "Ġl",
        "ow"
      ],
      [
        "Ġto",
        "ur"
      ],
      [
        "Ġap",
        "pl"
      ],
      [
        "Ġpublis",
        "hed"
      ],
      [
        "Ġeurope",
        "an"
      ],
      [
        "Ġtem",
        "per"
      ],
      [
        "1",
        "7"
      ],
      [
        "e",
        "le"
      ],
      [
        "o",
        "y"
      ],
      [
        "Ġ",
        "ve"
      ],
      [
        "Ġm",
        "ult"
      ],
      [
        "Ġ1",
        "00"
      ],
      [
        "Ġ(",
        ")"
      ],
      [
        "Ġnor",
        "thern"
      ],
      [
        "Ġfe",
        "w"
      ],
      [
        "Ġprov",
        "id"
      ],
      [
        "Ġsim",
        "ilar"
      ],
      [
        "5",
        "0"
      ],
      [
        "d",
        "ro"
      ],
      [
        "Ġf",
        "in"
      ],
      [
        "Ġ20",
        "00"
      ],
      [
        "Ġsh",
        "ort"
      ],
      [
        "Ġgro",
        "w"
      ],
      [
        "Ġkn",
        "ow"
      ],
      [
        "Ġpre",
        "v"
      ],
      [
        "Ġsup",
        "er"
      ],
      [
        "Ġche",
        "m"
      ],
      [
        "\"",
        ","
      ],
      [
        "2",
        "2"
      ],
      [
        "Ġs",
        "ite"
      ],
      [
        "Ġw",
        "ant"
      ],
      [
        "en",
        "n"
      ],
      [
        "Ġm",
        "en"
      ],
      [
        "Ġto",
        "tal"
      ],
      [
        "Ġst",
        "and"
      ],
      [
        "Ġ3",
        "1"
      ],
      [
        "Ġposs",
        "ible"
      ],
      [
        "f",
        "am"
      ],
      [
        "g",
        "in"
      ],
      [
        "s",
        "he"
      ],
      [
        "on",
        "es"
      ],
      [
        "ar",
        "n"
      ],
      [
        "ver",
        "al"
      ],
      [
        "pe",
        "ct"
      ],
      [
        "Ġall",
        "ow"
      ],
      [
        "Ġele",
        "ct"
      ],
      [
        "Ġbel",
        "ie"
      ],
      [
        "Ġdise",
        "ase"
      ],
      [
        "ĠÂłÂł",
        "Ċ"
      ],
      [
        "c",
        "le"
      ],
      [
        "f",
        "rom"
      ],
      [
        "Ġc",
        "le"
      ],
      [
        "em",
        "ent"
      ],
      [
        "Ġsp",
        "ort"
      ],
      [
        "Ġco",
        "in"
      ],
      [
        "Ġ202",
        "1"
      ],
      [
        "Ġ202",
        "2"
      ],
      [
        "Ġbuild",
[...]
