{
  "version": "1.0",
  "truncation": null,
  "padding": null,
  "added_tokens": [
    {
      "id": 0,
      "content": "<|----|>",
      "single_word": false,
      "lstrip": false,
      "rstrip": false,
      "normalized": false,
      "special": true
    },
    {
      "id": 1,
      "content": "<|//|>",
      "single_word": false,
      "lstrip": false,
      "rstrip": false,
      "normalized": false,
      "special": true
    },
    {
      "id": 2,
      "content": "<|tokipona:>",
      "single_word": false,
      "lstrip": false,
      "rstrip": false,
      "normalized": false,
      "special": true
    },
    {
      "id": 3,
      "content": "<|english:>",
      "single_word": false,
      "lstrip": false,
      "rstrip": false,
      "normalized": false,
      "special": true
    },
    {
      "id": 4,
      "content": "</english:>",
      "single_word": false,
      "lstrip": false,
      "rstrip": false,
      "normalized": false,
      "special": true
    },
    {
      "id": 5,
      "content": "</tokipona:>",
      "single_word": false,
      "lstrip": false,
      "rstrip": false,
      "normalized": false,
      "special": true
    },
    {
      "id": 6,
      "content": "<|lq:>",
      "single_word": false,
      "lstrip": false,
      "rstrip": false,
      "normalized": false,
      "special": true
    },
    {
      "id": 7,
      "content": "<:lq|>",
      "single_word": false,
      "lstrip": false,
      "rstrip": false,
      "normalized": false,
      "special": true
    },
    {
      "id": 8,
      "content": "<|hq:>",
      "single_word": false,
      "lstrip": false,
      "rstrip": false,
      "normalized": false,
      "special": true
    },
    {
      "id": 9,
      "content": "<:hq|>",
      "single_word": false,
      "lstrip": false,
      "rstrip": false,
      "normalized": false,
      "special": true
    },
    {
      "id": 10,
      "content": "<|!:>",
      "single_word": false,
      "lstrip": false,
      "rstrip": false,
      "normalized": false,
      "special": true
    },
    {
      "id": 11,
      "content": "<:!|>",
      "single_word": false,
      "lstrip": false,
      "rstrip": false,
      "normalized": false,
      "special": true
    },
    {
      "id": 12,
      "content": "<|?:>",
      "single_word": false,
      "lstrip": false,
      "rstrip": false,
      "normalized": false,
      "special": true
    },
    {
      "id": 13,
      "content": "<:?|>",
      "single_word": false,
      "lstrip": false,
      "rstrip": false,
      "normalized": false,
      "special": true
    },
    {
      "id": 14,
      "content": "<|*:>",
      "single_word": false,
      "lstrip": false,
      "rstrip": false,
      "normalized": false,
      "special": true
    },
    {
      "id": 15,
      "content": "<:*|>",
      "single_word": false,
      "lstrip": false,
      "rstrip": false,
      "normalized": false,
      "special": true
    },
    {
      "id": 16,
      "content": "<|-:>",
      "single_word": false,
      "lstrip": false,
      "rstrip": false,
      "normalized": false,
      "special": true
    },
    {
      "id": 17,
      "content": "<:-|>",
      "single_word": false,
      "lstrip": false,
      "rstrip": false,
      "normalized": false,
      "special": true
    },
    {
      "id": 18,
      "content": "<|=:>",
      "single_word": false,
      "lstrip": false,
      "rstrip": false,
      "normalized": false,
      "special": true
    },
    {
      "id": 19,
      "content": "<:=|>",
      "single_word": false,
      "lstrip": false,
      "rstrip": false,
      "normalized": false,
      "special": true
    },
    {
      "id": 20,
      "content": "<|/:>",
      "single_word": false,
      "lstrip": false,
      "rstrip": false,
      "normalized": false,
      "special": true
    },
    {
      "id": 21,
      "content": "<:/|>",
      "single_word": false,
      "lstrip": false,
      "rstrip": false,
      "normalized": false,
      "special": true
    },
    {
      "id": 22,
      "content": "<|@:>",
      "single_word": false,
      "lstrip": false,
      "rstrip": false,
      "normalized": false,
      "special": true
    },
    {
      "id": 23,
      "content": "<:@|>",
      "single_word": false,
      "lstrip": false,
      "rstrip": false,
      "normalized": false,
      "special": true
    },
    {
      "id": 24,
      "content": "<|reject|>",
      "single_word": false,
      "lstrip": false,
      "rstrip": false,
      "normalized": false,
      "special": true
    },
    {
      "id": 25,
      "content": "<|think|>",
      "single_word": false,
      "lstrip": false,
      "rstrip": false,
      "normalized": false,
      "special": true
    },
    {
      "id": 26,
      "content": "<|p7|>",
      "single_word": false,
      "lstrip": false,
      "rstrip": false,
      "normalized": false,
      "special": true
    },
    {
      "id": 27,
      "content": "<|p6|>",
      "single_word": false,
      "lstrip": false,
      "rstrip": false,
      "normalized": false,
      "special": true
    },
    {
      "id": 28,
      "content": "<|p5|>",
      "single_word": false,
      "lstrip": false,
      "rstrip": false,
      "normalized": false,
      "special": true
    },
    {
      "id": 29,
      "content": "<|p4|>",
      "single_word": false,
      "lstrip": false,
      "rstrip": false,
      "normalized": false,
      "special": true
    },
    {
      "id": 30,
      "content": "<|p3|>",
      "single_word": false,
      "lstrip": false,
      "rstrip": false,
      "normalized": false,
      "special": true
    },
    {
      "id": 31,
      "content": "<|p2|>",
      "single_word": false,
      "lstrip": false,
      "rstrip": false,
      "normalized": false,
      "special": true
    },
    {
      "id": 32,
      "content": "<|p1|>",
      "single_word": false,
      "lstrip": false,
      "rstrip": false,
      "normalized": false,
      "special": true
    },
    {
      "id": 33,
      "content": "<|p0|>",
      "single_word": false,
      "lstrip": false,
      "rstrip": false,
      "normalized": false,
      "special": true
    },
    {
      "id": 34,
      "content": "<|reserved0|>",
      "single_word": false,
      "lstrip": false,
      "rstrip": false,
      "normalized": false,
      "special": true
    },
    {
      "id": 35,
      "content": "<|reserved1|>",
      "single_word": false,
      "lstrip": false,
      "rstrip": false,
      "normalized": false,
      "special": true
    },
    {
      "id": 36,
      "content": "<|reserved2|>",
      "single_word": false,
      "lstrip": false,
      "rstrip": false,
      "normalized": false,
      "special": true
    },
    {
      "id": 37,
      "content": "<|reserved3|>",
      "single_word": false,
      "lstrip": false,
      "rstrip": false,
      "normalized": false,
      "special": true
    },
    {
      "id": 38,
      "content": "<|reserved4|>",
      "single_word": false,
      "lstrip": false,
      "rstrip": false,
      "normalized": false,
      "special": true
    },
    {
      "id": 39,
      "content": "<|reserved5|>",
      "single_word": false,
      "lstrip": false,
      "rstrip": false,
      "normalized": false,
      "special": true
    },
    {
      "id": 40,
      "content": "<|reserved6|>",
      "single_word": false,
      "lstrip": false,
      "rstrip": false,
      "normalized": false,
      "special": true
    },
    {
      "id": 41,
      "content": "<|reserved7|>",
      "single_word": false,
      "lstrip": false,
      "rstrip": false,
      "normalized": false,
      "special": true
    }
  ],
  "normalizer": null,
  "pre_tokenizer": {
    "type": "ByteLevel",
    "add_prefix_space": false,
    "trim_offsets": true,
    "use_regex": true
  },
  "post_processor": {
    "type": "ByteLevel",
    "add_prefix_space": true,
    "trim_offsets": false,
    "use_regex": true
  },
  "decoder": {
    "type": "ByteLevel",
    "add_prefix_space": true,
    "trim_offsets": true,
    "use_regex": true
  },
  "model": {
    "type": "BPE",
    "dropout": null,
    "unk_token": null,
    "continuing_subword_prefix": null,
    "end_of_word_suffix": null,
    "fuse_unk": false,
    "byte_fallback": false,
    "ignore_merges": false,
    "vocab": {
      "<|----|>": 0,
      "<|//|>": 1,
      "<|tokipona:>": 2,
      "<|english:>": 3,
      "</english:>": 4,
      "</tokipona:>": 5,
      "<|lq:>": 6,
      "<:lq|>": 7,
      "<|hq:>": 8,
      "<:hq|>": 9,
      "<|!:>": 10,
      "<:!|>": 11,
      "<|?:>": 12,
      "<:?|>": 13,
      "<|*:>": 14,
      "<:*|>": 15,
      "<|-:>": 16,
      "<:-|>": 17,
      "<|=:>": 18,
      "<:=|>": 19,
      "<|/:>": 20,
      "<:/|>": 21,
      "<|@:>": 22,
      "<:@|>": 23,
      "<|reject|>": 24,
      "<|think|>": 25,
      "<|p7|>": 26,
      "<|p6|>": 27,
      "<|p5|>": 28,
      "<|p4|>": 29,
      "<|p3|>": 30,
      "<|p2|>": 31,
      "<|p1|>": 32,
      "<|p0|>": 33,
      "<|reserved0|>": 34,
      "<|reserved1|>": 35,
      "<|reserved2|>": 36,
      "<|reserved3|>": 37,
      "<|reserved4|>": 38,
      "<|reserved5|>": 39,
      "<|reserved6|>": 40,
      "<|reserved7|>": 41,
      "!": 42,
      "\"": 43,
      "#": 44,
      "$": 45,
      "%": 46,
      "&": 47,
      "'": 48,
      "(": 49,
      ")": 50,
      "*": 51,
      "+": 52,
      ",": 53,
      "-": 54,
      ".": 55,
      "/": 56,
      "0": 57,
      "1": 58,
      "2": 59,
      "3": 60,
      "4": 61,
      "5": 62,
      "6": 63,
      "7": 64,
      "8": 65,
      "9": 66,
      ":": 67,
      ";": 68,
      "<": 69,
      "=": 70,
      ">": 71,
      "?": 72,
      "@": 73,
      "A": 74,
      "B": 75,
      "C": 76,
      "D": 77,
      "E": 78,
      "F": 79,
      "G": 80,
      "H": 81,
      "I": 82,
      "J": 83,
      "K": 84,
      "L": 85,
      "M": 86,
      "N": 87,
      "O": 88,
      "P": 89,
      "Q": 90,
      "R": 91,
      "S": 92,
      "T": 93,
      "U": 94,
      "V": 95,
      "W": 96,
      "X": 97,
      "Y": 98,
      "Z": 99,
      "[": 100,
      "\\": 101,
      "]": 102,
      "^": 103,
      "_": 104,
      "`": 105,
      "a": 106,
      "b": 107,
      "c": 108,
      "d": 109,
      "e": 110,
      "f": 111,
      "g": 112,
      "h": 113,
      "i": 114,
      "j": 115,
      "k": 116,
      "l": 117,
      "m": 118,
      "n": 119,
      "o": 120,
      "p": 121,
      "q": 122,
      "r": 123,
      "s": 124,
      "t": 125,
      "u": 126,
      "v": 127,
      "w": 128,
      "x": 129,
      "y": 130,
      "z": 131,
      "{": 132,
      "|": 133,
      "}": 134,
      "~": 135,
      "¡": 136,
      "¢": 137,
      "£": 138,
      "¤": 139,
      "¥": 140,
      "¦": 141,
      "§": 142,
      "¨": 143,
      "©": 144,
      "ª": 145,
      "«": 146,
      "¬": 147,
      "®": 148,
      "¯": 149,
      "°": 150,
      "±": 151,
      "²": 152,
      "³": 153,
      "´": 154,
      "µ": 155,
      "¶": 156,
      "·": 157,
      "¸": 158,
      "¹": 159,
      "º": 160,
      "»": 161,
      "¼": 162,
      "½": 163,
      "¾": 164,
      "¿": 165,
      "À": 166,
      "Á": 167,
      "Â": 168,
      "Ã": 169,
      "Ä": 170,
      "Å": 171,
      "Æ": 172,
      "Ç": 173,
      "È": 174,
      "É": 175,
      "Ê": 176,
      "Ë": 177,
      "Ì": 178,
      "Í": 179,
      "Î": 180,
      "Ï": 181,
      "Ð": 182,
      "Ñ": 183,
      "Ò": 184,
      "Ó": 185,
      "Ô": 186,
      "Õ": 187,
      "Ö": 188,
      "×": 189,
      "Ø": 190,
      "Ù": 191,
      "Ú": 192,
      "Û": 193,
      "Ü": 194,
      "Ý": 195,
      "Þ": 196,
      "ß": 197,
      "à": 198,
      "á": 199,
      "â": 200,
      "ã": 201,
      "ä": 202,
      "å": 203,
      "æ": 204,
      "ç": 205,
      "è": 206,
      "é": 207,
      "ê": 208,
      "ë": 209,
      "ì": 210,
      "í": 211,
      "î": 212,
      "ï": 213,
      "ð": 214,
      "ñ": 215,
      "ò": 216,
      "ó": 217,
      "ô": 218,
      "õ": 219,
      "ö": 220,
      "÷": 221,
      "ø": 222,
      "ù": 223,
      "ú": 224,
      "û": 225,
      "ü": 226,
      "ý": 227,
      "þ": 228,
      "ÿ": 229,
      "Ā": 230,
      "ā": 231,
      "Ă": 232,
      "ă": 233,
      "Ą": 234,
      "ą": 235,
      "Ć": 236,
      "ć": 237,
      "Ĉ": 238,
      "ĉ": 239,
      "Ċ": 240,
      "ċ": 241,
      "Č": 242,
      "č": 243,
      "Ď": 244,
      "ď": 245,
      "Đ": 246,
      "đ": 247,
      "Ē": 248,
      "ē": 249,
      "Ĕ": 250,
      "ĕ": 251,
      "Ė": 252,
      "ė": 253,
      "Ę": 254,
      "ę": 255,
      "Ě": 256,
      "ě": 257,
      "Ĝ": 258,
      "ĝ": 259,
      "Ğ": 260,
      "ğ": 261,
      "Ġ": 262,
      "ġ": 263,
      "Ģ": 264,
      "ģ": 265,
      "Ĥ": 266,
      "ĥ": 267,
      "Ħ": 268,
      "ħ": 269,
      "Ĩ": 270,
      "ĩ": 271,
      "Ī": 272,
      "ī": 273,
      "Ĭ": 274,
      "ĭ": 275,
      "Į": 276,
      "į": 277,
      "İ": 278,
      "ı": 279,
      "Ĳ": 280,
      "ĳ": 281,
      "Ĵ": 282,
      "ĵ": 283,
      "Ķ": 284,
      "ķ": 285,
      "ĸ": 286,
      "Ĺ": 287,
      "ĺ": 288,
      "Ļ": 289,
      "ļ": 290,
      "Ľ": 291,
      "ľ": 292,
      "Ŀ": 293,
      "ŀ": 294,
      "Ł": 295,
      "ł": 296,
      "Ń": 297,
      "Ġt": 298,
      "Ġa": 299,
      "in": 300,
      "he": 301,
      "re": 302,
      "on": 303,
      "Ġs": 304,
      "Ġthe": 305,
      "er": 306,
      "at": 307,
      "Ġc": 308,
      "Ġo": 309,
      "en": 310,
      "Ġp": 311,
      "is": 312,
      "Ġw": 313,
      "ed": 314,
      "an": 315,
      "es": 316,
      "or": 317,
      "it": 318,
      "al": 319,
      "Ġb": 320,
      "Ġf": 321,
      "Ġm": 322,
      "Ġin": 323,
      "Ġan": 324,
      "Ġof": 325,
      "ar": 326,
      "Ġd": 327,
      "ion": 328,
      "ic": 329,
      "ro": 330,
      "Ġand": 331,
      "as": 332,
      "ing": 333,
      "le": 334,
      "Ġto": 335,
      "Ġh": 336,
      "Ġn": 337,
      "ou": 338,
      "ent": 339,
      "Ġl": 340,
      "Ġre": 341,
      "Ġg": 342,
      "ct": 343,
      "Ġe": 344,
      "Ġth": 345,
      "il": 346,
      "om": 347,
      "st": 348,
      "el": 349,
      "ation": 350,
      "ol": 351,
      "Ġis": 352,
      "Ġ1": 353,
      "et": 354,
      "Ġu": 355,
      "Ġ2": 356,
      "ot": 357,
      "id": 358,
      "iv": 359,
      "ig": 360,
      "am": 361,
      "Ġ(": 362,
      "ul": 363,
      "Ġst": 364,
      "Ġfor": 365,
      "ch": 366,
      "se": 367,
      "ce": 368,
      "Ġon": 369,
      "im": 370,
      "ut": 371,
      "Ġv": 372,
      "ra": 373,
      "Ġbe": 374,
      "ur": 375,
      "ly": 376,
      "ow": 377,
      "âĢ": 378,
      "Âł": 379,
      "ad": 380,
      "if": 381,
      "Ġas": 382,
      "Ġal": 383,
      "ith": 384,
      "Ġr": 385,
      "ĊĠ": 386,
      "her": 387,
      "ers": 388,
      "ir": 389,
      "Ġcon": 390,
      "Ġit": 391,
      "ab": 392,
      "th": 393,
      "Ġwith": 394,
      "op": 395,
      "Ġwas": 396,
      "Ġj": 397,
      "Ġy": 398,
      "ay": 399,
      "ere": 400,
      "00": 401,
      "um": 402,
      "Ġpro": 403,
      "ist": 404,
      "Ġhe": 405,
      "Ġthat": 406,
      "ub": 407,
      "ag": 408,
      "Ġse": 409,
      "od": 410,
      "us": 411,
      "em": 412,
      "un": 413,
      "Ġk": 414,
      "Ġby": 415,
      "rom": 416,
      "ter": 417,
      "os": 418,
      "Ġch": 419,
      "res": 420,
      "Ġcom": 421,
      "av": 422,
      "ri": 423,
      "Ġare": 424,
      "qu": 425,
      "ity": 426,
      "og": 427,
      "Ġat": 428,
      "and": 429,
      "Ġde": 430,
      "ac": 431,
      "ate": 432,
      "oc": 433,
      "est": 434,
      "Ġwh": 435,
      "Ġor": 436,
      "ver": 437,
      "pe": 438,
      "Ġfrom": 439,
      "ant": 440,
      "Ġex": 441,
      "ud": 442,
      "Ġthis": 443,
      "Ġne": 444,
      "Ġ[": 445,
      "ated": 446,
      "Ġun": 447,
      "ment": 448,
      "the": 449,
      "art": 450,
      "ore": 451,
      "Ġyou": 452,
      "ess": 453,
      "igh": 454,
      "ive": 455,
      "ies": 456,
      "ort": 457,
      "ill": 458,
      "ction": 459,
      "ĊĊĠ": 460,
      "Ġle": 461,
      "Ġus": 462,
      "ain": 463,
      "te": 464,
      "ure": 465,
      "Ġpub": 466,
      "01": 467,
      "Ġ3": 468,
      "pt": 469,
      "ical": 470,
      "ell": 471,
      "pl": 472,
      "Ġ19": 473,
      "nt": 474,
      "Ġsh": 475,
      "Ġad": 476,
      "Ġen": 477,
      "ak": 478,
      "ang": 479,
      "Ġpl": 480,
      "ld": 481,
      "ia": 482,
      "Ġnot": 483,
      "ial": 484,
      "all": 485,
      "Ġ200": 486,
      "ber": 487,
      "--": 488,
      "ĠâĢ": 489,
      ".;": 490,
      "Ġwere": 491,
      "ov": 492,
      "Ġgen": 493,
      "up": 494,
      "ine": 495,
      "ans": 496,
      "ast": 497,
      "ip": 498,
      "iz": 499,
      "ost": 500,
      "ave": 501,
      "ie": 502,
      "ap": 503,
      "Ġres": 504,
      "Ġcan": 505,
      "Ġwe": 506,
      "are": 507,
      "Ġcont": 508,
      "ich": 509,
      "Ġcomp": 510,
      "ard": 511,
      "our": 512,
      "ff": 513,
      "ight": 514,
      "age": 515,
      "med": 516,
      "ik": 517,
      "'s": 518,
      "cl": 519,
      "Ġab": 520,
      "ary": 521,
      "ful": 522,
      "ult": 523,
      "Ġhave": 524,
      "Ġar": 525,
      "ĠĠ": 526,
      "Ġwor": 527,
      "Ġac": 528,
      "for": 529,
      "Ġ201": 530,
      "ther": 531,
      "ect": 532,
      "Ġro": 533,
      ").": 534,
      "ug": 535,
      "act": 536,
      "port": 537,
      "ide": 538,
      "ph": 539,
      "ations": 540,
      "ign": 541,
      "end": 542,
      "Ġi": 543,
      "ust": 544,
      "Ġ5": 545,
      "Ġ4": 546,
      "xt": 547,
      "ib": 548,
      "Ġsc": 549,
      "Ġcl": 550,
      "ong": 551,
      "per": 552,
      "Ġ|": 553,
      "ome": 554,
      "ous": 555,
      "ys": 556,
      "Ġall": 557,
      "Ġhas": 558,
      "ase": 559,
      "Ġap": 560,
      "Ġim": 561,
      "Ġdis": 562,
      "ions": 563,
      "der": 564,
      "ents": 565,
      "lis": 566,
      "du": 567,
      "able": 568,
      "Ġtr": 569,
      "so": 570,
      "Ġper": 571,
      "Ġwhich": 572,
      "ence": 573,
      "Ġme": 574,
      "Ġstud": 575,
      "Ġgo": 576,
      "ian": 577,
      "Ġind": 578,
      "Ġint": 579,
      "Ġpart": 580,
      "fere": 581,
      "ress": 582,
      "ame": 583,
      "vel": 584,
      "ire": 585,
      "ens": 586,
      "Ġqu": 587,
      "Ġwhe": 588,
      "ors": 589,
      "arch": 590,
      "ge": 591,
      "own": 592,
      "we": 593,
      "Ġpre": 594,
      "Ġdo": 595,
      "Ġman": 596,
      "].": 597,
      "out": 598,
      "Ġbut": 599,
      "ract": 600,
      "ok": 601,
      "Ġalso": 602,
      "ice": 603,
      "ue": 604,
      "con": 605,
      "Ġthey": 606,
      "Ġone": 607,
      "Ġam": 608,
      "Ġ\"": 609,
      "one": 610,
      "Ġgro": 611,
      "reat": 612,
      "ĊĊĠĠĠ": 613,
      "Ġpat": 614,
      "nd": 615,
      "ition": 616,
      "olog": 617,
      "Ġev": 618,
      "ould": 619,
      "Ġpe": 620,
      "Ġph": 621,
      "ces": 622,
      "Ġnew": 623,
      "erv": 624,
      "ory": 625,
      "Ġte": 626,
      "Ġthere": 627,
      "ord": 628,
      "Ġrec": 629,
      "Ġother": 630,
      "Ġcomm": 631,
      "ry": 632,
      "ific": 633,
      "Ġsy": 634,
      "Ġwill": 635,
      "),": 636,
      "text": 637,
      "rib": 638,
      "Ġreg": 639,
      "Ġspe": 640,
      "ach": 641,
      "ric": 642,
      "ind": 643,
      "ree": 644,
      "Ġdif": 645,
      "Ġsp": 646,
      "Ġpubmed": 647,
      "Ġmore": 648,
      "ance": 649,
      "Ġinter": 650,
      "Ġpublis": 651,
      "Ġtheir": 652,
      "ail": 653,
      "ĊĊ": 654,
      "Ġass": 655,
      "ĠâĢ¢": 656,
      "ied": 657,
      "ack": 658,
      "ual": 659,
      "Ġout": 660,
      "Ġno": 661,
      "iew": 662,
      "ite": 663,
      "ely": 664,
      "form": 665,
      "10": 666,
      "Ġadd": 667,
      "Ġ6": 668,
      "ates": 669,
      "full": 670,
      "ass": 671,
      "uc": 672,
      "ational": 673,
      "Ġbet": 674,
      "âĢĵ": 675,
      "cess": 676,
      "ral": 677,
      "ased": 678,
      "pro": 679,
      "Ġag": 680,
      "Ġtrans": 681,
      "Ġbi": 682,
      "ount": 683,
      "ear": 684,
      "Ġwho": 685,
      "ru": 686,
      "Ġtim": 687,
      "Ġanal": 688,
      "Ġmet": 689,
      "rit": 690,
      "Ġra": 691,
      "ep": 692,
      "..": 693,
      "Ġmar": 694,
      "Ġco": 695,
      "lect": 696,
      "Ġup": 697,
      "Ġaf": 698,
      "ace": 699,
      "Ġdiffere": 700,
      "und": 701,
      "Ġfe": 702,
      "ons": 703,
      "land": 704,
      "ile": 705,
      "cre": 706,
      "Ġso": 707,
      "Ġpublisher": 708,
      "Ġhis": 709,
      "ks": 710,
      "Ġbeen": 711,
      "ics": 712,
      "Ġthese": 713,
      "stract": 714,
      "lp": 715,
      "ari": 716,
      "Ġ7": 717,
      "Ġmay": 718,
      "ound": 719,
      "Ġmod": 720,
      "Ġz": 721,
      "âĢĿ": 722,
      "Ġtw": 723,
      "Ġcol": 724,
      "erm": 725,
      "Ġpar": 726,
      "abstract": 727,
      "Ġchang": 728,
      "Ġpol": 729,
      "ient": 730,
      "Ġbec": 731,
      "Ġsch": 732,
      "Ġcell": 733,
      "lo": 734,
      "Ġtra": 735,
      "Ġdat": 736,
      "ose": 737,
      "Ġrel": 738,
      "ple": 739,
      "ution": 740,
      "âĢĻ": 741,
      "ish": 742,
      "Ġused": 743,
      "ÂłÂł": 744,
      "Ġnum": 745,
      "ne": 746,
      "ween": 747,
      "Ġ8": 748,
      "Ġabout": 749,
      "ative": 750,
      "ople": 751,
      "Ġhow": 752,
      "hed": 753,
      "low": 754,
      "au": 755,
      "Ġbetween": 756,
      "Ġyour": 757,
      "Ġsign": 758,
      "Ġits": 759,
      "Ġpeople": 760,
      "clud": 761,
      "Ġspec": 762,
      "Ġsub": 763,
      "Ġthan": 764,
      "ike": 765,
      "Ġwork": 766,
      "int": 767,
      "uch": 768,
      "ve": 769,
      "Ġunder": 770,
      "ild": 771,
      "Ġbo": 772,
      "Ġ10": 773,
      "ake": 774,
      "Ġcons": 775,
      "Ġdist": 776,
      "ident": 777,
      "ĠâĢľ": 778,
      "Ġsome": 779,
      "Ġmed": 780,
      "Ġhelp": 781,
      "Ġact": 782,
      "ater": 783,
      "ular": 784,
      "ages": 785,
      "Ġkn": 786,
      "19": 787,
      "tic": 788,
      "ced": 789,
      "Ġanalys": 790,
      "Ġstudy": 791,
      "Ġmost": 792,
      "Ġ9": 793,
      "Ġ199": 794,
      "Ġyear": 795,
      "Ġif": 796,
      "cent": 797,
      "aw": 798,
      "old": 799,
      "ays": 800,
      "Ġdes": 801,
      "Ġeff": 802,
      "Ġsup": 803,
      "com": 804,
      "12": 805,
      "Ġtwo": 806,
      "Ġed": 807,
      "ery": 808,
      "Ġpr": 809,
      "Ġover": 810,
      "Ġgroup": 811,
      "Ġpres": 812,
      "Ġob": 813,
      "ings": 814,
      "Ġ-": 815,
      "ited": 816,
      "ivers": 817,
      "Ġ18": 818,
      "Ġonly": 819,
      "oci": 820,
      "Ġafter": 821,
      "rol": 822,
      "Ġsur": 823,
      "gh": 824,
      "inal": 825,
      "Ġoff": 826,
      "Ġhigh": 827,
      "Ġ20": 828,
      "----": 829,
      "na": 830,
      "Ġche": 831,
      "iss": 832,
      "Ġexp": 833,
      "Ġprov": 834,
      "Ġwhen": 835,
      "Ġtime": 836,
      "Ġcent": 837,
      "11": 838,
      "Ġdifferent": 839,
      "ade": 840,
      "Ġrep": 841,
      "ugh": 842,
      "âĢī": 843,
      "ility": 844,
      "Ġinclud": 845,
      "ology": 846,
      "ros": 847,
      "Ġbl": 848,
      "Ġatt": 849,
      "Ġloc": 850,
      "this": 851,
      "Ġnumber": 852,
      "ms": 853,
      "ants": 854,
      "Ġem": 855,
      "uring": 856,
      "<|": 857,
      "|>": 858,
      "Ġop": 859,
      "----|>": 860,
      "amil": 861,
      "Ġsm": 862,
      "Ġhad": 863,
      "Ġdata": 864,
      "Ġeng": 865,
      "Ġfir": 866,
      "Ġmin": 867,
      "Ġcar": 868,
      "Ġinf": 869,
      "Ġmon": 870,
      "Ġpop": 871,
      "Ġour": 872,
      "wn": 873,
      "its": 874,
      "ft": 875,
      "Ġusing": 876,
      "lic": 877,
      "alth": 878,
      "search": 879,
      "Ġcor": 880,
      "Ġhy": 881,
      "Ġuse": 882,
      "io": 883,
      "Ġresult": 884,
      "Ġview": 885,
      "ins": 886,
      "les": 887,
      "ink": 888,
      "Ġshow": 889,
      "Ġinto": 890,
      "ogen": 891,
      "ized": 892,
      "Ġrev": 893,
      "Ġma": 894,
      "gr": 895,
      "ered": 896,
      "Ġanalysis": 897,
      "ood": 898,
      "ond": 899,
      "stem": 900,
      "Ġany": 901,
      "als": 902,
      "Ġfirst": 903,
      "Ġnor": 904,
      "Ġ12": 905,
      "cept": 906,
      "Ġjo": 907,
      "Ġdep": 908,
      "ick": 909,
      "ause": 910,
      "tern": 911,
      "ough": 912,
      "Ġmany": 913,
      "Ġend": 914,
      "Ġartic": 915,
      "Ġfound": 916,
      "Ġpos": 917,
      "Ġdr": 918,
      "ating": 919,
      "oth": 920,
      "enc": 921,
      "Ġsa": 922,
      "Ġ0": 923,
      "Ġset": 924,
      "Ġdet": 925,
      "ulation": 926,
      "get": 927,
      "ject": 928,
      "Ġinv": 929,
      "Ġes": 930,
      "Ġcount": 931,
      "iversity": 932,
      "velop": 933,
      "man": 934,
      "Ġserv": 935,
      "ron": 936,
      "ren": 937,
      "Ġsystem": 938,
      "Ġduring": 939,
      "20": 940,
      "Ġfamil": 941,
      "Ġchar": 942,
      "ious": 943,
      "ove": 944,
      "Ġvari": 945,
      "gan": 946,
      "14": 947,
      "igure": 948,
      "Ġworld": 949,
      "13": 950,
      "Ġsim": 951,
      "fore": 952,
      "Ġgener": 953,
      "orn": 954,
      "ict": 955,
      "Ġincre": 956,
      "ified": 957,
      "Ġaut": 958,
      "ities": 959,
      "ctions": 960,
      "ines": 961,
      "Ġlar": 962,
      "ients": 963,
      "Ġdevelop": 964,
      "Ġfol": 965,
      "Ġwell": 966,
      "Ġhealth": 967,
      "Ġmy": 968,
      "ments": 969,
      "plic": 970,
      "sh": 971,
      "ures": 972,
      "tt": 973,
      "Ġsou": 974,
      "Ġeffect": 975,
      "Ġthem": 976,
      "Ġpartic": 977,
      "Ġmodel": 978,
      "Ġgu": 979,
      "pect": 980,
      "ath": 981,
      "Ġpo": 982,
      "Ġ/": 983,
      "Ġgene": 984,
      "co": 985,
      "Ġfact": 986,
      "ogle": 987,
      "yl": 988,
      "ert": 989,
      "ck": 990,
      "):": 991,
      "15": 992,
      "rough": 993,
      "Ġinform": 994,
      "ale": 995,
      "Ġarticle": 996,
      "Ġnational": 997,
      "Ġlevel": 998,
      "otes": 999,
      "Ġsequ": 1000,
      "ible": 1001,
      "Ġeach": 1002,
      "Ġhum": 1003,
      "Ġacc": 1004,
      "Ġ15": 1005,
      "Ġtreat": 1006,
      "Ġinst": 1007,
      "Ġplay": 1008,
      "hen": 1009,
      "Ġwhere": 1010,
      "18": 1011,
      "Ġassoci": 1012,
      "ox": 1013,
      "Ġprote": 1014,
      "Ġprodu": 1015,
      "Ġuniversity": 1016,
      "Ġmeth": 1017,
      "ise": 1018,
      "ember": 1019,
      "Ġsignific": 1020,
      "Ġfl": 1021,
      "Ġsuch": 1022,
      "Ġwould": 1023,
      "Ġ=": 1024,
      "Ġet": 1025,
      "Ġbecause": 1026,
      "hes": 1027,
      "Ġfollow": 1028,
      ".,": 1029,
      "Ġwar": 1030,
      "Ġent": 1031,
      "Ġpage": 1032,
      "ex": 1033,
      "ince": 1034,
      "Ġreport": 1035,
      "round": 1036,
      "Ġhist": 1037,
      "ribut": 1038,
      "Ġmade": 1039,
      "ision": 1040,
      "olar": 1041,
      "Ġval": 1042,
      "Ġvol": 1043,
      "Ġinformation": 1044,
      "Ġprev": 1045,
      "ature": 1046,
      "Ġbr": 1047,
      "Ġform": 1048,
      "Ġpatients": 1049,
      "ives": 1050,
      "Ġca": 1051,
      "ases": 1052,
      "Ġchanges": 1053,
      "ally": 1054,
      "ention": 1055,
      "ript": 1056,
      "go": 1057,
      "ared": 1058,
      "ke": 1059,
      "Ġav": 1060,
      "ues": 1061,
      "16": 1062,
      "Ġ17": 1063,
      "ds": 1064,
      "Ġident": 1065,
      "ever": 1066,
      "acter": 1067,
      "22": 1068,
      "ward": 1069,
      "Ġret": 1070,
      "ames": 1071,
      "ps": 1072,
      "Ġcre": 1073,
      "erson": 1074,
      "Ġx": 1075,
      "Ġwik": 1076,
      "sc": 1077,
      "ement": 1078,
      "rog": 1079,
      "other": 1080,
      "iel": 1081,
      "17": 1082,
      "Ġshe": 1083,
      "Ġ14": 1084,
      "Ġcall": 1085,
      "Ġrem": 1086,
      "Ġget": 1087,
      "tal": 1088,
      "Ġtest": 1089,
      "ined": 1090,
      "Ġlong": 1091,
      "Ġvers": 1092,
      "Ġexam": 1093,
      "ization": 1094,
      "Ġbu": 1095,
      "pos": 1096,
      "ten": 1097,
      "ym": 1098,
      "Ġright": 1099,
      "rict": 1100,
      "Ġsignificant": 1101,
      "ning": 1102,
      "ived": 1103,
      "Ġext": 1104,
      "be": 1105,
      "cc": 1106,
      "de": 1107,
      "ically": 1108,
      "Ġthrough": 1109,
      "Ġfun": 1110,
      "Ġli": 1111,
      "ower": 1112,
      "Ġneed": 1113,
      "Ġgenes": 1114,
      "Ġdi": 1115,
      "Ġthose": 1116,
      "Ġelect": 1117,
      "Ġstat": 1118,
      "Ġ13": 1119,
      "way": 1120,
      "eng": 1121,
      "Ġcal": 1122,
      "Ġlist": 1123,
      "erg": 1124,
      "Ġsee": 1125,
      "Ġcomple": 1126,
      "ool": 1127,
      "Ġlike": 1128,
      "uss": 1129,
      "Ġdef": 1130,
      "Ġstate": 1131,
      "Ġcontrol": 1132,
      "Ġser": 1133,
      "Ġant": 1134,
      "Ġcity": 1135,
      "Ġexper": 1136,
      "Ġmat": 1137,
      "ruct": 1138,
      "cript": 1139,
      "edit": 1140,
      "Ġmain": 1141,
      "Ġstr": 1142,
      "Ġke": 1143,
      "ote": 1144,
      "Ġcells": 1145,
      "Ġfamily": 1146,
      "50": 1147,
      "uro": 1148,
      "ize": 1149,
      "Ġtreatment": 1150,
      "Ġthree": 1151,
      "Ġmic": 1152,
      "gest": 1153,
      "Ġboth": 1154,
      "ix": 1155,
      "Ġfre": 1156,
      "...": 1157,
      "nce": 1158,
      "Ġsearch": 1159,
      "Ġresp": 1160,
      "Ġyears": 1161,
      "ivid": 1162,
      "az": 1163,
      "Ġthen": 1164,
      "ty": 1165,
      "Ġsci": 1166,
      "vern": 1167,
      "ression": 1168,
      "Ġaddition": 1169,
      "Ġdown": 1170,
      "amp": 1171,
      "Ġcur": 1172,
      "Ġher": 1173,
      "Ġresearch": 1174,
      "Ġhowever": 1175,
      "Ġhuman": 1176,
      "cer": 1177,
      "Ġele": 1178,
      "chn": 1179,
      "Ġmethod": 1180,
      "Ġsam": 1181,
      "ouse": 1182,
      "Ġvery": 1183,
      "Ġknown": 1184,
      "Ġsupport": 1185,
      "23": 1186,
      "Ġdem": 1187,
      "Ġlo": 1188,
      "Ġshould": 1189,
      "000": 1190,
      "Ġimport": 1191,
      "Ġactiv": 1192,
      "25": 1193,
      "air": 1194,
      "Ġgreat": 1195,
      "urn": 1196,
      "led": 1197,
      "rel": 1198,
      "Ġ'": 1199,
      "Ġsmall": 1200,
      "Ġrele": 1201,
      "Ġhelpful": 1202,
      "Ġchild": 1203,
      "Ġfind": 1204,
      "Ġrest": 1205,
      "Ġcommun": 1206,
      "ww": 1207,
      "ences": 1208,
      "Ġgra": 1209,
      "ork": 1210,
      "Ġbel": 1211,
      "Ġ16": 1212,
      "Ġresults": 1213,
      "ved": 1214,
      "Ġpost": 1215,
      "Ġwhat": 1216,
      "Ġappro": 1217,
      "ross": 1218,
      "ium": 1219,
      "Ġprocess": 1220,
      "ier": 1221,
      "Ġaust": 1222,
      "24": 1223,
      "Ġgovern": 1224,
      "Ġrecord": 1225,
      "Ġscholar": 1226,
      "ble": 1227,
      "Ġprovid": 1228,
      "add": 1229,
      "eric": 1230,
      "Ġbar": 1231,
      "Ġorgan": 1232,
      "Ġmark": 1233,
      "Ġear": 1234,
      "very": 1235,
      "cond": 1236,
      "Ġtem": 1237,
      "ife": 1238,
      "Ġmov": 1239,
      "Ġarea": 1240,
      "ital": 1241,
      "ental": 1242,
      "Ġmeas": 1243,
      "],": 1244,
      "Ġintern": 1245,
      "Ġstart": 1246,
      "ts": 1247,
      "Ġmult": 1248,
      "Ġname": 1249,
      "Ġste": 1250,
      "ists": 1251,
      "Ġhim": 1252,
      "Ġunited": 1253,
      "bers": 1254,
      "Ġcop": 1255,
      "Ġmo": 1256,
      ",âĢĿ": 1257,
      "olution": 1258,
      "aces": 1259,
      "omet": 1260,
      "Ġnon": 1261,
      "Ġcould": 1262,
      "ality": 1263,
      "'t": 1264,
      "30": 1265,
      "par": 1266,
      "rent": 1267,
      "Ġagain": 1268,
      "Ġsaid": 1269,
      "Ġauth": 1270,
      "ton": 1271,
      "Ġphys": 1272,
      "Ġair": 1273,
      "Ġsame": 1274,
      "Ġbased": 1275,
      "bs": 1276,
      "Ġcare": 1277,
      "ax": 1278,
      "br": 1279,
      "Ġvotes": 1280,
      "Ġstudies": 1281,
      "Ġsing": 1282,
      "Ġjust": 1283,
      "Ġopen": 1284,
      "ina": 1285,
      "Ġteam": 1286,
      "Ġchem": 1287,
      "ĠÂ": 1288,
      "anc": 1289,
      "Ġdel": 1290,
      "ency": 1291,
      "hip": 1292,
      "Ġgr": 1293,
      "Ġsecond": 1294,
      "Ġins": 1295,
      "ability": 1296,
      "ices": 1297,
      "Ġ2011": 1298,
      "Ġpresent": 1299,
      "ness": 1300,
      "Ġ198": 1301,
      "ribution": 1302,
      "Ġesv": 1303,
      "sk": 1304,
      "Ġsouth": 1305,
      "Ġfore": 1306,
      "Ġdisc": 1307,
      "to": 1308,
      "Ġ.": 1309,
      "elf": 1310,
      "Ġgrow": 1311,
      "Ġmake": 1312,
      "Ġge": 1313,
      "ateg": 1314,
      "Ġorig": 1315,
      "Ġplace": 1316,
      "ividual": 1317,
      "Ġest": 1318,
      "ently": 1319,
      "ene": 1320,
      "itt": 1321,
      "Ġpopulation": 1322,
      "Ġnov": 1323,
      "ological": 1324,
      "Ġaff": 1325,
      "ism": 1326,
      "Ġ2010": 1327,
      "Ġann": 1328,
      "iver": 1329,
      "ource": 1330,
      "Ġtak": 1331,
      "iven": 1332,
      "ural": 1333,
      "28": 1334,
      "Ġwater": 1335,
      "Ġbook": 1336,
      "Ġvis": 1337,
      "Ġindividual": 1338,
      "Ġhistory": 1339,
      "Ġty": 1340,
      "ane": 1341,
      "Ġstates": 1342,
      "figure": 1343,
      "rop": 1344,
      "Ġ11": 1345,
      "ained": 1346,
      "Ġhere": 1347,
      "Ġcharacter": 1348,
      "Ġcalled": 1349,
      "ah": 1350,
      "Ġmus": 1351,
      "ially": 1352,
      "any": 1353,
      "oun": 1354,
      "cont": 1355,
      "ense": 1356,
      "Ġpp": 1357,
      "ann": 1358,
      "Ġmem": 1359,
      "Ġday": 1360,
      "Ġlast": 1361,
      "Ġlaw": 1362,
      "Ġrepres": 1363,
      "uk": 1364,
      "amm": 1365,
      "Ġ2009": 1366,
      "Ġbas": 1367,
      "Ġnav": 1368,
      "nces": 1369,
      "Ġinc": 1370,
      "ull": 1371,
      "ĠÎ": 1372,
      "Ġbro": 1373,
      "Ġfrog": 1374,
      "osp": 1375,
      "Ġavail": 1376,
      "Ġold": 1377,
      "ration": 1378,
      "Ġaccess": 1379,
      "Ġ2012": 1380,
      "ield": 1381,
      "Ġsince": 1382,
      "Ġland": 1383,
      "Ġdise": 1384,
      "Ġaustral": 1385,
      "Ġfr": 1386,
      "umm": 1387,
      "Ġbefore": 1388,
      "Ġknow": 1389,
      "line": 1390,
      "Ġpublic": 1391,
      "Ġgood": 1392,
      "etic": 1393,
      "Ġamong": 1394,
      "Ġpath": 1395,
      "ination": 1396,
      "Ġel": 1397,
      "pre": 1398,
      "Ġgre": 1399,
      "26": 1400,
      "igation": 1401,
      "201": 1402,
      "ii": 1403,
      "Ġjan": 1404,
      "Ġeven": 1405,
      "ively": 1406,
      "Ġcontent": 1407,
      "irect": 1408,
      "Ġsw": 1409,
      "Ġ197": 1410,
      "Ġposs": 1411,
      "21": 1412,
      "atic": 1413,
      "ock": 1414,
      "Ġversion": 1415,
      "ner": 1416,
      "Ġbeing": 1417,
      "Ġconf": 1418,
      "action": 1419,
      "Ġschool": 1420,
      "Ġhig": 1421,
      "day": 1422,
      "son": 1423,
      "ank": 1424,
      "Ġfile": 1425,
      "ute": 1426,
      "Ġprogr": 1427,
      "yt": 1428,
      "Ġterm": 1429,
      "ually": 1430,
      "epend": 1431,
      "27": 1432,
      "oot": 1433,
      "lear": 1434,
      "ional": 1435,
      "Ġ30": 1436,
      "Ġtechn": 1437,
      "central": 1438,
      "Ġimportant": 1439,
      "Ġlead": 1440,
      "Ġmaj": 1441,
      "serv": 1442,
      "Ġmil": 1443,
      "Ġrat": 1444,
      "Ġlang": 1445,
      "Ġconst": 1446,
      "Ġcap": 1447,
      "Ġameric": 1448,
      "hn": 1449,
      "red": 1450,
      "Ġevery": 1451,
      "Ġavailable": 1452,
      "Ġlocal": 1453,
      "Ġfrequ": 1454,
      "yn": 1455,
      "iving": 1456,
      "Ġnow": 1457,
      "Ġ2013": 1458,
      "Ġway": 1459,
      "Ġdid": 1460,
      "Ġinfl": 1461,
      "//": 1462,
      "vir": 1463,
      "ites": 1464,
      "Ġback": 1465,
      "Ġcurrent": 1466,
      "ump": 1467,
      "Ġ2008": 1468,
      "til": 1469,
      "Ġfour": 1470,
      "arm": 1471,
      "ark": 1472,
      "Ġclin": 1473,
      "Ġnorth": 1474,
      "raph": 1475,
      "Ġking": 1476,
      "://": 1477,
      "fer": 1478,
      "oy": 1479,
      "Ġoper": 1480,
      "Ġbus": 1481,
      "Ġline": 1482,
      "ilar": 1483,
      "Ġ2006": 1484,
      "Ġsyn": 1485,
      "Ġlow": 1486,
      "ĊĠĠĠ": 1487,
      "Ġfil": 1488,
      "load": 1489,
      "Ġcontribut": 1490,
      "40": 1491,
      "Ġwhile": 1492,
      "arent": 1493,
      "Ġvir": 1494,
      "Ġspecies": 1495,
      "aut": 1496,
      "ior": 1497,
      "google": 1498,
      "nal": 1499,
      "Ġfur": 1500,
      "ode": 1501,
      "Ġgovernment": 1502,
      "Ġdue": 1503,
      "une": 1504,
      "Ġprim": 1505,
      "Ġ25": 1506,
      "ttp": 1507,
      "hing": 1508,
      "Ġsumm": 1509,
      "Ġbeh": 1510,
      "Ġwal": 1511,
      "Ġris": 1512,
      "Ġassociated": 1513,
      "Ġmeasure": 1514,
      "Ġfree": 1515,
      "Ġobserv": 1516,
      "Ġlarge": 1517,
      "no": 1518,
      "ains": 1519,
      "Ġparticip": 1520,
      "Ġprevious": 1521,
      "Ġaround": 1522,
      "Ġple": 1523,
      "Ġprof": 1524,
      "Ġ2007": 1525,
      "urope": 1526,
      "Ġlangu": 1527,
      "Ġocc": 1528,
      "Ġ24": 1529,
      "ids": 1530,
      "Ġlic": 1531,
      "Ġrequ": 1532,
      "ott": 1533,
      "hy": 1534,
      "Ġtool": 1535,
      "Ġrun": 1536,
      "Ġappe": 1537,
      "Ġcat": 1538,
      "Ġtre": 1539,
      "ars": 1540,
      "Ġexpl": 1541,
      "Ġlear": 1542,
      "Ġstand": 1543,
      "200": 1544,
      "Ġtri": 1545,
      "Ġsk": 1546,
      "Ġindic": 1547,
      "Ġconsid": 1548,
      "Ġsimilar": 1549,
      "ger": 1550,
      "ians": 1551,
      "ator": 1552,
      "Ġredu": 1553,
      "Ġdesign": 1554,
      "Ġsever": 1555,
      "Ġep": 1556,
      "Ġ2005": 1557,
      "Ġdoes": 1558,
      "min": 1559,
      "Ġwithin": 1560,
      "bo": 1561,
      "less": 1562,
      "erest": 1563,
      "ÂłÂłÂłÂł": 1564,
      "Ġfurther": 1565,
      "hem": 1566,
      "itions": 1567,
      "ograph": 1568,
      "ange": 1569,
      "Ġgeneral": 1570,
      "tr": 1571,
      "Ġcr": 1572,
      "Ġchange": 1573,
      "Ġmajor": 1574,
      "Ġcommon": 1575,
      "Ġdevelopment": 1576,
      "Ġfunction": 1577,
      "Ġbra": 1578,
      "Ġincluding": 1579,
      "Ġcour": 1580,
      "Ġla": 1581,
      "Ġreview": 1582,
      "cul": 1583,
      "right": 1584,
      "Ġpower": 1585,
      "ired": 1586,
      "Ġprogram": 1587,
      "gen": 1588,
      "29": 1589,
      "Ġlife": 1590,
      "riend": 1591,
      "Ġtotal": 1592,
      "inu": 1593,
      "Ġdec": 1594,
      "Ġclass": 1595,
      "Ġperson": 1596,
      "Ġtop": 1597,
      "Ġread": 1598,
      "pec": 1599,
      "Ġpot": 1600,
      "35": 1601,
      "ball": 1602,
      "Ġlik": 1603,
      "Ġrepresent": 1604,
      "by": 1605,
      "Ġmicro": 1606,
      "anop": 1607,
      "Ġgod": 1608,
      "Ġnear": 1609,
      "Ġnat": 1610,
      "Ġown": 1611,
      "formed": 1612,
      "dict": 1613,
      "Ġgl": 1614,
      "Ġcompared": 1615,
      "Ġcolle": 1616,
      "36": 1617,
      "Ġdom": 1618,
      "Ġgiven": 1619,
      "Ġsingle": 1620,
      "af": 1621,
      "Ġrece": 1622,
      "Ġstill": 1623,
      "Ġinterest": 1624,
      "Ġer": 1625,
      "duct": 1626,
      "Ġsoc": 1627,
      "Ġeurope": 1628,
      "idence": 1629,
      "ples": 1630,
      "ll": 1631,
      "Ġopt": 1632,
      "app": 1633,
      "Ġexample": 1634,
      "dom": 1635,
      "Ġnet": 1636,
      "Ġplaces": 1637,
      "my": 1638,
      "Ġdon": 1639,
      "ody": 1640,
      "Ġchildren": 1641,
      "Ġlog": 1642,
      "ai": 1643,
      "ting": 1644,
      "Ġdirect": 1645,
      "ries": 1646,
      "Ġsat": 1647,
      "Ġtimes": 1648,
      "ogenes": 1649,
      "crib": 1650,
      "Ġsite": 1651,
      "Ġprotein": 1652,
      "Ġsug": 1653,
      "ope": 1654,
      "Ġinterv": 1655,
      "Ġgroups": 1656,
      "Ġsu": 1657,
      "lish": 1658,
      "37": 1659,
      "ection": 1660,
      "ential": 1661,
      "Ġfollowing": 1662,
      "que": 1663,
      "Ġimm": 1664,
      "Ġgoogle": 1665,
      "Ġdoi": 1666,
      "Ġdeterm": 1667,
      "mal": 1668,
      "Ġseveral": 1669,
      "Ġ+": 1670,
      "Ġcrit": 1671,
      "oul": 1672,
      "Ġir": 1673,
      "onse": 1674,
      "Ġwom": 1675,
      "Ġagainst": 1676,
      "uary": 1677,
      "cur": 1678,
      "ining": 1679,
      "Ġmonth": 1680,
      "see": 1681,
      "ission": 1682,
      "Ġquest": 1683,
      "Ġmak": 1684,
      "ason": 1685,
      "Ġlink": 1686,
      "Ġequ": 1687,
      "ob": 1688,
      "34": 1689,
      "Ġwrit": 1690,
      "itive": 1691,
      "Ġbest": 1692,
      "Ġorder": 1693,
      "Ġregion": 1694,
      "Ġcentral": 1695,
      "Ġsens": 1696,
      "Ġrad": 1697,
      "39": 1698,
      "Ġpages": 1699,
      "Ġlat": 1700,
      "ets": 1701,
      "Ġabove": 1702,
      "sy": 1703,
      "Ġiss": 1704,
      "Ġjul": 1705,
      "osis": 1706,
      "38": 1707,
      "from": 1708,
      "Ġdev": 1709,
      "ources": 1710,
      "Ġmembers": 1711,
      "Ġhigher": 1712,
      "Ġ28": 1713,
      "agn": 1714,
      "Ġlevels": 1715,
      "Ġleft": 1716,
      "Ġidentified": 1717,
      "Ġdece": 1718,
      "Ġpoint": 1719,
      "ison": 1720,
      "Ġwat": 1721,
      "omic": 1722,
      "Ġselect": 1723,
      "Ġadditional": 1724,
      "Ġcopy": 1725,
      "Ġcult": 1726,
      "Ġ100": 1727,
      "ification": 1728,
      "Ġdepart": 1729,
      "Ġreported": 1730,
      "Ġsuggest": 1731,
      "urch": 1732,
      "Ġjour": 1733,
      "Ġanim": 1734,
      "Ġless": 1735,
      "Ġstre": 1736,
      "Ġrate": 1737,
      "Ġhead": 1738,
      "Ġoriginal": 1739,
      "Ġrisk": 1740,
      "Ġfigure": 1741,
      "Ġresponse": 1742,
      "Ġfriend": 1743,
      "ley": 1744,
      "cular": 1745,
      "Ġprom": 1746,
      "ised": 1747,
      "alu": 1748,
      "Ġmuch": 1749,
      "Ġdays": 1750,
      "Ġhand": 1751,
      "Ġgerm": 1752,
      "Ġmanag": 1753,
      "pr": 1754,
      "ino": 1755,
      "Ġmight": 1756,
      "Ġadv": 1757,
      "Ġisland": 1758,
      "Ġinternational": 1759,
      "Ġdisease": 1760,
      "ependent": 1761,
      "Ġhouse": 1762,
      "str": 1763,
      "ety": 1764,
      "Ġmean": 1765,
      "Ġdiscuss": 1766,
      "Ġsl": 1767,
      "Ġmarch": 1768,
      "pert": 1769,
      "Ġapplic": 1770,
      "Ġexperim": 1771,
      "Ġreleased": 1772,
      "mber": 1773,
      "Ġpass": 1774,
      "Ġrecords": 1775,
      "wh": 1776,
      "ify": 1777,
      "60": 1778,
      "fe": 1779,
      "ted": 1780,
      "Ġ<": 1781,
      "Ġtar": 1782,
      "Ġeas": 1783,
      "Ġ27": 1784,
      "Ġfew": 1785,
      "Ġjanuary": 1786,
      "bi": 1787,
      "Ġaug": 1788,
      "Ġlim": 1789,
      "Ġ21": 1790,
      "Ġperi": 1791,
      "row": 1792,
      "Ġhyd": 1793,
      "Ġscience": 1794,
      "Ġpse": 1795,
      "Ġparent": 1796,
      "Ġhome": 1797,
      "Ġred": 1798,
      "Ġpatient": 1799,
      "Ġtown": 1800,
      "rap": 1801,
      "Ġ2014": 1802,
      "viron": 1803,
      "Ġhol": 1804,
      "Ġstruct": 1805,
      "Ġcond": 1806,
      "uses": 1807,
      "Ġinvest": 1808,
      "face": 1809,
      "Ġwant": 1810,
      "Ġfoot": 1811,
      "Ġoften": 1812,
      "Ġproble": 1813,
      "ae": 1814,
      "bl": 1815,
      "por": 1816,
      "atory": 1817,
      "Ġbre": 1818,
      "Ġlab": 1819,
      "Ġassess": 1820,
      "mc": 1821,
      "Ġborn": 1822,
      "Ġfood": 1823,
      "Ġ50": 1824,
      "Ġbuild": 1825,
      "here": 1826,
      "ering": 1827,
      "Ġeffects": 1828,
      "Ġnews": 1829,
      "Ġexpression": 1830,
      "Ġoct": 1831,
      "Ġfac": 1832,
      "Ġref": 1833,
      "Ġrelated": 1834,
      "Ġlook": 1835,
      "ways": 1836,
      "verage": 1837,
      "Ġseries": 1838,
      "ama": 1839,
      "Ġtranscript": 1840,
      "Ġaustralia": 1841,
      "Ġpseud": 1842,
      "bor": 1843,
      "Ġtake": 1844,
      "Ġuntil": 1845,
      "Ġrole": 1846,
      "Ġperiod": 1847,
      ".\"": 1848,
      "cle": 1849,
      "Ġsun": 1850,
      "Ġsomet": 1851,
      "Ġshown": 1852,
      "Ġenviron": 1853,
      "iat": 1854,
      "Ġtable": 1855,
      "Ġthough": 1856,
      "Ġimpro": 1857,
      "Ġanother": 1858,
      "Ġseen": 1859,
      "Ġstatist": 1860,
      "Ġnavigation": 1861,
      "ried": 1862,
      "ference": 1863,
      "Ġmedic": 1864,
      "hi": 1865,
      "Ġsol": 1866,
      "Ġcreat": 1867,
      "Ġimp": 1868,
      "Ġjohn": 1869,
      "Ġ26": 1870,
      "hib": 1871,
      "Ġfar": 1872,
      "ording": 1873,
      "Ġinvol": 1874,
      "Ġdecember": 1875,
      "Ġevalu": 1876,
      "Ġtext": 1877,
      "Ġincreased": 1878,
      "Ġcase": 1879,
      "Ġport": 1880,
      "Ġfinal": 1881,
      "Ġalb": 1882,
      "oss": 1883,
      "Ġpolit": 1884,
      "Ġjournal": 1885,
      "Ġmen": 1886,
      "stand": 1887,
      "Ġactivity": 1888,
      "ves": 1889,
      "Ġweb": 1890,
      "ĠÂ·": 1891,
      "Ġwithout": 1892,
      "work": 1893,
      "play": 1894,
      "Ġcompar": 1895,
      "ected": 1896,
      "ideo": 1897,
      "Ġdoc": 1898,
      "Ġsequences": 1899,
      "Ġaugust": 1900,
      ".âĢĿ": 1901,
      "oph": 1902,
      "ng": 1903,
      "table": 1904,
      "Â°": 1905,
      "Ġusa": 1906,
      "Ġallow": 1907,
      "Ġ22": 1908,
      "Ġservice": 1909,
      "Ġnovember": 1910,
      "Ġsize": 1911,
      "Ġdeath": 1912,
      "Ġroad": 1913,
      "Ġcommunity": 1914,
      "oulos": 1915,
      "Ġfire": 1916,
      "Ġanc": 1917,
      "Ġpark": 1918,
      "48": 1919,
      "ern": 1920,
      "Ġpossible": 1921,
      "ware": 1922,
      "els": 1923,
      "Ġpresident": 1924,
      "Ġnuc": 1925,
      "eter": 1926,
      "Ġ23": 1927,
      "Ġsteph": 1928,
      "65": 1929,
      "po": 1930,
      "ption": 1931,
      "Ġoffic": 1932,
      "Ġfactors": 1933,
      "iation": 1934,
      "Ġperformed": 1935,
      "sych": 1936,
      "org": 1937,
      "Ġstation": 1938,
      "Ġcho": 1939,
      "Ġincluded": 1940,
      "Ġengland": 1941,
      "Ġproduct": 1942,
      "Ġelectron": 1943,
      "Ġstephanop": 1944,
      "Ġcd": 1945,
      "Ġproject": 1946,
      "Ġquality": 1947,
      "Ġbehav": 1948,
      "like": 1949,
      "mid": 1950,
      "ven": 1951,
      "Ġleg": 1952,
      "actions": 1953,
      "jump": 1954,
      "Ġ29": 1955,
      "ides": 1956,
      "Ġeduc": 1957,
      "ators": 1958,
      "Ġbrit": 1959,
      "Ġvi": 1960,
      "Ġexpress": 1961,
      "Ġjuly": 1962,
      "44": 1963,
      "cop": 1964,
      "ober": 1965,
      "eth": 1966,
      "Ġforest": 1967,
      "Ġinflu": 1968,
      "Ġwomen": 1969,
      "Ġstephanopoulos": 1970,
      "ibr": 1971,
      "Ġperform": 1972,
      "Ġsong": 1973,
      "ata": 1974,
      "Ġ2004": 1975,
      "Ġstandard": 1976,
      "ories": 1977,
      "Ġcomb": 1978,
      "Ġcancer": 1979,
      "05": 1980,
      "Ġpress": 1981,
      "Ġmal": 1982,
      "ury": 1983,
      "Ġsequence": 1984,
      "Ġinstit": 1985,
      "Ġsocial": 1986,
      "Ġdepartment": 1987,
      "mp": 1988,
      "read": 1989,
      "Ġsuc": 1990,
      "ffic": 1991,
      "Ġsn": 1992,
      "Ġcases": 1993,
      "Ġwest": 1994,
      "Ġusers": 1995,
      "xim": 1996,
      "Ġter": 1997,
      "ada": 1998,
      "ument": 1999,
      "Ġsept": 2000,
      "ergy": 2001,
      "Ġalbum": 2002,
      "Ġbat": 2003,
      "there": 2004,
      "Ġenglish": 2005,
      "Ġcountry": 2006,
      "Ġlikely": 2007,
      "Ġcost": 2008,
      "ung": 2009,
      "clus": 2010,
      "Ġdistrict": 2011,
      "Ġtools": 2012,
      "sis": 2013,
      "ĊÂł": 2014,
      "Ġtax": 2015,
      "Ġrespect": 2016,
      "Ġmust": 2017,
      "Ġshort": 2018,
      "Ġpredict": 2019,
      "Ġcenter": 2020,
      "Ġincrease": 2021,
      "Ġcreated": 2022,
      "che": 2023,
      "Ġur": 2024,
      "ister": 2025,
      "ek": 2026,
      "Ġcard": 2027,
      "Ġaccording": 2028,
      "45": 2029,
      "ns": 2030,
      "Ġgsk": 2031,
      "ird": 2032,
      "Ġlater": 2033,
      "Ġriver": 2034,
      "Ġplant": 2035,
      "ferences": 2036,
      "eration": 2037,
      "orph": 2038,
      "Ġweight": 2039,
      "ength": 2040,
      "Ġclinical": 2041,
      "Ġill": 2042,
      "Ġsay": 2043,
      "Ġmill": 2044,
      "ily": 2045,
      "omed": 2046,
      "Ġlicense": 2047,
      "Ġtarget": 2048,
      "Ġage": 2049,
      "Ġox": 2050,
      "Ġdra": 2051,
      "Ġgame": 2052,
      "omy": 2053,
      "ivil": 2054,
      "aining": 2055,
      "Ġfin": 2056,
      "Ġdescrib": 2057,
      "www": 2058,
      "gin": 2059,
      "Ġoctober": 2060,
      "Ġfat": 2061,
      "Ġjune": 2062,
      "Ġsea": 2063,
      "ma": 2064,
      "inc": 2065,
      "Ġdiv": 2066,
      "Ġhot": 2067,
      "Ġheart": 2068,
      "Ġauthor": 2069,
      "Ġq": 2070,
      "ublic": 2071,
      "Ġbecame": 2072,
      "47": 2073,
      "date": 2074,
      "Ġpsych": 2075,
      "aly": 2076,
      "Ġmethods": 2077,
      "Ġfootball": 2078,
      "Ġwin": 2079,
      "Ġnan": 2080,
      "Ġec": 2081,
      "ime": 2082,
      "Ġleast": 2083,
      "Ġcomput": 2084,
      "itional": 2085,
      "Ġplayed": 2086,
      "Ġobserved": 2087,
      "80": 2088,
      "ml": 2089,
      "oid": 2090,
      "Ġpublished": 2091,
      "Ġearly": 2092,
      "33": 2093,
      "Ġ&": 2094,
      "Ġfoc": 2095,
      "Ġthink": 2096,
      "apan": 2097,
      "Ġrelations": 2098,
      "Ġdepend": 2099,
      "Ġwiki": 2100,
      "90": 2101,
      "iness": 2102,
      "Ġhosp": 2103,
      "ils": 2104,
      "oms": 2105,
      "amed": 2106,
      "Ġrand": 2107,
      "ertain": 2108,
      "aving": 2109,
      "yle": 2110,
      "edia": 2111,
      "Ġconcent": 2112,
      "used": 2113,
      "Ġfeb": 2114,
      "iam": 2115,
      "Ġecon": 2116,
      "ours": 2117,
      "Ġstrong": 2118,
      "Ġseptember": 2119,
      "86": 2120,
      "ots": 2121,
      "Ġsym": 2122,
      "Ġtaken": 2123,
      "Ġpur": 2124,
      "chan": 2125,
      "Ġrecom": 2126,
      "Ġblack": 2127,
      "aff": 2128,
      "ray": 2129,
      "Ġ2000": 2130,
      "Ġsource": 2131,
      "arc": 2132,
      "ash": 2133,
      "Ġservices": 2134,
      "Ġplease": 2135,
      "ience": 2136,
      "erc": 2137,
      "Ġflow": 2138,
      "igen": 2139,
      "Ġ2003": 2140,
      "Ġdrug": 2141,
      "gor": 2142,
      "use": 2143,
      "ems": 2144,
      "Ġpract": 2145,
      "Ġenergy": 2146,
      "Ġdisplay": 2147,
      "Ġdistribution": 2148,
      "Ġprovided": 2149,
      "31": 2150,
      "55": 2151,
      "âĪ": 2152,
      "Ġsal": 2153,
      "Ġcompet": 2154,
      "ril": 2155,
      "ats": 2156,
      "Ġput": 2157,
      "Ġhar": 2158,
      "67": 2159,
      "Ġcivil": 2160,
      "oty": 2161,
      "Ġjapan": 2162,
      "Ġtherefore": 2163,
      "Ġspect": 2164,
      "Ġspecial": 2165,
      "posed": 2166,
      "Ġsuccess": 2167,
      "32": 2168,
      "Ġlocated": 2169,
      "\".": 2170,
      "49": 2171,
      "pes": 2172,
      "Ġcy": 2173,
      "isf": 2174,
      "Ġhttp": 2175,
      "Ġauthors": 2176,
      ",\"": 2177,
      "Ġcam": 2178,
      "Ġmot": 2179,
      "Ġ2002": 2180,
      "Ġedit": 2181,
      "of": 2182,
      "new": 2183,
      "not": 2184,
      "Ġmap": 2185,
      "Ġinit": 2186,
      "iday": 2187,
      "Ġve": 2188,
      "though": 2189,
      "Ġassociation": 2190,
      "Ġprofess": 2191,
      "ones": 2192,
      "ately": 2193,
      "Ġcir": 2194,
      "Ġbody": 2195,
      "Ġchurch": 2196,
      "Ġcountries": 2197,
      "Ġsynthe": 2198,
      "Ġenvironment": 2199,
      "me": 2200,
      "isms": 2201,
      "Ġcateg": 2202,
      "Ġart": 2203,
      "Ġgrowth": 2204,
      "âĪĴ": 2205,
      "Ġder": 2206,
      "ploy": 2207,
      "duced": 2208,
      "lood": 2209,
      "Ġlearn": 2210,
      "mon": 2211,
      "most": 2212,
      "ze": 2213,
      "Ġyork": 2214,
      "Ġenc": 2215,
      "Ġ2001": 2216,
      "Ġanalyses": 2217,
      "Ġsignificantly": 2218,
      "57": 2219,
      "Ġsites": 2220,
      "Ġpap": 2221,
      "Ġfull": 2222,
      "Ġthus": 2223,
      "Ġnext": 2224,
      "Ġide": 2225,
      "Ġpri": 2226,
      "Ġmater": 2227,
      "Ġlibr": 2228,
      "ored": 2229,
      "Ġcorrel": 2230,
      "Ġvalue": 2231,
      "wards": 2232,
      "Ġpotential": 2233,
      "lin": 2234,
      "Ġlives": 2235,
      "Ġzh": 2236,
      "ec": 2237,
      "Ġhost": 2238,
      "iple": 2239,
      "Ġmechan": 2240,
      "Ġindex": 2241,
      "ĠÎ¼": 2242,
      "Ġcopyright": 2243,
      "Ġinte": 2244,
      "Ġdest": 2245,
      "Ġsurv": 2246,
      "Ġstructure": 2247,
      "Ġhospital": 2248,
      "Ġrandom": 2249,
      "back": 2250,
      "dc": 2251,
      "ulations": 2252,
      "Ġvill": 2253,
      "Ġpolic": 2254,
      "ither": 2255,
      "Ġlord": 2256,
      "ival": 2257,
      "Ġparty": 2258,
      "aur": 2259,
      "bal": 2260,
      "based": 2261,
      "Ġmice": 2262,
      "Ġdu": 2263,
      "sequ": 2264,
      "Ġacad": 2265,
      "ended": 2266,
      "Ġobt": 2267,
      "Ġrelationship": 2268,
      "ss": 2269,
      "Ġside": 2270,
      "imes": 2271,
      "Ġgenome": 2272,
      "Ġapril": 2273,
      "ension": 2274,
      "Ġunderstand": 2275,
      "Ġindividuals": 2276,
      "ler": 2277,
      "Ġtab": 2278,
      "otic": 2279,
      "Ġmeans": 2280,
      "Ġspecific": 2281,
      "Ġkingdom": 2282,
      "Ġaverage": 2283,
      "Ġsold": 2284,
      "Ġreal": 2285,
      "ster": 2286,
      "imate": 2287,
      "ruary": 2288,
      "Ġparticular": 2289,
      "59": 2290,
      "Ġpal": 2291,
      "Ġfut": 2292,
      "omes": 2293,
      "Ġ40": 2294,
      "Ġshowed": 2295,
      "Ġdemon": 2296,
      "cell": 2297,
      "ores": 2298,
      "rist": 2299,
      "ĠÏ": 2300,
      "Ġwon": 2301,
      "Ġeast": 2302,
      "Ġcompany": 2303,
      "Ġscient": 2304,
      "Ġfactor": 2305,
      "Ġmount": 2306,
      "Ġalong": 2307,
      "Ġrecent": 2308,
      "down": 2309,
      "vision": 2310,
      "idd": 2311,
      "key": 2312,
      "Ġlanguages": 2313,
      "63": 2314,
      "Ġ,": 2315,
      "Ġson": 2316,
      "Ġpa": 2317,
      "rad": 2318,
      "Ġalthough": 2319,
      "Ġquestion": 2320,
      "let": 2321,
      "Ġsurface": 2322,
      "Ġamerican": 2323,
      "ste": 2324,
      "Ġuk": 2325,
      "Ġrange": 2326,
      "Ġabs": 2327,
      "Ġmole": 2328,
      "Ġfebruary": 2329,
      "Ġsoci": 2330,
      "Ġbig": 2331,
      "Ġver": 2332,
      "Ġsatisf": 2333,
      "__": 2334,
      "cr": 2335,
      "inks": 2336,
      "lection": 2337,
      "Ġlight": 2338,
      "Ġthings": 2339,
      "Ġprog": 2340,
      "bert": 2341,
      "lished": 2342,
      "Ġperm": 2343,
      "70": 2344,
      "fic": 2345,
      "Ġtal": 2346,
      "hel": 2347,
      "osed": 2348,
      "Ġphot": 2349,
      "Ġtemper": 2350,
      "Ġcamp": 2351,
      "arian": 2352,
      "Ġlower": 2353,
      "Ġgames": 2354,
      "utes": 2355,
      "Ġquote": 2356,
      "Ġmarket": 2357,
      "fil": 2358,
      "loc": 2359,
      "reg": 2360,
      "Ġliving": 2361,
      "Ġmedical": 2362,
      "ground": 2363,
      "view": 2364,
      "Ġcoun": 2365,
      "itary": 2366,
      "Ġmm": 2367,
      "Ġdied": 2368,
      "Ġcomplex": 2369,
      "Ġ31": 2370,
      "ibility": 2371,
      "Ġanaly": 2372,
      "Ġbelie": 2373,
      "Ġgreen": 2374,
      "gorith": 2375,
      "ged": 2376,
      "itra": 2377,
      "Ġonline": 2378,
      "Ġaccept": 2379,
      "ondon": 2380,
      "Ġfrequency": 2381,
      "%)": 2382,
      "over": 2383,
      "ogn": 2384,
      "Ġeffic": 2385,
      "Ġvisit": 2386,
      "Ġpseudogenes": 2387,
      "58": 2388,
      "hol": 2389,
      "Ġsil": 2390,
      "rab": 2391,
      "istan": 2392,
      "Ġsection": 2393,
      "phone": 2394,
      "Ġprovide": 2395,
      "Ġparticipants": 2396,
      "Ġdental": 2397,
      "Ġalgorith": 2398,
      "Ġrecently": 2399,
      "Ġcommons": 2400,
      "ittle": 2401,
      "Ġdemonstr": 2402,
      "ee": 2403,
      "ances": 2404,
      "Ġlive": 2405,
      "Ġask": 2406,
      "Ġneg": 2407,
      "Ġarmy": 2408,
      "Ġdifferences": 2409,
      "Ġintegr": 2410,
      "itravel": 2411,
      "69": 2412,
      "vers": 2413,
      "Ġtiss": 2414,
      "estern": 2415,
      "Ġbur": 2416,
      "Ġhide": 2417,
      "Ġbeac": 2418,
      "Ġengine": 2419,
      "Ġrights": 2420,
      "Ġkey": 2421,
      "rie": 2422,
      "Ġplat": 2423,
      "Ġpattern": 2424,
      "Ġcreative": 2425,
      "ror": 2426,
      "ta": 2427,
      "Ġtree": 2428,
      "ref": 2429,
      "Ġbal": 2430,
      "Ġblood": 2431,
      "Ġfield": 2432,
      "Ġstep": 2433,
      "Ġareas": 2434,
      "Ġexpect": 2435,
      "Ġusually": 2436,
      "Ġapp": 2437,
      "duction": 2438,
      "Ġinclude": 2439,
      "Ġmodels": 2440,
      "Ġmonths": 2441,
      "Ġeducation": 2442,
      "Ġbritish": 2443,
      "Ġmass": 2444,
      "Ġstar": 2445,
      "Ġvan": 2446,
      "ling": 2447,
      "more": 2448,
      "Ġwid": 2449,
      "Ġdeg": 2450,
      "Ġoffice": 2451,
      "num": 2452,
      "pm": 2453,
      "Ġclear": 2454,
      "ably": 2455,
      "Ġindia": 2456,
      "Ġfeel": 2457,
      "Ġbecome": 2458,
      "Ġmultiple": 2459,
      "do": 2460,
      "atures": 2461,
      "Ġpmid": 2462,
      "Ġglo": 2463,
      "Ġrna": 2464,
      "Ġadult": 2465,
      "Ġplan": 2466,
      "Ġsubject": 2467,
      "Ġsamples": 2468,
      "53": 2469,
      "=\"": 2470,
      "Ġid": 2471,
      "Ġlength": 2472,
      "hers": 2473,
      "istics": 2474,
      "Ġlet": 2475,
      "Ġarch": 2476,
      "Ġappl": 2477,
      "Ġprimary": 2478,
      "ring": 2479,
      "Ġoly": 2480,
      "Ġphen": 2481,
      "Ġhub": 2482,
      "Ġnature": 2483,
      "Ġlondon": 2484,
      "Ġforce": 2485,
      "ades": 2486,
      "Ġexist": 2487,
      "Ġsubst": 2488,
      "Ġkeep": 2489,
      "apt": 2490,
      "aster": 2491,
      "Ġlittle": 2492,
      "âĢľ": 2493,
      "Ġphyl": 2494,
      "Ġapproach": 2495,
      "Ġstarted": 2496,
      "year": 2497,
      "Ġbir": 2498,
      "Ġconduct": 2499,
      "istic": 2500,
      "Ġfeed": 2501,
      "Ġsignal": 2502,
      "Ġsystems": 2503,
      "Ġvarious": 2504,
      "Ġelectronic": 2505,
      "eral": 2506,
      "Ġfive": 2507,
      "Ġdate": 2508,
      "Ġevolution": 2509,
      "\",": 2510,
      "100": 2511,
      "41": 2512,
      "you": 2513,
      "Ġdav": 2514,
      "Ġable": 2515,
      "Ġwhether": 2516,
      "Ġregions": 2517,
      "Ġattribution": 2518,
      "Ġoccur": 2519,
      "minist": 2520,
      "han": 2521,
      "ham": 2522,
      "Ġchina": 2523,
      "Ġmaterial": 2524,
      "Ġolymp": 2525,
      "46": 2526,
      "Ġgold": 2527,
      "opt": 2528,
      "email": 2529,
      "elling": 2530,
      "Ġfuture": 2531,
      "but": 2532,
      "mar": 2533,
      "Ġfem": 2534,
      "Ġmother": 2535,
      "Ġtour": 2536,
      "ivity": 2537,
      "unt": 2538,
      "ails": 2539,
      "Ġbetter": 2540,
      "ney": 2541,
      "Ġnormal": 2542,
      "Ġrestrict": 2543,
      "Ġeuropean": 2544,
      "wor": 2545,
      "Ġmc": 2546,
      "Ġram": 2547,
      "opus": 2548,
      "acc": 2549,
      "Ġuser": 2550,
      "Ġacross": 2551,
      "Ġevents": 2552,
      "Ġtype": 2553,
      "val": 2554,
      "rect": 2555,
      "Ġdna": 2556,
      "Ġtoget": 2557,
      "ipedia": 2558,
      "Ġdifference": 2559,
      "Ġcheck": 2560,
      "Ġstrateg": 2561,
      "Ġdownload": 2562,
      "Ġappear": 2563,
      "Ġinvestig": 2564,
      "Ġtogether": 2565,
      "Ġbene": 2566,
      "ilt": 2567,
      "Ġsepar": 2568,
      "Ġregist": 2569,
      "Ġsurve": 2570,
      "Ġmedicine": 2571,
      "bre": 2572,
      "Ġsit": 2573,
      "Ġsix": 2574,
      "enn": 2575,
      "oles": 2576,
      "Ġrich": 2577,
      "Ġimmun": 2578,
      "lor": 2579,
      "rs": 2580,
      "tle": 2581,
      "alog": 2582,
      "Ġeither": 2583,
      "Ġconserv": 2584,
      "Ġvalues": 2585,
      "related": 2586,
      "ls": 2587,
      "Ġwall": 2588,
      "roph": 2589,
      "Ġchrist": 2590,
      "Ġtraining": 2591,
      "Ġreturn": 2592,
      "hide": 2593,
      "iers": 2594,
      "ram": 2595,
      "Ġaway": 2596,
      "Ġpast": 2597,
      "Ġadminist": 2598,
      "Ġbiomed": 2599,
      "Ġcardi": 2600,
      "ique": 2601,
      "Ġothers": 2602,
      "Ġstatus": 2603,
      "Ġterms": 2604,
      "Ġfriends": 2605,
      "ĠÂłÂł": 2606,
      "ese": 2607,
      "Ġhours": 2608,
      "iff": 2609,
      "Ġwhite": 2610,
      "Ġyoung": 2611,
      "ĠâĢĵ": 2612,
      "Ġwikitravel": 2613,
      "ges": 2614,
      "Ġband": 2615,
      "Ġheld": 2616,
      "ago": 2617,
      "odes": 2618,
      "Ġevidence": 2619,
      "Ġrepublic": 2620,
      "Ġshows": 2621,
      "Ġamerica": 2622,
      "number": 2623,
      "oo": 2624,
      "Ġpet": 2625,
      "ulated": 2626,
      "Ġprob": 2627,
      "Ġnever": 2628,
      "Ġtrad": 2629,
      "Ġpositive": 2630,
      "Ġdeveloped": 2631,
      "Ġlanguage": 2632,
      "pecially": 2633,
      "Ġconditions": 2634,
      "cross": 2635,
      "Î±": 2636,
      "Ġtum": 2637,
      "Ġpers": 2638,
      "Ġfed": 2639,
      "Ġinhib": 2640,
      "ask": 2641,
      "oma": 2642,
      "Ġweek": 2643,
      "Ġcontin": 2644,
      "Ġminor": 2645,
      "Ġprovides": 2646,
      "68": 2647,
      "person": 2648,
      "Ġje": 2649,
      "Ġcome": 2650,
      "Ġdecre": 2651,
      "Ġcommand": 2652,
      "Ġphysic": 2653,
      "Ġpromot": 2654,
      "hood": 2655,
      "itz": 2656,
      "Ġmention": 2657,
      "Ġhal": 2658,
      "Ġloss": 2659,
      "ruction": 2660,
      "comm": 2661,
      "ledge": 2662,
      "Ġmilitary": 2663,
      "Ġimpact": 2664,
      "Ġlibrary": 2665,
      "71": 2666,
      "sp": 2667,
      "Ġthird": 2668,
      "olic": 2669,
      "sem": 2670,
      "Ġprot": 2671,
      "Ġcontact": 2672,
      "Ġstudents": 2673,
      "Ġze": 2674,
      "Ġjoint": 2675,
      "Ġcounty": 2676,
      "Ġformer": 2677,
      "Ġperformance": 2678,
      "Ġcross": 2679,
      "Ġconsist": 2680,
      "Ġwikipedia": 2681,
      "Ġmusic": 2682,
      "auth": 2683,
      "Ġpolitical": 2684,
      "62": 2685,
      "cast": 2686,
      "ying": 2687,
      "Ġ$": 2688,
      "chi": 2689,
      "ows": 2690,
      "Ġdecl": 2691,
      "Ġwebs": 2692,
      "Ġrock": 2693,
      "Ġparts": 2694,
      "Ġafric": 2695,
      "plement": 2696,
      "Ġproblem": 2697,
      "crossref": 2698,
      "Ġturn": 2699,
      "oring": 2700,
      "Ġreve": 2701,
      "Ġchamp": 2702,
      "Ġacid": 2703,
      "Ġmanagement": 2704,
      "Ġobtained": 2705,
      "51": 2706,
      "ape": 2707,
      "dr": 2708,
      "anal": 2709,
      "Ġgive": 2710,
      "acy": 2711,
      "Ġscopus": 2712,
      "Ġregard": 2713,
      "Ġconsidered": 2714,
      "Ġphylogen": 2715,
      "vari": 2716,
      "Ġvia": 2717,
      "Ġproper": 2718,
      "side": 2719,
      "Ġsources": 2720,
      "asing": 2721,
      "ili": 2722,
      "Ġselection": 2723,
      "ude": 2724,
      "cles": 2725,
      "Ġpercent": 2726,
      "Ġaddress": 2727,
      "Ġcalcul": 2728,
      "Ġchemical": 2729,
      "Ġnatural": 2730,
      "men": 2731,
      "Ġcle": 2732,
      "ana": 2733,
      "hern": 2734,
      "Ġneigh": 2735,
      "Ġresid": 2736,
      "Ġplatform": 2737,
      "64": 2738,
      "kn": 2739,
      "off": 2740,
      "put": 2741,
      "ĠÂł": 2742,
      "Ġtit": 2743,
      "Ġwestern": 2744,
      "Ġmor": 2745,
      "ables": 2746,
      "Ġshall": 2747,
      "ributed": 2748,
      "Ġbelow": 2749,
      "Ġwalk": 2750,
      ");": 2751,
      "jo": 2752,
      "ping": 2753,
      "ille": 2754,
      "Ġ1999": 2755,
      "Ġproduction": 2756,
      "Ġcourt": 2757,
      "Ġinvolved": 2758,
      "Ġpaper": 2759,
      "Ġcertain": 2760,
      "iter": 2761,
      "alian": 2762,
      "Ġbor": 2763,
      "Ġtoday": 2764,
      "Ġnamed": 2765,
      "eline": 2766,
      "Ġplants": 2767,
      "ford": 2768,
      "Ġquant": 2769,
      "Ġselected": 2770,
      "Ġhubmed": 2771,
      "Ġoil": 2772,
      "Ġfall": 2773,
      "Ġalways": 2774,
      "artic": 2775,
      "Ġadded": 2776,
      "cret": 2777,
      "Ġworking": 2778,
      "Ġpopular": 2779,
      "Ġpopulations": 2780,
      "Ġespecially": 2781,
      "Ġrespons": 2782,
      "Ġdocument": 2783,
      "88": 2784,
      "cy": 2785,
      "hold": 2786,
      "http": 2787,
      "ires": 2788,
      "Ġpak": 2789,
      "Ġwent": 2790,
      "Ġwind": 2791,
      "Ġmove": 2792,
      "abet": 2793,
      "Ġmeet": 2794,
      "Ġcoast": 2795,
      "Ġhyp": 2796,
      "Ġlargest": 2797,
      "Ġissue": 2798,
      "Ġrecomm": 2799,
      "zil": 2800,
      "inated": 2801,
      "Ġsdc": 2802,
      "Ġtoo": 2803,
      "Ġhard": 2804,
      "Ġeth": 2805,
      "idge": 2806,
      "Ġcontinu": 2807,
      "Ġgreater": 2808,
      "address": 2809,
      "Ġexpressed": 2810,
      "Ġcit": 2811,
      "Ġdone": 2812,
      "ceived": 2813,
      "Ġaltern": 2814,
      "Ġgenetic": 2815,
      "Ġevent": 2816,
      "Ġestim": 2817,
      "Ġsummer": 2818,
      "Ġfocus": 2819,
      "66": 2820,
      "aim": 2821,
      "Ġce": 2822,
      "Ġcode": 2823,
      "Ġol": 2824,
      "Ġpi": 2825,
      "Ġchall": 2826,
      "Ġarr": 2827,
      "Ġamount": 2828,
      "Ġbiol": 2829,
      "Ġrail": 2830,
      "Ġwritten": 2831,
      "Ġapplication": 2832,
      "nas": 2833,
      "rest": 2834,
      "Ġwood": 2835,
      "Ġrates": 2836,
      "ume": 2837,
      "Ġword": 2838,
      "Ġplayer": 2839,
      "Ġnight": 2840,
      "âĢĶ": 2841,
      "Ġroom": 2842,
      "Ġscale": 2843,
      "Ġelection": 2844,
      "Ġearth": 2845,
      "ynam": 2846,
      "curity": 2847,
      "sw": 2848,
      "Ġtur": 2849,
      "Ġsent": 2850,
      "eria": 2851,
      "Ġward": 2852,
      "Ġmol": 2853,
      "aries": 2854,
      "Ġworks": 2855,
      "Ġspat": 2856,
      "Ġpoor": 2857,
      "Ġaccount": 2858,
      "Ġmatch": 2859,
      "Ġcharacteristics": 2860,
      "Ġdomain": 2861,
      "Ġmakes": 2862,
      "Ġgermany": 2863,
      "mat": 2864,
      "mark": 2865,
      "xic": 2866,
      "Ġâ": 2867,
      "Ġrom": 2868,
      "Ġhiv": 2869,
      "Ġhapp": 2870,
      "Ġstaff": 2871,
      "Ġconn": 2872,
      "Ġ37": 2873,
      "Ġbiology": 2874,
      "Ġrelative": 2875,
      "Ġ1998": 2876,
      "Ġviews": 2877,
      "Ġrather": 2878,
      "Ġmillion": 2879,
      ".)": 2880,
      "03": 2881,
      "gt": 2882,
      "spec": 2883,
      "ving": 2884,
      "ara": 2885,
      "Ġhaving": 2886,
      "Ġeg": 2887,
      "eli": 2888,
      "resp": 2889,
      "04": 2890,
      "61": 2891,
      "ped": 2892,
      "Ġwild": 2893,
      "abit": 2894,
      "Ġtele": 2895,
      "Ġspeak": 2896,
      "Ġbio": 2897,
      "Ġnumbers": 2898,
      "Ġreceived": 2899,
      "Ġglobal": 2900,
      "atively": 2901,
      "Ġstop": 2902,
      "Ġonce": 2903,
      "ensus": 2904,
      "Ġparam": 2905,
      "Ġfamilies": 2906,
      "Ġpolicy": 2907,
      "Ġsan": 2908,
      "Ġself": 2909,
      "Ġnort": 2910,
      "istry": 2911,
      "Ġsecurity": 2912,
      "Ġnote": 2913,
      "199": 2914,
      "rolog": 2915,
      "Ġrevision": 2916,
      "Ġstarting": 2917,
      "Ġvillage": 2918,
      "Ġtemperature": 2919,
      "box": 2920,
      "att": 2921,
      "Ġru": 2922,
      "illed": 2923,
      "Ġ35": 2924,
      "Ġupd": 2925,
      "Ġneeds": 2926,
      "Ġestab": 2927,
      "Ġnuclear": 2928,
      "ficult": 2929,
      "born": 2930,
      "come": 2931,
      "ha": 2932,
      "Ġcov": 2933,
      "Ġlack": 2934,
      "term": 2935,
      "osph": 2936,
      "berg": 2937,
      "Ġgoing": 2938,
      "Ġdifficult": 2939,
      "awa": 2940,
      "Ġhypert": 2941,
      "encing": 2942,
      "Ġrestaur": 2943,
      "Ġmovie": 2944,
      "variants": 2945,
      "02": 2946,
      "42": 2947,
      "ault": 2948,
      "ches": 2949,
      "Ġlip": 2950,
      "Ġstars": 2951,
      "Ġyet": 2952,
      "Ġchann": 2953,
      "ruit": 2954,
      "Ġparish": 2955,
      "Ġbusiness": 2956,
      "Ġcourse": 2957,
      "ci": 2958,
      "where": 2959,
      "atives": 2960,
      "Ġkind": 2961,
      "Ġarg": 2962,
      "Ġsoft": 2963,
      "Ġdatab": 2964,
      "Ġlearning": 2965,
      "Ġmaking": 2966,
      "Ġsomething": 2967,
      "Ġbenef": 2968,
      "Ġaim": 2969,
      "Ġang": 2970,
      "Ġha": 2971,
      "Ġlot": 2972,
      "Ġvideo": 2973,
      "ĠâĢĶ": 2974,
      "Ġscre": 2975,
      "Ġpolym": 2976,
      "Ġbroad": 2977,
      "Ġbrazil": 2978,
      "copy": 2979,
      "Ġsympt": 2980,
      "Ġmentioned": 2981,
      "ening": 2982,
      "itation": 2983,
      "Ġrepl": 2984,
      "ensive": 2985,
      "Ġrecogn": 2986,
      "Ġnetwork": 2987,
      "Ġbuilding": 2988,
      "pat": 2989,
      "Ġaward": 2990,
      "ica": 2991,
      "Ġhits": 2992,
      "Ġstra": 2993,
      "Ġstress": 2994,
      "aced": 2995,
      "Ġclose": 2996,
      "Ġindependent": 2997,
      "Ġcoll": 2998,
      "Ġcomplete": 2999,
      "Ġorganiz": 3000,
      "Ġwatch": 3001,
      "Ġinstitute": 3002,
      "Ġsqu": 3003,
      "Ġmagn": 3004,
      "Ġalign": 3005,
      "ĊĊĊ": 3006,
      "ception": 3007,
      "Ġphysical": 3008,
      "Ġrespectively": 3009,
      "Ġbay": 3010,
      "Ġda": 3011,
      "Ġruss": 3012,
      "Ġimages": 3013,
      "Ġcommit": 3014,
      "Ġminister": 3015,
      "ounced": 3016,
      "Ġparents": 3017,
      "download": 3018,
      "77": 3019,
      "bac": 3020,
      "inant": 3021,
      "isl": 3022,
      "Ġupon": 3023,
      "Ġspecified": 3024,
      "Ġtesting": 3025,
      "Ġgeograph": 3026,
      "Ġknowledge": 3027,
      "Ġlatest": 3028,
      "Ġanimals": 3029,
      "Ġsatisfaction": 3030,
      "rd": 3031,
      "vant": 3032,
      "Ġpan": 3033,
      "Ġwang": 3034,
      "Ġmr": 3035,
      "Ġdou": 3036,
      "Ġheav": 3037,
      "Ġchanged": 3038,
      "Ġguard": 3039,
      "Ġforeign": 3040,
      "Ġconcentration": 3041,
      "101": 3042,
      "page": 3043,
      "ished": 3044,
      "Ġmiss": 3045,
      "Ġnames": 3046,
      "ĠâĢĺ": 3047,
      "Ġcanada": 3048,
      "Ġcompon": 3049,
      "Ġmedia": 3050,
      "ixed": 3051,
      "Ġsample": 3052,
      "Ġtemple": 3053,
      "Ġacadem": 3054,
      "Ġalgorithm": 3055,
      "Ġapplied": 3056,
      "Ġnorthern": 3057,
      "oe": 3058,
      "word": 3059,
      "Ġsolution": 3060,
      "Ġdam": 3061,
      "ilities": 3062,
      "Ġuv": 3063,
      "Ġrelig": 3064,
      "Ġcentury": 3065,
      "ront": 3066,
      "Ġhistor": 3067,
      "Ġculture": 3068,
      "rapy": 3069,
      "Ġofficial": 3070,
      "Ġbehavior": 3071,
      "Ġinfluence": 3072,
      "Ġdescribed": 3073,
      "Ġcirc": 3074,
      "'re": 3075,
      "07": 3076,
      "data": 3077,
      "rated": 3078,
      "set": 3079,
      "Ġcand": 3080,
      "Ġkin": 3081,
      "Ġphase": 3082,
      "ship": 3083,
      "type": 3084,
      "Ġbooks": 3085,
      "56": 3086,
      "cil": 3087,
      "ij": 3088,
      "self": 3089,
      "Ġrepro": 3090,
      "otox": 3091,
      "Ġbegan": 3092,
      "istance": 3093,
      "Ġadj": 3094,
      "Ġplas": 3095,
      "ights": 3096,
      "Ġii": 3097,
      "Ġidentify": 3098,
      "Ġcollection": 3099,
      "Ġsometimes": 3100,
      "Ġfiref": 3101,
      "bed": 3102,
      "dependent": 3103,
      "fl": 3104,
      "ply": 3105,
      "tra": 3106,
      "orm": 3107,
      "uscript": 3108,
      "Ġcannot": 3109,
      "Ġmanuscript": 3110,
      "Ġmedium": 3111,
      "Ġsuper": 3112,
      "Ġdemand": 3113,
      "continu": 3114,
      "Ġtechnology": 3115,
      "Ġcorrelation": 3116,
      "91": 3117,
      "bur": 3118,
      "di": 3119,
      "Ġbill": 3120,
      "Ġmale": 3121,
      "oding": 3122,
      "uck": 3123,
      "Ġbiological": 3124,
      "Ġmulti": 3125,
      "Ġcollege": 3126,
      "fact": 3127,
      "iqu": 3128,
      "nav": 3129,
      "ising": 3130,
      "Ġlove": 3131,
      "Ġreaction": 3132,
      "ague": 3133,
      "Ġclub": 3134,
      "Ġindian": 3135,
      "Ġenter": 3136,
      "Ġbuilt": 3137,
      "Ġstreet": 3138,
      "Ġwebsite": 3139,
      "Ġspatial": 3140,
      "43": 3141,
      "95": 3142,
      "][": 3143,
      "col": 3144,
      "list": 3145,
      "pi": 3146,
      "ws": 3147,
      "enced": 3148,
      "iting": 3149,
      "Ġfund": 3150,
      "Ġisra": 3151,
      "Ġrs": 3152,
      "Ġconcer": 3153,
      "Ġregul": 3154,
      "Ġmetab": 3155,
      "trans": 3156,
      "Ġprior": 3157,
      "Ġtissue": 3158,
      "Ġreveal": 3159,
      "fort": 3160,
      "rum": 3161,
      "zo": 3162,
      "Ġ...": 3163,
      "Ġpay": 3164,
      "anch": 3165,
      "Ġmac": 3166,
      "Ġgast": 3167,
      "pling": 3168,
      "oney": 3169,
      "Ġphil": 3170,
      "reek": 3171,
      "format": 3172,
      "Ġ60": 3173,
      "Ġprocesses": 3174,
      "Ġsitu": 3175,
      "ters": 3176,
      "video": 3177,
      "Ġfra": 3178,
      "Ġdynam": 3179,
      "Ġhall": 3180,
      "ulin": 3181,
      "Ġspir": 3182,
      "lands": 3183,
      "Ġedits": 3184,
      "Ġdiagn": 3185,
      "Ġconsider": 3186,
      "book": 3187,
      "Ġfunctional": 3188,
      "Ġbreak": 3189,
      "respond": 3190,
      "ca": 3191,
      "ony": 3192,
      "ened": 3193,
      "Ġfast": 3194,
      "Ġlinks": 3195,
      "chie": 3196,
      "Ġjud": 3197,
      "Ġros": 3198,
      "Ġcreate": 3199,
      "Ġdelhi": 3200,
      "Ġbrain": 3201,
      "point": 3202,
      "personal": 3203,
      "pub": 3204,
      "wise": 3205,
      "Ġmut": 3206,
      "Ġinj": 3207,
      "oto": 3208,
      "Ġsecret": 3209,
      "astim": 3210,
      "Ġprep": 3211,
      "Ġoverall": 3212,
      "Ġobject": 3213,
      "share": 3214,
      "Ġcalif": 3215,
      "Ġcategory": 3216,
      "Ġhalf": 3217,
      "Ã©": 3218,
      "icago": 3219,
      "Ġul": 3220,
      "umption": 3221,
      "Ġkm": 3222,
      "Ġnecess": 3223,
      "izing": 3224,
      "Ġrob": 3225,
      "Ġblock": 3226,
      "Ġattack": 3227,
      "Ġrelease": 3228,
      "Ġfrequently": 3229,
      "Ġlinked": 3230,
      "ban": 3231,
      "mission": 3232,
      "sm": 3233,
      "Ġbase": 3234,
      "Ġlines": 3235,
      "raft": 3236,
      "Ġalmost": 3237,
      "Ġpropert": 3238,
      "Ġproposed": 3239,
      "Ġorth": 3240,
      "Ġbox": 3241,
      "Ġdistributed": 3242,
      "grastim": 3243,
      "Ġfindings": 3244,
      "Ġoccup": 3245,
      "Ġproblems": 3246,
      "bacco": 3247,
      "Ġproperties": 3248,
      "09": 3249,
      "85": 3250,
      "mm": 3251,
      "Ġdatas": 3252,
      "Ġcentre": 3253,
      "Ġcorrespond": 3254,
      "Ġsets": 3255,
      "inese": 3256,
      "Ġexperience": 3257,
      "Ġaustralian": 3258,
      "Ġintervention": 3259,
      "Ġissues": 3260,
      "Ġevaluation": 3261,
      "Ġduplic": 3262,
      "79": 3263,
      "inary": 3264,
      "Ġbott": 3265,
      "Ġhill": 3266,
      "Ġreason": 3267,
      "ÂłĊ": 3268,
      "ift": 3269,
      "Ġrank": 3270,
      "ocyt": 3271,
      "Ġresources": 3272,
      "comp": 3273,
      "rogen": 3274,
      "Ġreduced": 3275,
      "Ġancient": 3276,
      "Ġterrit": 3277,
      "ĠÏĥ": 3278,
      "df": 3279,
      "ga": 3280,
      "ura": 3281,
      "Ġcame": 3282,
      "Ġcyt": 3283,
      "Ġpen": 3284,
      "Ġvict": 3285,
      "aging": 3286,
      "ips": 3287,
      "aps": 3288,
      "Ġfeatures": 3289,
      "Ġincludes": 3290,
      "Ġentry": 3291,
      "Ġextract": 3292,
      "Ġcouncil": 3293,
      "eds": 3294,
      "Ġhon": 3295,
      "Ġrul": 3296,
      "thing": 3297,
      "Ġstudied": 3298,
      "Ġtransport": 3299,
      "Ġmarried": 3300,
      "Ġsmok": 3301,
      "Ġcapital": 3302,
      "Ġanalyz": 3303,
      "Ġsurvey": 3304,
      "Ġrecommend": 3305,
      "cing": 3306,
      "last": 3307,
      "pose": 3308,
      "Ġsen": 3309,
      "Ġpain": 3310,
      "Ġbind": 3311,
      "Ġformed": 3312,
      "select": 3313,
      "Ġseason": 3314,
      "Ġdiscontinu": 3315,
      "Ġcollect": 3316,
      "Ġpriv": 3317,
      "Ġincreasing": 3318,
      "Ġproteins": 3319,
      "Ġlisting": 3320,
      "Ġhotel": 3321,
      "ched": 3322,
      "help": 3323,
      "Ġtook": 3324,
      "Ġstyle": 3325,
      "osure": 3326,
      "Ġreserv": 3327,
      "Ġparas": 3328,
      "Ġhighly": 3329,
      "Ġminutes": 3330,
      "Ġsimple": 3331,
      "talk": 3332,
      "Ġlimited": 3333,
      "Ġfemale": 3334,
      "Ġgot": 3335,
      "Ġfort": 3336,
      "itted": 3337,
      "Ġpreviously": 3338,
      "Ġtalk": 3339,
      "Ġcandid": 3340,
      "Ġfirefox": 3341,
      "sub": 3342,
      "Ġct": 3343,
      "Ġdig": 3344,
      "ascular": 3345,
      "lex": 3346,
      "Ġtobacco": 3347,
      "thern": 3348,
      "Ġque": 3349,
      "Ġbiote": 3350,
      "Ġwhole": 3351,
      "Ġemploy": 3352,
      "Ġdiseases": 3353,
      "Ġcontributing": 3354,
      "Ġmeasured": 3355,
      "Ġdivision": 3356,
      "gfil": 3357,
      "mi": 3358,
      "och": 3359,
      "uel": 3360,
      "Ġ)": 3361,
      "Ġsex": 3362,
      "Ġuses": 3363,
      "Ġpresence": 3364,
      "Ġflu": 3365,
      "Ġversus": 3366,
      "Ġanti": 3367,
      "Ġannounced": 3368,
      "ukary": 3369,
      "Ġstatistical": 3370,
      "Ġnucle": 3371,
      "gfilgrastim": 3372,
      "ba": 3373,
      "bmc": 3374,
      "how": 3375,
      "Ġ*": 3376,
      "isions": 3377,
      "Ġmer": 3378,
      "Ġrecept": 3379,
      "ements": 3380,
      "Ġ36": 3381,
      "Ġwords": 3382,
      "Ġclient": 3383,
      "Ġprec": 3384,
      "ogene": 3385,
      "la": 3386,
      "Ġbit": 3387,
      "Ġmes": 3388,
      "Ġrese": 3389,
      "Ġ33": 3390,
      "Ġ500": 3391,
      "Ġimplement": 3392,
      "Ġmarri": 3393,
      "rench": 3394,
      "Ġoptions": 3395,
      "ready": 3396,
      "otype": 3397,
      "Ġsurvival": 3398,
      "Ġsoldiers": 3399,
      "when": 3400,
      "ini": 3401,
      "Ġcro": 3402,
      "Ġnm": 3403,
      "Ġeukary": 3404,
      "Ġarth": 3405,
      "Ġroot": 3406,
      "Ġ95": 3407,
      "Ġprovince": 3408,
      "Ġsouthern": 3409,
      "Ġwales": 3410,
      "06": 3411,
      "73": 3412,
      "can": 3413,
      "des": 3414,
      "Ã¶": 3415,
      "Ġcup": 3416,
      "elves": 3417,
      "ceed": 3418,
      "Ġsev": 3419,
      "ailed": 3420,
      "Ġtransfer": 3421,
      "Ġtrain": 3422,
      "Ġ1996": 3423,
      "Ġposition": 3424,
      "Ġcommunic": 3425,
      "Ġdetermined": 3426,
      "52": 3427,
      "ris": 3428,
      "head": 3429,
      "Ġcut": 3430,
      "Ġmos": 3431,
      "Ġinn": 3432,
      "Ġlon": 3433,
      "Ġgas": 3434,
      "Ġunion": 3435,
      "Ġimage": 3436,
      "Ġformation": 3437,
      "Ġelements": 3438,
      "Ġwaters": 3439,
      "Ġanimal": 3440,
      "Ġhydro": 3441,
      "Ġsynthesis": 3442,
      "Ġmolecular": 3443,
      "Ġsoftware": 3444,
      "ead": 3445,
      "pir": 3446,
      "Ġten": 3447,
      "Ġmur": 3448,
      "Ġmind": 3449,
      "Ġmental": 3450,
      "omas": 3451,
      "eters": 3452,
      "Ġalready": 3453,
      "Ġenough": 3454,
      "click": 3455,
      "Ġscore": 3456,
      "ensity": 3457,
      "Ġremov": 3458,
      "Ġorigin": 3459,
      "Ġexperiments": 3460,
      "clusion": 3461,
      "Ġsuccessful": 3462,
      "Ġprofessional": 3463,
      "Ġnegative": 3464,
      "Ġbirth": 3465,
      "Ġneighbor": 3466,
      "54": 3467,
      "gi": 3468,
      "iol": 3469,
      "yal": 3470,
      "arily": 3471,
      "Ġalph": 3472,
      "ached": 3473,
      "ocr": 3474,
      "anger": 3475,
      "Ġclimate": 3476,
      "Ġspace": 3477,
      "Ġagric": 3478,
      "Ġoffer": 3479,
      "Ġaffect": 3480,
      "Ġzhang": 3481,
      "ĠÏĥb": 3482,
      "ora": 3483,
      "Ġmort": 3484,
      "Ġhor": 3485,
      "otation": 3486,
      "oper": 3487,
      "Ġability": 3488,
      "Ġintro": 3489,
      "Ġcover": 3490,
      "Ġgenerally": 3491,
      "additional": 3492,
      "Ġgrand": 3493,
      "Ġcriteria": 3494,
      "helial": 3495,
      "Ġaccepted": 3496,
      "99": 3497,
      "dis": 3498,
      "gment": 3499,
      "she": 3500,
      "za": 3501,
      "Ġ:": 3502,
      "Ġben": 3503,
      "Ġden": 3504,
      "asons": 3505,
      "Ġlu": 3506,
      "Ġshop": 3507,
      "Ġvariability": 3508,
      "Ġcaused": 3509,
      "Ġactivities": 3510,
      "igenous": 3511,
      "Ġtitle": 3512,
      "87": 3513,
      "references": 3514,
      "Ġsus": 3515,
      "atically": 3516,
      "unction": 3517,
      "web": 3518,
      "Ġassign": 3519,
      "ritis": 3520,
      "Ġsochi": 3521,
      "Ġconfir": 3522,
      "after": 3523,
      "Ġstream": 3524,
      "Ġcomparison": 3525,
      "Ġchampions": 3526,
      "',": 3527,
      "bra": 3528,
      "fig": 3529,
      "name": 3530,
      "wat": 3531,
      "with": 3532,
      "Ġ--": 3533,
      "Ġachie": 3534,
      "revision": 3535,
      "omics": 3536,
      "Ġvacc": 3537,
      "Ġbegin": 3538,
      "Ġconv": 3539,
      "Ġchinese": 3540,
      "Ġ32": 3541,
      "Ġgenet": 3542,
      "Ġ1997": 3543,
      "Ġmaxim": 3544,
      "ternal": 3545,
      "Ġlonger": 3546,
      "Ġnovel": 3547,
      "Ġepit": 3548,
      "Ġthought": 3549,
      "Ġconducted": 3550,
      "ole": 3551,
      "itution": 3552,
      "Ġclust": 3553,
      "Ġindust": 3554,
      "Ġground": 3555,
      "Ġinterpre": 3556,
      "Ġdistin": 3557,
      "Ġorganization": 3558,
      "Ġmoved": 3559,
      "Ġcurrently": 3560,
      "Ġrequired": 3561,
      "Ġrestaurant": 3562,
      "Ġcommitte": 3563,
      "ares": 3564,
      "now": 3565,
      "ream": 3566,
      "Ġtheory": 3567,
      "ero": 3568,
      "Ġfish": 3569,
      "outh": 3570,
      "Ġreally": 3571,
      "Ġalle": 3572,
      "Ġneuro": 3573,
      "Ġdistance": 3574,
      "Ġsurg": 3575,
      "Ġdefined": 3576,
      "Ġexperimental": 3577,
      "Ġoxid": 3578,
      "location": 3579,
      "89": 3580,
      "iated": 3581,
      "scre": 3582,
      "time": 3583,
      "Ġfam": 3584,
      "Ġfif": 3585,
      "Ġmir": 3586,
      "Ġmess": 3587,
      "Ġhu": 3588,
      "Ġwhy": 3589,
      "Ġeffort": 3590,
      "ogenous": 3591,
      "Ġannual": 3592,
      "Ġrequire": 3593,
      "Ġtrend": 3594,
      "Ġproducts": 3595,
      "Ġviol": 3596,
      "fficient": 3597,
      "jan": 3598,
      "lit": 3599,
      "Ġsure": 3600,
      "Ġsport": 3601,
      "rote": 3602,
      "ulf": 3603,
      "Ġrhe": 3604,
      "Ġcontext": 3605,
      "Ġitems": 3606,
      "Ġjames": 3607,
      "Ġneut": 3608,
      "Ġ2018": 3609,
      "ending": 3610,
      "Ġiii": 3611,
      "Ġtrue": 3612,
      "Ġstudio": 3613,
      "Ġcolum": 3614,
      "Ġtravel": 3615,
      "Ġblue": 3616,
      "Ġchannel": 3617,
      "fs": 3618,
      "ios": 3619,
      "las": 3620,
      "mail": 3621,
      "Î²": 3622,
      "Ġ×": 3623,
      "Ġwr": 3624,
      "Ġalt": 3625,
      "Ġqual": 3626,
      "Ġ2020": 3627,
      "Ġexposure": 3628,
      "Ġjob": 3629,
      "Ġinstead": 3630,
      "Ġmainly": 3631,
      "Ġfrance": 3632,
      "Ġtrials": 3633,
      "Ġcaliforn": 3634,
      "bu": 3635,
      "mic": 3636,
      "pite": 3637,
      "Ġarab": 3638,
      "Ġcou": 3639,
      "Ġvect": 3640,
      "Ġrang": 3641,
      "Ġconsequ": 3642,
      "ĊĊĊĊ": 3643,
      "Ġoutside": 3644,
      "Ġemerg": 3645,
      "Ġfollowed": 3646,
      "airs": 3647,
      "Ġairport": 3648,
      "Ġtypes": 3649,
      "Ġlegisl": 3650,
      "Ġexpected": 3651,
      "den": 3652,
      "hr": 3653,
      "net": 3654,
      "wide": 3655,
      "Ġtap": 3656,
      "Ġfrench": 3657,
      "Ġmim": 3658,
      "Ġgir": 3659,
      "Ġrh": 3660,
      "Ġleague": 3661,
      "Ġclos": 3662,
      "Ġrap": 3663,
      "Ġpoly": 3664,
      "Ġ1990": 3665,
      "Ġinfection": 3666,
      "Ġinstall": 3667,
      "Ġreports": 3668,
      "Ġapproxim": 3669,
      "Ġtrees": 3670,
      "Ġdirectly": 3671,
      "Ġholiday": 3672,
      "known": 3673,
      "field": 3674,
      "Ġta": 3675,
      "research": 3676,
      "Ġmid": 3677,
      "Ġdent": 3678,
      "Ġliter": 3679,
      "Ġ()": 3680,
      "ods": 3681,
      "osit": 3682,
      "Ġprotect": 3683,
      "Ġtakes": 3684,
      "Ġinflamm": 3685,
      "Ġlabor": 3686,
      "Ġancest": 3687,
      "Ġrevealed": 3688,
      "Ġchampionship": 3689,
      "met": 3690,
      "source": 3691,
      "Ġhold": 3692,
      "raction": 3693,
      "Ġlee": 3694,
      "eller": 3695,
      "Ġwilliam": 3696,
      "ghan": 3697,
      "Ġcontributions": 3698,
      "Ġsummary": 3699,
      "Ġmajority": 3700,
      "Ġbehavi": 3701,
      "Ġidea": 3702,
      "Ġscientists": 3703,
      "Ġprogress": 3704,
      "Ġsymptoms": 3705,
      "li": 3706,
      "Ġsab": 3707,
      "Ġsaw": 3708,
      "Ġsays": 3709,
      "ather": 3710,
      "Ġhop": 3711,
      "Ġproced": 3712,
      "Ġdeal": 3713,
      "ocy": 3714,
      "Ġads": 3715,
      "Ġclaim": 3716,
      "Ġphosph": 3717,
      "Ġnose": 3718,
      "Ġactive": 3719,
      "Ġminim": 3720,
      "Ġuseful": 3721,
      "encies": 3722,
      "Ġvariation": 3723,
      "pective": 3724,
      "cription": 3725,
      "Ġinternet": 3726,
      "Ġquestions": 3727,
      "Ġenvironmental": 3728,
      "Ġsociety": 3729,
      "rief": 3730,
      "Ġhypertension": 3731,
      "bar": 3732,
      "ken": 3733,
      "names": 3734,
      "part": 3735,
      "Ġaction": 3736,
      "onal": 3737,
      "onym": 3738,
      "Ġfa": 3739,
      "Ġfav": 3740,
      "sey": 3741,
      "tery": 3742,
      "Ġire": 3743,
      "Ġpharm": 3744,
      "Ġendot": 3745,
      "Ġeffective": 3746,
      "Ġentire": 3747,
      "Ġmob": 3748,
      "Ġvisual": 3749,
      "Ġratio": 3750,
      "Ġfilm": 3751,
      "Ġeros": 3752,
      "Ġisrael": 3753,
      "08": 3754,
      "gs": 3755,
      "mod": 3756,
      "meth": 3757,
      "pri": 3758,
      "Ġcensus": 3759,
      "itude": 3760,
      "Ġbacter": 3761,
      "Ġfront": 3762,
      "Ġyield": 3763,
      "iction": 3764,
      "Ġreduction": 3765,
      "Ġradio": 3766,
      "what": 3767,
      "specific": 3768,
      "Ġpolymorph": 3769,
      "'m": 3770,
      "72": 3771,
      "75": 3772,
      "==": 3773,
      "lar": 3774,
      "Ġcause": 3775,
      "Ġpack": 3776,
      "ales": 3777,
      "Ġmi": 3778,
      "Ġmoney": 3779,
      "Ġlay": 3780,
      "Ġmarine": 3781,
      "ounds": 3782,
      "Ġzno": 3783,
      "Ġitself": 3784,
      "Ġetc": 3785,
      "Ġgerman": 3786,
      "Ġpractice": 3787,
      "Ġdemonstrated": 3788,
      "Ġbeacons": 3789,
      "Ġcalculated": 3790,
      "Ġbinding": 3791,
      "Ġcalifornia": 3792,
      "nor": 3793,
      "vis": 3794,
      "Ġbad": 3795,
      "Ġmel": 3796,
      "ols": 3797,
      "othes": 3798,
      "Ġstri": 3799,
      "Ġchicago": 3800,
      "ochem": 3801,
      "ured": 3802,
      "Ġ2015": 3803,
      "Ġlocation": 3804,
      "Ġserved": 3805,
      "Ġproduced": 3806,
      "Ġcareer": 3807,
      "hyd": 3808,
      "ÂłÂłÂłÂłÂłÂłÂłÂł": 3809,
      "Ġcritical": 3810,
      "Ġdiscussion": 3811,
      "Ġapplications": 3812,
      "Ġfather": 3813,
      "Ġeconomic": 3814,
      "Ġestablished": 3815,
      "Ġireland": 3816,
      "cin": 3817,
      "rast": 3818,
      "Ġss": 3819,
      "Ġcast": 3820,
      "Ġmidd": 3821,
      "Ġlate": 3822,
      "Ġconcept": 3823,
      "verse": 3824,
      "Ġadoles": 3825,
      "Ġrepresents": 3826,
      "Ġsuff": 3827,
      "Ġolympics": 3828,
      "Ġarthritis": 3829,
      "Ġrheum": 3830,
      "rich": 3831,
      "orption": 3832,
      "Ġmand": 3833,
      "Ġhabit": 3834,
      "ela": 3835,
      "image": 3836,
      "Ġcontains": 3837,
      "Ġlarger": 3838,
      "Ġguide": 3839,
      "Ġpreval": 3840,
      "Ġcapt": 3841,
      "Ġskin": 3842,
      "Ġdesigned": 3843,
      "Ġdetermine": 3844,
      "Ġunderstanding": 3845,
      "Ġstrategy": 3846,
      "Ġtumor": 3847,
      "Ġbiotechn": 3848,
      "Ġfamous": 3849,
      "93": 3850,
      "car": 3851,
      "diff": 3852,
      "gu": 3853,
      "vious": 3854,
      "Ġhom": 3855,
      "Ġnative": 3856,
      "ula": 3857,
      "Ġstem": 3858,
      "ria": 3859,
      "Ġdeb": 3860,
      "ults": 3861,
      "Ġ43": 3862,
      "Ġregular": 3863,
      "Ġinteraction": 3864,
      "Ġboard": 3865,
      "Ġ1995": 3866,
      "Ġneeded": 3867,
      "ography": 3868,
      "Ġfederal": 3869,
      "semb": 3870,
      "Ġalternative": 3871,
      "Ġterritory": 3872,
      "'ll": 3873,
      "craft": 3874,
      "pa": 3875,
      "Ġsgt": 3876,
      "roup": 3877,
      "Ġhit": 3878,
      "Ġexcept": 3879,
      "ovir": 3880,
      "aily": 3881,
      "Ġmodern": 3882,
      "Ġcolon": 3883,
      "Ġpoll": 3884,
      "Ġaccum": 3885,
      "Ġcataly": 3886,
      "Ġeasy": 3887,
      "Ġcomputer": 3888,
      "Ġmechanisms": 3889,
      "background": 3890,
      "stein": 3891,
      "analys": 3892,
      "Ġdatabase": 3893,
      "84": 3894,
      "vement": 3895,
      "Ġmag": 3896,
      "Ġtowards": 3897,
      "chang": 3898,
      "Ġcong": 3899,
      "Ġcontaining": 3900,
      "Ġ45": 3901,
      "Ġquar": 3902,
      "Ġarticles": 3903,
      "mann": 3904,
      "Ġvariables": 3905,
      "Ġautom": 3906,
      "show": 3907,
      "2013": 3908,
      "Ġappears": 3909,
      "Ġislands": 3910,
      "Ġphylogenetic": 3911,
      "dit": 3912,
      "Ġcry": 3913,
      "Ġfal": 3914,
      "Ġled": 3915,
      "seus": 3916,
      "results": 3917,
      "Ġindepend": 3918,
      "Ġmeters": 3919,
      "Ġchen": 3920,
      "Ġattention": 3921,
      "Ġdetection": 3922,
      "Ġposted": 3923,
      "Ġbaseline": 3924,
      "Ġlicens": 3925,
      "Ġimprove": 3926,
      "Ġphysicians": 3927,
      "published": 3928,
      "''": 3929,
      "lim": 3930,
      "ming": 3931,
      "pire": 3932,
      "ano": 3933,
      "Ġdaily": 3934,
      "Ġtom": 3935,
      "iles": 3936,
      "Ġ250": 3937,
      "Ġitaly": 3938,
      "empt": 3939,
      "Ġyouth": 3940,
      "Ġadapt": 3941,
      "Ġclick": 3942,
      "Ġamino": 3943,
      "Ġpolice": 3944,
      "Ġpollin": 3945,
      "Ġblog": 3946,
      "plications": 3947,
      "Ġantib": 3948,
      "Ġsecondary": 3949,
      "Ġschools": 3950,
      "Ġwriting": 3951,
      "Ġcombined": 3952,
      "Ġbelieve": 3953,
      ".:": 3954,
      "ben": 3955,
      "tl": 3956,
      "wood": 3957,
      "ya": 3958,
      "Ã¡": 3959,
      "Ã³": 3960,
      "Ġess": 3961,
      "Ġslow": 3962,
      "Ġcere": 3963,
      "Ġcust": 3964,
      "Ġpup": 3965,
      "order": 3966,
      "Ġmart": 3967,
      "Ġdark": 3968,
      "Ġlign": 3969,
      "Ġcomes": 3970,
      "rial": 3971,
      "Ġdeep": 3972,
      "Ġ34": 3973,
      "ief": 3974,
      "Ġ42": 3975,
      "Ġguid": 3976,
      "Ġmaint": 3977,
      "Ġmeasures": 3978,
      "Ġpresented": 3979,
      "Ġindicate": 3980,
      "Ġsunscre": 3981,
      "Ġstatistics": 3982,
      "clusions": 3983,
      "Ġsilver": 3984,
      "Ġengineering": 3985,
      "works": 3986,
      "Ġanalyzed": 3987,
      "Ġagricult": 3988,
      "Ġerosion": 3989,
      "orge": 3990,
      "Ġfarm": 3991,
      "Ġmd": 3992,
      "Ġml": 3993,
      "Ġreach": 3994,
      "Ġreasons": 3995,
      "char": 3996,
      "Ġseven": 3997,
      "Ġkl": 3998,
      "Ġ39": 3999,
      "Ġsoil": 4000,
      "Ġsupported": 4001,
      "Ġgovernor": 4002,
      "Ġmovement": 4003,
      "Ġolder": 4004,
      "Ġpathways": 4005,
      "Ġtranscription": 4006,
      "Ġforests": 4007,
      "Ġpatterns": 4008,
      "Ġinhibit": 4009,
      "Ġparameters": 4010,
      "Ġwatershed": 4011,
      "Ġmiddle": 4012,
      "ka": 4013,
      "nes": 4014,
      "herom": 4015,
      "Ġdrop": 4016,
      "Ġga": 4017,
      "Ġforward": 4018,
      "Ġvit": 4019,
      "Ġheter": 4020,
      "Ġafghan": 4021,
      "Ġfunctions": 4022,
      "Ġmathem": 4023,
      "Ġcommunities": 4024,
      "Ġbasic": 4025,
      "Ġvirus": 4026,
      "Ġoptim": 4027,
      "Ġdevice": 4028,
      "rology": 4029,
      "cd": 4030,
      "gal": 4031,
      "Ġped": 4032,
      "Ġutil": 4033,
      "Ġcoming": 4034,
      "Ġord": 4035,
      "Ġquotes": 4036,
      "Ġparl": 4037,
      "Ġprinc": 4038,
      "Ġpoints": 4039,
      "Ġfinally": 4040,
      "____": 4041,
      "Ġpromoter": 4042,
      "author": 4043,
      "Ġdouble": 4044,
      "ev": 4045,
      "iet": 4046,
      "ira": 4047,
      "light": 4048,
      "rations": 4049,
      "hest": 4050,
      "ont": 4051,
      "oral": 4052,
      "Ġbmc": 4053,
      "Ġmg": 4054,
      "Ġmit": 4055,
      "entry": 4056,
      "Ġgave": 4057,
      "ush": 4058,
      "Ġrobert": 4059,
      "Ġregression": 4060,
      "Ġspok": 4061,
      "Ġcolor": 4062,
      "Ġmostly": 4063,
      "Ġreposit": 4064,
      "Ġgeneration": 4065,
      "Ġantigen": 4066,
      "Ġsampling": 4067,
      "Ġlandsc": 4068,
      "Ġleading": 4069,
      "Ġpakistan": 4070,
      "Ġroman": 4071,
      "Ġprivate": 4072,
      "Ġcommittee": 4073,
      "Ġrapid": 4074,
      "Ġendothelial": 4075,
      "har": 4076,
      "kt": 4077,
      "rh": 4078,
      "yes": 4079,
      "Ã¼": 4080,
      "Ġ#": 4081,
      "Ġts": 4082,
      "Ġtell": 4083,
      "inter": 4084,
      "Ġthems": 4085,
      "orpor": 4086,
      "Ġface": 4087,
      "Ġansw": 4088,
      "aring": 4089,
      "Ġdanger": 4090,
      "Ġlived": 4091,
      "Ġrepe": 4092,
      "Ġgate": 4093,
      "ette": 4094,
      "Ġstage": 4095,
      "lying": 4096,
      "aves": 4097,
      "ova": 4098,
      "Ġgenomes": 4099,
      "Ġprint": 4100,
      "Ġ2022": 4101,
      "Ġtested": 4102,
      "Ġgraph": 4103,
      "Ġdeliv": 4104,
      "Ġtaking": 4105,
      "Ġelse": 4106,
      "Ġreflect": 4107,
      "ĠÂłÂłĊ": 4108,
      "bell": 4109,
      "sup": 4110,
      "Ġtag": 4111,
      "inum": 4112,
      "Ġcx": 4113,
      "Ġod": 4114,
      "Ġlt": 4115,
      "Ġrefer": 4116,
      "Ġexec": 4117,
      "plo": 4118,
      "Ġ2017": 4119,
      "Ġstudent": 4120,
      "Ġpeak": 4121,
      "Ġ2021": 4122,
      "Ġendogenous": 4123,
      "Ġvalid": 4124,
      "azone": 4125,
      "Ġelement": 4126,
      "Ġsmaller": 4127,
      "Ġaffili": 4128,
      "Ġmilk": 4129,
      "Ġmothers": 4130,
      "Ġadministration": 4131,
      "iques": 4132,
      "Ġextracted": 4133,
      "Ġreceptor": 4134,
      "Ġthemselves": 4135,
      "gra": 4136,
      "sa": 4137,
      "sen": 4138,
      "ÃŃ": 4139,
      "Ġsand": 4140,
      "Ġcm": 4141,
      "ises": 4142,
      "Ġber": 4143,
      "Ġmouse": 4144,
      "Ġmuse": 4145,
      "Ġexact": 4146,
      "Ġcanad": 4147,
      "Ġcompare": 4148,
      "Ġ48": 4149,
      "Ġtry": 4150,
      "Ġquite": 4151,
      "Ġpep": 4152,
      "Ġcarried": 4153,
      "Ġvolume": 4154,
      "Ġtests": 4155,
      "Ġcomplet": 4156,
      "Ġallowed": 4157,
      "Ġcycle": 4158,
      "Ġderived": 4159,
      "Ġrestrictions": 4160,
      "Ġnecessary": 4161,
      "litazone": 4162,
      "Ġvector": 4163,
      "74": 4164,
      "83": 4165,
      "96": 4166,
      "dh": 4167,
      "note": 4168,
      "tation": 4169,
      "van": 4170,
      "Ġsess": 4171,
      "enge": 4172,
      "Ġwa": 4173,
      "Ġbike": 4174,
      "Ġbank": 4175,
      "Ġfig": 4176,
      "leep": 4177,
      "Ġhous": 4178,
      "Ġlost": 4179,
      "Ġstory": 4180,
      "Ġfeature": 4181,
      "Ġnumer": 4182,
      "Ġdespite": 4183,
      "ields": 4184,
      "Ġlaws": 4185,
      "Ġcontinue": 4186,
      "Ġacademy": 4187,
      "Ġspirit": 4188,
      "Ġpie": 4189,
      "also": 4190,
      "othe": 4191,
      "cean": 4192,
      "Ġbeach": 4193,
      "Ġproceed": 4194,
      "agen": 4195,
      "unch": 4196,
      "Ġchrom": 4197,
      "Ġdead": 4198,
      "Ġexhib": 4199,
      "Ġlett": 4200,
      "ellow": 4201,
      "uge": 4202,
      "rick": 4203,
      "Ġmodified": 4204,
      "Ġmonit": 4205,
      "Ġcorrect": 4206,
      "Ġmuscle": 4207,
      "Ġvirgin": 4208,
      "Ġfurthermore": 4209,
      "Ġlimit": 4210,
      "Ġchoice": 4211,
      "Ġpsychiat": 4212,
      "Ġmaterials": 4213,
      "Ġafrica": 4214,
      "Ġhypothes": 4215,
      "Ġmortality": 4216,
      "sembly": 4217,
      "Ġparliam": 4218,
      "bon": 4219,
      "cher": 4220,
      "iate": 4221,
      "lation": 4222,
      "Ġcities": 4223,
      "Ġpig": 4224,
      "Ġmember": 4225,
      "leg": 4226,
      "Ġgard": 4227,
      "Ġever": 4228,
      "amin": 4229,
      "uration": 4230,
      "place": 4231,
      "Ġnotes": 4232,
      "Ġcompos": 4233,
      "Ġperseus": 4234,
      "Ġ1992": 4235,
      "Ġwhereas": 4236,
      "Ġreviews": 4237,
      "Ġinteresting": 4238,
      "ercial": 4239,
      "Ġveget": 4240,
      "Ġscientific": 4241,
      "Ġtraditional": 4242,
      "Ġmarriage": 4243,
      "Ġdistinct": 4244,
      "bia": 4245,
      "care": 4246,
      "hl": 4247,
      "ht": 4248,
      "hic": 4249,
      "ule": 4250,
      "Ġtro": 4251,
      "induced": 4252,
      "rec": 4253,
      "Ġsds": 4254,
      "icity": 4255,
      "Ġreference": 4256,
      "owed": 4257,
      "opes": 4258,
      "aches": 4259,
      "Ġ41": 4260,
      "Ġquery": 4261,
      "Ġregional": 4262,
      "Ġcoin": 4263,
      "Ġgradu": 4264,
      "Ġincidence": 4265,
      "Ġframe": 4266,
      "2014": 4267,
      "Ġmiles": 4268,
      "Ġcapac": 4269,
      "Ġtrial": 4270,
      "Ġdrugs": 4271,
      "Ġprobably": 4272,
      "Ġbottom": 4273,
      "onymous": 4274,
      "Ġprevalence": 4275,
      "Ġquarter": 4276,
      "cal": 4277,
      "wd": 4278,
      "ye": 4279,
      "Ġci": 4280,
      "Ġpherom": 4281,
      "alike": 4282,
      "Ġhair": 4283,
      "Ġren": 4284,
      "Ġgar": 4285,
      "resh": 4286,
      "ocks": 4287,
      "Ġtex": 4288,
      "Ġregen": 4289,
      "ariate": 4290,
      "1186": 4291,
      "Ġresulting": 4292,
      "Ġsouthe": 4293,
      "Ġbring": 4294,
      "Ġcompleted": 4295,
      "Ġteams": 4296,
      "Ġpathway": 4297,
      "Ġtechniques": 4298,
      "Ġepid": 4299,
      "Ġmechanism": 4300,
      "ariance": 4301,
      "itzer": 4302,
      "Ġupdates": 4303,
      "Ġliterature": 4304,
      "'ve": 4305,
      "81": 4306,
      "97": 4307,
      "da": 4308,
      "dist": 4309,
      "life": 4310,
      "zym": 4311,
      "Ġic": 4312,
      "Ġwide": 4313,
      "anish": 4314,
      "Ġbold": 4315,
      "Ġdv": 4316,
      "Ġdut": 4317,
      "rob": 4318,
      "Ġnations": 4319,
      "Ġprol": 4320,
      "Ġunc": 4321,
      "Ġ70": 4322,
      "Ġactually": 4323,
      "Ġflag": 4324,
      "Ġelected": 4325,
      "Ġinternal": 4326,
      "2012": 4327,
      "Ġconstruct": 4328,
      "Ġprime": 4329,
      "genic": 4330,
      "Ġinterests": 4331,
      "Ġassessment": 4332,
      "Ġpurpose": 4333,
      "Ġinitial": 4334,
      "Ġquestionna": 4335,
      "Ġparliament": 4336,
      "]]": 4337,
      "gl": 4338,
      "md": 4339,
      "west": 4340,
      "Ã£": 4341,
      "received": 4342,
      "Ġoh": 4343,
      "Ġfruit": 4344,
      "ament": 4345,
      "Ġstay": 4346,
      "Ġkore": 4347,
      "Ġexc": 4348,
      "Ġneu": 4349,
      "Ġplus": 4350,
      "Ġroyal": 4351,
      "Ġupper": 4352,
      "Ġattempt": 4353,
      "Ġfounded": 4354,
      "Ġsaf": 4355,
      "keep": 4356,
      "Ġthroughout": 4357,
      "Ġimportance": 4358,
      "Ġinsulin": 4359,
      "Ġaccessed": 4360,
      "Ġhighest": 4361,
      "Ġpaul": 4362,
      "Ġzeal": 4363,
      "Ġcitiz": 4364,
      "Ġctab": 4365,
      "Ġmuseum": 4366,
      "aign": 4367,
      "rem": 4368,
      "Ġpric": 4369,
      "Ġways": 4370,
      "oura": 4371,
      "Ġisol": 4372,
      "seq": 4373,
      "iment": 4374,
      "Ġbees": 4375,
      "urs": 4376,
      "abor": 4377,
      "Ġproc": 4378,
      "Ġseem": 4379,
      "Ġkilled": 4380,
      "Ġneur": 4381,
      "Ġens": 4382,
      "Ġplast": 4383,
      "Ġnoted": 4384,
      "Ġround": 4385,
      "Ġboot": 4386,
      "Ġ90": 4387,
      "Ġobes": 4388,
      "Ġdefault": 4389,
      "Ġbrother": 4390,
      "Ġfourth": 4391,
      "Ġepis": 4392,
      "Ġreceive": 4393,
      "Ġsuggested": 4394,
      "Ġmountain": 4395,
      "Ġmeeting": 4396,
      "Ġsevere": 4397,
      "Ġmaximum": 4398,
      "eks": 4399,
      "famil": 4400,
      "ned": 4401,
      "press": 4402,
      "yond": 4403,
      "Ġip": 4404,
      "Ġcs": 4405,
      "Ġpy": 4406,
      "orial": 4407,
      "Ġba": 4408,
      "Ġinject": 4409,
      "Ġnom": 4410,
      "Ġseems": 4411,
      "Ġunivers": 4412,
      "Ġleave": 4413,
      "Ġcompan": 4414,
      "Ġ2019": 4415,
      "Ġagre": 4416,
      "ario": 4417,
      "Ġrelatively": 4418,
      "Ġsubsequ": 4419,
      "Ġsomeone": 4420,
      "comes": 4421,
      "Ġdrive": 4422,
      "Ġleader": 4423,
      "Ġrunning": 4424,
      "Ġprograms": 4425,
      "Ġpersonal": 4426,
      "Ġmicroar": 4427,
      "ductor": 4428,
      "Ġassessed": 4429,
      "Ġdestruction": 4430,
      "Ġproperly": 4431,
      "Ġconnect": 4432,
      "Ġresearc": 4433,
      "Ġmathemat": 4434,
      "Ġzealand": 4435,
      "82": 4436,
      "bro": 4437,
      "hire": 4438,
      "lu": 4439,
      "mg": 4440,
      "vol": 4441,
      "well": 4442,
      "Ġpict": 4443,
      "Ġfight": 4444,
      "Ġtoxic": 4445,
      "Ġni": 4446,
      "Ġlos": 4447,
      "Ġgly": 4448,
      "Ġeat": 4449,
      "Ġthomas": 4450,
      "stream": 4451,
      "Ġassembly": 4452,
      "Ġkar": 4453,
      "Ġshare": 4454,
      "Ġacqu": 4455,
      "force": 4456,
      "portun": 4457,
      "Ġmeta": 4458,
      "Ġboys": 4459,
      "Ġ1993": 4460,
      "Ġvariety": 4461,
      "1471": 4462,
      "Ġparticles": 4463,
      "Ġcauses": 4464,
      "Ġavoid": 4465,
      "Ġtreated": 4466,
      "Ġsensors": 4467,
      "Ġpressure": 4468,
      "Ġcardiac": 4469,
      "Ġclean": 4470,
      "Ġchalleng": 4471,
      "Ġreproduction": 4472,
      "%,": 4473,
      "tre": 4474,
      "wik": 4475,
      "ÃĹ": 4476,
      "Ġ>": 4477,
      "inations": 4478,
      "Ġfail": 4479,
      "Ġmach": 4480,
      "Ġvo": 4481,
      "Ġconference": 4482,
      "user": 4483,
      "rier": 4484,
      "Ġneosp": 4485,
      "Ġleuk": 4486,
      "Ġacids": 4487,
      "Ġ65": 4488,
      "Ġtrack": 4489,
      "Ġtraffic": 4490,
      "Ġ85": 4491,
      "Ġ1991": 4492,
      "Ġshowing": 4493,
      "Ġcontrolled": 4494,
      "Ġaffected": 4495,
      "Ġconsistent": 4496,
      "Ġtelevision": 4497,
      "Ġlicensed": 4498,
      "Ġcxcl": 4499,
      "pload": 4500,
      "Ġepidem": 4501,
      "ius": 4502,
      "late": 4503,
      "paces": 4504,
      "war": 4505,
      "Ġwire": 4506,
      "itative": 4507,
      "Ġmamm": 4508,
      "utions": 4509,
      "Ġvs": 4510,
      "Ġwashing": 4511,
      "Ġ44": 4512,
      "ibly": 4513,
      "Ġevol": 4514,
      "Ġrace": 4515,
      "Ġfoundation": 4516,
      "Ġdiabet": 4517,
      "Ġchildless": 4518,
      "Ġgreet": 4519,
      "Ġlinear": 4520,
      "Ġeastern": 4521,
      "Ġspectrum": 4522,
      "Ġvehic": 4523,
      "Ġdecrease": 4524,
      "Ġrailway": 4525,
      "burg": 4526,
      "Ġmetabol": 4527,
      "Ġcanadian": 4528,
      "Ã£o": 4529,
      "eed": 4530,
      "equ": 4531,
      "eff": 4532,
      "iency": 4533,
      "nam": 4534,
      "ona": 4535,
      "Ġcited": 4536,
      "Ġocean": 4537,
      "Ġpun": 4538,
      "Ġbud": 4539,
      "Ġfis": 4540,
      "Ġfair": 4541,
      "Ġlake": 4542,
      "ests": 4543,
      "overed": 4544,
      "ender": 4545,
      "Ġdoor": 4546,
      "Ġbutton": 4547,
      "Ġ75": 4548,
      "Ġengag": 4549,
      "Ġcarol": 4550,
      "Ġcorpor": 4551,
      "ronic": 4552,
      "Ġfollows": 4553,
      "def": 4554,
      "Ġopened": 4555,
      "contents": 4556,
      "Ġconstant": 4557,
      "Ġmicrobi": 4558,
      "Ġdegree": 4559,
      "untu": 4560,
      "Ġbenefits": 4561,
      "navigation": 4562,
      "Ġtexas": 4563,
      ".[": 4564,
      "cm": 4565,
      "cite": 4566,
      "ging": 4567,
      "tool": 4568,
      "va": 4569,
      "recent": 4570,
      "ani": 4571,
      "Ġmis": 4572,
      "Ġmcc": 4573,
      "Ġdiversity": 4574,
      "Ġnanop": 4575,
      "ivariate": 4576,
      "Ġplays": 4577,
      "izes": 4578,
      "Ġcontain": 4579,
      "Ġrout": 4580,
      "Ġquick": 4581,
      "Ġ1994": 4582,
      "Ġoffers": 4583,
      "Ġopportun": 4584,
      "cohol": 4585,
      "Ġbranch": 4586,
      "Ġlisted": 4587,
      "Ġdefin": 4588,
      "Ġhimself": 4589,
      "Ġtyp": 4590,
      "Ġindicates": 4591,
      "Ġdirector": 4592,
      "Ġsignaling": 4593,
      "john": 4594,
      "Ġsquare": 4595,
      "Ġcomponent": 4596,
      "words": 4597,
      "namespaces": 4598,
      "Ġrheumat": 4599,
      "Ġcustom": 4600,
      "Ġlignin": 4601,
      ".-": 4602,
      "fect": 4603,
      "king": 4604,
      "lam": 4605,
      "sized": 4606,
      "Ġì": 4607,
      "Ġmich": 4608,
      "Ġdire": 4609,
      "Ġstable": 4610,
      "Ġpros": 4611,
      "Ġproport": 4612,
      "istant": 4613,
      "odcast": 4614,
      "these": 4615,
      "Ġlep": 4616,
      "Ġ38": 4617,
      "aka": 4618,
      "Ġsynd": 4619,
      "Ġupdate": 4620,
      "Ġconsumption": 4621,
      "Ġemails": 4622,
      "Ġprevent": 4623,
      "Ġliber": 4624,
      "Ġdiet": 4625,
      "Ġdemocr": 4626,
      "Ġfinding": 4627,
      "Ġmarkers": 4628,
      "apping": 4629,
      "Ġexperiment": 4630,
      "Ġcondition": 4631,
      "Ġexisting": 4632,
      "Ġchallenge": 4633,
      "Ġadjust": 4634,
      "Ġsurgery": 4635,
      "bel": 4636,
      "kins": 4637,
      "nus": 4638,
      "some": 4639,
      "Ġpac": 4640,
      "ala": 4641,
      "Ġnar": 4642,
      "ctor": 4643,
      "Ġeight": 4644,
      "ided": 4645,
      "section": 4646,
      "ops": 4647,
      "rix": 4648,
      "rian": 4649,
      "ocol": 4650,
      "Ġarm": 4651,
      "active": 4652,
      "Ġindigenous": 4653,
      "Ġcommercial": 4654,
      "reng": 4655,
      "being": 4656,
      "ivided": 4657,
      "Ġrecorded": 4658,
      "brid": 4659,
      "Ġinside": 4660,
      "Ġ1980": 4661,
      "Ġbehind": 4662,
      "Ġcommonly": 4663,
      "copic": 4664,
      "Ġfinanc": 4665,
      "Ġrandomized": 4666,
      "Ġmountains": 4667,
      "Ġgolden": 4668,
      "Ġdataset": 4669,
      "Ġsmoking": 4670,
      "ocyte": 4671,
      "cut": 4672,
      "fa": 4673,
      "gsc": 4674,
      "Ġtun": 4675,
      "Ġsin": 4676,
      "Ġpdf": 4677,
      "orb": 4678,
      "itivity": 4679,
      "Ġbound": 4680,
      "aria": 4681,
      "ician": 4682,
      "Ġhope": 4683,
      "enter": 4684,
      "imens": 4685,
      "Ġbeaut": 4686,
      "Ġjur": 4687,
      "Ġexerc": 4688,
      "Ġenzym": 4689,
      "aking": 4690,
      "Ġdoing": 4691,
      "Ġgrown": 4692,
      "Ġoutcome": 4693,
      "Ġwhose": 4694,
      "Ġparis": 4695,
      "Ġprice": 4696,
      "Ġsequencing": 4697,
      "Ġhumans": 4698,
      "Ġmicros": 4699,
      "Ġincorpor": 4700,
      "Ġviral": 4701,
      "Ġsolid": 4702,
      "Ġcosts": 4703,
      "Ġurban": 4704,
      "Ġrecomb": 4705,
      "Ġintegrated": 4706,
      "Ġbeacon": 4707,
      "Ġcontinuous": 4708,
      "Ġalignment": 4709,
      "Ġapproximately": 4710,
      "Ġaffiliations": 4711,
      "iological": 4712,
      "iades": 4713,
      "Ġtas": 4714,
      "inet": 4715,
      "Ġtherapy": 4716,
      "Ġcas": 4717,
      "Ġfer": 4718,
      "Ġfresh": 4719,
      "Ġgall": 4720,
      "ota": 4721,
      "ida": 4722,
      "Ġbee": 4723,
      "Ġrice": 4724,
      "herlands": 4725,
      "using": 4726,
      "ander": 4727,
      "Ġunique": 4728,
      "Ġplot": 4729,
      "Ġrooms": 4730,
      "Ġ51": 4731,
      "Ġ47": 4732,
      "ifications": 4733,
      "Ġtransmission": 4734,
      "cluded": 4735,
      "Ġsurround": 4736,
      "Ġmonocyt": 4737,
      "Ġexamined": 4738,
      "Ġliu": 4739,
      "Ġexperi": 4740,
      "Ġsciences": 4741,
      "Ġswed": 4742,
      "Ġleaders": 4743,
      "Ġmeasurement": 4744,
      "Ġappeared": 4745,
      "Ġskill": 4746,
      "Ġiran": 4747,
      "Ġevaluated": 4748,
      "Ġdavis": 4749,
      "Ġolympic": 4750,
      "Ġadolesc": 4751,
      "Ġrepository": 4752,
      "Ġcapacity": 4753,
      "Ġgreetings": 4754,
      "Ġnanopartic": 4755,
      "%),": 4756,
      "ker": 4757,
      "ners": 4758,
      "vi": 4759,
      "Ġawards": 4760,
      "Ġsv": 4761,
      "Ġsom": 4762,
      "Ġsir": 4763,
      "Ġsound": 4764,
      "isation": 4765,
      "Ġbrief": 4766,
      "Ġmorph": 4767,
      "Ġandre": 4768,
      "Ġnut": 4769,
      "cts": 4770,
      "Ġvariance": 4771,
      "ifer": 4772,
      "Ġkh": 4773,
      "Ġwhom": 4774,
      "ptin": 4775,
      "Ġresource": 4776,
      "Ġcontents": 4777,
      "Ġcontrast": 4778,
      "Ġspring": 4779,
      "Ġmoreover": 4780,
      "Ġoutcomes": 4781,
      "Ġanyone": 4782,
      "scient": 4783,
      "Ġelectric": 4784,
      "Ġrelevant": 4785,
      "Ġmuscles": 4786,
      "cribed": 4787,
      "Ġsensor": 4788,
      "Ġcultures": 4789,
      "Ġsnps": 4790,
      "chester": 4791,
      "Ġwinter": 4792,
      "Ġefficient": 4793,
      "holiday": 4794,
      "Ġseparate": 4795,
      "Ġprepared": 4796,
      "Ġvictor": 4797,
      "Ġalphabet": 4798,
      "Ġobesity": 4799,
      "Ġcompanies": 4800,
      "band": 4801,
      "km": 4802,
      "Ġmary": 4803,
      "Ġmission": 4804,
      "Ġnation": 4805,
      "Ġged": 4806,
      "Ġgives": 4807,
      "001": 4808,
      "Ġprop": 4809,
      "Ġchap": 4810,
      "aver": 4811,
      "aint": 4812,
      "pled": 4813,
      "Ġevoo": 4814,
      "Ġpept": 4815,
      "ordin": 4816,
      "ught": 4817,
      "Ġended": 4818,
      "Ġdetails": 4819,
      "Ġvariable": 4820,
      "Ġsimply": 4821,
      "iverse": 4822,
      "Ġmeasurements": 4823,
      "Ġrepresentative": 4824,
      "Ġimmune": 4825,
      "Ġlooking": 4826,
      "Ġadults": 4827,
      "options": 4828,
      "aska": 4829,
      "Ġestimated": 4830,
      "Ġcorresponding": 4831,
      "Ġquestionnaire": 4832,
      "chem": 4833,
      "public": 4834,
      "podcast": 4835,
      "xin": 4836,
      "Ġig": 4837,
      "Ġov": 4838,
      "Ġfixed": 4839,
      "Ġstim": 4840,
      "Ġstreng": 4841,
      "uth": 4842,
      "Ġbeyond": 4843,
      "Ġjr": 4844,
      "Ġkim": 4845,
      "iah": 4846,
      "ends": 4847,
      "Ġintra": 4848,
      "conotox": 4849,
      "ologies": 4850,
      "Ġcoal": 4851,
      "Ġjoin": 4852,
      "itting": 4853,
      "Ġoperations": 4854,
      "Ġexplain": 4855,
      "Ġindicated": 4856,
      "Ġsuggests": 4857,
      "Ġparticularly": 4858,
      "Ġpermits": 4859,
      "Ġorganizational": 4860,
      "Ġdamage": 4861,
      "Ġcollected": 4862,
      "Ġmimot": 4863,
      "Ġindependence": 4864,
      "Ġpollinators": 4865,
      "Ġpheromone": 4866,
      "Ġdiabetes": 4867,
      "78": 4868,
      "bour": 4869,
      "ita": 4870,
      "itch": 4871,
      "Ġdj": 4872,
      "Ġdensity": 4873,
      "roy": 4874,
      "Ġeld": 4875,
      "Ġitalian": 4876,
      "pea": 4877,
      "Ġleptin": 4878,
      "ipp": 4879,
      "Ġresistance": 4880,
      "Ġcaninum": 4881,
      "Ġimmed": 4882,
      "Ġbeta": 4883,
      "Ġago": 4884,
      "Ġworked": 4885,
      "Ġdescription": 4886,
      "iox": 4887,
      "Ġdrink": 4888,
      "Ġproduce": 4889,
      "Ġretention": 4890,
      "Ġbelong": 4891,
      "Ġdiscusses": 4892,
      "Ġtranscriptional": 4893,
      "Ġjohnson": 4894,
      "Ġconcentrations": 4895,
      "Ġwindows": 4896,
      "Ġbeginning": 4897,
      "Ġnumerous": 4898,
      "Ġgedcom": 4899,
      "98": 4900,
      "gans": 4901,
      "hab": 4902,
      "mer": 4903,
      "oh": 4904,
      "ycl": 4905,
      "Ġther": 4906,
      "Ġmad": 4907,
      "ingu": 4908,
      "Ġthing": 4909,
      "Ġvice": 4910,
      "Ġrated": 4911,
      "Ġchos": 4912,
      "estinal": 4913,
      "Ġneph": 4914,
      "Ġunrest": 4915,
      "Ġgender": 4916,
      "Ġscores": 4917,
      "Ġdose": 4918,
      "Ġaged": 4919,
      "Ġincreases": 4920,
      "Ġcontrols": 4921,
      "Ġbasis": 4922,
      "Ġbackground": 4923,
      "Ġviruses": 4924,
      "Ġdecision": 4925,
      "Ġnetworks": 4926,
      "Ġnetherlands": 4927,
      "Ġmeaning": 4928,
      "Ġtaxi": 4929,
      "Ġjapanese": 4930,
      "Ġregarding": 4931,
      "Ġefforts": 4932,
      "Ġbehaviour": 4933,
      "Ġfalse": 4934,
      "itzerland": 4935,
      "94": 4936,
      "fol": 4937,
      "fet": 4938,
      "fast": 4939,
      "iology": 4940,
      "mit": 4941,
      "mond": 4942,
      "oon": 4943,
      "Ġaj": 4944,
      "Ġsper": 4945,
      "Ġpf": 4946,
      "Ġpeter": 4947,
      "itable": 4948,
      "Ġmb": 4949,
      "Ġmom": 4950,
      "Ġgaz": 4951,
      "Ġthreat": 4952,
      "ully": 4953,
      "Ġchief": 4954,
      "Ġweeks": 4955,
      "fully": 4956,
      "photo": 4957,
      "Ġ55": 4958,
      "Ġpeace": 4959,
      "Ġspr": 4960,
      "Ġrare": 4961,
      "Ġcellular": 4962,
      "Ġinfect": 4963,
      "Ġcharge": 4964,
      "Ġgenerated": 4965,
      "plication": 4966,
      "Ġmodeling": 4967,
      "Ġsignificance": 4968,
      "Ġretro": 4969,
      "Ġgetting": 4970,
      "Ġmatter": 4971,
      "iveness": 4972,
      "Ġdoesn": 4973,
      "Ġlatin": 4974,
      "Ġrichard": 4975,
      "downloads": 4976,
      "Ġhistorical": 4977,
      "Ġlandscape": 4978,
      "Ġvirginia": 4979,
      "Ġprices": 4980,
      "cks": 4981,
      "joy": 4982,
      "kin": 4983,
      "rate": 4984,
      "site": 4985,
      "ued": 4986,
      "ville": 4987,
      "ĠL": 4988,
      "Ġamed": 4989,
      "Ġwil": 4990,
      "esian": 4991,
      "orig": 4992,
      "Ġeu": 4993,
      "Ġ(+": 4994,
      "Ġvgsc": 4995,
      "Ġaspect": 4996,
      "Ġdeploy": 4997,
      "Ġ300": 4998,
      "Ġcompounds": 4999,
      "Ġgoes": 5000,
      "associ": 5001,
      "Ġbiochem": 5002,
      "Ġemb": 5003,
      "Ġoppos": 5004,
      "ricted": 5005,
      "Ġapproved": 5006,
      "Ġproviding": 5007,
      "Ġ1970": 5008,
      "Ġfiles": 5009,
      "Ġwebcite": 5010,
      "Ġsubstant": 5011,
      "Ġstrategies": 5012,
      "Ġmatching": 5013,
      "1016": 5014,
      "Ġkinase": 5015,
      "Ġframework": 5016,
      "Ġmonocytogenes": 5017,
      "76": 5018,
      "dd": 5019,
      "ez": 5020,
      "house": 5021,
      "pan": 5022,
      "Ġil": 5023,
      "Ġaz": 5024,
      "Ġcav": 5025,
      "ald": 5026,
      "Ġna": 5027,
      "Ġnone": 5028,
      "oud": 5029,
      "entially": 5030,
      "state": 5031,
      "Ġva": 5032,
      "Ġalcohol": 5033,
      "Ġrss": 5034,
      "Ġkil": 5035,
      "Ġunit": 5036,
      "Ġshift": 5037,
      "iaz": 5038,
      "Ġroll": 5039,
      "Ġ46": 5040,
      "Ġgoal": 5041,
      "iance": 5042,
      "Ġcook": 5043,
      "Ġcoverage": 5044,
      "Ġsoon": 5045,
      "Ġlocations": 5046,
      "ought": 5047,
      "Ġdetailed": 5048,
      "Ġrespond": 5049,
      "Ġpleiades": 5050,
      "Ġnatl": 5051,
      "Ġreceiving": 5052,
      "Ġeasily": 5053,
      "Ġwidely": 5054,
      "Ġsubjects": 5055,
      "Ġafrican": 5056,
      "Ġpercentage": 5057,
      "Ġortholog": 5058,
      "Ġconfirmed": 5059,
      "Ġgirls": 5060,
      "Ġcatalyst": 5061,
      "Ġwashington": 5062,
      "Â±": 5063,
      "Ġtor": 5064,
      "Ġtrop": 5065,
      "Ġos": 5066,
      "Ġpow": 5067,
      "Ġwrote": 5068,
      "Ġdan": 5069,
      "Ġhr": 5070,
      "Ġgun": 5071,
      "Ġgain": 5072,
      "eland": 5073,
      "Ġupload": 5074,
      "Ġforces": 5075,
      "Ġones": 5076,
      "Ġven": 5077,
      "Ġric": 5078,
      "Ġrwd": 5079,
      "Ġcompl": 5080,
      "Ġcomments": 5081,
      "Ġroute": 5082,
      "Ġ52": 5083,
      "Ġ59": 5084,
      "achment": 5085,
      "Ġspain": 5086,
      "Ġspanish": 5087,
      "Ġassum": 5088,
      "Ġtransgenic": 5089,
      "Ġviewed": 5090,
      "rence": 5091,
      "Ġdelay": 5092,
      "Ġgrant": 5093,
      "board": 5094,
      "inois": 5095,
      "Ġclearly": 5096,
      "Ġletter": 5097,
      "Ġregistration": 5098,
      "Ġheavy": 5099,
      "Ġsituation": 5100,
      "Ġdiscontinuation": 5101,
      "analysis": 5102,
      "Ġafghanistan": 5103,
      "Ġexecut": 5104,
      "effect": 5105,
      "Ġengagement": 5106,
      "Ġcarolina": 5107,
      "Ġunrestricted": 5108,
      "cs": 5109,
      "dna": 5110,
      "mitted": 5111,
      "rim": 5112,
      "ĠH": 5113,
      "Ġsant": 5114,
      "Ġflo": 5115,
      "Ġanonymous": 5116,
      "Ġdie": 5117,
      "Ġhur": 5118,
      "Ġlif": 5119,
      "Ġrenal": 5120,
      "Ġreferences": 5121,
      "Ġreached": 5122,
      "olit": 5123,
      "Ġstages": 5124,
      "Ġstories": 5125,
      "Ġvent": 5126,
      "rape": 5127,
      "uri": 5128,
      "Ġrio": 5129,
      "Ġjes": 5130,
      "ella": 5131,
      "Ġenh": 5132,
      "Ġresort": 5133,
      "Ġ54": 5134,
      "Ġdisco": 5135,
      "Ġdisorder": 5136,
      "Ġperception": 5137,
      "orders": 5138,
      "Ġspread": 5139,
      "Ġprison": 5140,
      "Ġdepression": 5141,
      "Ġvalley": 5142,
      "Ġbuff": 5143,
      "ĊĠĠĠĠĠ": 5144,
      "Ġrequires": 5145,
      "Ġruns": 5146,
      "Ġdecade": 5147,
      "Ġreading": 5148,
      "Ġiron": 5149,
      "Ġadvant": 5150,
      "Ġfacilities": 5151,
      "Ġsnow": 5152,
      "=\"\"": 5153,
      "Ġeukaryotic": 5154,
      "Ġconvention": 5155,
      "Ġsports": 5156,
      "family": 5157,
      "toolbox": 5158,
      "92": 5159,
      "categ": 5160,
      "free": 5161,
      "function": 5162,
      "hort": 5163,
      "oide": 5164,
      "pic": 5165,
      "pop": 5166,
      "Î¼": 5167,
      "Ġiv": 5168,
      "Ġtan": 5169,
      "Ġast": 5170,
      "erior": 5171,
      "Ġcu": 5172,
      "Ġfans": 5173,
      "ett": 5174,
      "Ġvot": 5175,
      "ifically": 5176,
      "Ġalone": 5177,
      "Ġran": 5178,
      "Ġconne": 5179,
      "Ġja": 5180,
      "rome": 5181,
      "Ġ2016": 5182,
      "Ġdiss": 5183,
      "Ġouter": 5184,
      "Ġsoils": 5185,
      "Ġrevisions": 5186,
      "Ġanything": 5187,
      "Ġsafe": 5188,
      "Ġextra": 5189,
      "Ġdefense": 5190,
      "Ġgeorge": 5191,
      "Ġswitzerland": 5192,
      "Ġmedication": 5193,
      "Ġmales": 5194,
      "Ġinstitution": 5195,
      "Ġefficacy": 5196,
      "Ġasked": 5197,
      "Ġresponsible": 5198,
      "Ġcele": 5199,
      "Ġrussia": 5200,
      "Ġgeographical": 5201,
      "Ġdynamics": 5202,
      "Ġparasit": 5203,
      "Ġcommunication": 5204,
      "Ġinterpretation": 5205,
      "Ġfaith": 5206,
      "Ġcomposition": 5207,
      "Ġregeneration": 5208,
      "rapeut": 5209,
      "lant": 5210,
      "inity": 5211,
      "erly": 5212,
      "anes": 5213,
      "Ġdivided": 5214,
      "asis": 5215,
      "about": 5216,
      "ophy": 5217,
      "aya": 5218,
      "ube": 5219,
      "Ġkill": 5220,
      "Ġchlor": 5221,
      "Ġunits": 5222,
      "cler": 5223,
      "Ġworth": 5224,
      "Ġ57": 5225,
      "Ġgoals": 5226,
      "Ġ80": 5227,
      "Ġworkers": 5228,
      "Ġdeveloping": 5229,
      "Ġhealthy": 5230,
      "hens": 5231,
      "Ġprotection": 5232,
      "Ġidentification": 5233,
      "Ġcredit": 5234,
      "Ġlists": 5235,
      "ructures": 5236,
      "Ġappropri": 5237,
      "Ġmarked": 5238,
      "Ġleads": 5239,
      "Ġerror": 5240,
      "Ġequation": 5241,
      "Ġimprovement": 5242,
      "Ġofficer": 5243,
      "Ġdegrad": 5244,
      "value": 5245,
      "elihood": 5246,
      "Ġcandidate": 5247,
      "methods": 5248,
      "changes": 5249,
      "Ġpupils": 5250,
      "otherapy": 5251,
      "Ġproceedings": 5252,
      "Ġneospora": 5253,
      "scientists": 5254,
      "%).": 5255,
      "cat": 5256,
      "fish": 5257,
      "ras": 5258,
      "tar": 5259,
      "yan": 5260,
      "Ġaw": 5261,
      "Ġax": 5262,
      "Ġban": 5263,
      "enth": 5264,
      "enty": 5265,
      "Ġgh": 5266,
      "ilit": 5267,
      "ulate": 5268,
      "Ġstor": 5269,
      "chol": 5270,
      "Ġalter": 5271,
      "Ġjump": 5272,
      "usion": 5273,
      "oscopic": 5274,
      "aved": 5275,
      "Ġexternal": 5276,
      "illa": 5277,
      "elled": 5278,
      "endar": 5279,
      "Ġ53": 5280,
      "Ġmexic": 5281,
      "ĊĊĠĠĠĠĠ": 5282,
      "Ġinteractions": 5283,
      "next": 5284,
      "Ġprevention": 5285,
      "Ġlipe": 5286,
      "Ġprocessing": 5287,
      "Ġcopied": 5288,
      "Ġgrass": 5289,
      "ĠÎ²": 5290,
      "Ġconstit": 5291,
      "2008": 5292,
      "Ġreduce": 5293,
      "Ġlikelihood": 5294,
      "Ġradical": 5295,
      "Ġwanted": 5296,
      "Ġimproved": 5297,
      "Ġprojects": 5298,
      "Ġputative": 5299,
      "Ġevolutionary": 5300,
      "Ġphysician": 5301,
      "Ġâī": 5302,
      "Ġcomponents": 5303,
      "Ġremoved": 5304,
      "Ġcryst": 5305,
      "Ġmicroarray": 5306,
      ">.": 5307,
      "dep": 5308,
      "hu": 5309,
      "lier": 5310,
      "vest": 5311,
      "Ġsolar": 5312,
      "Ġtheore": 5313,
      "Ġbz": 5314,
      "Ġbif": 5315,
      "olf": 5316,
      "Ġut": 5317,
      "Ġont": 5318,
      "Ġvote": 5319,
      "Ġyang": 5320,
      "Ġkb": 5321,
      "Ġlev": 5322,
      "Ġnothing": 5323,
      "ostic": 5324,
      "Ġscot": 5325,
      "Ġindeed": 5326,
      "Ġzone": 5327,
      "Ġdetected": 5328,
      "Ġpool": 5329,
      "rought": 5330,
      "Ġdiam": 5331,
      "Ġactivation": 5332,
      "Ġannot": 5333,
      "aneous": 5334,
      "content": 5335,
      "autom": 5336,
      "Ġrequest": 5337,
      "ographic": 5338,
      "ogenesis": 5339,
      "Ġinterview": 5340,
      "Ġbreast": 5341,
      "Ġcompeted": 5342,
      "ĠÎ¼m": 5343,
      "Ġcampaign": 5344,
      "Ġadministr": 5345,
      "Ġethn": 5346,
      "Ġwatchlist": 5347,
      "Ġtrends": 5348,
      "Ġvitro": 5349,
      "Ġchosen": 5350,
      "associated": 5351,
      "cus": 5352,
      "don": 5353,
      "iro": 5354,
      "mo": 5355,
      "rance": 5356,
      "wan": 5357,
      "wing": 5358,
      "Ġsov": 5359,
      "Ġcab": 5360,
      "Ġcore": 5361,
      "enia": 5362,
      "Ġwel": 5363,
      "alle": 5364,
      "Ġmun": 5365,
      "Ġnic": 5366,
      "elt": 5367,
      "elines": 5368,
      "ivation": 5369,
      "urb": 5370,
      "urc": 5371,
      "under": 5372,
      "Ġchart": 5373,
      "Ġship": 5374,
      "Ġadditions": 5375,
      "Ġraised": 5376,
      "issions": 5377,
      "Ġserve": 5378,
      "Ġgenealog": 5379,
      "Ġaccur": 5380,
      "Ġcalendar": 5381,
      "bridge": 5382,
      "Ġcharacterization": 5383,
      "Ġbrown": 5384,
      "Ġhousehold": 5385,
      "Ġallows": 5386,
      "Ġillinois": 5387,
      "Ġwidowed": 5388,
      "Ġcardiov": 5389,
      "Ġbioin": 5390,
      "Ġgeographic": 5391,
      "Ġplasma": 5392,
      "Ġrules": 5393,
      "Ġdelivery": 5394,
      "Ġdvids": 5395,
      "Ġfinancial": 5396,
      "Ġrecombinant": 5397,
      ")-": 5398,
      "/âĪĴ": 5399,
      "500": 5400,
      "bc": 5401,
      "bit": 5402,
      "ni": 5403,
      "since": 5404,
      "tw": 5405,
      "yer": 5406,
      "Ġtenn": 5407,
      "Ġalex": 5408,
      "Ġsed": 5409,
      "Ġsust": 5410,
      "isdict": 5411,
      "orter": 5412,
      "Ġmixed": 5413,
      "arab": 5414,
      "Ġles": 5415,
      "Ġlie": 5416,
      "iful": 5417,
      "that": 5418,
      "aged": 5419,
      "reshold": 5420,
      "udd": 5421,
      "Ġunknown": 5422,
      "aki": 5423,
      "Ġweak": 5424,
      "Ġpegfilgrastim": 5425,
      "Ġcommission": 5426,
      "Ġspeed": 5427,
      "Ġspot": 5428,
      "Ġcohort": 5429,
      "Ġspecifically": 5430,
      "Ġedge": 5431,
      "Ġrevised": 5432,
      "Ġfamilysearch": 5433,
      "Ġjustice": 5434,
      "Ġgrowing": 5435,
      "Ġconflic": 5436,
      "Ġnearly": 5437,
      "Ġequip": 5438,
      "Ġsuggesting": 5439,
      "Ġfacility": 5440,
      "Ġsaying": 5441,
      "Ġrelationships": 5442,
      "Ġinvestigated": 5443,
      "Ġcollabor": 5444,
      "Ġorganizations": 5445,
      "Ġinjection": 5446,
      "Ġinflammation": 5447,
      "Ġlaboratory": 5448,
      "Ġnanoparticles": 5449,
      "Ġjesus": 5450,
      "ael": 5451,
      "fir": 5452,
      "ki": 5453,
      "ky": 5454,
      "rid": 5455,
      "Ġpil": 5456,
      "alm": 5457,
      "Ġbots": 5458,
      "Ġtold": 5459,
      "Ġhour": 5460,
      "entions": 5461,
      "idop": 5462,
      "rays": 5463,
      "Ġrating": 5464,
      "Ġrise": 5465,
      "tex": 5466,
      "Ġplaced": 5467,
      "Ġgenomic": 5468,
      "ostructures": 5469,
      "Ġabund": 5470,
      "Ġscen": 5471,
      "Ġpartial": 5472,
      "Ġwilling": 5473,
      "Ġ64": 5474,
      "roll": 5475,
      "Ġparticle": 5476,
      "Ġcopies": 5477,
      "Ġterminal": 5478,
      "Ġtechnique": 5479,
      "Ġprofile": 5480,
      "Ġparental": 5481,
      "blast": 5482,
      "Ġbritain": 5483,
      "Ġdraft": 5484,
      "Ġcategories": 5485,
      "Ġrestriction": 5486,
      "Ġmagnetic": 5487,
      "Ġepitope": 5488,
      "Ġoxidative": 5489,
      "Ġpolymorphisms": 5490,
      "Ġcompletely": 5491,
      "Ġsafety": 5492,
      "Ġpacific": 5493,
      "Ġjurisdict": 5494,
      "ioxid": 5495,
      "gments": 5496,
      "pres": 5497,
      "Ġ%": 5498,
      "Ġice": 5499,
      "Ġtet": 5500,
      "Ġaware": 5501,
      "Ġspl": 5502,
      "Ġtherapeut": 5503,
      "Ġcoding": 5504,
      "isa": 5505,
      "Ġwife": 5506,
      "Ġbone": 5507,
      "Ġmnus": 5508,
      "Ġtoward": 5509,
      "Ġhund": 5510,
      "Ġnodes": 5511,
      "Ġgem": 5512,
      "Ġthick": 5513,
      "omb": 5514,
      "ado": 5515,
      "Ġadop": 5516,
      "akes": 5517,
      "Ġcontained": 5518,
      "Ġ49": 5519,
      "Ġregulation": 5520,
      "Ġinterface": 5521,
      "Ġmarines": 5522,
      "cluding": 5523,
      "Ġemail": 5524,
      "Ġcarcin": 5525,
      "Ġjoined": 5526,
      "Ġdetect": 5527,
      "orning": 5528,
      "Ġbridge": 5529,
      "Ġliqu": 5530,
      "Ġcalc": 5531,
      "brane": 5532,
      "previous": 5533,
      "Ġprogramm": 5534,
      "Ġeveryone": 5535,
      "403": 5536,
      "Ġparticipated": 5537,
      "Ġlogged": 5538,
      "Ġequal": 5539,
      "Ġsensitivity": 5540,
      "while": 5541,
      "Ġmalign": 5542,
      "Ġbattle": 5543,
      "Ġmotif": 5544,
      "Ġideas": 5545,
      "Ġabsol": 5546,
      "Ġborder": 5547,
      "Ġreplaced": 5548,
      "Ġreligious": 5549,
      "Ġgastro": 5550,
      "Ġsecretary": 5551,
      "Ġimplementation": 5552,
      "Ġallele": 5553,
      "Ġcongress": 5554,
      "Ġensure": 5555,
      "Ġexercise": 5556,
      "Ġnephrect": 5557,
      "automatically": 5558,
      "dest": 5559,
      "ho": 5560,
      "top": 5561,
      "zz": 5562,
      "Ġtheat": 5563,
      "Ġok": 5564,
      "anced": 5565,
      "Ġfully": 5566,
      "Ġmig": 5567,
      "Ġinput": 5568,
      "inger": 5569,
      "Ġluc": 5570,
      "Ġgut": 5571,
      "iglitazone": 5572,
      "ima": 5573,
      "Ġasia": 5574,
      "Ġjer": 5575,
      "ubuntu": 5576,
      "Ġchronic": 5577,
      "Ġexcell": 5578,
      "thew": 5579,
      "Ġclosed": 5580,
      "Ġprepar": 5581,
      "Ġotherwise": 5582,
      "Ġbios": 5583,
      "Ġdifferentiation": 5584,
      "Ġsmith": 5585,
      "Ġcorre": 5586,
      "Ġsystematic": 5587,
      "Ġremain": 5588,
      "Ġfreed": 5589,
      "Ġelegans": 5590,
      "Ġmoving": 5591,
      "ancy": 5592,
      "Ġcharacterized": 5593,
      "Ġrepresented": 5594,
      "Ġfacilit": 5595,
      "Ġportug": 5596,
      "Ġchoi": 5597,
      "ĊÂłĠÂł": 5598,
      "Ġencoura": 5599,
      "Ġdavid": 5600,
      "Ġregistered": 5601,
      "Ġconservation": 5602,
      "formatics": 5603,
      "ochond": 5604,
      "Ġbifurc": 5605,
      "creat": 5606,
      "flow": 5607,
      "nat": 5608,
      "py": 5609,
      "path": 5610,
      "rition": 5611,
      "su": 5612,
      "Â©": 5613,
      "Ġshen": 5614,
      "Ġpurch": 5615,
      "Ġpcr": 5616,
      "Ġbul": 5617,
      "Ġtourn": 5618,
      "Ġlov": 5619,
      "Ġrect": 5620,
      "Ġgi": 5621,
      "ila": 5622,
      "raq": 5623,
      "unk": 5624,
      "estic": 5625,
      "vert": 5626,
      "Ġpreced": 5627,
      "Ġampl": 5628,
      "Ġcoe": 5629,
      "Ġthanks": 5630,
      "Ġopin": 5631,
      "Ġhyper": 5632,
      "Ġauto": 5633,
      "Ġremains": 5634,
      "Ġserious": 5635,
      "ski": 5636,
      "ynthe": 5637,
      "Ġdidn": 5638,
      "cules": 5639,
      "Ġtowns": 5640,
      "Ġbattal": 5641,
      "Ġprediction": 5642,
      "otypes": 5643,
      "Ġprofessor": 5644,
      "Ġvisitors": 5645,
      "Ġtumors": 5646,
      "Ġresidues": 5647,
      "Ġbenefit": 5648,
      "Ġmobile": 5649,
      "Ġfailure": 5650,
      "Ġlipegfilgrastim": 5651,
      "Ġcardiovascular": 5652,
      "'d": 5653,
      "fold": 5654,
      "gers": 5655,
      "high": 5656,
      "pet": 5657,
      "ĠA": 5658,
      "Ġhf": 5659,
      "Ġho": 5660,
      "oming": 5661,
      "stat": 5662,
      "Ġislam": 5663,
      "Ġonc": 5664,
      "Ġvar": 5665,
      "oplast": 5666,
      "Ġyes": 5667,
      "Ġcomment": 5668,
      "Ġenjoy": 5669,
      "Ġgenotype": 5670,
      "Ġresolution": 5671,
      "Ġiraq": 5672,
      "Ġschem": 5673,
      "Ġappoint": 5674,
      "Ġ67": 5675,
      "Ġreli": 5676,
      "Ġsignals": 5677,
      "Ġthank": 5678,
      "Ġempire": 5679,
      "Ġsett": 5680,
      "Ġexamples": 5681,
      "Ġkept": 5682,
      "Ġload": 5683,
      "Ġgraft": 5684,
      "Ġ1988": 5685,
      "Ġ1989": 5686,
      "Ġaffairs": 5687,
      "ĠÎ´": 5688,
      "Ġlocalization": 5689,
      "Ġoperation": 5690,
      "Ġinterval": 5691,
      "Ġwoman": 5692,
      "Ġmanager": 5693,
      "Ġdiscussed": 5694,
      "biomed": 5695,
      "Ġillust": 5696,
      "Ġnanostructures": 5697,
      "Ġcomputational": 5698,
      "Ġeconomy": 5699,
      "âĪĴ/âĪĴ": 5700,
      "Ġindexes": 5701,
      "Ġprotocol": 5702,
      "Ġrule": 5703,
      "Ġdigital": 5704,
      "Ġindustry": 5705,
      "Ġpharmac": 5706,
      "Ġaccumulation": 5707,
      "Ġheterogene": 5708,
      "Ġmitochond": 5709,
      "Ġhousing": 5710,
      "district": 5711,
      "Ġresearchers": 5712,
      "category": 5713,
      "Ġcelebr": 5714,
      "idopsis": 5715,
      "Ġbattalion": 5716,
      "bet": 5717,
      "del": 5718,
      "hd": 5719,
      "sch": 5720,
      "was": 5721,
      "erate": 5722,
      "Ġcad": 5723,
      "Ġcod": 5724,
      "Ġpin": 5725,
      "Ġwu": 5726,
      "Ġmorning": 5727,
      "Ġdive": 5728,
      "Ġnc": 5729,
      "ston": 5730,
      "etyl": 5731,
      "Ġforms": 5732,
      "Ġhero": 5733,
      "Ġkit": 5734,
      "Ġperceived": 5735,
      "Ġpreferences": 5736,
      "cons": 5737,
      "Ġrecruit": 5738,
      "Ġresulted": 5739,
      "Ġextrem": 5740,
      "Ġantioxid": 5741,
      "Ġpublication": 5742,
      "Ġswim": 5743,
      "Ġfilters": 5744,
      "Ġcombination": 5745,
      "Ġdescribe": 5746,
      "Ġcompetition": 5747,
      "Ġalgorithms": 5748,
      "Ġoccurred": 5749,
      "Ġdecreased": 5750,
      "Ġcontinued": 5751,
      "Ġbayesian": 5752,
      "Ġneighborhood": 5753,
      "Ġguidelines": 5754,
      "Ġltd": 5755,
      "Ġmetabolism": 5756,
      "Ġbioinformatics": 5757,
      "biomedcentral": 5758,
      "300": 5759,
      "]).": 5760,
      "eat": 5761,
      "greek": 5762,
      "ko": 5763,
      "length": 5764,
      "Ġsb": 5765,
      "Ġsar": 5766,
      "Ġcart": 5767,
      "Ġpick": 5768,
      "Ġhun": 5769,
      "ivated": 5770,
      "adan": 5771,
      "Ġalaska": 5772,
      "uments": 5773,
      "Ġshared": 5774,
      "Ġclim": 5775,
      "Ġdisp": 5776,
      "weight": 5777,
      "Ġprem": 5778,
      "Ġpeg": 5779,
      "Ġtransform": 5780,
      "Ġmetal": 5781,
      "Ġcool": 5782,
      "Ġbecomes": 5783,
      "Ġtrade": 5784,
      "Ġhighway": 5785,
      "shire": 5786,
      "relia": 5787,
      "Ġapproaches": 5788,
      "Ġoldest": 5789,
      "Ġoperating": 5790,
      "Ġcatalog": 5791,
      "Ġindicating": 5792,
      "feed": 5793,
      "iately": 5794,
      "Ġdepending": 5795,
      "Ġdestroy": 5796,
      "Ġcommander": 5797,
      "Ġresidents": 5798,
      "Ġhapl": 5799,
      "Ġhonor": 5800,
      "Ġprocedure": 5801,
      "Ġfavor": 5802,
      "Ġspoken": 5803,
      "Ġimmediately": 5804,
      "Ġsperm": 5805,
      "Ġmoment": 5806,
      "112": 5807,
      "kb": 5808,
      "sd": 5809,
      "size": 5810,
      "wa": 5811,
      "wer": 5812,
      "Ġswe": 5813,
      "Ġsense": 5814,
      "Ġfit": 5815,
      "Ġdich": 5816,
      "asion": 5817,
      "Ġhg": 5818,
      "Ġnam": 5819,
      "Ġnice": 5820,
      "Ġecl": 5821,
      "Ġthreshold": 5822,
      "Ġstations": 5823,
      "Ġconc": 5824,
      "Ġatlant": 5825,
      "arters": 5826,
      "Ġenem": 5827,
      "Ġwerelate": 5828,
      "Ġintr": 5829,
      "conclusions": 5830,
      "Ġdistingu": 5831,
      "Ġactual": 5832,
      "Ġedited": 5833,
      "Ġattract": 5834,
      "Ġcreation": 5835,
      "Ġfrogs": 5836,
      "osphere": 5837,
      "Ġsynov": 5838,
      "Ġglass": 5839,
      "Ġdevices": 5840,
      "Ġcombat": 5841,
      "Ġfocused": 5842,
      "news": 5843,
      "keywords": 5844,
      "Ġprogression": 5845,
      "Ġtissues": 5846,
      "Ġproperty": 5847,
      "Ġconnected": 5848,
      "Ġdiagnosis": 5849,
      "Ġrosiglitazone": 5850,
      "Ġwrite": 5851,
      "Ġhypothesis": 5852,
      "Ġdemocratic": 5853,
      "Ġskills": 5854,
      "Ġscotland": 5855,
      ">,": 5856,
      "gene": 5857,
      "ooth": 5858,
      "post": 5859,
      "ufact": 5860,
      "ĠF": 5861,
      "ĠP": 5862,
      "onic": 5863,
      "itud": 5864,
      "Ġbc": 5865,
      "Ġmix": 5866,
      "Ġmaster": 5867,
      "level": 5868,
      "station": 5869,
      "struct": 5870,
      "strap": 5871,
      "change": 5872,
      "Ġvoc": 5873,
      "umatic": 5874,
      "Ġhel": 5875,
      "Ġka": 5876,
      "Ġoral": 5877,
      "they": 5878,
      "Ġplate": 5879,
      "oke": 5880,
      "109": 5881,
      "prof": 5882,
      "Ġtranspos": 5883,
      "rupt": 5884,
      "Ġcoff": 5885,
      "Ġschiz": 5886,
      "Ġ10403": 5887,
      "Ġedition": 5888,
      "Ġcarry": 5889,
      "Ġrevolution": 5890,
      "Ġnorm": 5891,
      "Ġhealthcare": 5892,
      "going": 5893,
      "Ġremember": 5894,
      "Ġearlier": 5895,
      "2010": 5896,
      "Ġstructures": 5897,
      "iatric": 5898,
      "Ġfarms": 5899,
      "Ġdeaths": 5900,
      "Ġtaxon": 5901,
      "Ġbalance": 5902,
      "Ġramadan": 5903,
      "Ġinhibition": 5904,
      "Ġrecognized": 5905,
      "Ġdatasets": 5906,
      "Ġvaccine": 5907,
      "Ġarabidopsis": 5908,
      "Ġconsequences": 5909,
      "Ġbiotechnology": 5910,
      "Ġagricultural": 5911,
      "oideus": 5912,
      "Ġmexico": 5913,
      "Ġnephrectomy": 5914,
      "Ġbifurcation": 5915,
      "ao": 5916,
      "aud": 5917,
      "bury": 5918,
      "rc": 5919,
      "Ġtai": 5920,
      "Ġsod": 5921,
      "enue": 5922,
      "Ġpul": 5923,
      "oration": 5924,
      "itect": 5925,
      "aling": 5926,
      "Ġbrought": 5927,
      "Ġmath": 5928,
      "Ġdying": 5929,
      "Ġhus": 5930,
      "Ġncr": 5931,
      "Ġlou": 5932,
      "Ġ(),": 5933,
      "Ġstore": 5934,
      "Ġvary": 5935,
      "Ġveter": 5936,
      "racy": 5937,
      "Ġasian": 5938,
      "uber": 5939,
      "Ġseat": 5940,
      "Ġathe": 5941,
      "then": 5942,
      "ellig": 5943,
      "Ġadverse": 5944,
      "Ġenhan": 5945,
      "ousand": 5946,
      "Ġquotation": 5947,
      "Ġassistance": 5948,
      "Ġcheap": 5949,
      "Ġbrig": 5950,
      "Ġremove": 5951,
      "Ġremained": 5952,
      "Ġextent": 5953,
      "Ġserum": 5954,
      "Ġmovies": 5955,
      "Ġpossess": 5956,
      "Ġpossibly": 5957,
      "Ġprimarily": 5958,
      "Ġobservations": 5959,
      "Ġpowerful": 5960,
      "borne": 5961,
      "Ġstandardized": 5962,
      "Ġstrongly": 5963,
      "Ġsurviv": 5964,
      "Ġpolicies": 5965,
      "Ġreturned": 5966,
      "Ġresponses": 5967,
      "Ġboxes": 5968,
      "Ġreserve": 5969,
      "Ġmessage": 5970,
      "Ġessential": 5971,
      "Ġagreement": 5972,
      "Ġadolescents": 5973,
      "Ġdegradation": 5974,
      "destination": 5975,
      "brow": 5976,
      "during": 5977,
      "fr": 5978,
      "faces": 5979,
      "gp": 5980,
      "habit": 5981,
      "win": 5982,
      "zip": 5983,
      "Ġtong": 5984,
      "Ġaud": 5985,
      "Ġcort": 5986,
      "Ġfle": 5987,
      "Ġfert": 5988,
      "Ġms": 5989,
      "Ġdol": 5990,
      "Ġreact": 5991,
      "Ġthousand": 5992,
      "eld": 5993,
      "Ġstad": 5994,
      "Ġstone": 5995,
      "âĢ¦": 5996,
      "oplas": 5997,
      "umb": 5998,
      "Ġhence": 5999,
      "Ġchance": 6000,
      "acial": 6001,
      "Ġimplications": 6002,
      "Ġtrig": 6003,
      "Ġmanufact": 6004,
      "Ġtranscribed": 6005,
      "Ġmodifications": 6006,
      "Ġtwice": 6007,
      "Ġconsum": 6008,
      "Ġdifferential": 6009,
      "Ġblocks": 6010,
      "Ġhybrid": 6011,
      "bec": 6012,
      "Ġbars": 6013,
      "Ġ1974": 6014,
      "Ġconstruction": 6015,
      "Ġeverything": 6016,
      "2009": 6017,
      "inux": 6018,
      "Ġgluc": 6019,
      "Ġoption": 6020,
      "Ġlogistic": 6021,
      "Ġsufficient": 6022,
      "Ġpractices": 6023,
      "Ġsynthesized": 6024,
      "Ġdemonstrate": 6025,
      "Ġapparent": 6026,
      "Ġramsey": 6027,
      "rological": 6028,
      "Ġdaugh": 6029,
      "Ġrussian": 6030,
      "Ġhistoric": 6031,
      "Ġdynamic": 6032,
      "Ġsenate": 6033,
      "Ġhopf": 6034,
      "Ġbacterial": 6035,
      "large": 6036,
      "Ġpsychiatry": 6037,
      "record": 6038,
      "Ġproportion": 6039,
      "Ġelderly": 6040,
      "Ġaspects": 6041,
      "Ġsoviet": 6042,
      "Ġadopted": 6043,
      "chers": 6044,
      "ja": 6045,
      "ny": 6046,
      "xy": 6047,
      "Ġtick": 6048,
      "inf": 6049,
      "infl": 6050,
      "Ġsac": 6051,
      "Ġoste": 6052,
      "isons": 6053,
      "alk": 6054,
      "Ġbag": 6055,
      "Ġfly": 6056,
      "Ġly": 6057,
      "Ġlin": 6058,
      "Ġ101": 6059,
      "Ġ1000": 6060,
      "Ġstock": 6061,
      "Ġjm": 6062,
      "Ġkos": 6063,
      "Ġdebut": 6064,
      "accept": 6065,
      "Ġadhes": 6066,
      "acters": 6067,
      "Ġreco": 6068,
      "acknow": 6069,
      "Ġoutput": 6070,
      "Ġ62": 6071,
      "Ġtransl": 6072,
      "Ġbias": 6073,
      "Ġ72": 6074,
      "Ġhighlight": 6075,
      "Ġexpand": 6076,
      "although": 6077,
      "Ġelectro": 6078,
      "Ġmatrix": 6079,
      "Ġelev": 6080,
      "Ġtempl": 6081,
      "ĠÂ±": 6082,
      "Ġannotation": 6083,
      "Ġtechnical": 6084,
      "Ġsynth": 6085,
      "Ġcontributed": 6086,
      "Ġclassification": 6087,
      "Ġfriendship": 6088,
      "Ġdocents": 6089,
      "ethyl": 6090,
      "Ġcamb": 6091,
      "Ġsteps": 6092,
      "Ġarchitect": 6093,
      "Ġimmunol": 6094,
      "Ġconservative": 6095,
      "Ġzebra": 6096,
      "Ġlayer": 6097,
      "Ġexactly": 6098,
      "Ġbootstrap": 6099,
      "Ġchallenges": 6100,
      "Ġpfam": 6101,
      "iazep": 6102,
      "Ġappropriate": 6103,
      "Ġsustain": 6104,
      "arabic": 6105,
      "Ġfreedom": 6106,
      "acknowled": 6107,
      "dif": 6108,
      "ser": 6109,
      "sar": 6110,
      "Ġsell": 6111,
      "Ġsend": 6112,
      "ena": 6113,
      "Ġpm": 6114,
      "organ": 6115,
      "Ġburn": 6116,
      "Ġfine": 6117,
      "Ġmph": 6118,
      "Ġmapping": 6119,
      "ented": 6120,
      "stone": 6121,
      "etics": 6122,
      "amine": 6123,
      "ching": 6124,
      "Ġyu": 6125,
      "Ġhen": 6126,
      "Ġunless": 6127,
      "Ġshar": 6128,
      "apar": 6129,
      "Ġphon": 6130,
      "Ġdiff": 6131,
      "Ġcollo": 6132,
      "Ġpolar": 6133,
      "Ġsigned": 6134,
      "Ġconsult": 6135,
      "Ġpositions": 6136,
      "Ġsetting": 6137,
      "Ġinstance": 6138,
      "Ġidentity": 6139,
      "Ġretired": 6140,
      "scale": 6141,
      "control": 6142,
      "2011": 6143,
      "Ġsummar": 6144,
      "Ġexplan": 6145,
      "Ġcrime": 6146,
      "Ġlaun": 6147,
      "Ġhands": 6148,
      "Ġpassed": 6149,
      "Ġchoose": 6150,
      "Ġthinking": 6151,
      "Ġbelieved": 6152,
      "Ġefficiency": 6153,
      "Ġinvestigate": 6154,
      "Ġturkey": 6155,
      "Ġconcerns": 6156,
      "Ġkorea": 6157,
      "Ġrheumatoid": 6158,
      "first": 6159,
      "browse": 6160,
      "Ġrecovery": 6161,
      "Ġzebrafish": 6162,
      "gian": 6163,
      "group": 6164,
      "nel": 6165,
      "tim": 6166,
      "ystem": 6167,
      "Ġtv": 6168,
      "Ġsleep": 6169,
      "Ġpu": 6170,
      "eda": 6171,
      "Ġbon": 6172,
      "Ġbow": 6173,
      "Ġfear": 6174,
      "Ġmt": 6175,
      "Ġdry": 6176,
      "icks": 6177,
      "Ġharm": 6178,
      "etric": 6179,
      "ivir": 6180,
      "ulum": 6181,
      "Ġrug": 6182,
      "Ġprobe": 6183,
      "Ġsections": 6184,
      "Ġsearc": 6185,
      "unte": 6186,
      "resolution": 6187,
      "riers": 6188,
      "Ġadductor": 6189,
      "Ġtruth": 6190,
      "enses": 6191,
      "conomic": 6192,
      "Ġamb": 6193,
      "Ġphone": 6194,
      "Ġassumption": 6195,
      "Ġmetrop": 6196,
      "Ġmarg": 6197,
      "Ġhelped": 6198,
      "125": 6199,
      "Ġ2023": 6200,
      "Ġexposed": 6201,
      "ovecraft": 6202,
      "Ġbookmark": 6203,
      "Ġfranc": 6204,
      "Ġsummit": 6205,
      "Ġslight": 6206,
      "Ġevaluate": 6207,
      "Ġbattery": 6208,
      "Ġmotor": 6209,
      "Ġlearned": 6210,
      "Ġphoto": 6211,
      "years": 6212,
      "Ġseparated": 6213,
      "Ġquantum": 6214,
      "Ġupdated": 6215,
      "Ġdatabases": 6216,
      "Ġaims": 6217,
      "Ġangel": 6218,
      "Ġultr": 6219,
      "Ġoccupational": 6220,
      "Ġcolumn": 6221,
      "Ġmaintain": 6222,
      "Ġcitizens": 6223,
      "Ġvehicle": 6224,
      "conotoxins": 6225,
      "Ġtropical": 6226,
      "Ġexecutive": 6227,
      "olitan": 6228,
      "clerosis": 6229,
      "Ġtheatre": 6230,
      "Ġtournament": 6231,
      "db": 6232,
      "iar": 6233,
      "pg": 6234,
      "pap": 6235,
      "sur": 6236,
      "ypt": 6237,
      "zod": 6238,
      "ret": 6239,
      "Ġsund": 6240,
      "Ġtheft": 6241,
      "orous": 6242,
      "Ġbp": 6243,
      "Ġball": 6244,
      "Ġbib": 6245,
      "Ġded": 6246,
      "Ġduration": 6247,
      "Ġlouse": 6248,
      "iling": 6249,
      "ams": 6250,
      "urance": 6251,
      "Ġjc": 6252,
      "Ġcontrib": 6253,
      "Ġcontribution": 6254,
      "ards": 6255,
      "Ġache": 6256,
      "ported": 6257,
      "Ġ56": 6258,
      "derived": 6259,
      "soft": 6260,
      "Ġnoise": 6261,
      "prover": 6262,
      "Ġeffectiveness": 6263,
      "Ġshear": 6264,
      "Ġstatement": 6265,
      "Ġexpert": 6266,
      "anned": 6267,
      "ĠÎ±": 6268,
      "Ġfilter": 6269,
      "Ġvirt": 6270,
      "Ġdomains": 6271,
      "print": 6272,
      "Ġstationary": 6273,
      "Ġlegal": 6274,
      "Ġillness": 6275,
      "Ġpsychological": 6276,
      "Ġdependence": 6277,
      "Ġharvest": 6278,
      "Ġpalm": 6279,
      "Ġplanning": 6280,
      "Ġjew": 6281,
      "know": 6282,
      "Ġscreen": 6283,
      "Ġregulatory": 6284,
      "Ġcrops": 6285,
      "Ġassigned": 6286,
      "Ġachieved": 6287,
      "elaide": 6288,
      "Ġsunscreens": 6289,
      "Ġpiece": 6290,
      "Ġletters": 6291,
      "Ġmathematical": 6292,
      "Ġbudget": 6293,
      "Ġstrength": 6294,
      "ĠLovecraft": 6295,
      "Ġstadium": 6296,
      "zodiazep": 6297,
      "*,": 6298,
      "='": 6299,
      "[[": 6300,
      "ded": 6301,
      "fc": 6302,
      "link": 6303,
      "mice": 6304,
      "pin": 6305,
      "ses": 6306,
      "wet": 6307,
      "×Ļ": 6308,
      "ĠÃĹ": 6309,
      "Ġtend": 6310,
      "Ġtask": 6311,
      "Ġsi": 6312,
      "ato": 6313,
      "Ġbart": 6314,
      "Ġnit": 6315,
      "stable": 6316,
      "amb": 6317,
      "uly": 6318,
      "Ġstorm": 6319,
      "Ġjd": 6320,
      "oses": 6321,
      "Ġchim": 6322,
      "ocard": 6323,
      "Ġshad": 6324,
      "Ġshoot": 6325,
      "Ġshape": 6326,
      "Ġcontract": 6327,
      "endo": 6328,
      "Ġagt": 6329,
      "Ġtransf": 6330,
      "Ġanalyt": 6331,
      "Ġcold": 6332,
      "Ġtrains": 6333,
      "Ġrelation": 6334,
      "coming": 6335,
      "inson": 6336,
      "many": 6337,
      "Ġcharacters": 6338,
      "Ġentered": 6339,
      "Ġvolunte": 6340,
      "Ġretelling": 6341,
      "iii": 6342,
      "Ġ1972": 6343,
      "ÂłÂłÂłÂłÂłÂł": 6344,
      "Ġtopic": 6345,
      "Ġheadqu": 6346,
      "who": 6347,
      "Ġmenu": 6348,
      "Ġdependent": 6349,
      "Ġcambridge": 6350,
      "Ġartific": 6351,
      "Ġcounter": 6352,
      "doi": 6353,
      "Ġsubstitution": 6354,
      "Ġolig": 6355,
      "matthew": 6356,
      "Ġsexual": 6357,
      "Ġmixt": 6358,
      "Ġcastle": 6359,
      "ovirus": 6360,
      "legend": 6361,
      "Ġleukocyte": 6362,
      "Ġnarrow": 6363,
      "Ġhusband": 6364,
      "110": 6365,
      "IX": 6366,
      "ME": 6367,
      "hs": 6368,
      "hal": 6369,
      "ien": 6370,
      "iot": 6371,
      "ji": 6372,
      "vent": 6373,
      "rehens": 6374,
      "Ġsul": 6375,
      "Ġcath": 6376,
      "Ġpbs": 6377,
      "Ġwave": 6378,
      "Ġbol": 6379,
      "Ġbond": 6380,
      "Ġinduced": 6381,
      "Ġdil": 6382,
      "Ġdun": 6383,
      "Ġhuge": 6384,
      "Ġny": 6385,
      "Ġnad": 6386,
      "Ġnerv": 6387,
      "Ġnick": 6388,
      "Ġnull": 6389,
      "Ġlanc": 6390,
      "Ġgn": 6391,
      "Ġthr": 6392,
      "Ġstability": 6393,
      "Ġjl": 6394,
      "Ġjama": 6395,
      "odies": 6396,
      "artment": 6397,
      "ighte": 6398,
      "Ġlew": 6399,
      "Ġarray": 6400,
      "Ġ58": 6401,
      "Ġscott": 6402,
      "Ġclar": 6403,
      "okine": 6404,
      "Ġdiffer": 6405,
      "Ġadding": 6406,
      "Ġcooper": 6407,
      "Ġsubt": 6408,
      "Ġmedal": 6409,
      "Ġknock": 6410,
      "Ġcarbon": 6411,
      "Ġcharles": 6412,
      "Ġtheme": 6413,
      "Ġplayers": 6414,
      "Ġbrand": 6415,
      "Ġxml": 6416,
      "Ġextended": 6417,
      "Ġsinger": 6418,
      "Ġinsert": 6419,
      "Ġ1984": 6420,
      "Ġdiscovered": 6421,
      "Ġexplore": 6422,
      "ifying": 6423,
      "blog": 6424,
      "Ġmolecules": 6425,
      "Ġscreening": 6426,
      "Ġheaven": 6427,
      "Ġinnov": 6428,
      "disc": 6429,
      "watchers": 6430,
      "Ġhuang": 6431,
      "Ġdentistry": 6432,
      "Ġwilliams": 6433,
      "Ġadsorption": 6434,
      "Ġsunscreen": 6435,
      "Ġmonitoring": 6436,
      "Ġdutch": 6437,
      "Ġsubsequently": 6438,
      "Ġmammalian": 6439,
      "Ġadvantage": 6440,
      "ĠAdd": 6441,
      "Ġappointed": 6442,
      "ĠFIX": 6443,
      "Ġsurvivors": 6444,
      "Ġadhesion": 6445,
      "Ġcontribs": 6446,
      "ĠFIXME": 6447,
      "!!": 6448,
      "The": 6449,
      "elect": 6450,
      "gely": 6451,
      "haps": 6452,
      "uff": 6453,
      "inian": 6454,
      "Ġcrow": 6455,
      "Ġpair": 6456,
      "alt": 6457,
      "Ġfix": 6458,
      "Ġhier": 6459,
      "Ġnag": 6460,
      "Ġlas": 6461,
      "Ġgreek": 6462,
      "olk": 6463,
      "idae": 6464,
      "igan": 6465,
      "ules": 6466,
      "Ġstro": 6467,
      "images": 6468,
      "Ġconvers": 6469,
      "Ġju": 6470,
      "Ġcomfort": 6471,
      "Ġresol": 6472,
      "Ġcomprehens": 6473,
      "Ġarmen": 6474,
      "Ġroles": 6475,
      "igned": 6476,
      "Ġtrying": 6477,
      "Ġintake": 6478,
      "Ġintellig": 6479,
      "Ġdoctor": 6480,
      "Ġoutbre": 6481,
      "Ġ61": 6482,
      "Ġagency": 6483,
      "Ġbiom": 6484,
      "Ġ105": 6485,
      "Ġdistances": 6486,
      "Ġattend": 6487,
      "Ġembed": 6488,
      "Ġopg": 6489,
      "Ġlargely": 6490,
      "tty": 6491,
      "Ġentrance": 6492,
      "Ġretrie": 6493,
      "tenance": 6494,
      "Ġelections": 6495,
      "Ġmultivariate": 6496,
      "Ġ1987": 6497,
      "iiia": 6498,
      "porter": 6499,
      "Ġbuildings": 6500,
      "Ġsymb": 6501,
      "Ġnegot": 6502,
      "Ġpersons": 6503,
      "Ġreplace": 6504,
      "Ġrecognition": 6505,
      "sharealike": 6506,
      "Ġduplicated": 6507,
      "ocytes": 6508,
      "Ġintroduced": 6509,
      "Ġassignment": 6510,
      "Ġstreams": 6511,
      "Ġneutrop": 6512,
      "Ġminimum": 6513,
      "Ġsession": 6514,
      "Ġlimitations": 6515,
      "html": 6516,
      "Ġdirection": 6517,
      "original": 6518,
      "Ġglucose": 6519,
      "wetware": 6520,
      "##": 6521,
      "%.": 6522,
      "cor": 6523,
      "dl": 6524,
      "dy": 6525,
      "friend": 6526,
      "hm": 6527,
      "iber": 6528,
      "pol": 6529,
      "rant": 6530,
      "south": 6531,
      "water": 6532,
      "Ġion": 6533,
      "Ġ01": 6534,
      "Ġtel": 6535,
      "Ġtips": 6536,
      "Ġaure": 6537,
      "Ġwis": 6538,
      "Ġbed": 6539,
      "Ġfc": 6540,
      "Ġdys": 6541,
      "Ġlone": 6542,
      "ctic": 6543,
      "iled": 6544,
      "Ġ(#": 6545,
      "Ġforaging": 6546,
      "Ġvess": 6547,
      "adi": 6548,
      "adone": 6549,
      "ifting": 6550,
      "iform": 6551,
      "Ġalder": 6552,
      "Ġride": 6553,
      "Ġji": 6554,
      "Ġjac": 6555,
      "Ġyellow": 6556,
      "osa": 6557,
      "acl": 6558,
      "ipse": 6559,
      "aph": 6560,
      "class": 6561,
      "Ġparties": 6562,
      "Ġteac": 6563,
      "Ġagg": 6564,
      "....": 6565,
      "Ġ87": 6566,
      "Ġsuperg": 6567,
      "Ġ2024": 6568,
      "Ġmont": 6569,
      "Ġfungi": 6570,
      "Ġcomplement": 6571,
      "Ġmaintenance": 6572,
      "Ġsupporting": 6573,
      "Ġchemotherapy": 6574,
      "Ġpaths": 6575,
      "Ġconstitution": 6576,
      "virin": 6577,
      "Ġbuses": 6578,
      "Ġnearby": 6579,
      "Ġinvestigation": 6580,
      "Ġfacult": 6581,
      "Ġsolutions": 6582,
      "Ġpredicted": 6583,
      "Ġcycles": 6584,
      "Ġiniti": 6585,
      "Ġabsence": 6586,
      "Ġarchives": 6587,
      "Ġfeedback": 6588,
      "Ġfemales": 6589,
      "Ġpanel": 6590,
      "Ġreligion": 6591,
      "Ġcandidates": 6592,
      "Ġintroduction": 6593,
      "Ã³n": 6594,
      "Ġgarden": 6595,
      "Ġmachine": 6596,
      "Ġquickly": 6597,
      "Ġvictoria": 6598,
      "Ġconnection": 6599,
      "Ġannotated": 6600,
      "Ġliquid": 6601,
      "Ġabsolute": 6602,
      "Ġrecruitment": 6603,
      "Ġschizoph": 6604,
      "Ġatheros": 6605,
      "accepted": 6606,
      "Ġlaunched": 6607,
      "Ġcomprehensive": 6608,
      "216": 6609,
      "cence": 6610,
      "dated": 6611,
      "dney": 6612,
      "gg": 6613,
      "iples": 6614,
      "mr": 6615,
      "sds": 6616,
      "tz": 6617,
      "Ġ~": 6618,
      "Ġak": 6619,
      "reme": 6620,
      "oned": 6621,
      "Ġsel": 6622,
      "Ġsort": 6623,
      "edy": 6624,
      "Ġbab": 6625,
      "Ġdim": 6626,
      "Ġdog": 6627,
      "stud": 6628,
      "Ġstoring": 6629,
      "Ġforum": 6630,
      "utc": 6631,
      "uted": 6632,
      "open": 6633,
      "Ġhem": 6634,
      "osc": 6635,
      "ava": 6636,
      "illing": 6637,
      "Ġshine": 6638,
      "Ġgenomics": 6639,
      "Ġsche": 6640,
      "Ġimaging": 6641,
      "Ġdisorders": 6642,
      "107": 6643,
      "Ġtransanal": 6644,
      "Ġzero": 6645,
      "Ġtrail": 6646,
      "123": 6647,
      "Ġemph": 6648,
      "Ġcorps": 6649,
      "Ġdrinks": 6650,
      "Ġdeveloper": 6651,
      "Ġmethadone": 6652,
      "uese": 6653,
      "Ġextensive": 6654,
      "Ġchemistry": 6655,
      "Ġparticipate": 6656,
      "Ġcultural": 6657,
      "Ġoriginally": 6658,
      "Ġfewer": 6659,
      "Ġcomparing": 6660,
      "Ġlicensee": 6661,
      "Ġauthority": 6662,
      "Ġdepends": 6663,
      "Ġmaps": 6664,
      "Ġtemperatures": 6665,
      "Ġintegration": 6666,
      "Ġegypt": 6667,
      "Ġparameter": 6668,
      "Ġstrain": 6669,
      "Ġcircum": 6670,
      "Ġmetabolic": 6671,
      "Ġdiscontinued": 6672,
      "Ġprecip": 6673,
      "Ġprocedures": 6674,
      "Ġpollination": 6675,
      "Ġantibody": 6676,
      "Ġsouthend": 6677,
      "Ġpicture": 6678,
      "treated": 6679,
      "Ġembry": 6680,
      "Ġâī¥": 6681,
      "Ġdiameter": 6682,
      "Ġtherapeutic": 6683,
      "Ġmalignant": 6684,
      "Ġpreparation": 6685,
      "Ġneutropenia": 6686,
      "Ġsupergroup": 6687,
      "eg": 6688,
      "ees": 6689,
      "hist": 6690,
      "log": 6691,
      "long": 6692,
      "oir": 6693,
      "pal": 6694,
      "tes": 6695,
      "tit": 6696,
      "ux": 6697,
      "via": 6698,
      "Ġign": 6699,
      "Ġath": 6700,
      "heim": 6701,
      "Ġske": 6702,
      "atal": 6703,
      "isse": 6704,
      "Ġdp": 6705,
      "astern": 6706,
      "Ġham": 6707,
      "Ġhav": 6708,
      "Ġreplic": 6709,
      "Ġvascular": 6710,
      "Ġalum": 6711,
      "Ġalert": 6712,
      "abetic": 6713,
      "abilities": 6714,
      "Ġheat": 6715,
      "eman": 6716,
      "unge": 6717,
      "Ġchair": 6718,
      "Ġdehyd": 6719,
      "Ġleaving": 6720,
      "ugs": 6721,
      "Ġscored": 6722,
      "Ġtrust": 6723,
      "wealth": 6724,
      "Ġmanchester": 6725,
      "aching": 6726,
      "Ġinteract": 6727,
      "Ġzns": 6728,
      "please": 6729,
      "Ġsigns": 6730,
      "Ġconsists": 6731,
      "Ġ92": 6732,
      "Ġempt": 6733,
      "Ġworldwide": 6734,
      "180": 6735,
      "Ġcauc": 6736,
      "Ġestimate": 6737,
      "Ġversioning": 6738,
      "Ġconfidence": 6739,
      "Ġclinic": 6740,
      "Ġcatch": 6741,
      "Ġreads": 6742,
      "Ġoptical": 6743,
      "ophys": 6744,
      "Ġeditor": 6745,
      "Ġphenolic": 6746,
      "rophy": 6747,
      "Ġplatforms": 6748,
      "Ġcovered": 6749,
      "Ġduplication": 6750,
      "Ġeukaryotes": 6751,
      "Ġfifa": 6752,
      "Ġpackage": 6753,
      "Ġhabitats": 6754,
      "Ġmartin": 6755,
      "Ġrapidly": 6756,
      "Ġsweden": 6757,
      "Ġsubstantial": 6758,
      "Ġbuffer": 6759,
      "Ġaccurate": 6760,
      "creative": 6761,
      "Ġextremely": 6762,
      "Ġeclipse": 6763,
      "Ġenemy": 6764,
      "Ġmetropolitan": 6765,
      "Ġhierarch": 6766,
      "Ġaureus": 6767,
      "bral": 6768,
      "body": 6769,
      "cas": 6770,
      "code": 6771,
      "ections": 6772,
      "gn": 6773,
      "just": 6774,
      "sim": 6775,
      "spr": 6776,
      "xi": 6777,
      "inivir": 6778,
      "Ġsor": 6779,
      "Ġsail": 6780,
      "Ġori": 6781,
      "Ġpra": 6782,
      "itter": 6783,
      "Ġbreat": 6784,
      "Ġfu": 6785,
      "Ġfields": 6786,
      "Ġmab": 6787,
      "Ġindu": 6788,
      "Ġinhabit": 6789,
      "Ġanth": 6790,
      "Ġdl": 6791,
      "Ġdiction": 6792,
      "room": 6793,
      "Ġhung": 6794,
      "Ġnine": 6795,
      "Ġrecon": 6796,
      "Ġgal": 6797,
      "Ġviv": 6798,
      "ady": 6799,
      "Ġjack": 6800,
      "Ġheard": 6801,
      "Ġko": 6802,
      "Ġadequ": 6803,
      "Ġadelaide": 6804,
      "akh": 6805,
      "Ġweather": 6806,
      "fulness": 6807,
      "Ġapopt": 6808,
      "ressive": 6809,
      "Ġpretty": 6810,
      "project": 6811,
      "Ġraj": 6812,
      "need": 6813,
      "Ġattribut": 6814,
      "Ġcorn": 6815,
      "Ġwars": 6816,
      "Ġxu": 6817,
      "Ġdefic": 6818,
      "Ġmatches": 6819,
      "Ġmicror": 6820,
      "Ġherit": 6821,
      "added": 6822,
      "Ġorganized": 6823,
      "ĠÂ°": 6824,
      "ancing": 6825,
      "Ġ1982": 6826,
      "Ġ1983": 6827,
      "elfare": 6828,
      "Ġaccessible": 6829,
      "Ġ1973": 6830,
      "Ġfrequencies": 6831,
      "Ġobservation": 6832,
      "Ġcommonwealth": 6833,
      "Ġmembership": 6834,
      "Ġeasier": 6835,
      "Ġholy": 6836,
      "Ġeducational": 6837,
      "Ġinfluences": 6838,
      "Ġoxide": 6839,
      "cellular": 6840,
      "regulated": 6841,
      "Ġfeeding": 6842,
      "Ġappearance": 6843,
      "authors": 6844,
      "Ġborrelia": 6845,
      "Ġcoastal": 6846,
      "ĠâĨ": 6847,
      "Ġacademic": 6848,
      "zoa": 6849,
      "Ġfasting": 6850,
      "Ġjudge": 6851,
      "Ġsuccessfully": 6852,
      "Ġfifth": 6853,
      "Ġclosely": 6854,
      "Ġhabitat": 6855,
      "Ġanswer": 6856,
      "Ġtags": 6857,
      "wiki": 6858,
      "Ġopportunity": 6859,
      "Ġdefinition": 6860,
      "Ġmorphology": 6861,
      "Ġconflict": 6862,
      "Ġgeminivir": 6863,
      "Ġantioxidant": 6864,
      "Ġlouis": 6865,
      "ubercul": 6866,
      "Ġkosov": 6867,
      "Ġheadquarters": 6868,
      "bus": 6869,
      "fp": 6870,
      "gre": 6871,
      "non": 6872,
      "pack": 6873,
      "ua": 6874,
      "vd": 6875,
      "ygen": 6876,
      "zen": 6877,
      "ìĿ": 6878,
      "ĠĊ": 6879,
      "Ġ00": 6880,
      "onia": 6881,
      "Ġsave": 6882,
      "Ġwelfare": 6883,
      "esis": 6884,
      "Ġbes": 6885,
      "Ġinse": 6886,
      "Ġdates": 6887,
      "ication": 6888,
      "Ġtoler": 6889,
      "Ġlib": 6890,
      "Ġlane": 6891,
      "elle": 6892,
      "ola": 6893,
      "igm": 6894,
      "aminated": 6895,
      "Ġring": 6896,
      "abil": 6897,
      "Ġjber": 6898,
      "Ġsegment": 6899,
      "acol": 6900,
      "Ġ[[": 6901,
      "ipal": 6902,
      "izza": 6903,
      "mediated": 6904,
      "Ġarts": 6905,
      "Ġ400": 6906,
      "Ġperhaps": 6907,
      "Ġassist": 6908,
      "Ġ74": 6909,
      "look": 6910,
      "Ġtrav": 6911,
      "Ġ91": 6912,
      "Ġpreserv": 6913,
      "Ġcars": 6914,
      "Ġinfant": 6915,
      "Ġvariants": 6916,
      "Ġplaying": 6917,
      "Ġassociations": 6918,
      "Ġflat": 6919,
      "Ġcalls": 6920,
      "Ġremaining": 6921,
      "poses": 6922,
      "ymph": 6923,
      "Ġposterior": 6924,
      "Ġ1985": 6925,
      "Ġmembrane": 6926,
      "Ġratios": 6927,
      "Ġcontribute": 6928,
      "Ġsky": 6929,
      "Ġreducing": 6930,
      "Ġclasses": 6931,
      "Ġpotentially": 6932,
      "Ġowned": 6933,
      "Ġinterventions": 6934,
      "Ġdetermination": 6935,
      "Ġselective": 6936,
      "feeds": 6937,
      "Ġlabel": 6938,
      "Ġlooks": 6939,
      "Ġportion": 6940,
      "Ġcomparable": 6941,
      "Ġroads": 6942,
      "Ġsalt": 6943,
      "Ġsynthetic": 6944,
      "Ġlibraries": 6945,
      "Ġanalyze": 6946,
      "Ġbirds": 6947,
      "Ġnormalized": 6948,
      "commons": 6949,
      "article": 6950,
      "Ġbioeng": 6951,
      "Ġstraight": 6952,
      "Ġfragment": 6953,
      "Ġtransportation": 6954,
      "Ġparasite": 6955,
      "Ġinflammatory": 6956,
      "Ġmandib": 6957,
      "Ġagriculture": 6958,
      "Ġinhibitors": 6959,
      "Ġrepeated": 6960,
      "Ġsessions": 6961,
      "Ġneuros": 6962,
      "Ġepisodes": 6963,
      "Ġnominated": 6964,
      "Ġtypically": 6965,
      "Ġmichael": 6966,
      "Ġalphabetically": 6967,
      "Ġkilomet": 6968,
      "Ġlifest": 6969,
      "Ġcalculation": 6970,
      "Ġexcellent": 6971,
      "Ġpreceding": 6972,
      "Ġenhanced": 6973,
      "Ġfrancis": 6974,
      "Ġschizophren": 6975,
      "creativecommons": 6976,
      "Ġmicrorna": 6977,
      "];": 6978,
      "gall": 6979,
      "htt": 6980,
      "jd": 6981,
      "mand": 6982,
      "master": 6983,
      "pdf": 6984,
      "rument": 6985,
      "tical": 6986,
      "tage": 6987,
      "vos": 6988,
      "writ": 6989,
      "Â·": 6990,
      "Ġë": 6991,
      "Ġtam": 6992,
      "including": 6993,
      "rele": 6994,
      "requ": 6995,
      "Ġsum": 6996,
      "Ġsud": 6997,
      "Ġcra": 6998,
      "Ġcpl": 6999,
      "Ġpure": 7000,
      "Ġwww": 7001,
      "eding": 7002,
      "another": 7003,
      "Ġmine": 7004,
      "Ġinner": 7005,
      "Ġana": 7006,
      "Ġdial": 7007,
      "road": 7008,
      "Ġhs": 7009,
      "Ġlapar": 7010,
      "Ġrear": 7011,
      "Ġger": 7012,
      "ido": 7013,
      "iden": 7014,
      "Ġash": 7015,
      "Ġrivers": 7016,
      "Ġjones": 7017,
      "Ġheated": 7018,
      "Ġsec": 7019,
      "Ġexcluded": 7020,
      "Ġplans": 7021,
      "ĠĠĠĠ": 7022,
      "Ġscan": 7023,
      "Ġregister": 7024,
      "Ġregiment": 7025,
      "Ġtransporter": 7026,
      "Ġ79": 7027,
      "Ġtwenty": 7028,
      "Ġ82": 7029,
      "Ġ84": 7030,
      "Ġsupplement": 7031,
      "Ġoverl": 7032,
      "Ġcenters": 7033,
      "Ġsmooth": 7034,
      "Ġ150": 7035,
      "Ġinstrument": 7036,
      "Ġbranc": 7037,
      "Ġgets": 7038,
      "Ġphysiol": 7039,
      "Ġaircraft": 7040,
      "Ġopening": 7041,
      "Ġdiscrim": 7042,
      "Ġvisits": 7043,
      "aho": 7044,
      "Ġincome": 7045,
      "266": 7046,
      "Ġ1976": 7047,
      "Ġ1979": 7048,
      "Ġseverity": 7049,
      "Ġrepresenting": 7050,
      "Ġrepresentatives": 7051,
      "Ġinterested": 7052,
      "which": 7053,
      "Ġnewspap": 7054,
      "Ġpolitician": 7055,
      "Ġviet": 7056,
      "Ġsnp": 7057,
      "Ġdistricts": 7058,
      "Ġillum": 7059,
      "Ġdescribes": 7060,
      "Ġsales": 7061,
      "Ġcycl": 7062,
      "Ġobtain": 7063,
      "located": 7064,
      "rophil": 7065,
      "Ġhappened": 7066,
      "Ġestablish": 7067,
      "Ġlipid": 7068,
      "Ġkinds": 7069,
      "Ġsymptom": 7070,
      "Ġuva": 7071,
      "Ġplasmid": 7072,
      "Ġfluores": 7073,
      "Ġnucleot": 7074,
      "Ġpolymorphism": 7075,
      "Ġwatersheds": 7076,
      "Ġsyndrome": 7077,
      "ordinates": 7078,
      "Ġmimotopes": 7079,
      "Ġopposite": 7080,
      "Ġalexander": 7081,
      "Ġcarcinoma": 7082,
      "Ġveterans": 7083,
      "Ġtemplate": 7084,
      "ighteous": 7085,
      "discuss": 7086,
      "Ġfaculty": 7087,
      "'.": 7088,
      "bm": 7089,
      "bors": 7090,
      "cers": 7091,
      "cos": 7092,
      "chen": 7093,
      "ey": 7094,
      "gov": 7095,
      "nan": 7096,
      "inth": 7097,
      "reds": 7098,
      "Ġsulf": 7099,
      "Ġwit": 7100,
      "Ġbell": 7101,
      "Ġbak": 7102,
      "Ġbang": 7103,
      "Ġmouth": 7104,
      "arth": 7105,
      "Ġdw": 7106,
      "Ġdiverse": 7107,
      "rovers": 7108,
      "Ġht": 7109,
      "Ġlind": 7110,
      "Ġgib": 7111,
      "Ġvon": 7112,
      "Ġvision": 7113,
      "Ġasc": 7114,
      "thon": 7115,
      "Ġsem": 7116,
      "plant": 7117,
      "Ġ1950": 7118,
      "Ġenforce": 7119,
      "Ġplunge": 7120,
      "astom": 7121,
      "Ġacknow": 7122,
      "Ġperman": 7123,
      "Ġperfect": 7124,
      "Ġphr": 7125,
      "Ġ63": 7126,
      "Ġ68": 7127,
      "Ġmode": 7128,
      "Ġchanging": 7129,
      "Ġbecoming": 7130,
      "Ġ81": 7131,
      "clude": 7132,
      "intendo": 7133,
      "Ġmedi": 7134,
      "Ġdriver": 7135,
      "Ġdetail": 7136,
      "Ġinvited": 7137,
      "Ġgenerate": 7138,
      "Ġwarri": 7139,
      "Ġexamine": 7140,
      "Ġseek": 7141,
      "azine": 7142,
      "Ġtempor": 7143,
      "ometric": 7144,
      "ĠÂ£": 7145,
      "Ġincub": 7146,
      "Ġexplained": 7147,
      "2006": 7148,
      "Ġcritic": 7149,
      "Ġadvanced": 7150,
      "Ġstatistically": 7151,
      "Ġofficially": 7152,
      "Ġcdna": 7153,
      "Ġtargeted": 7154,
      "Ġecology": 7155,
      "ertainment": 7156,
      "aurus": 7157,
      "Ġtabs": 7158,
      "Ġbiggest": 7159,
      "Ġrichmond": 7160,
      "Ġquantitative": 7161,
      "patient": 7162,
      "Ġsuperior": 7163,
      "Ġprepare": 7164,
      "piration": 7165,
      "north": 7166,
      "Ġcorporation": 7167,
      "Ġsurrounding": 7168,
      "Ġfloor": 7169,
      "Ġcoffee": 7170,
      "Ġtaiwan": 7171,
      "Ġbookmarked": 7172,
      "×Ļ×": 7173,
      "()": 7174,
      "hot": 7175,
      "ket": 7176,
      "pass": 7177,
      "parent": 7178,
      "sites": 7179,
      "tem": 7180,
      "Ġsd": 7181,
      "ati": 7182,
      "Ġcrick": 7183,
      "Ġosc": 7184,
      "Ġpend": 7185,
      "alized": 7186,
      "Ġbh": 7187,
      "Ġanastom": 7188,
      "ington": 7189,
      "Ġrent": 7190,
      "Ġthir": 7191,
      "Ġona": 7192,
      "Ġvig": 7193,
      "Ġvert": 7194,
      "Ġrif": 7195,
      "Ġrub": 7196,
      "iring": 7197,
      "tha": 7198,
      "Ġjord": 7199,
      "Ġcham": 7200,
      "Ġatm": 7201,
      "Ġ1960": 7202,
      "Ġcompr": 7203,
      "Ġarms": 7204,
      "Ġmeant": 7205,
      "indigenous": 7206,
      "Ġaging": 7207,
      "Ġmetro": 7208,
      "Ġrain": 7209,
      "Ġparad": 7210,
      "Ġ89": 7211,
      "Ġyourself": 7212,
      "Ġunderlying": 7213,
      "Ġ98": 7214,
      "Ġsuppl": 7215,
      "Ġsurpr": 7216,
      "Ġmax": 7217,
      "Ġends": 7218,
      "Ġdrivers": 7219,
      "Ġbuy": 7220,
      "poss": 7221,
      "Ġgreatest": 7222,
      "Ġmoore": 7223,
      "Ġ1986": 7224,
      "Ġfrank": 7225,
      "Ġpossibility": 7226,
      "Ġsimilarity": 7227,
      "Ġdecided": 7228,
      "Ġmanaged": 7229,
      "Ġpassword": 7230,
      "Ġpolitics": 7231,
      "Ġurl": 7232,
      "Ġdrag": 7233,
      "Ġcompeting": 7234,
      "idden": 7235,
      "Ġukra": 7236,
      "Ġcampus": 7237,
      "Ġtourist": 7238,
      "worth": 7239,
      "Ġchristian": 7240,
      "Ġrepublican": 7241,
      "Ġprobability": 7242,
      "Ġperspective": 7243,
      "commod": 7244,
      "Ġmissing": 7245,
      "Ġhills": 7246,
      "Ġimplemented": 7247,
      "Ġachieve": 7248,
      "Ġclusters": 7249,
      "Ġbiotechnol": 7250,
      "Ġcerebral": 7251,
      "Ġfigures": 7252,
      "Ġconstructed": 7253,
      "Ġfisher": 7254,
      "Ġbeautiful": 7255,
      "Ġsomatic": 7256,
      "Ġstimul": 7257,
      "Ġrolling": 7258,
      "Ġorthologs": 7259,
      "Ġenhance": 7260,
      "Ġconstitu": 7261,
      "inflamm": 7262,
      "?âĢĿ": 7263,
      "bd": 7264,
      "cel": 7265,
      "iop": 7266,
      "kg": 7267,
      "ohy": 7268,
      "sn": 7269,
      "sort": 7270,
      "zh": 7271,
      "Î³": 7272,
      "Î½": 7273,
      "Ġ;": 7274,
      "Ġtubercul": 7275,
      "Ġsr": 7276,
      "Ġwing": 7277,
      "essee": 7278,
      "itis": 7279,
      "Ġbic": 7280,
      "Ġfate": 7281,
      "Ġfell": 7282,
      "Ġdros": 7283,
      "Ġnas": 7284,
      "Ġlum": 7285,
      "Ġgta": 7286,
      "Ġeye": 7287,
      "Ġthalian": 7288,
      "elve": 7289,
      "Ġrp": 7290,
      "Ġhear": 7291,
      "Ġheight": 7292,
      "Ġresident": 7293,
      "claim": 7294,
      "Ġaccommod": 7295,
      "Ġscript": 7296,
      "ressed": 7297,
      "Ġspent": 7298,
      "ĊĊÂłÂłÂłÂłÂłÂłÂłÂł": 7299,
      "Ġmario": 7300,
      "Ġ76": 7301,
      "Ġ88": 7302,
      "intestinal": 7303,
      "Ġboat": 7304,
      "Ġhelps": 7305,
      "Ġsupply": 7306,
      "Ġcorner": 7307,
      "Ġguai": 7308,
      "Ġinstrum": 7309,
      "Ġreporting": 7310,
      "Ġextension": 7311,
      "Ġmatched": 7312,
      "Ġsearching": 7313,
      "Ġphysiological": 7314,
      "Ġpresentation": 7315,
      "Ġdomin": 7316,
      "Ġerr": 7317,
      "Ġdirected": 7318,
      "Ġadvent": 7319,
      "Ġhydrology": 7320,
      "Ġhydrological": 7321,
      "Ġcomparisons": 7322,
      "Ġpresidential": 7323,
      "Ġtaxa": 7324,
      "Ġeconomics": 7325,
      "views": 7326,
      "Ġpolymer": 7327,
      "Ġbehavioral": 7328,
      "Ġgenetics": 7329,
      "Ġcouple": 7330,
      "Ġreferred": 7331,
      "dhpea": 7332,
      "Ġinjected": 7333,
      "publication": 7334,
      "Ġparasitol": 7335,
      "Ġstorage": 7336,
      "Ġtennessee": 7337,
      "Ġdichlor": 7338,
      "Ġvolunteers": 7339,
      "Ġdehydrogen": 7340,
      "discussion": 7341,
      "Ġthaliana": 7342,
      "ea": 7343,
      "east": 7344,
      "fip": 7345,
      "his": 7346,
      "hum": 7347,
      "Ġtail": 7348,
      "Ġaid": 7349,
      "rew": 7350,
      "Ġsick": 7351,
      "athe": 7352,
      "Ġpg": 7353,
      "Ġpor": 7354,
      "Ġpip": 7355,
      "Ġwine": 7356,
      "itone": 7357,
      "Ġbible": 7358,
      "Ġfab": 7359,
      "Ġfold": 7360,
      "Ġderm": 7361,
      "asp": 7362,
      "Ġrein": 7363,
      "Ġgeller": 7364,
      "Ġ(,": 7365,
      "Ġonto": 7366,
      "ifies": 7367,
      "Ġconver": 7368,
      "Ġjun": 7369,
      "Ġku": 7370,
      "ocial": 7371,
      "Ġleaf": 7372,
      "Ġapple": 7373,
      "iana": 7374,
      "orylation": 7375,
      "ritical": 7376,
      "ritsar": 7377,
      "Ġupstream": 7378,
      "Ġ83": 7379,
      "Ġboy": 7380,
      "Ġ96": 7381,
      "comple": 7382,
      "Ġobvious": 7383,
      "Ġsurfaces": 7384,
      "amilton": 7385,
      "licenses": 7386,
      "Ġdepos": 7387,
      "Ġdram": 7388,
      "Ġsettle": 7389,
      "Ġesc": 7390,
      "Ġvariations": 7391,
      "Ġvalu": 7392,
      "Ġavenue": 7393,
      "Ġopenwetware": 7394,
      "Ġgramm": 7395,
      "Ġ1975": 7396,
      "Ġrats": 7397,
      "Ġfilms": 7398,
      "Ġparticipation": 7399,
      "Ġprofiles": 7400,
      "Ġlaunch": 7401,
      "Ġradiation": 7402,
      "Ġlatter": 7403,
      "Ġpseudogene": 7404,
      "Ġinfluenced": 7405,
      "Ġoxford": 7406,
      "Ġspectra": 7407,
      "Ġprofession": 7408,
      "Ġabsorption": 7409,
      "Ġprogn": 7410,
      "Ġpermut": 7411,
      "Ġfederation": 7412,
      "Ġcitations": 7413,
      "Ġargent": 7414,
      "Ġbroadcast": 7415,
      "Ġofficials": 7416,
      "Ġpenins": 7417,
      "Ġqueen": 7418,
      "Ġcolumbia": 7419,
      "Ġlegislature": 7420,
      "normal": 7421,
      "hydro": 7422,
      "Ġssdna": 7423,
      "Ġepisode": 7424,
      "Ġenzyme": 7425,
      "Ġdiscovery": 7426,
      "Ġchloroplast": 7427,
      "Ġconcert": 7428,
      "Ġdaughter": 7429,
      "Ġlewis": 7430,
      "Ġinhabitants": 7431,
      "Ġguaiacol": 7432,
      "coding": 7433,
      "fin": 7434,
      "gar": 7435,
      "hara": 7436,
      "may": 7437,
      "sign": 7438,
      "vo": 7439,
      "vin": 7440,
      "Ã¤": 7441,
      "Ã§": 7442,
      "Ġie": 7443,
      "Ġtu": 7444,
      "Ġcig": 7445,
      "Ġcogn": 7446,
      "enberg": 7447,
      "Ġpic": 7448,
      "Ġbil": 7449,
      "Ġberg": 7450,
      "Ġfib": 7451,
      "Ġdop": 7452,
      "Ġhab": 7453,
      "Ġhoc": 7454,
      "Ġhong": 7455,
      "Ġnintendo": 7456,
      "Ġlies": 7457,
      "Ġlys": 7458,
      "Ġgy": 7459,
      "step": 7460,
      "secut": 7461,
      "Ġvd": 7462,
      "Ġbere": 7463,
      "ador": 7464,
      "Ġrd": 7465,
      "Ġrural": 7466,
      "0001": 7467,
      "Ġkr": 7468,
      "Ġkne": 7469,
      "Ġchain": 7470,
      "ache": 7471,
      "ococ": 7472,
      "people": 7473,
      "Ġneural": 7474,
      "Ġshorter": 7475,
      "Ġadm": 7476,
      "aped": 7477,
      "apes": 7478,
      "aren": 7479,
      "Ġcontrovers": 7480,
      "client": 7481,
      "Ġabstract": 7482,
      "thermal": 7483,
      "Ġnewly": 7484,
      "Ġrecip": 7485,
      "Ġassay": 7486,
      "103": 7487,
      "ruce": 7488,
      "Ġtwelve": 7489,
      "Ġrelatives": 7490,
      "Ġsubstr": 7491,
      "120": 7492,
      "Ġministry": 7493,
      "Ġjobs": 7494,
      "Ġsystemic": 7495,
      "Ġtreating": 7496,
      "Ġtreatments": 7497,
      "Ġelectoral": 7498,
      "Ġantip": 7499,
      "Ġbarrier": 7500,
      "Ġorganisms": 7501,
      "Ġbroken": 7502,
      "linear": 7503,
      "Ġtechnologies": 7504,
      "Ġconstra": 7505,
      "2007": 7506,
      "Ġconsidering": 7507,
      "Ġdevelopmental": 7508,
      "Ġinvolving": 7509,
      "Ġallowing": 7510,
      "Ġsongs": 7511,
      "Ġspectral": 7512,
      "Ġcorrelated": 7513,
      "Ġsatisfied": 7514,
      "Ġphenom": 7515,
      "rsa": 7516,
      "Ġdecline": 7517,
      "Ġeventually": 7518,
      "Ġchannels": 7519,
      "copyright": 7520,
      "Ġcircu": 7521,
      "compet": 7522,
      "Ġwrong": 7523,
      "Ġaltered": 7524,
      "benzodiazep": 7525,
      "Ġutilization": 7526,
      "Ġexperiences": 7527,
      "Ġleadership": 7528,
      "Ġassumed": 7529,
      "Ġontario": 7530,
      "Ġsettings": 7531,
      "Ġbrigade": 7532,
      "acknowledg": 7533,
      "Ġslightly": 7534,
      "Ġmixture": 7535,
      "Ġcatholic": 7536,
      "spring": 7537,
      "Ġbranches": 7538,
      "Ġvertical": 7539,
      "inflammatory": 7540,
      "Ġdichlorvos": 7541,
      "Ġpeninsula": 7542,
      "210": 7543,
      "bul": 7544,
      "cam": 7545,
      "days": 7546,
      "spe": 7547,
      "wal": 7548,
      "ĊÂłÂł": 7549,
      "Ġay": 7550,
      "Ġcow": 7551,
      "Ġcrab": 7552,
      "Ġpore": 7553,
      "Ġwound": 7554,
      "ori": 7555,
      "Ġbj": 7556,
      "Ġbomb": 7557,
      "Ġdar": 7558,
      "Ġhamilton": 7559,
      "Ġlam": 7560,
      "Ġlots": 7561,
      "Ġreactions": 7562,
      "Ġech": 7563,
      "Ġthor": 7564,
      "Ġisn": 7565,
      "iding": 7566,
      "igma": 7567,
      "Ġrig": 7568,
      "Ġconclusion": 7569,
      "Ġyan": 7570,
      "usal": 7571,
      "emic": 7572,
      "osh": 7573,
      "rium": 7574,
      "Ġorange": 7575,
      "Ġplac": 7576,
      "ials": 7577,
      "ansas": 7578,
      "Ġresam": 7579,
      "Ġrose": 7580,
      "Ġmanner": 7581,
      "conds": 7582,
      "conclusion": 7583,
      "Ġamaz": 7584,
      "Ġspin": 7585,
      "106": 7586,
      "Ġ73": 7587,
      "Ġmodule": 7588,
      "Ġactor": 7589,
      "Ġ99": 7590,
      "Ġsurfact": 7591,
      "Ġdifferentially": 7592,
      "Ġbless": 7593,
      "ondisse": 7594,
      "Ġserving": 7595,
      "Ġwarm": 7596,
      "exp": 7597,
      "psalm": 7598,
      "Ġremap": 7599,
      "Ġgetty": 7600,
      "Ġversions": 7601,
      "Ġexamination": 7602,
      "before": 7603,
      "ampbell": 7604,
      "Ġbarriers": 7605,
      "Ġorganic": 7606,
      "ometown": 7607,
      "Ġgran": 7608,
      "sky": 7609,
      "ropares": 7610,
      "Ġavailability": 7611,
      "Ġreader": 7612,
      "Ġmicrosoft": 7613,
      "Ġtranscripts": 7614,
      "Ġdraw": 7615,
      "Ġeconom": 7616,
      "Ġderiv": 7617,
      "Ġtalks": 7618,
      "Ġtourists": 7619,
      "Ġconsisting": 7620,
      "Ġdeclare": 7621,
      "Ġturned": 7622,
      "Ġarrondisse": 7623,
      "Ġturk": 7624,
      "Ġrestaurants": 7625,
      "Ġaimed": 7626,
      "Ġalpha": 7627,
      "Ġindustrial": 7628,
      "Ġranges": 7629,
      "Ġemerging": 7630,
      "oviruses": 7631,
      "tlrc": 7632,
      "________": 7633,
      "Ġhairy": 7634,
      "Ġneurons": 7635,
      "Ġparishes": 7636,
      "Ġretrotrans": 7637,
      "Ġcaval": 7638,
      "Ġconventional": 7639,
      "Ġinstitutional": 7640,
      "Ġsplit": 7641,
      "Ġgastrointestinal": 7642,
      "Ġportuguese": 7643,
      "Ġncrnas": 7644,
      "Ġsynthase": 7645,
      "Ġexplanation": 7646,
      "Ġshadow": 7647,
      "Ġheritage": 7648,
      "Ġschizophrenia": 7649,
      "gallery": 7650,
      "Ġjordan": 7651,
      "Ġcigare": 7652,
      "roparesis": 7653,
      "aust": 7654,
      "host": 7655,
      "ias": 7656,
      "mem": 7657,
      "nn": 7658,
      "night": 7659,
      "rif": 7660,
      "rical": 7661,
      "sleep": 7662,
      "xx": 7663,
      "Ãº": 7664,
      "Ġê": 7665,
      "Ġtrib": 7666,
      "era": 7667,
      "Ġott": 7668,
      "anol": 7669,
      "Ġbird": 7670,
      "Ġbapt": 7671,
      "Ġfet": 7672,
      "Ġinference": 7673,
      "Ġanne": 7674,
      "iced": 7675,
      "icated": 7676,
      "rost": 7677,
      "ingly": 7678,
      "Ġlig": 7679,
      "Ġlymph": 7680,
      "Ġgap": 7681,
      "Ġeuro": 7682,
      "Ġeyes": 7683,
      "stra": 7684,
      "Ġurology": 7685,
      "oted": 7686,
      "Ġstated": 7687,
      "sea": 7688,
      "Ġbeings": 7689,
      "iferation": 7690,
      "Ġri": 7691,
      "Ġrnas": 7692,
      "Ġrighteous": 7693,
      "oprote": 7694,
      "Ġwash": 7695,
      "Ġkur": 7696,
      "Ġkings": 7697,
      "osome": 7698,
      "Ġexchange": 7699,
      "aks": 7700,
      "updated": 7701,
      "Ġweap": 7702,
      "Ġaboriginal": 7703,
      "Ġrod": 7704,
      "Ġroots": 7705,
      "Ġsched": 7706,
      "ously": 7707,
      "Ġapart": 7708,
      "Ġpredom": 7709,
      "conn": 7710,
      "Ġnewer": 7711,
      "Ġregulated": 7712,
      "erman": 7713,
      "Ġ86": 7714,
      "Ġactin": 7715,
      "Ġacting": 7716,
      "Ġ97": 7717,
      "Ġinfer": 7718,
      "Ġmonophy": 7719,
      "inke": 7720,
      "Ġserves": 7721,
      "Ġentertainment": 7722,
      "Ġdiabetic": 7723,
      "Ġgeosp": 7724,
      "Ġvisible": 7725,
      "Ġbasel": 7726,
      "Ġfriday": 7727,
      "Ġgreg": 7728,
      "Ġ1977": 7729,
      "Ġcattle": 7730,
      "Ġtrip": 7731,
      "Ġcris": 7732,
      "Ġcrim": 7733,
      "Ġdecisions": 7734,
      "Ġintervals": 7735,
      "Ġdetermin": 7736,
      "Ġdeviation": 7737,
      "Ġdiscussions": 7738,
      "Ġslope": 7739,
      "Ġtargets": 7740,
      "Ġdrawn": 7741,
      "Ġfinished": 7742,
      "Ġinitially": 7743,
      "Ġreturns": 7744,
      "Ġtradition": 7745,
      "Ġjeff": 7746,
      "Ġrocket": 7747,
      "Ġolive": 7748,
      "Ġeggs": 7749,
      "Ġbusinesses": 7750,
      "Ġsquad": 7751,
      "Ġindiana": 7752,
      "Ġqueens": 7753,
      "Ġneighboring": 7754,
      "Ġrequirements": 7755,
      "Ġancestry": 7756,
      "Ġchampionships": 7757,
      "Ġmagazine": 7758,
      "Ġautomated": 7759,
      "Ġfacebook": 7760,
      "Ġwait": 7761,
      "Ġprolong": 7762,
      "Ġsubsequent": 7763,
      "Ġmccampbell": 7764,
      "Ġprospective": 7765,
      "Ġmicroscopy": 7766,
      "Ġpeptide": 7767,
      "allel": 7768,
      "Ġjewish": 7769,
      "Ġapoptosis": 7770,
      ".âĢĻ": 7771,
      "aug": 7772,
      "auc": 7773,
      "call": 7774,
      "file": 7775,
      "home": 7776,
      "lik": 7777,
      "lines": 7778,
      "pf": 7779,
      "pur": 7780,
      "rane": 7781,
      "zhen": 7782,
      "Ġtt": 7783,
      "hent": 7784,
      "Ġsins": 7785,
      "Ġcert": 7786,
      "Ġpas": 7787,
      "Ġbure": 7788,
      "Ġfailed": 7789,
      "Ġmj": 7790,
      "Ġmu": 7791,
      "Ġmgo": 7792,
      "Ġdm": 7793,
      "Ġdin": 7794,
      "Ġnode": 7795,
      "Ġlut": 7796,
      "Ġlunch": 7797,
      "Ġlinux": 7798,
      "Ġgree": 7799,
      "Ġgiving": 7800,
      "Ġgdata": 7801,
      "story": 7802,
      "olis": 7803,
      "amo": 7804,
      "ulae": 7805,
      "Ġvital": 7806,
      "Ġrc": 7807,
      "Ġrm": 7808,
      "Ġrcc": 7809,
      "Ġrcts": 7810,
      "through": 7811,
      "Ġjose": 7812,
      "umes": 7813,
      "uble": 7814,
      "Ġseconds": 7815,
      "Ġkg": 7816,
      "Ġkent": 7817,
      "terior": 7818,
      "ogram": 7819,
      "Ġexception": 7820,
      "udi": 7821,
      "Ġuniform": 7822,
      "Ġ1953": 7823,
      "Ġadmission": 7824,
      "Ġenlarge": 7825,
      "Ġplos": 7826,
      "appe": 7827,
      "Ġresc": 7828,
      "Ġcontest": 7829,
      "Ġcomposed": 7830,
      "Ġrot": 7831,
      "Ġclade": 7832,
      "Ġdispar": 7833,
      "Ġamp": 7834,
      "ologic": 7835,
      "ĊĊÂłĊ": 7836,
      "Ġ66": 7837,
      "Ġ69": 7838,
      "prote": 7839,
      "Ġages": 7840,
      "Ġagents": 7841,
      "Ġagree": 7842,
      "aceut": 7843,
      "Ġfeet": 7844,
      "Ġ77": 7845,
      "Ġtraits": 7846,
      "Ġ93": 7847,
      "Ġopio": 7848,
      "Ġsmart": 7849,
      "Ġinfo": 7850,
      "Ġ120": 7851,
      "jected": 7852,
      "inester": 7853,
      "Ġflight": 7854,
      "Ġextraction": 7855,
      "develop": 7856,
      "Ġinsurance": 7857,
      "annis": 7858,
      "Ġbasket": 7859,
      "Ġpublications": 7860,
      "ytes": 7861,
      "Ġtried": 7862,
      "Ġsimilarly": 7863,
      "Ġgli": 7864,
      "Ġdomestic": 7865,
      "Ġera": 7866,
      "current": 7867,
      "390": 7868,
      "Ġperiods": 7869,
      "Ġdivis": 7870,
      "Ġdisplayed": 7871,
      "Ġcircular": 7872,
      "month": 7873,
      "Ġpapers": 7874,
      "ĠÎ¼o": 7875,
      "Ġphotost": 7876,
      "Ġapply": 7877,
      "Ġplanet": 7878,
      "Ġimmunity": 7879,
      "commun": 7880,
      "Ġwalking": 7881,
      "Ġestimates": 7882,
      "Ġcovers": 7883,
      "Ġbillion": 7884,
      "Ġgastroparesis": 7885,
      "Ġphilos": 7886,
      "Ġmutation": 7887,
      "uracy": 7888,
      "Ġresection": 7889,
      "Ġremoval": 7890,
      "Ġoxidation": 7891,
      "Ġviolence": 7892,
      "Ġemergency": 7893,
      "Ġcitizen": 7894,
      "imensional": 7895,
      "Ġgazette": 7896,
      "Ġsprite": 7897,
      "Ġfacilitate": 7898,
      "Ġarchitecture": 7899,
      "Ġartificial": 7900,
      "aphyl": 7901,
      "Ġhaven": 7902,
      "Ġvivo": 7903,
      "Ġenforcement": 7904,
      "Ġvaluable": 7905,
      "Ġieee": 7906,
      "acknowledgements": 7907,
      "Ġgeospacial": 7908,
      "bas": 7909,
      "count": 7910,
      "fall": 7911,
      "iast": 7912,
      "kh": 7913,
      "sun": 7914,
      "sens": 7915,
      "uv": 7916,
      "Ġtawa": 7917,
      "Ġae": 7918,
      "Ġaqu": 7919,
      "Ġakt": 7920,
      "rey": 7921,
      "oni": 7922,
      "Ġsher": 7923,
      "Ġcp": 7924,
      "ito": 7925,
      "ali": 7926,
      "Ġbath": 7927,
      "Ġfry": 7928,
      "Ġflex": 7929,
      "Ġfuel": 7930,
      "Ġmail": 7931,
      "Ġanderson": 7932,
      "Ġtox": 7933,
      "Ġlact": 7934,
      "Ġliver": 7935,
      "etts": 7936,
      "ider": 7937,
      "igu": 7938,
      "Ġsten": 7939,
      "Ġvel": 7940,
      "uries": 7941,
      "Ġconclusions": 7942,
      "Ġjp": 7943,
      "Ġsemi": 7944,
      "osing": 7945,
      "Ġund": 7946,
      "Ġyoun": 7947,
      "Ġ1969": 7948,
      "Ġenrich": 7949,
      "Ġindones": 7950,
      "okia": 7951,
      "Ġpatent": 7952,
      "index": 7953,
      "Ġspend": 7954,
      "ualize": 7955,
      "Ġagent": 7956,
      "Ġcoach": 7957,
      "Ġcolony": 7958,
      "Ġparalog": 7959,
      "Ġparallel": 7960,
      "Ġsubmit": 7961,
      "Ġobama": 7962,
      "Ġattached": 7963,
      "ogenic": 7964,
      "Ġnorthe": 7965,
      "Ġentries": 7966,
      "uesday": 7967,
      "Ġmicr": 7968,
      "airy": 7969,
      "Ġgray": 7970,
      "Ġmarker": 7971,
      "Ġelim": 7972,
      "Ġsword": 7973,
      "Ġ1978": 7974,
      "Ġfrequent": 7975,
      "Ġirish": 7976,
      "Ġequival": 7977,
      "Ġadvis": 7978,
      "Ġadvance": 7979,
      "Ġinvestment": 7980,
      "Ġcreating": 7981,
      "Ġperforming": 7982,
      "Ġstandards": 7983,
      "Ġencycl": 7984,
      "ĠÎ¼l": 7985,
      "Ġregisters": 7986,
      "Ġdoub": 7987,
      "Ġphilipp": 7988,
      "Ġbreakfast": 7989,
      "Ġrobust": 7990,
      "Ġconfirm": 7991,
      "Ġstreamflow": 7992,
      "Ġmirna": 7993,
      "Ġtomb": 7994,
      "Ġklinke": 7995,
      "vania": 7996,
      "Ġinterestingly": 7997,
      "Ġisolated": 7998,
      "Ġmathematics": 7999,
      "Ġacquired": 8000,
      "Ġopportunities": 8001,
      "Ġtunis": 8002,
      "Ġhrv": 8003,
      "ynthesis": 8004,
      "Ġheterogeneity": 8005,
      "Ġmitochondrial": 8006,
      "Ġdestroyed": 8007,
      "Ġdistinguish": 8008,
      "Ġfertil": 8009,
      "Ġangeles": 8010,
      "Ġinitiative": 8011,
      "Ġatherosclerosis": 8012,
      "Ġprecipitation": 8013,
      "Ġinfantry": 8014,
      "Ġhtml": 8015,
      "Ġtuberculosis": 8016,
      "Ġencyclop": 8017,
      "2000": 8018,
      "400": 8019,
      "bir": 8020,
      "eq": 8021,
      "hop": 8022,
      "iÃ³n": 8023,
      "lia": 8024,
      "national": 8025,
      "your": 8026,
      "Î¿": 8027,
      "Ġille": 8028,
      "Ġactions": 8029,
      "erb": 8030,
      "Ġwish": 8031,
      "Ġwants": 8032,
      "esh": 8033,
      "Ġbull": 8034,
      "Ġmell": 8035,
      "Ġdb": 8036,
      "asc": 8037,
      "asure": 8038,
      "Ġlung": 8039,
      "Ġgc": 8040,
      "ctab": 8041,
      "Ġstores": 8042,
      "Ġforth": 8043,
      "Ġvin": 8044,
      "Ġvac": 8045,
      "Ġbeat": 8046,
      "Ġaspir": 8047,
      "Ġali": 8048,
      "Ġrib": 8049,
      "Ġitem": 8050,
      "Ġkul": 8051,
      "Ġcomplications": 8052,
      "riz": 8053,
      "Ġdele": 8054,
      "Ġexists": 8055,
      "elli": 8056,
      "Ġadvert": 8057,
      "berts": 8058,
      "apse": 8059,
      "Ġabol": 8060,
      "Ġimper": 8061,
      "Ġintensive": 8062,
      "Ġpregn": 8063,
      "Ġcoch": 8064,
      "kshire": 8065,
      "Ġ78": 8066,
      "hedral": 8067,
      "compl": 8068,
      "Ġblvd": 8069,
      "Ġinfections": 8070,
      "Ġcharges": 8071,
      "ornas": 8072,
      "plicated": 8073,
      "ylvania": 8074,
      "Ġfludd": 8075,
      "Ġformat": 8076,
      "Ġshel": 8077,
      "aza": 8078,
      "Ġchemokine": 8079,
      "Ġinspire": 8080,
      "Ġplacebo": 8081,
      "Ġbasin": 8082,
      "Ġbrows": 8083,
      "prev": 8084,
      "Ġsuitable": 8085,
      "Ġrefers": 8086,
      "ophila": 8087,
      "Ġmalays": 8088,
      "Ġtera": 8089,
      "Ġpalest": 8090,
      "Ġarchive": 8091,
      "marks": 8092,
      "Ġconserved": 8093,
      "Ġpersist": 8094,
      "Ġcontinues": 8095,
      "Ġreveals": 8096,
      "Ġchampion": 8097,
      "Ġaddressed": 8098,
      "Ġwindow": 8099,
      "Ġrecommended": 8100,
      "Ġhappy": 8101,
      "Ġscreens": 8102,
      "Ġidentifying": 8103,
      "Ġconcern": 8104,
      "Ġdiagnosed": 8105,
      "Ġconsiderable": 8106,
      "Ġnecessarily": 8107,
      "Ġranked": 8108,
      "Ġrecommendations": 8109,
      "Ġreservoir": 8110,
      "Ġsurgical": 8111,
      "Ġancestor": 8112,
      "visualize": 8113,
      "Ġpediatric": 8114,
      "Ġordered": 8115,
      "Ġpigs": 8116,
      "Ġtoxicity": 8117,
      "Ġwireless": 8118,
      "Ġpeptides": 8119,
      "Ġcoalition": 8120,
      "Ġbelongs": 8121,
      "Ġbiochemical": 8122,
      "Ġabundance": 8123,
      "Ġcoefficient": 8124,
      "Ġnormally": 8125,
      "Ġsodium": 8126,
      "Ġthousands": 8127,
      "difference": 8128,
      "Ġinstruments": 8129,
      "Ġhockey": 8130,
      "Ġarrondissement": 8131,
      "dra": 8132,
      "hur": 8133,
      "jection": 8134,
      "kov": 8135,
      "pages": 8136,
      "rans": 8137,
      "sal": 8138,
      "western": 8139,
      "Îµ": 8140,
      "Ġave": 8141,
      "rer": 8142,
      "rees": 8143,
      "only": 8144,
      "Ġsad": 8145,
      "Ġsizes": 8146,
      "atics": 8147,
      "Ġcin": 8148,
      "Ġcreek": 8149,
      "Ġpj": 8150,
      "Ġpit": 8151,
      "Ġppar": 8152,
      "Ġwright": 8153,
      "Ġbron": 8154,
      "Ġfan": 8155,
      "Ġmist": 8156,
      "Ġhan": 8157,
      "Ġgil": 8158,
      "Ġeur": 8159,
      "eling": 8160,
      "child": 8161,
      "ceive": 8162,
      "Ġongoing": 8163,
      "Ġrr": 8164,
      "Ġconven": 8165,
      "Ġjj": 8166,
      "umann": 8167,
      "Ġpropos": 8168,
      "agon": 8169,
      "Ġken": 8170,
      "Ġknew": 8171,
      "Ġleis": 8172,
      "Ġleaves": 8173,
      "Ġadhd": 8174,
      "arest": 8175,
      "Ġabuse": 8176,
      "Ġarrow": 8177,
      "ugg": 8178,
      "activity": 8179,
      "Ġintel": 8180,
      "Ġintestinal": 8181,
      "Ġprefer": 8182,
      "Ġmanage": 8183,
      "Ġamritsar": 8184,
      "Ġsydney": 8185,
      "Ġoutline": 8186,
      "Ġraise": 8187,
      "Ġsole": 8188,
      "Ġ71": 8189,
      "âĢĿ,": 8190,
      "Ġparks": 8191,
      "Ġsubur": 8192,
      "Ġchester": 8193,
      "Ġempir": 8194,
      "Ġsaudi": 8195,
      "pected": 8196,
      "atham": 8197,
      "Ġaccuracy": 8198,
      "Ġmethyl": 8199,
      "Ġflor": 8200,
      "pson": 8201,
      "scrib": 8202,
      "Ġmoves": 8203,
      "Ġmuslim": 8204,
      "Ġconfig": 8205,
      "Ġlocalized": 8206,
      "Ġoperators": 8207,
      "Ġcontributors": 8208,
      "otted": 8209,
      "Ġski": 8210,
      "Ġsuic": 8211,
      "Ġpassage": 8212,
      "Ġdocuments": 8213,
      "Ġtargeting": 8214,
      "Ġhotels": 8215,
      "Ġauthorities": 8216,
      "Ġspectros": 8217,
      "Ġspecialist": 8218,
      "Ġcategor": 8219,
      "Ġideal": 8220,
      "Ġzhou": 8221,
      "Ġrandomly": 8222,
      "Ġtables": 8223,
      "iddish": 8224,
      "Ġpermission": 8225,
      "Ġsubstance": 8226,
      "Ġoccurs": 8227,
      "Ġestimation": 8228,
      "Ġspeaking": 8229,
      "Ġspeakers": 8230,
      "Ġawarded": 8231,
      "Ġmacroph": 8232,
      "Ġgastric": 8233,
      "Ġobjective": 8234,
      "Ġvictim": 8235,
      "Ġsenior": 8236,
      "Ġtalking": 8237,
      "Ġemployed": 8238,
      "Ġhydrothermal": 8239,
      "Ġholding": 8240,
      "Ġsabre": 8241,
      "Ġsuffolk": 8242,
      "rhiz": 8243,
      "Ġtells": 8244,
      "Ġgraduated": 8245,
      "Ġproliferation": 8246,
      "Ġinjectable": 8247,
      "Ġpictures": 8248,
      "Ġexperienced": 8249,
      "Ġbriefly": 8250,
      "average": 8251,
      "Ġige": 8252,
      "Ġuploaded": 8253,
      "Ġhurric": 8254,
      "Ġtheoretical": 8255,
      "two": 8256,
      "Ġequipment": 8257,
      "Ġhundred": 8258,
      "Ġshenzhen": 8259,
      "Ġreliable": 8260,
      "Ġswimming": 8261,
      "Ġvocational": 8262,
      "Ġnickel": 8263,
      "xiety": 8264,
      "Ġdictionary": 8265,
      "Ġlifestyle": 8266,
      "Ġdrosophila": 8267,
      "Ġdehydrogenase": 8268,
      "itoneal": 8269,
      "Ġvdps": 8270,
      "Ġpredominant": 8271,
      "Ġcriminal": 8272,
      "Ġopioid": 8273,
      "Ġmicrornas": 8274,
      "+,": 8275,
      "ech": 8276,
      "feld": 8277,
      "hometown": 8278,
      "main": 8279,
      "nc": 8280,
      "obe": 8281,
      "Ã±": 8282,
      "ÏĦ": 8283,
      "ĠS": 8284,
      "Ġia": 8285,
      "hey": 8286,
      "reduced": 8287,
      "Ġsister": 8288,
      "Ġthes": 8289,
      "Ġcru": 8290,
      "Ġwer": 8291,
      "Ġwile": 8292,
      "Ġbb": 8293,
      "Ġfill": 8294,
      "Ġfilled": 8295,
      "Ġfellow": 8296,
      "Ġmp": 8297,
      "Ġmck": 8298,
      "Ġinher": 8299,
      "Ġinformed": 8300,
      "Ġinclusion": 8301,
      "Ġanxiety": 8302,
      "lead": 8303,
      "Ġhay": 8304,
      "Ġhind": 8305,
      "ounce": 8306,
      "Ġrefere": 8307,
      "Ġthiol": 8308,
      "Ġ115": 8309,
      "americ": 8310,
      "Ġstom": 8311,
      "Ġstannis": 8312,
      "opath": 8313,
      "erem": 8314,
      "usetts": 8315,
      "units": 8316,
      "Ġkir": 8317,
      "teries": 8318,
      "oglitazone": 8319,
      "atever": 8320,
      "Ġneither": 8321,
      "orect": 8322,
      "ello": 8323,
      "Ġshut": 8324,
      "Ġsharing": 8325,
      "Ġplane": 8326,
      "Ġnotice": 8327,
      "berry": 8328,
      "Ġcloud": 8329,
      "Ġimposs": 8330,
      "Ġpartly": 8331,
      "Ġpartners": 8332,
      "Ġquint": 8333,
      "ordon": 8334,
      "achusetts": 8335,
      "Ġadds": 8336,
      "Ġmetast": 8337,
      "Ġrac": 8338,
      "lectual": 8339,
      "Ġmayor": 8340,
      "Ġzinc": 8341,
      "Ġhelping": 8342,
      "olds": 8343,
      "127": 8344,
      "Ġedible": 8345,
      "Ġoffering": 8346,
      "Ġblind": 8347,
      "icked": 8348,
      "othy": 8349,
      "Ġcharl": 8350,
      "Ġsequel": 8351,
      "226": 8352,
      "Ġextens": 8353,
      "enger": 8354,
      "Ġserver": 8355,
      "Ġgeorg": 8356,
      "Ġaffinity": 8357,
      "aney": 8358,
      "Ġknows": 8359,
      "Ġswitch": 8360,
      "Ġconfed": 8361,
      "Ġcapill": 8362,
      "2003": 8363,
      "Ġmicrob": 8364,
      "Ġirr": 8365,
      "Ġassessing": 8366,
      "Ġcomparative": 8367,
      "ungal": 8368,
      "Ġrespective": 8369,
      "Ġwinner": 8370,
      "Ġstronger": 8371,
      "Ġpurposes": 8372,
      "Ġcivilian": 8373,
      "Ġwonder": 8374,
      "Ġvertex": 8375,
      "Ġwidth": 8376,
      "Ġidaho": 8377,
      "Ġexisted": 8378,
      "world": 8379,
      "Ġarrang": 8380,
      "Ġalignments": 8381,
      "Ġisraeli": 8382,
      "Ġsituated": 8383,
      "Ġmarriages": 8384,
      "Ġepitopes": 8385,
      "Ġcluster": 8386,
      "Ġranging": 8387,
      "Ġlegislation": 8388,
      "Ġlegislative": 8389,
      "Ġprogressive": 8390,
      "Ġbacteria": 8391,
      "analyses": 8392,
      "Ġceremon": 8393,
      "Ġpieces": 8394,
      "Ġunclear": 8395,
      "Ġplastic": 8396,
      "Ġroutine": 8397,
      "Ġelectricity": 8398,
      "Ġchapter": 8399,
      "Ġmimotope": 8400,
      "Ġrssi": 8401,
      "population": 8402,
      "Ġjurisdictions": 8403,
      "Ġmigration": 8404,
      "itudes": 8405,
      "title": 8406,
      "Ġkosovo": 8407,
      "Ġphrase": 8408,
      "Ġoscill": 8409,
      "Ġpendulum": 8410,
      "Ġgregory": 8411,
      "inesterase": 8412,
      "Ġbasketball": 8413,
      "aphylococ": 8414,
      "Ġleisure": 8415,
      "-,": 8416,
      "119": 8417,
      "])": 8418,
      "grad": 8419,
      "hpea": 8420,
      "jab": 8421,
      "rary": 8422,
      "tub": 8423,
      "tax": 8424,
      "xia": 8425,
      "Ġah": 8426,
      "Ġahead": 8427,
      "inst": 8428,
      "het": 8429,
      "Ġsaint": 8430,
      "atin": 8431,
      "atus": 8432,
      "Ġom": 8433,
      "enor": 8434,
      "ename": 8435,
      "Ġpere": 8436,
      "Ġwb": 8437,
      "Ġbik": 8438,
      "Ġbern": 8439,
      "Ġfp": 8440,
      "Ġfaster": 8441,
      "Ġtower": 8442,
      "Ġhat": 8443,
      "Ġng": 8444,
      "Ġloci": 8445,
      "Ġeag": 8446,
      "otations": 8447,
      "imm": 8448,
      "âĢ¢": 8449,
      "abeth": 8450,
      "operation": 8451,
      "Ġheights": 8452,
      "Ġseats": 8453,
      "Ġkon": 8454,
      "Ġker": 8455,
      "Ġkama": 8456,
      "Ġkenn": 8457,
      "osystem": 8458,
      "resistant": 8459,
      "Ġexclus": 8460,
      "Ġunex": 8461,
      "theless": 8462,
      "illin": 8463,
      "illance": 8464,
      "Ġgenoty": 8465,
      "astic": 8466,
      "oston": 8467,
      "Ġreson": 8468,
      "Ġcompound": 8469,
      "Ġscales": 8470,
      "Ġapi": 8471,
      "Ġintu": 8472,
      "Ġdoors": 8473,
      "Ġevil": 8474,
      "Ġintermed": 8475,
      "Ġaddon": 8476,
      "prov": 8477,
      "Ġbioc": 8478,
      "Ġcoins": 8479,
      "Ġfeas": 8480,
      "ateral": 8481,
      "Ġstudying": 8482,
      "center": 8483,
      "Ġdesc": 8484,
      "Ġdesired": 8485,
      "Ġsuperv": 8486,
      "Ġ1800": 8487,
      "Ġdrifting": 8488,
      "Ġcounties": 8489,
      "Ġvariant": 8490,
      "Ġauthent": 8491,
      "Ġdevelopers": 8492,
      "plicit": 8493,
      "coordinates": 8494,
      "exist": 8495,
      "Ġidentical": 8496,
      "Ġcurve": 8497,
      "Ġphysics": 8498,
      "Ġinsights": 8499,
      "Ġ1981": 8500,
      "ounder": 8501,
      "Ġincident": 8502,
      "Ġbush": 8503,
      "Ġindicator": 8504,
      "cury": 8505,
      "Ġequations": 8506,
      "Ġselectivity": 8507,
      "Ġstret": 8508,
      "Ġhydrol": 8509,
      "ĊÂłĊ": 8510,
      "Ġecological": 8511,
      "Ġencoding": 8512,
      "Ġzhao": 8513,
      "Ġhosts": 8514,
      "ĠÎ¼g": 8515,
      "Ġsoldier": 8516,
      "Ġpalace": 8517,
      "Ġpaid": 8518,
      "Ġphenols": 8519,
      "olester": 8520,
      "Ġprotest": 8521,
      "Ġpioglitazone": 8522,
      "Ġstopped": 8523,
      "Ġruins": 8524,
      "Ġsituations": 8525,
      "Ġinjury": 8526,
      "Ġorthology": 8527,
      "Ġcytos": 8528,
      "Ġcytotox": 8529,
      "Ġcommunications": 8530,
      "Ġlonel": 8531,
      "Ġconsequently": 8532,
      "Ġdealing": 8533,
      "character": 8534,
      "Ġexhibit": 8535,
      "Ġvegetation": 8536,
      "Ġglyc": 8537,
      "Ġpunish": 8538,
      "Ġtypical": 8539,
      "Ġdirections": 8540,
      "Ġsyndec": 8541,
      "Ġgallery": 8542,
      "Ġcrystal": 8543,
      "Ġadministrative": 8544,
      "Ġethnic": 8545,
      "Ġethnicity": 8546,
      "Ġwillingness": 8547,
      "blastoma": 8548,
      "Ġpurchased": 8549,
      "Ġoncology": 8550,
      "Ġcortex": 8551,
      "because": 8552,
      "Ġsearches": 8553,
      "Ġnucleotide": 8554,
      "Ġwitness": 8555,
      "Ġconstraint": 8556,
      "Ġderivatives": 8557,
      "Ġprolonged": 8558,
      "Ġencyclopedia": 8559,
      "528": 8560,
      "case": 8561,
      "eper": 8562,
      "hour": 8563,
      "je": 8564,
      "jug": 8565,
      "kal": 8566,
      "mas": 8567,
      "mir": 8568,
      "mov": 8569,
      "pen": 8570,
      "sets": 8571,
      "selves": 8572,
      "tag": 8573,
      "wart": 8574,
      "¢×": 8575,
      "ĠÂłÂłÂłÂłÂłÂł": 8576,
      "Ĥ¬": 8577,
      "Ġtn": 8578,
      "Ġaque": 8579,
      "Ġsers": 8580,
      "Ġcub": 8581,
      "Ġwed": 8582,
      "iture": 8583,
      "Ġbin": 8584,
      "Ġbug": 8585,
      "Ġbungal": 8586,
      "Ġanterior": 8587,
      "Ġdas": 8588,
      "Ġdow": 8589,
      "Ġdream": 8590,
      "ico": 8591,
      "icians": 8592,
      "rown": 8593,
      "lev": 8594,
      "Ġtoll": 8595,
      "Ġhidden": 8596,
      "Ġnest": 8597,
      "Ġlaz": 8598,
      "Ġreality": 8599,
      "Ġgel": 8600,
      "omal": 8601,
      "idal": 8602,
      "idate": 8603,
      "Ġstaphylococ": 8604,
      "Ġbeg": 8605,
      "Ġasym": 8606,
      "abs": 8607,
      "abad": 8608,
      "Ġyields": 8609,
      "Ġproxim": 8610,
      "isters": 8611,
      "Ġheating": 8612,
      "emia": 8613,
      "Ġkid": 8614,
      "Ġkong": 8615,
      "Ġcha": 8616,
      "Ġchi": 8617,
      "Ġchick": 8618,
      "anda": 8619,
      "ocl": 8620,
      "Ġwhatever": 8621,
      "tebr": 8622,
      "Ġ1968": 8623,
      "Ġ1962": 8624,
      "Ġpla": 8625,
      "Ġplanned": 8626,
      "oster": 8627,
      "Ġcontraction": 8628,
      "Ġcompat": 8629,
      "clin": 8630,
      "Ġappre": 8631,
      "Ġdiscre": 8632,
      "fered": 8633,
      "ferent": 8634,
      "Ġspons": 8635,
      "Ġassistant": 8636,
      "Ġtransit": 8637,
      "Ġzo": 8638,
      "Ġpolo": 8639,
      "Ġ103": 8640,
      "Ġ106": 8641,
      "Ġconsent": 8642,
      "Ġoverweight": 8643,
      "issau": 8644,
      "Ġattrition": 8645,
      "icking": 8646,
      "Ġposit": 8647,
      "Ġ08": 8648,
      "icted": 8649,
      "Ġmyel": 8650,
      "cker": 8651,
      "Ġaccident": 8652,
      "Ġassociate": 8653,
      "Ġvolley": 8654,
      "Ġvoltage": 8655,
      "Ġcred": 8656,
      "Ġanton": 8657,
      "types": 8658,
      "Ġsamuel": 8659,
      "Ġgreatly": 8660,
      "ometry": 8661,
      "Ġcharacteristic": 8662,
      "Ġmemorial": 8663,
      "pread": 8664,
      "Ġrunoff": 8665,
      "Ġdecades": 8666,
      "Ġdominant": 8667,
      "Ġfriendly": 8668,
      "Ġpromote": 8669,
      "Ġchoices": 8670,
      "Ġterror": 8671,
      "Ġurinary": 8672,
      "incial": 8673,
      "Ġdiverg": 8674,
      "Ġsocio": 8675,
      "Ġverse": 8676,
      "according": 8677,
      "Ġimpacts": 8678,
      "Ġwebsites": 8679,
      "Ġregardless": 8680,
      "Ġphylogeny": 8681,
      "Ġresidue": 8682,
      "Ġamounts": 8683,
      "Ġwards": 8684,
      "Ġdifficulty": 8685,
      "Ġfragments": 8686,
      "Ġmutual": 8687,
      "Ġfluid": 8688,
      "Ġcrown": 8689,
      "Ġtransferred": 8690,
      "Ġhydrox": 8691,
      "Ġaffects": 8692,
      "Ġshopping": 8693,
      "watch": 8694,
      "Ġfishing": 8695,
      "Ġmessages": 8696,
      "Ġqualitative": 8697,
      "Ġpharmaceut": 8698,
      "Ġanswered": 8699,
      "ursday": 8700,
      "Ġneuronal": 8701,
      "Ġswedish": 8702,
      "bourne": 8703,
      "Ġinfectious": 8704,
      "Ġgenealogical": 8705,
      "Ġlieut": 8706,
      "Ġjurisdiction": 8707,
      "Ġawareness": 8708,
      "isaiah": 8709,
      "Ġsustainable": 8710,
      "Ġsunday": 8711,
      "Ġcomfortable": 8712,
      "Ġathlet": 8713,
      "Ġpermanent": 8714,
      "Ġwarrior": 8715,
      "Ġcricket": 8716,
      "Ġcrisis": 8717,
      "Ġenrichment": 8718,
      "Ġmalaysia": 8719,
      "Ġthesaurus": 8720,
      "3390": 8721,
      "cope": 8722,
      "dimensional": 8723,
      "haw": 8724,
      "nk": 8725,
      "rison": 8726,
      "sam": 8727,
      "sir": 8728,
      "test": 8729,
      "will": 8730,
      "wall": 8731,
      "why": 8732,
      "zy": 8733,
      "Ġau": 8734,
      "health": 8735,
      "Ġses": 8736,
      "Ġsons": 8737,
      "Ġcant": 8738,
      "enant": 8739,
      "Ġpd": 8740,
      "Ġwet": 8741,
      "orth": 8742,
      "Ġbm": 8743,
      "Ġbot": 8744,
      "Ġbos": 8745,
      "Ġboston": 8746,
      "Ġff": 8747,
      "Ġfest": 8748,
      "Ġfract": 8749,
      "Ġmas": 8750,
      "Ġmall": 8751,
      "Ġmys": 8752,
      "Ġdairy": 8753,
      "asa": 8754,
      "Ġtoe": 8755,
      "Ġhaw": 8756,
      "Ġnokia": 8757,
      "Ġgordon": 8758,
      "Ġeiss": 8759,
      "star": 8760,
      "oli": 8761,
      "Ġiso": 8762,
      "ami": 8763,
      "Ġ(-": 8764,
      "Ġford": 8765,
      "Ġforced": 8766,
      "imen": 8767,
      "imal": 8768,
      "Ġvaries": 8769,
      "urday": 8770,
      "advant": 8771,
      "ifi": 8772,
      "Ġrf": 8773,
      "Ġrj": 8774,
      "Ġwashed": 8775,
      "Ġjf": 8776,
      "Ġjunction": 8777,
      "oded": 8778,
      "Ġkle": 8779,
      "Ġaren": 8780,
      "Ġnec": 8781,
      "Ġleigh": 8782,
      "Ġ1967": 8783,
      "Ġ1966": 8784,
      "Ġ1952": 8785,
      "Ġshore": 8786,
      "ansion": 8787,
      "ipher": 8788,
      "apore": 8789,
      "Ġworship": 8790,
      "Ġacetyl": 8791,
      "Ġaccompl": 8792,
      "Ġimpl": 8793,
      "Ġperitoneal": 8794,
      "Ġintact": 8795,
      "Ġpartition": 8796,
      "Ġspac": 8797,
      "ructions": 8798,
      "Ġmoderate": 8799,
      "âĢĿ.": 8800,
      "Ġtrace": 8801,
      "Ġ102": 8802,
      "Ġ104": 8803,
      "Ġdescript": 8804,
      "Ġeds": 8805,
      "Ġexpensive": 8806,
      "Ġprovincial": 8807,
      "Ġblast": 8808,
      "Ġcarl": 8809,
      "Ġhyohy": 8810,
      "Ġdeput": 8811,
      "Ġendoscopic": 8812,
      "Ġinvent": 8813,
      "Ġguang": 8814,
      "Ġwarn": 8815,
      "Ġvolat": 8816,
      "position": 8817,
      "ructure": 8818,
      "Ġsupports": 8819,
      "Ġgrav": 8820,
      "Ġgrade": 8821,
      "Ġmultic": 8822,
      "irected": 8823,
      "Ġcapable": 8824,
      "Ġoperated": 8825,
      "Ġparticipating": 8826,
      "Ġexplored": 8827,
      "Ġstanding": 8828,
      "2005": 8829,
      "Ġcrimes": 8830,
      "Ġclassified": 8831,
      "Ġrepresentation": 8832,
      "Ġowners": 8833,
      "Ġglio": 8834,
      "curs": 8835,
      "Ġheads": 8836,
      "Ġthoughts": 8837,
      "Ġaccordingly": 8838,
      "nsylvania": 8839,
      "Ġoxygen": 8840,
      "Ġfatty": 8841,
      "Ġecol": 8842,
      "Ġpractical": 8843,
      "Ġasking": 8844,
      "Ġexpectations": 8845,
      "Ġsubjective": 8846,
      "Ġdownloads": 8847,
      "Ġhypertrophy": 8848,
      "Ġbrazilian": 8849,
      "Ġenterpr": 8850,
      "Ġultra": 8851,
      "selectin": 8852,
      "Ġmindfulness": 8853,
      "Ġsusp": 8854,
      "Ġsuscept": 8855,
      "nett": 8856,
      "Ġmdpi": 8857,
      "Ġelsewhere": 8858,
      "Ġkorean": 8859,
      "Ġisolation": 8860,
      "Ġvehicles": 8861,
      "Ġliberty": 8862,
      "Ġadjusted": 8863,
      "Ġboundaries": 8864,
      "Ġsvs": 8865,
      "Ġovarian": 8866,
      "Ġwilson": 8867,
      "functionalized": 8868,
      "Ġthickness": 8869,
      "Ġloved": 8870,
      "Ġscheme": 8871,
      "Ġtransformation": 8872,
      "Ġtongue": 8873,
      "Ġticket": 8874,
      "Ġcambium": 8875,
      "controlled": 8876,
      "Ġjacob": 8877,
      "Ġadequate": 8878,
      "Ġtolerance": 8879,
      "Ġlaparoscopic": 8880,
      "Ġukraine": 8881,
      "competing": 8882,
      "Ġdeterminants": 8883,
[...]
