{
  "version": "1.0",
  "truncation": null,
  "padding": null,
  "added_tokens": [
    {
      "id": 3167,
      "content": "<|----|>",
      "single_word": false,
      "lstrip": false,
      "rstrip": false,
      "normalized": false,
      "special": true
    },
    {
      "id": 3168,
      "content": "<|//|>",
      "single_word": false,
      "lstrip": false,
      "rstrip": false,
      "normalized": false,
      "special": true
    },
    {
      "id": 3169,
      "content": "<|tokipona:>",
      "single_word": false,
      "lstrip": false,
      "rstrip": false,
      "normalized": false,
      "special": true
    },
    {
      "id": 3170,
      "content": "<|english:>",
      "single_word": false,
      "lstrip": false,
      "rstrip": false,
      "normalized": false,
      "special": true
    },
    {
      "id": 3171,
      "content": "</english:>",
      "single_word": false,
      "lstrip": false,
      "rstrip": false,
      "normalized": false,
      "special": true
    },
    {
      "id": 3172,
      "content": "</tokipona:>",
      "single_word": false,
      "lstrip": false,
      "rstrip": false,
      "normalized": false,
      "special": true
    },
    {
      "id": 3173,
      "content": "<|lq:>",
      "single_word": false,
      "lstrip": false,
      "rstrip": false,
      "normalized": false,
      "special": true
    },
    {
      "id": 3174,
      "content": "<:lq|>",
      "single_word": false,
      "lstrip": false,
      "rstrip": false,
      "normalized": false,
      "special": true
    },
    {
      "id": 3175,
      "content": "<|hq:>",
      "single_word": false,
      "lstrip": false,
      "rstrip": false,
      "normalized": false,
      "special": true
    },
    {
      "id": 3176,
      "content": "<:hq|>",
      "single_word": false,
      "lstrip": false,
      "rstrip": false,
      "normalized": false,
      "special": true
    },
    {
      "id": 3177,
      "content": "<|!:>",
      "single_word": false,
      "lstrip": false,
      "rstrip": false,
      "normalized": false,
      "special": true
    },
    {
      "id": 3178,
      "content": "<:!|>",
      "single_word": false,
      "lstrip": false,
      "rstrip": false,
      "normalized": false,
      "special": true
    },
    {
      "id": 3179,
      "content": "<|?:>",
      "single_word": false,
      "lstrip": false,
      "rstrip": false,
      "normalized": false,
      "special": true
    },
    {
      "id": 3180,
      "content": "<:?|>",
      "single_word": false,
      "lstrip": false,
      "rstrip": false,
      "normalized": false,
      "special": true
    },
    {
      "id": 3181,
      "content": "<|*:>",
      "single_word": false,
      "lstrip": false,
      "rstrip": false,
      "normalized": false,
      "special": true
    },
    {
      "id": 3182,
      "content": "<:*|>",
      "single_word": false,
      "lstrip": false,
      "rstrip": false,
      "normalized": false,
      "special": true
    },
    {
      "id": 3183,
      "content": "<|-:>",
      "single_word": false,
      "lstrip": false,
      "rstrip": false,
      "normalized": false,
      "special": true
    },
    {
      "id": 3184,
      "content": "<:-|>",
      "single_word": false,
      "lstrip": false,
      "rstrip": false,
      "normalized": false,
      "special": true
    },
    {
      "id": 3185,
      "content": "<|=:>",
      "single_word": false,
      "lstrip": false,
      "rstrip": false,
      "normalized": false,
      "special": true
    },
    {
      "id": 3186,
      "content": "<:=|>",
      "single_word": false,
      "lstrip": false,
      "rstrip": false,
      "normalized": false,
      "special": true
    },
    {
      "id": 3187,
      "content": "<|/:>",
      "single_word": false,
      "lstrip": false,
      "rstrip": false,
      "normalized": false,
      "special": true
    },
    {
      "id": 3188,
      "content": "<:/|>",
      "single_word": false,
      "lstrip": false,
      "rstrip": false,
      "normalized": false,
      "special": true
    },
    {
      "id": 3189,
      "content": "<|@:>",
      "single_word": false,
      "lstrip": false,
      "rstrip": false,
      "normalized": false,
      "special": true
    },
    {
      "id": 3190,
      "content": "<:@|>",
      "single_word": false,
      "lstrip": false,
      "rstrip": false,
      "normalized": false,
      "special": true
    },
    {
      "id": 3191,
      "content": "<|think|>",
      "single_word": false,
      "lstrip": false,
      "rstrip": false,
      "normalized": false,
      "special": true
    },
    {
      "id": 3192,
      "content": "<|p7|>",
      "single_word": false,
      "lstrip": false,
      "rstrip": false,
      "normalized": false,
      "special": true
    },
    {
      "id": 3193,
      "content": "<|p6|>",
      "single_word": false,
      "lstrip": false,
      "rstrip": false,
      "normalized": false,
      "special": true
    },
    {
      "id": 3194,
      "content": "<|p5|>",
      "single_word": false,
      "lstrip": false,
      "rstrip": false,
      "normalized": false,
      "special": true
    },
    {
      "id": 3195,
      "content": "<|p4|>",
      "single_word": false,
      "lstrip": false,
      "rstrip": false,
      "normalized": false,
      "special": true
    },
    {
      "id": 3196,
      "content": "<|p3|>",
      "single_word": false,
      "lstrip": false,
      "rstrip": false,
      "normalized": false,
      "special": true
    },
    {
      "id": 3197,
      "content": "<|p2|>",
      "single_word": false,
      "lstrip": false,
      "rstrip": false,
      "normalized": false,
      "special": true
    },
    {
      "id": 3198,
      "content": "<|p1|>",
      "single_word": false,
      "lstrip": false,
      "rstrip": false,
      "normalized": false,
      "special": true
    },
    {
      "id": 3199,
      "content": "<|p0|>",
      "single_word": false,
      "lstrip": false,
      "rstrip": false,
      "normalized": false,
      "special": true
    }
  ],
  "normalizer": null,
  "pre_tokenizer": {
    "type": "ByteLevel",
    "add_prefix_space": false,
    "trim_offsets": true,
    "use_regex": true
  },
  "post_processor": {
    "type": "ByteLevel",
    "add_prefix_space": true,
    "trim_offsets": false,
    "use_regex": true
  },
  "decoder": {
    "type": "ByteLevel",
    "add_prefix_space": true,
    "trim_offsets": true,
    "use_regex": true
  },
  "model": {
    "type": "BPE",
    "dropout": null,
    "unk_token": null,
    "continuing_subword_prefix": null,
    "end_of_word_suffix": null,
    "fuse_unk": false,
    "byte_fallback": false,
    "ignore_merges": false,
    "vocab": {
      "!": 0,
      "\"": 1,
      "#": 2,
      "$": 3,
      "%": 4,
      "&": 5,
      "'": 6,
      "(": 7,
      ")": 8,
      "*": 9,
      "+": 10,
      ",": 11,
      "-": 12,
      ".": 13,
      "/": 14,
      "0": 15,
      "1": 16,
      "2": 17,
      "3": 18,
      "4": 19,
      "5": 20,
      "6": 21,
      "7": 22,
      "8": 23,
      "9": 24,
      ":": 25,
      ";": 26,
      "<": 27,
      "=": 28,
      ">": 29,
      "?": 30,
      "@": 31,
      "A": 32,
      "B": 33,
      "C": 34,
      "D": 35,
      "E": 36,
      "F": 37,
      "G": 38,
      "H": 39,
      "I": 40,
      "J": 41,
      "K": 42,
      "L": 43,
      "M": 44,
      "N": 45,
      "O": 46,
      "P": 47,
      "Q": 48,
      "R": 49,
      "S": 50,
      "T": 51,
      "U": 52,
      "V": 53,
      "W": 54,
      "X": 55,
      "Y": 56,
      "Z": 57,
      "[": 58,
      "\\": 59,
      "]": 60,
      "^": 61,
      "_": 62,
      "`": 63,
      "a": 64,
      "b": 65,
      "c": 66,
      "d": 67,
      "e": 68,
      "f": 69,
      "g": 70,
      "h": 71,
      "i": 72,
      "j": 73,
      "k": 74,
      "l": 75,
      "m": 76,
      "n": 77,
      "o": 78,
      "p": 79,
      "q": 80,
      "r": 81,
      "s": 82,
      "t": 83,
      "u": 84,
      "v": 85,
      "w": 86,
      "x": 87,
      "y": 88,
      "z": 89,
      "{": 90,
      "|": 91,
      "}": 92,
      "~": 93,
      "¡": 94,
      "¢": 95,
      "£": 96,
      "¤": 97,
      "¥": 98,
      "¦": 99,
      "§": 100,
      "¨": 101,
      "©": 102,
      "ª": 103,
      "«": 104,
      "¬": 105,
      "®": 106,
      "¯": 107,
      "°": 108,
      "±": 109,
      "²": 110,
      "³": 111,
      "´": 112,
      "µ": 113,
      "¶": 114,
      "·": 115,
      "¸": 116,
      "¹": 117,
      "º": 118,
      "»": 119,
      "¼": 120,
      "½": 121,
      "¾": 122,
      "¿": 123,
      "À": 124,
      "Á": 125,
      "Â": 126,
      "Ã": 127,
      "Ä": 128,
      "Å": 129,
      "Æ": 130,
      "Ç": 131,
      "È": 132,
      "É": 133,
      "Ê": 134,
      "Ë": 135,
      "Ì": 136,
      "Í": 137,
      "Î": 138,
      "Ï": 139,
      "Ð": 140,
      "Ñ": 141,
      "Ò": 142,
      "Ó": 143,
      "Ô": 144,
      "Õ": 145,
      "Ö": 146,
      "×": 147,
      "Ø": 148,
      "Ù": 149,
      "Ú": 150,
      "Û": 151,
      "Ü": 152,
      "Ý": 153,
      "Þ": 154,
      "ß": 155,
      "à": 156,
      "á": 157,
      "â": 158,
      "ã": 159,
      "ä": 160,
      "å": 161,
      "æ": 162,
      "ç": 163,
      "è": 164,
      "é": 165,
      "ê": 166,
      "ë": 167,
      "ì": 168,
      "í": 169,
      "î": 170,
      "ï": 171,
      "ð": 172,
      "ñ": 173,
      "ò": 174,
      "ó": 175,
      "ô": 176,
      "õ": 177,
      "ö": 178,
      "÷": 179,
      "ø": 180,
      "ù": 181,
      "ú": 182,
      "û": 183,
      "ü": 184,
      "ý": 185,
      "þ": 186,
      "ÿ": 187,
      "Ā": 188,
      "ā": 189,
      "Ă": 190,
      "ă": 191,
      "Ą": 192,
      "ą": 193,
      "Ć": 194,
      "ć": 195,
      "Ĉ": 196,
      "ĉ": 197,
      "Ċ": 198,
      "ċ": 199,
      "Č": 200,
      "č": 201,
      "Ď": 202,
      "ď": 203,
      "Đ": 204,
      "đ": 205,
      "Ē": 206,
      "ē": 207,
      "Ĕ": 208,
      "ĕ": 209,
      "Ė": 210,
      "ė": 211,
      "Ę": 212,
      "ę": 213,
      "Ě": 214,
      "ě": 215,
      "Ĝ": 216,
      "ĝ": 217,
      "Ğ": 218,
      "ğ": 219,
      "Ġ": 220,
      "ġ": 221,
      "Ģ": 222,
      "ģ": 223,
      "Ĥ": 224,
      "ĥ": 225,
      "Ħ": 226,
      "ħ": 227,
      "Ĩ": 228,
      "ĩ": 229,
      "Ī": 230,
      "ī": 231,
      "Ĭ": 232,
      "ĭ": 233,
      "Į": 234,
      "į": 235,
      "İ": 236,
      "ı": 237,
      "Ĳ": 238,
      "ĳ": 239,
      "Ĵ": 240,
      "ĵ": 241,
      "Ķ": 242,
      "ķ": 243,
      "ĸ": 244,
      "Ĺ": 245,
      "ĺ": 246,
      "Ļ": 247,
      "ļ": 248,
      "Ľ": 249,
      "ľ": 250,
      "Ŀ": 251,
      "ŀ": 252,
      "Ł": 253,
      "ł": 254,
      "Ń": 255,
      "Ġt": 256,
      "Ġa": 257,
      "in": 258,
      "he": 259,
      "on": 260,
      "re": 261,
      "Ġ.": 262,
      "Ġ,": 263,
      "er": 264,
      "at": 265,
      "Ġthe": 266,
      "Ġs": 267,
      "Ġo": 268,
      "en": 269,
      "is": 270,
      "es": 271,
      "Ġc": 272,
      "Ġ-": 273,
      "ed": 274,
      "or": 275,
      "it": 276,
      "an": 277,
      "Ġw": 278,
      "al": 279,
      "ĠĠ": 280,
      "Ġp": 281,
      "Ġan": 282,
      "Ġf": 283,
      "Ġof": 284,
      "ar": 285,
      "Ġb": 286,
      "ion": 287,
      "Ġin": 288,
      "ic": 289,
      "ĠĊ": 290,
      "Ġ1": 291,
      "ou": 292,
      "Ġm": 293,
      "ing": 294,
      "Ġand": 295,
      "Ġd": 296,
      "Ġ0": 297,
      "Ġto": 298,
      "ro": 299,
      "le": 300,
      "as": 301,
      "Ġ2": 302,
      "ent": 303,
      "Ġh": 304,
      "ct": 305,
      "Ġth": 306,
      "ĠT": 307,
      "Ġre": 308,
      "ll": 309,
      "Ġn": 310,
      "ĠS": 311,
      "om": 312,
      "ĠA": 313,
      "Ġl": 314,
      "st": 315,
      "Ġe": 316,
      "Ġ:": 317,
      "ve": 318,
      "ĠC": 319,
      "ot": 320,
      "ĠP": 321,
      "ation": 322,
      "et": 323,
      "Ġ|": 324,
      "Ġg": 325,
      "Ġ3": 326,
      "ly": 327,
      "Ġ)": 328,
      "Ġis": 329,
      "Ġ(": 330,
      "id": 331,
      "ĠM": 332,
      "us": 333,
      "ĠI": 334,
      "ut": 335,
      "ra": 336,
      "ol": 337,
      "ig": 338,
      "ce": 339,
      "Ġon": 340,
      "Âł": 341,
      "im": 342,
      "Ġfor": 343,
      "Ġ5": 344,
      "Ġ4": 345,
      "ch": 346,
      "ĠB": 347,
      "Ġ9": 348,
      "ĠĊĊ": 349,
      "Ġbe": 350,
      "ow": 351,
      "ur": 352,
      "am": 353,
      "il": 354,
      "âĢ": 355,
      "ul": 356,
      "ver": 357,
      "Ġst": 358,
      "ĠF": 359,
      "Ġ6": 360,
      "ĠâĢ": 361,
      "un": 362,
      "ith": 363,
      "Ġy": 364,
      "ay": 365,
      "Ġ8": 366,
      "Ġ7": 367,
      "se": 368,
      "ĠD": 369,
      "if": 370,
      "her": 371,
      "ĠR": 372,
      "ĠE": 373,
      "Ġwith": 374,
      "ĠH": 375,
      "ad": 376,
      "Ġthat": 377,
      "Ġpro": 378,
      "Ġcon": 379,
      "Ġas": 380,
      "ĠG": 381,
      "ĠÂł": 382,
      "ag": 383,
      "ri": 384,
      "Ġwe": 385,
      "ir": 386,
      "ĠL": 387,
      "op": 388,
      "od": 389,
      "Ġ/": 390,
      "ter": 391,
      "ub": 392,
      "Ġ'": 393,
      "Ġyou": 394,
      "ĠW": 395,
      "um": 396,
      "qu": 397,
      "ĠThe": 398,
      "Ġ\"": 399,
      "ĠN": 400,
      "ist": 401,
      "Ġv": 402,
      "Ġare": 403,
      "em": 404,
      "el": 405,
      "Ġ>": 406,
      "ab": 407,
      "ate": 408,
      "res": 409,
      "Ġ<": 410,
      "ers": 411,
      "os": 412,
      "Ġor": 413,
      "rom": 414,
      "est": 415,
      "ĊĊ": 416,
      "Ġwh": 417,
      "oc": 418,
      "ĠJ": 419,
      "Ġcom": 420,
      "Ġse": 421,
      "Ġ[": 422,
      "Ġhe": 423,
      "ity": 424,
      "Ġ]": 425,
      "Ġit": 426,
      "th": 427,
      "Ġex": 428,
      "pe": 429,
      "Ġby": 430,
      "ac": 431,
      "Ġde": 432,
      "Ġat": 433,
      "og": 434,
      "ant": 435,
      "oun": 436,
      "ive": 437,
      "ill": 438,
      "ment": 439,
      "and": 440,
      "ess": 441,
      "Ġthis": 442,
      "ew": 443,
      "Ġfrom": 444,
      "ore": 445,
      "Ġr": 446,
      "Ġwas": 447,
      "ain": 448,
      "Ġus": 449,
      "ort": 450,
      "ies": 451,
      "fe": 452,
      "ated": 453,
      "ure": 454,
      "ĠO": 455,
      "Ġal": 456,
      "ke": 457,
      "ren": 458,
      "ction": 459,
      "iv": 460,
      "igh": 461,
      "up": 462,
      "Ġnot": 463,
      "ld": 464,
      "ĠĠÂł": 465,
      "ud": 466,
      "art": 467,
      "ical": 468,
      "Ġha": 469,
      "ĠIn": 470,
      "pt": 471,
      "Ġch": 472,
      "pl": 473,
      "Ġsh": 474,
      "te": 475,
      "ĠU": 476,
      "our": 477,
      "ĠK": 478,
      "ans": 479,
      "ine": 480,
      "ia": 481,
      "ost": 482,
      "ĠPub": 483,
      "Ġun": 484,
      "Ġcan": 485,
      "ial": 486,
      "red": 487,
      "Ġhave": 488,
      "ang": 489,
      "end": 490,
      "Ġqu": 491,
      "ust": 492,
      "ear": 493,
      "Ġ;": 494,
      "ĠV": 495,
      "all": 496,
      "ex": 497,
      "ther": 498,
      "Ġab": 499,
      "age": 500,
      "Ġk": 501,
      "ard": 502,
      "Ġad": 503,
      "ide": 504,
      "ip": 505,
      "ight": 506,
      "ast": 507,
      "Ġcont": 508,
      "Ġle": 509,
      "ich": 510,
      "ib": 511,
      "ome": 512,
      "Ġwere": 513,
      "iz": 514,
      "ĠâĢ¢": 515,
      "Ġar": 516,
      "ap": 517,
      "orm": 518,
      "ound": 519,
      "Ġcomp": 520,
      "ations": 521,
      "ok": 522,
      "Ġres": 523,
      "Ġpl": 524,
      "ult": 525,
      "ase": 526,
      "Ġall": 527,
      "ell": 528,
      "out": 529,
      "act": 530,
      "Ġgen": 531,
      "vel": 532,
      "ak": 533,
      "port": 534,
      "able": 535,
      "Ġim": 536,
      "ous": 537,
      "his": 538,
      "ould": 539,
      "ong": 540,
      "du": 541,
      "Ġac": 542,
      "ions": 543,
      "ord": 544,
      "ext": 545,
      "gh": 546,
      "ary": 547,
      "lis": 548,
      "ull": 549,
      "are": 550,
      "Ġhas": 551,
      "ence": 552,
      "The": 553,
      "ĠSt": 554,
      "ign": 555,
      "ress": 556,
      "ge": 557,
      "Ġwill": 558,
      "ents": 559,
      "ber": 560,
      "av": 561,
      "ens": 562,
      "per": 563,
      "cl": 564,
      "ract": 565,
      "Ġcl": 566,
      "ĠĊĠĠ": 567,
      "Ġbut": 568,
      "Ġwhich": 569,
      "ry": 570,
      "ĠĊĊĠĠ": 571,
      "Ġen": 572,
      "Ġdo": 573,
      "ces": 574,
      "Ġme": 575,
      "ff": 576,
      "Ġne": 577,
      "ork": 578,
      "ark": 579,
      "ough": 580,
      "feren": 581,
      "Ġwhe": 582,
      "ice": 583,
      "Ġap": 584,
      "der": 585,
      "own": 586,
      "so": 587,
      "Ġed": 588,
      "Ġdis": 589,
      "ys": 590,
      "Ġper": 591,
      "ari": 592,
      "ph": 593,
      "ind": 594,
      "ue": 595,
      "form": 596,
      "ook": 597,
      "ame": 598,
      "Ġone": 599,
      "ance": 600,
      "Ġyour": 601,
      "ack": 602,
      "ory": 603,
      "Ġother": 604,
      "ite": 605,
      "reat": 606,
      "Ġgo": 607,
      "ors": 608,
      "ific": 609,
      "Ġspe": 610,
      "ach": 611,
      "Med": 612,
      "Ġtr": 613,
      "Ġsu": 614,
      "ree": 615,
      "one": 616,
      "ĠY": 617,
      "Ġup": 618,
      "ĊĊĠĠ": 619,
      "Ġman": 620,
      "olog": 621,
      "ition": 622,
      "Ġint": 623,
      "ail": 624,
      "Ġmore": 625,
      "ep": 626,
      "ual": 627,
      "iew": 628,
      "rib": 629,
      "Ġj": 630,
      "Ġtheir": 631,
      "ru": 632,
      "ates": 633,
      "erv": 634,
      "Ġthey": 635,
      "Ġout": 636,
      "ount": 637,
      "Ġpat": 638,
      "ĠĠÂłĠĠÂł": 639,
      "ĠFull": 640,
      "ĠText": 641,
      "Ġ?": 642,
      "ire": 643,
      "Ġno": 644,
      "ĠPubMed": 645,
      "ĠCh": 646,
      "Ġabout": 647,
      "Ġedit": 648,
      "ile": 649,
      "ote": 650,
      "Ġpre": 651,
      "Ġalso": 652,
      "Ġ%": 653,
      "cess": 654,
      "vers": 655,
      "ose": 656,
      "Ġpart": 657,
      "ĠAn": 658,
      "ĠAb": 659,
      "ace": 660,
      "ik": 661,
      "ĠĊĊĠĠĠ": 662,
      "ake": 663,
      "Ġdif": 664,
      "Ġtim": 665,
      "ass": 666,
      "etw": 667,
      "ons": 668,
      "ĠPublis": 669,
      "Ġind": 670,
      "Ġwho": 671,
      "Ġev": 672,
      "Ġstud": 673,
      "Ġrec": 674,
      "pro": 675,
      "tern": 676,
      "Ġso": 677,
      "lo": 678,
      "ĠâĢĻ": 679,
      "ĠÃ": 680,
      "Ġ_": 681,
      "Ġreg": 682,
      "Ġsc": 683,
      "stract": 684,
      "ink": 685,
      "ĠPublisher": 686,
      "ie": 687,
      "ond": 688,
      "very": 689,
      "ict": 690,
      "ike": 691,
      "Ġag": 692,
      "ian": 693,
      "Ġthere": 694,
      "Ġhel": 695,
      "Ġhis": 696,
      "erm": 697,
      "ect": 698,
      "Ġthan": 699,
      "ĠThis": 700,
      "row": 701,
      "Ġsy": 702,
      "Ġdat": 703,
      "Ġcell": 704,
      "ful": 705,
      "Ġadd": 706,
      "fect": 707,
      "Ġpe": 708,
      "ĠUn": 709,
      "ĠRe": 710,
      "ĠÂ": 711,
      "ple": 712,
      "Ġhelp": 713,
      "oll": 714,
      "ĠIt": 715,
      "Ġspec": 716,
      "ĠAbstract": 717,
      "Ġtra": 718,
      "ĠâĢľ": 719,
      "Ġbeen": 720,
      "Ġwork": 721,
      "Ġnew": 722,
      "Ġam": 723,
      "Ġph": 724,
      "ied": 725,
      "ick": 726,
      "Ġass": 727,
      "tic": 728,
      "wo": 729,
      "Ġro": 730,
      "arch": 731,
      "Ġrel": 732,
      "Ġkn": 733,
      "ative": 734,
      "ular": 735,
      "Ġsp": 736,
      "Ġcons": 737,
      "Ġ=": 738,
      "een": 739,
      "uc": 740,
      "Ġany": 741,
      "ĊĠĠ": 742,
      "Ġtrans": 743,
      "ased": 744,
      "Ġsome": 745,
      "ĠâĢĿ": 746,
      "Ġdifferen": 747,
      "ral": 748,
      "Ġact": 749,
      "Ġloc": 750,
      "ics": 751,
      "way": 752,
      "ove": 753,
      "Ġover": 754,
      "Ġinc": 755,
      "int": 756,
      "eth": 757,
      "Ġgr": 758,
      "Ġquote": 759,
      "ages": 760,
      "Ġthem": 761,
      "ĠEn": 762,
      "Ġif": 763,
      "ĠÎ": 764,
      "ution": 765,
      "aus": 766,
      "Ġuse": 767,
      "Ġcomm": 768,
      "Ġtime": 769,
      "ater": 770,
      "Ġexp": 771,
      "Ġmay": 772,
      "ĠHe": 773,
      "clud": 774,
      "ational": 775,
      "tt": 776,
      "etween": 777,
      "Ġunder": 778,
      "ov": 779,
      "Ġsub": 780,
      "ild": 781,
      "Ġmod": 782,
      "ings": 783,
      "Ġdes": 784,
      "Ġbetween": 785,
      "hed": 786,
      "ne": 787,
      "Ġonly": 788,
      "alth": 789,
      "ced": 790,
      "otes": 791,
      "lect": 792,
      "Ġyear": 793,
      "Ġsign": 794,
      "rit": 795,
      "ont": 796,
      "Ġco": 797,
      "Ġpo": 798,
      "ĠTh": 799,
      "Ġoff": 800,
      "Ġtwo": 801,
      "Ġaf": 802,
      "Ġits": 803,
      "old": 804,
      "ally": 805,
      "ĠCom": 806,
      "ople": 807,
      "Ġdata": 808,
      "Ġmost": 809,
      "ants": 810,
      "ited": 811,
      "Ġinto": 812,
      "Ġinter": 813,
      "iss": 814,
      "Ġwhen": 815,
      "mer": 816,
      "Ġsup": 817,
      "Ġlike": 818,
      "Ġ!": 819,
      "velop": 820,
      "ient": 821,
      "Ġour": 822,
      "Ġ+": 823,
      "Ġob": 824,
      "ctions": 825,
      "This": 826,
      "stem": 827,
      "Ġinclud": 828,
      "ft": 829,
      "cy": 830,
      "ĠAl": 831,
      "uth": 832,
      "Ġthese": 833,
      "ob": 834,
      "Ġused": 835,
      "Ġmy": 836,
      "irst": 837,
      "land": 838,
      "oth": 839,
      "Ġra": 840,
      "io": 841,
      "Ġprov": 842,
      "cept": 843,
      "Ġpeople": 844,
      "ish": 845,
      "les": 846,
      "Ġte": 847,
      "Ġanal": 848,
      "ating": 849,
      "oup": 850,
      "Ġpr": 851,
      "wn": 852,
      "rough": 853,
      "hen": 854,
      "ins": 855,
      "Ġchang": 856,
      "ility": 857,
      "Ġbec": 858,
      "ident": 859,
      "Ġsa": 860,
      "Ġhad": 861,
      "Ġnum": 862,
      "Ġprote": 863,
      "Ġpos": 864,
      "ject": 865,
      "Ġwould": 866,
      "Ġinv": 867,
      "ros": 868,
      "Ġpres": 869,
      "ise": 870,
      "ram": 871,
      "hes": 872,
      "Ġprodu": 873,
      "als": 874,
      "ĠWe": 875,
      "Ġneed": 876,
      "pect": 877,
      "NA": 878,
      "Ġacc": 879,
      "ology": 880,
      "Ġusing": 881,
      "ĠES": 882,
      "Ġhow": 883,
      "erson": 884,
      "In": 885,
      "Ġdevelop": 886,
      "formation": 887,
      "ĠâĢĵ": 888,
      "ox": 889,
      "ures": 890,
      "Ġop": 891,
      "Ġbl": 892,
      "ĠĠÂłĠĠÂłĠĊĊ": 893,
      "Ġatt": 894,
      "ath": 895,
      "ities": 896,
      "ert": 897,
      "ĠSe": 898,
      "Ġstudy": 899,
      "ffect": 900,
      "Ġdist": 901,
      "Ġwhat": 902,
      "ments": 903,
      "ĠDe": 904,
      "ĠSc": 905,
      "lic": 906,
      "ĠPro": 907,
      "Ġget": 908,
      "ily": 909,
      "ĠSh": 910,
      "rent": 911,
      "Ġdet": 912,
      "ible": 913,
      "Ġsuch": 914,
      "Ġcol": 915,
      "uring": 916,
      "Ġwell": 917,
      "ood": 918,
      "ression": 919,
      "ause": 920,
      "Ġsur": 921,
      "ĠCent": 922,
      "ck": 923,
      "ism": 924,
      "ious": 925,
      "Ġem": 926,
      "ower": 927,
      "ays": 928,
      "Ġdifferent": 929,
      "ollow": 930,
      "ĠQ": 931,
      "inal": 932,
      "Ġfirst": 933,
      "Ġfound": 934,
      "Ġmed": 935,
      "Ġartic": 936,
      "Ġhigh": 937,
      "Ġresult": 938,
      "oci": 939,
      "Ġfe": 940,
      "ients": 941,
      "Ġsm": 942,
      "orld": 943,
      "Ġfl": 944,
      "fore": 945,
      "Ġserv": 946,
      "ade": 947,
      "Ġorg": 948,
      "ines": 949,
      "arg": 950,
      "Ġshould": 951,
      "ĠAr": 952,
      "Ġsystem": 953,
      "Ġform": 954,
      "ax": 955,
      "earch": 956,
      "Ġafter": 957,
      "ĠAs": 958,
      "Ġhelpful": 959,
      "cent": 960,
      "Ġfun": 961,
      "Ġthrough": 962,
      "Ġanalys": 963,
      "Ġwhere": 964,
      "ulation": 965,
      "ock": 966,
      "Ġfind": 967,
      "ever": 968,
      "aw": 969,
      "oh": 970,
      "Ġgroup": 971,
      "Ġeffect": 972,
      "igation": 973,
      "Ġav": 974,
      "Ġval": 975,
      "ases": 976,
      "cer": 977,
      "ric": 978,
      "Ġvari": 979,
      "Ġcor": 980,
      "sw": 981,
      "Ġvotes": 982,
      "Ġent": 983,
      "Ġsee": 984,
      "Ġmin": 985,
      "ature": 986,
      "igure": 987,
      "yp": 988,
      "its": 989,
      "Ġhim": 990,
      "ĠWik": 991,
      "Ġlevel": 992,
      "Ġshow": 993,
      "ified": 994,
      "Ġsim": 995,
      "Ġgener": 996,
      "Ġpub": 997,
      "Ġmany": 998,
      "ĠĠĠÂł": 999,
      "Ġset": 1000,
      "Ġdi": 1001,
      "ĠESV": 1002,
      "alk": 1003,
      "Ġeach": 1004,
      "ran": 1005,
      "Ġprob": 1006,
      "ning": 1007,
      "pos": 1008,
      "ues": 1009,
      "sh": 1010,
      "ug": 1011,
      "Ġfollow": 1012,
      "ically": 1013,
      "Ġext": 1014,
      "rol": 1015,
      "ife": 1016,
      "Ġnumber": 1017,
      "Ġinformation": 1018,
      "ames": 1019,
      "ĠZ": 1020,
      "Ġbook": 1021,
      "aces": 1022,
      "Ġincre": 1023,
      "ool": 1024,
      "Ġcells": 1025,
      "hem": 1026,
      "ĠGo": 1027,
      "ĠAd": 1028,
      "ript": 1029,
      "ĠRes": 1030,
      "oy": 1031,
      "sel": 1032,
      "ale": 1033,
      "Ġsec": 1034,
      "ĠFor": 1035,
      "Ġfact": 1036,
      "Ġinf": 1037,
      "ĠĠÂłĠ": 1038,
      "Ġcount": 1039,
      "Ġlist": 1040,
      "Ġmon": 1041,
      "ts": 1042,
      "Ġweb": 1043,
      "ized": 1044,
      "Ġbi": 1045,
      "Ġdown": 1046,
      "Ġarticle": 1047,
      "Ġprev": 1048,
      "ype": 1049,
      "Ġcould": 1050,
      "ĠPh": 1051,
      "ah": 1052,
      "Ġpatients": 1053,
      "Ġthen": 1054,
      "yl": 1055,
      "ize": 1056,
      "Ġpop": 1057,
      "Ġknow": 1058,
      "cc": 1059,
      "Ġet": 1060,
      "ribut": 1061,
      "Ġrev": 1062,
      "ices": 1063,
      "acter": 1064,
      "Ġbus": 1065,
      "Ġappro": 1066,
      "Ġcar": 1067,
      "ym": 1068,
      "ource": 1069,
      "avigation": 1070,
      "Ġboth": 1071,
      "ĠĠâĢ": 1072,
      "Ġactiv": 1073,
      "Ġhealth": 1074,
      "urn": 1075,
      "Ġpartic": 1076,
      "Ġrem": 1077,
      "Ġjust": 1078,
      "ix": 1079,
      "ĠĠâĢī": 1080,
      "raph": 1081,
      "Ġend": 1082,
      "rest": 1083,
      "plic": 1084,
      "Ġbu": 1085,
      "ĠIf": 1086,
      "ward": 1087,
      "Ġbased": 1088,
      "Ġdec": 1089,
      "ĠCl": 1090,
      "ĠGen": 1091,
      "ruct": 1092,
      "Ġexper": 1093,
      "uch": 1094,
      "Ġdep": 1095,
      "ved": 1096,
      "ined": 1097,
      "ttp": 1098,
      "Ġmake": 1099,
      "cript": 1100,
      "Ġreport": 1101,
      "ner": 1102,
      "Ġinte": 1103,
      "Ġanalysis": 1104,
      "ense": 1105,
      "ĠLe": 1106,
      "Ġcomple": 1107,
      "ivers": 1108,
      "Ġstr": 1109,
      "ethod": 1110,
      "Re": 1111,
      "ience": 1112,
      "Ġvery": 1113,
      "ision": 1114,
      "Ġhum": 1115,
      "Ġterm": 1116,
      "iel": 1117,
      "ting": 1118,
      "ier": 1119,
      "ron": 1120,
      "any": 1121,
      "ĠEx": 1122,
      "ank": 1123,
      "Ġsearch": 1124,
      "Ġduring": 1125,
      "chn": 1126,
      "dit": 1127,
      "Ġtest": 1128,
      "ization": 1129,
      "ten": 1130,
      "Ġthose": 1131,
      "Ġaround": 1132,
      "Ġgood": 1133,
      "Ġyears": 1134,
      "Ġexam": 1135,
      "Ġlong": 1136,
      "Ġcur": 1137,
      "ĠMed": 1138,
      "orth": 1139,
      "ĠInd": 1140,
      "ĠView": 1141,
      "Ġsame": 1142,
      "Ġresp": 1143,
      "arm": 1144,
      "Ġgreat": 1145,
      "ared": 1146,
      "Ġgene": 1147,
      "Ġfans": 1148,
      "ton": 1149,
      "Ġway": 1150,
      "Ġgrow": 1151,
      "Ġquest": 1152,
      "ump": 1153,
      "Ġdef": 1154,
      "Ġcent": 1155,
      "Ġprog": 1156,
      "ĠEng": 1157,
      "arge": 1158,
      "gy": 1159,
      "Ġest": 1160,
      "Ġgenes": 1161,
      "ĠComm": 1162,
      "Ġauth": 1163,
      "Ġsequ": 1164,
      "Ġdisc": 1165,
      "Ġrep": 1166,
      "Ġinst": 1167,
      "ĠWh": 1168,
      "Ġavail": 1169,
      "ination": 1170,
      "Ġpol": 1171,
      "Ġrequ": 1172,
      "ĠAp": 1173,
      "Ġlink": 1174,
      "Ġmet": 1175,
      "ural": 1176,
      "Ġsaid": 1177,
      "ium": 1178,
      "Ġvers": 1179,
      "Ġevery": 1180,
      "Ġown": 1181,
      "aj": 1182,
      "ness": 1183,
      "Ġstart": 1184,
      "tle": 1185,
      "other": 1186,
      "Ġmem": 1187,
      "ĠNew": 1188,
      "Ġbeing": 1189,
      "iron": 1190,
      "ode": 1191,
      "istory": 1192,
      "Ġmark": 1193,
      "Ġser": 1194,
      "Ġbecause": 1195,
      "ords": 1196,
      "Ġnear": 1197,
      "Ġlook": 1198,
      "Ġkm": 1199,
      "Ġprovid": 1200,
      "Ġfree": 1201,
      "Ġback": 1202,
      "Ġfam": 1203,
      "ĠSp": 1204,
      "Ġmade": 1205,
      "Ġident": 1206,
      "Ġsignific": 1207,
      "man": 1208,
      "Ġpage": 1209,
      "iness": 1210,
      "ention": 1211,
      "ogle": 1212,
      "gr": 1213,
      "ĠPl": 1214,
      "Ġsupport": 1215,
      "ĠX": 1216,
      "Ġear": 1217,
      "ols": 1218,
      "ash": 1219,
      "Ġpresent": 1220,
      "Ġstat": 1221,
      "ital": 1222,
      "Ġrest": 1223,
      "Ġsmall": 1224,
      "gg": 1225,
      "Ġimpro": 1226,
      "Ġ$": 1227,
      "ĠBe": 1228,
      "ĠThere": 1229,
      "ouse": 1230,
      "Ġagain": 1231,
      "ement": 1232,
      "Ġright": 1233,
      "Ġhere": 1234,
      "ole": 1235,
      "ivid": 1236,
      "Ġassoci": 1237,
      "Ġmodel": 1238,
      "ually": 1239,
      "ality": 1240,
      "Ġavailable": 1241,
      "Ġbel": 1242,
      "ĠCentral": 1243,
      "Ġpar": 1244,
      "ources": 1245,
      "ather": 1246,
      "vern": 1247,
      "ek": 1248,
      "ince": 1249,
      "Ġthree": 1250,
      "Ġworld": 1251,
      "irect": 1252,
      "Ġant": 1253,
      "Ġmain": 1254,
      "ĠHow": 1255,
      "air": 1256,
      "son": 1257,
      "icro": 1258,
      "Ġansw": 1259,
      "itional": 1260,
      "ield": 1261,
      "de": 1262,
      "ven": 1263,
      "az": 1264,
      "ĠUS": 1265,
      "Ġexpression": 1266,
      "ograph": 1267,
      "ained": 1268,
      "ute": 1269,
      "Ġrese": 1270,
      "Ġconf": 1271,
      "ency": 1272,
      "Ġprocess": 1273,
      "Ġnon": 1274,
      "uss": 1275,
      "Ġcare": 1276,
      "Ġ&": 1277,
      "lease": 1278,
      "Ġeven": 1279,
      "Ġchanges": 1280,
      "Ġposs": 1281,
      "ffic": 1282,
      "Ġdoes": 1283,
      "Ġimport": 1284,
      "Ġgu": 1285,
      "rop": 1286,
      "Ġ*": 1287,
      "ĠOn": 1288,
      "Ġke": 1289,
      "ived": 1290,
      "Ġher": 1291,
      "ars": 1292,
      "ists": 1293,
      "ĠAnd": 1294,
      "ted": 1295,
      "Ġvol": 1296,
      "ĠÂ·": 1297,
      "Ġpost": 1298,
      "osp": 1299,
      "led": 1300,
      "ross": 1301,
      "ribution": 1302,
      "Ġlife": 1303,
      "Ġday": 1304,
      "Ġrun": 1305,
      "ĠBi": 1306,
      "Ġplay": 1307,
      "Ġins": 1308,
      "Ġspecific": 1309,
      "Ġhuman": 1310,
      "Ġsignificant": 1311,
      "ential": 1312,
      "Ġchar": 1313,
      "ĠGoogle": 1314,
      "con": 1315,
      "lem": 1316,
      "Ġhttp": 1317,
      "oad": 1318,
      "Ġcre": 1319,
      "Ġcall": 1320,
      "ives": 1321,
      "Ġperform": 1322,
      "ets": 1323,
      "Ġpoint": 1324,
      "ave": 1325,
      "Ġnow": 1326,
      "outh": 1327,
      "Ġmuch": 1328,
      "Ġve": 1329,
      "Ġcontent": 1330,
      "ene": 1331,
      "Ġsl": 1332,
      "Ġbefore": 1333,
      "ohn": 1334,
      "ai": 1335,
      "oid": 1336,
      "aking": 1337,
      "ĠUnited": 1338,
      "iversity": 1339,
      "au": 1340,
      "ange": 1341,
      "ĠIs": 1342,
      "An": 1343,
      "meric": 1344,
      "Ġsam": 1345,
      "Ġi": 1346,
      "ological": 1347,
      "Ġdon": 1348,
      "Ġmeas": 1349,
      "ĠYou": 1350,
      "Ġresults": 1351,
      "Ġwhile": 1352,
      "ario": 1353,
      "cial": 1354,
      "ĠSch": 1355,
      "Ġref": 1356,
      "riv": 1357,
      "ty": 1358,
      "ains": 1359,
      "ferences": 1360,
      "Ġsol": 1361,
      "isk": 1362,
      "akes": 1363,
      "viron": 1364,
      "Ġ#": 1365,
      "Ġdise": 1366,
      "Ġtreat": 1367,
      "ĠGod": 1368,
      "Ġknown": 1369,
      "Ġmethod": 1370,
      "Ġview": 1371,
      "Ġorig": 1372,
      "ration": 1373,
      "ĠAmeric": 1374,
      "ersonal": 1375,
      "Ġread": 1376,
      "Ġlead": 1377,
      "ER": 1378,
      "und": 1379,
      "read": 1380,
      "amp": 1381,
      "Ġlocated": 1382,
      "Ġret": 1383,
      "ability": 1384,
      "Ġlarge": 1385,
      "iqu": 1386,
      "Ġcontrol": 1387,
      "Ġincluding": 1388,
      "ently": 1389,
      "Ġpath": 1390,
      "Ġappe": 1391,
      "Ġdid": 1392,
      "Ġopen": 1393,
      "Ġname": 1394,
      "Ġarea": 1395,
      "unity": 1396,
      "Ġlit": 1397,
      "ification": 1398,
      "bers": 1399,
      "Ġpublic": 1400,
      "agn": 1401,
      "lection": 1402,
      "iven": 1403,
      "ĠStates": 1404,
      "Ġsite": 1405,
      "Ġfre": 1406,
      "Ġtem": 1407,
      "Ġchild": 1408,
      "ividual": 1409,
      "ann": 1410,
      "Ġcity": 1411,
      "line": 1412,
      "Ġwant": 1413,
      "ĠÂ°": 1414,
      "Ġtake": 1415,
      "imate": 1416,
      "Ġfew": 1417,
      "Ġorgan": 1418,
      "Ġocc": 1419,
      "ites": 1420,
      "ences": 1421,
      "ĠÂłĠ": 1422,
      "ina": 1423,
      "Ġwithin": 1424,
      "orn": 1425,
      "Ġtools": 1426,
      "Ġlog": 1427,
      "idence": 1428,
      "opy": 1429,
      "vironment": 1430,
      "urther": 1431,
      "get": 1432,
      "Ġmult": 1433,
      "Ġstand": 1434,
      "Ġtechn": 1435,
      "crib": 1436,
      "Ġplace": 1437,
      "lished": 1438,
      "ery": 1439,
      "eng": 1440,
      "rict": 1441,
      "Ġwater": 1442,
      "Ġanswer": 1443,
      "edia": 1444,
      "ĠQu": 1445,
      "Ġwithout": 1446,
      "Ġprotein": 1447,
      "Ġfunction": 1448,
      "mark": 1449,
      "reen": 1450,
      "ody": 1451,
      "cul": 1452,
      "Ġredu": 1453,
      "Ġvis": 1454,
      "Ġshe": 1455,
      "Ġlow": 1456,
      "ĠCon": 1457,
      "Ġamong": 1458,
      "osis": 1459,
      "load": 1460,
      "Ġtri": 1461,
      "ring": 1462,
      "ator": 1463,
      "uro": 1464,
      "ĠFigure": 1465,
      "Ġprof": 1466,
      "self": 1467,
      "Ġimm": 1468,
      "tal": 1469,
      "ĠAm": 1470,
      "Ġproduct": 1471,
      "Ġversion": 1472,
      "ateg": 1473,
      "Ġcy": 1474,
      "Ġimprove": 1475,
      "ĠÐ": 1476,
      "Ġinterest": 1477,
      "Ġrelated": 1478,
      "Ġdesign": 1479,
      "ves": 1480,
      "Ġhig": 1481,
      "lear": 1482,
      "rap": 1483,
      "SS": 1484,
      "ware": 1485,
      "Ġproblem": 1486,
      "Ġold": 1487,
      "Ġlast": 1488,
      "Ġbest": 1489,
      "angu": 1490,
      "Ġclass": 1491,
      "ON": 1492,
      "eb": 1493,
      "Ġsecond": 1494,
      "ĠBl": 1495,
      "itive": 1496,
      "ired": 1497,
      "Ġsom": 1498,
      "Ġmat": 1499,
      "Ġopt": 1500,
      "atory": 1501,
      "Ġsay": 1502,
      "oph": 1503,
      "Ġquestion": 1504,
      "ving": 1505,
      "ged": 1506,
      "Ġdem": 1507,
      "rid": 1508,
      "Ġaccess": 1509,
      "hip": 1510,
      "Ġhand": 1511,
      "Ġmust": 1512,
      "Ġconst": 1513,
      "ww": 1514,
      "ples": 1515,
      "Ġdevelopment": 1516,
      "ajor": 1517,
      "atic": 1518,
      "ument": 1519,
      "ilar": 1520,
      "ern": 1521,
      "Ġmight": 1522,
      "etic": 1523,
      "ised": 1524,
      "Ġnavigation": 1525,
      "eral": 1526,
      "ĠBook": 1527,
      "lish": 1528,
      "ĠHowever": 1529,
      "Ġthink": 1530,
      "omen": 1531,
      "Ġpopulation": 1532,
      "ways": 1533,
      "Ġpred": 1534,
      "Ġadv": 1535,
      "Ġbusiness": 1536,
      "Ġfil": 1537,
      "Ġdel": 1538,
      "Ġâ": 1539,
      "riend": 1540,
      "ogen": 1541,
      "Ġrisk": 1542,
      "Ġresearch": 1543,
      "cing": 1544,
      "ĠTo": 1545,
      "Ġless": 1546,
      "Ġspecies": 1547,
      "gen": 1548,
      "less": 1549,
      "ison": 1550,
      "Ġproject": 1551,
      "ries": 1552,
      "Ġline": 1553,
      "Ġobs": 1554,
      "Ġcurrent": 1555,
      "ians": 1556,
      "Ġwww": 1557,
      "play": 1558,
      "ows": 1559,
      "ĠThey": 1560,
      "Ġprogram": 1561,
      "Ġimportant": 1562,
      "Ġche": 1563,
      "Ġcharacter": 1564,
      "etwork": 1565,
      "Ġcontribut": 1566,
      "Ġdirect": 1567,
      "Ġexpl": 1568,
      "Ġpot": 1569,
      "Ġfore": 1570,
      "otel": 1571,
      "ters": 1572,
      "Ġbet": 1573,
      "Ġhistory": 1574,
      "nal": 1575,
      "Ġhy": 1576,
      "ime": 1577,
      "oss": 1578,
      "Ġstudies": 1579,
      "Ġlocal": 1580,
      "Ġfollowing": 1581,
      "Ġpower": 1582,
      "Ġgovern": 1583,
      "Ġindividual": 1584,
      "Ġmonth": 1585,
      "ĠUniversity": 1586,
      "For": 1587,
      "Ġfile": 1588,
      "Ġthough": 1589,
      "Ġsugg": 1590,
      "Ġaway": 1591,
      "Ġauthor": 1592,
      "Ġsuggest": 1593,
      "day": 1594,
      "ĠCan": 1595,
      "Ġelect": 1596,
      "ternational": 1597,
      "apt": 1598,
      "ason": 1599,
      "ĠSup": 1600,
      "ĠCo": 1601,
      "ered": 1602,
      "aff": 1603,
      "Ġbre": 1604,
      "yn": 1605,
      "ĠAll": 1606,
      "Ġimp": 1607,
      "ĠDis": 1608,
      "ĠAf": 1609,
      "par": 1610,
      "Ġcap": 1611,
      "omic": 1612,
      "iver": 1613,
      "ĠHealth": 1614,
      "lu": 1615,
      "Ġtype": 1616,
      "ĠBy": 1617,
      "Ġsever": 1618,
      "ĠâĢĶ": 1619,
      "ung": 1620,
      "ours": 1621,
      "une": 1622,
      "ĠJohn": 1623,
      "Ġtext": 1624,
      "Ġsyn": 1625,
      "ĠMario": 1626,
      "ify": 1627,
      "ering": 1628,
      "Ġcase": 1629,
      "Ġmen": 1630,
      "ĠMar": 1631,
      "ĠCont": 1632,
      "Ġassociated": 1633,
      "Ġpur": 1634,
      "Ġbas": 1635,
      "Ġstruct": 1636,
      "ety": 1637,
      "Ġmajor": 1638,
      "Ġagainst": 1639,
      "ĠIm": 1640,
      "ĠÂłĠĊ": 1641,
      "ference": 1642,
      "ats": 1643,
      "Ġprim": 1644,
      "IS": 1645,
      "Ġtop": 1646,
      "ret": 1647,
      "From": 1648,
      "Jump": 1649,
      "rist": 1650,
      "oms": 1651,
      "Ġeas": 1652,
      "ĠOr": 1653,
      "Ġdisease": 1654,
      "Ġorder": 1655,
      "Ġindic": 1656,
      "omm": 1657,
      "ior": 1658,
      "ane": 1659,
      "Ġstill": 1660,
      "Ġsw": 1661,
      "Ġcal": 1662,
      "pen": 1663,
      "Ġmus": 1664,
      "amm": 1665,
      "ray": 1666,
      "Ġtimes": 1667,
      "Ġdom": 1668,
      "otation": 1669,
      "ission": 1670,
      "Ġtreatment": 1671,
      "ither": 1672,
      "Ġdiff": 1673,
      "Ġcontin": 1674,
      "Ġservice": 1675,
      "Ġmeasure": 1676,
      "ley": 1677,
      "Ġinvest": 1678,
      "cular": 1679,
      "Ġequ": 1680,
      "ides": 1681,
      "RE": 1682,
      "iment": 1683,
      "omes": 1684,
      "right": 1685,
      "ording": 1686,
      "Ġprom": 1687,
      "Ġexample": 1688,
      "ively": 1689,
      "ional": 1690,
      "Ġapp": 1691,
      "ĠØ": 1692,
      "ĠCar": 1693,
      "Ġsimilar": 1694,
      "eting": 1695,
      "Ġcost": 1696,
      "rug": 1697,
      "ĠNational": 1698,
      "iod": 1699,
      "mb": 1700,
      "lob": 1701,
      "Ġage": 1702,
      "Ġrespect": 1703,
      "ergy": 1704,
      "Ġsing": 1705,
      "Ġlim": 1706,
      "Ġclin": 1707,
      "Ġrepres": 1708,
      "Ġpass": 1709,
      "Ġweek": 1710,
      "artment": 1711,
      "Ġphys": 1712,
      "icense": 1713,
      "Ġcommon": 1714,
      "sy": 1715,
      "Ġiss": 1716,
      "Ġdev": 1717,
      "Ġcorre": 1718,
      "Personal": 1719,
      "Ġoper": 1720,
      "Ġstate": 1721,
      "Ġcancer": 1722,
      "Ġable": 1723,
      "Ġinvol": 1724,
      "ĠAdd": 1725,
      "ĠAc": 1726,
      "ury": 1727,
      "Ġpossible": 1728,
      "por": 1729,
      "erved": 1730,
      "olution": 1731,
      "Ġbookmark": 1732,
      "oot": 1733,
      "Ġfrequ": 1734,
      "ĠAt": 1735,
      "Ġchange": 1736,
      "ĠCol": 1737,
      "ĠGr": 1738,
      "Ġaut": 1739,
      "lood": 1740,
      "Ġlevels": 1741,
      "Ġparticip": 1742,
      "Ġproper": 1743,
      "Ġnetwork": 1744,
      "ĠThese": 1745,
      "Ġseveral": 1746,
      "hib": 1747,
      "af": 1748,
      "ĠMe": 1749,
      "Ġbeh": 1750,
      "ĠDNA": 1751,
      "rain": 1752,
      "mber": 1753,
      "Ġfull": 1754,
      "ĠPM": 1755,
      "aining": 1756,
      "ĠÃ©": 1757,
      "Ġreported": 1758,
      "St": 1759,
      "Ġgl": 1760,
      "Ġvalue": 1761,
      "verage": 1762,
      "Wh": 1763,
      "Ġrece": 1764,
      "ĠBar": 1765,
      "urs": 1766,
      "Ġfriend": 1767,
      "ems": 1768,
      "stand": 1769,
      "though": 1770,
      "ID": 1771,
      "Ġlangu": 1772,
      "the": 1773,
      "Ġunt": 1774,
      "iki": 1775,
      "box": 1776,
      "Ġair": 1777,
      "Ġtown": 1778,
      "ĠAust": 1779,
      "iving": 1780,
      "ĠTr": 1781,
      "clus": 1782,
      "Ġactivity": 1783,
      "MA": 1784,
      "Ġann": 1785,
      "Ġmicro": 1786,
      "ĠPer": 1787,
      "ope": 1788,
      "Ġshown": 1789,
      "Ġsince": 1790,
      "ider": 1791,
      "ĠMay": 1792,
      "Ġz": 1793,
      "Ġgiven": 1794,
      "Ġdepend": 1795,
      "Ġdays": 1796,
      "Ġlaw": 1797,
      "Ġbuild": 1798,
      "Ġfamily": 1799,
      "here": 1800,
      "ĠBut": 1801,
      "ocial": 1802,
      "Ġel": 1803,
      "Ġpp": 1804,
      "Ġele": 1805,
      "Ġperson": 1806,
      "Ġbit": 1807,
      "Ġhigher": 1808,
      "Ġanother": 1809,
      "Ġtotal": 1810,
      "Ġwrit": 1811,
      "ĠGe": 1812,
      "Ġà": 1813,
      "ata": 1814,
      "stit": 1815,
      "Ġdeterm": 1816,
      "Ġprevious": 1817,
      "Ġå": 1818,
      "Ġtarg": 1819,
      "uk": 1820,
      "rab": 1821,
      "Ġperiod": 1822,
      "oint": 1823,
      "rad": 1824,
      "ember": 1825,
      "Ġoften": 1826,
      "ĠNe": 1827,
      "co": 1828,
      "ocus": 1829,
      "rem": 1830,
      "Ġcult": 1831,
      "Ġtyp": 1832,
      "ĠÏ": 1833,
      "atch": 1834,
      "Ġthings": 1835,
      "Ġask": 1836,
      "reative": 1837,
      "Ġdue": 1838,
      "Ġcomb": 1839,
      "Ġnews": 1840,
      "Ġchildren": 1841,
      "cle": 1842,
      "Ġide": 1843,
      "Ġdescrib": 1844,
      "Ġcour": 1845,
      "ĠPr": 1846,
      "ories": 1847,
      "Ġmap": 1848,
      "ĠÙ": 1849,
      "Ġland": 1850,
      "ots": 1851,
      "Ġgovernment": 1852,
      "ĠTe": 1853,
      "icy": 1854,
      "Ġpotential": 1855,
      "Ġenvironment": 1856,
      "Ġaccount": 1857,
      "ping": 1858,
      "ocument": 1859,
      "Ġpredict": 1860,
      "ott": 1861,
      "ĠMan": 1862,
      "Ġbetter": 1863,
      "We": 1864,
      "ds": 1865,
      "ormal": 1866,
      "Ġinterv": 1867,
      "Ġmean": 1868,
      "ftware": 1869,
      "Ġplaces": 1870,
      "Ġgroups": 1871,
      "Ġcalled": 1872,
      "Ġes": 1873,
      "Ġsingle": 1874,
      "ertain": 1875,
      "Ġoriginal": 1876,
      "Ġcrit": 1877,
      "ober": 1878,
      "ĠAtt": 1879,
      "ĠGu": 1880,
      "Ġwomen": 1881,
      "Ġrate": 1882,
      "Ġpract": 1883,
      "ĠAD": 1884,
      "Ġleft": 1885,
      "Ġmanag": 1886,
      "Ġreal": 1887,
      "aur": 1888,
      "ining": 1889,
      "ĠPC": 1890,
      "ournal": 1891,
      "ae": 1892,
      "Ġgame": 1893,
      "ustom": 1894,
      "Ġsources": 1895,
      "ĠPH": 1896,
      "MB": 1897,
      "Ġsk": 1898,
      "ĠAmerican": 1899,
      "urope": 1900,
      "Ġbeg": 1901,
      "Ġapplic": 1902,
      "Ġsuc": 1903,
      "Ġcomplete": 1904,
      "iple": 1905,
      "eter": 1906,
      "ploy": 1907,
      "Ġwebs": 1908,
      "Vari": 1909,
      "Ġfour": 1910,
      "ĠTable": 1911,
      "aper": 1912,
      "Ġhome": 1913,
      "Ġshort": 1914,
      "aim": 1915,
      "ĠPark": 1916,
      "Ġlab": 1917,
      "ĠEdit": 1918,
      "istics": 1919,
      "Ġacid": 1920,
      "action": 1921,
      "Ġsource": 1922,
      "ably": 1923,
      "Ġeffects": 1924,
      "Ġbro": 1925,
      "Ġfurther": 1926,
      "iol": 1927,
      "ails": 1928,
      "Ġdeath": 1929,
      "duct": 1930,
      "Ġterms": 1931,
      "Ġrepresent": 1932,
      "Ġstaff": 1933,
      "ibr": 1934,
      "ressed": 1935,
      "Ġobt": 1936,
      "Ġbelie": 1937,
      "be": 1938,
      "Ġtoo": 1939,
      "ravel": 1940,
      "ĠLord": 1941,
      "Ġheart": 1942,
      "Ġã": 1943,
      "Ġll": 1944,
      "Ġfood": 1945,
      "Ġareas": 1946,
      "Ġfin": 1947,
      "ops": 1948,
      "hing": 1949,
      "Ġcompared": 1950,
      "Ġcompar": 1951,
      "Ġcountry": 1952,
      "str": 1953,
      "ores": 1954,
      "You": 1955,
      "alu": 1956,
      "Ġreview": 1957,
      "Ġtry": 1958,
      "Ġinclude": 1959,
      "ĠDep": 1960,
      "Ġeither": 1961,
      "Ġtranscript": 1962,
      "Ġleast": 1963,
      "Ġparticular": 1964,
      "Res": 1965,
      "ler": 1966,
      "Ġmut": 1967,
      "Ġcome": 1968,
      "Ġstandard": 1969,
      "Navigation": 1970,
      "li": 1971,
      "ms": 1972,
      "Ġfocus": 1973,
      "Ġhead": 1974,
      "Ġcode": 1975,
      "Ġmove": 1976,
      "ĠSo": 1977,
      "Ġecon": 1978,
      "Ġallow": 1979,
      "put": 1980,
      "els": 1981,
      "ales": 1982,
      "Ġcompany": 1983,
      "ipedia": 1984,
      "ĠĠĠÂłĠ": 1985,
      "eds": 1986,
      "Ġgive": 1987,
      "Ġside": 1988,
      "ĠSy": 1989,
      "Ġusers": 1990,
      "Ġnext": 1991,
      "Ġsequence": 1992,
      "cher": 1993,
      "plement": 1994,
      "paces": 1995,
      "ĠAustral": 1996,
      "enn": 1997,
      "Ġalong": 1998,
      "Names": 1999,
      "Ġwalk": 2000,
      "Ġgeneral": 2001,
      "Ġfactors": 2002,
      "Variants": 2003,
      "AT": 2004,
      "Actions": 2005,
      "ger": 2006,
      "Ġput": 2007,
      "Ġbo": 2008,
      "ĠJan": 2009,
      "Ġeng": 2010,
      "ĠChrist": 2011,
      "RNA": 2012,
      "fer": 2013,
      "Ġindu": 2014,
      "Ġlat": 2015,
      "ĠEurope": 2016,
      "Ġtre": 2017,
      "Namespaces": 2018,
      "Ġregion": 2019,
      "itud": 2020,
      "ris": 2021,
      "Ġservices": 2022,
      "sych": 2023,
      "reet": 2024,
      "AN": 2025,
      "AS": 2026,
      "elf": 2027,
      "Ġfield": 2028,
      "Ġinit": 2029,
      "icens": 2030,
      "illion": 2031,
      "ĠCommons": 2032,
      "ĠAg": 2033,
      "Ġlight": 2034,
      "Ġdiscuss": 2035,
      "ĠNo": 2036,
      "Cl": 2037,
      "ground": 2038,
      "Ġer": 2039,
      "atural": 2040,
      "Ġcustom": 2041,
      "Ġuntil": 2042,
      "Figure": 2043,
      "face": 2044,
      "arn": 2045,
      "Ġassess": 2046,
      "ĠWhen": 2047,
      "Ġmar": 2048,
      "Ġlooking": 2049,
      "ĠBio": 2050,
      "Ġá": 2051,
      "Ġseen": 2052,
      "thing": 2053,
      "oub": 2054,
      "Ġadded": 2055,
      "Ġlittle": 2056,
      "Ġnuc": 2057,
      "idered": 2058,
      "There": 2059,
      "Ġenc": 2060,
      "onse": 2061,
      "Ġexpect": 2062,
      "iation": 2063,
      "ONE": 2064,
      "ĠEd": 2065,
      "mit": 2066,
      "inc": 2067,
      "ators": 2068,
      "Ġestim": 2069,
      "Ġexist": 2070,
      "Ġspecial": 2071,
      "Ġgrowth": 2072,
      "Ġearly": 2073,
      "Ġcreate": 2074,
      "Ġfac": 2075,
      "Ġindust": 2076,
      "Ġstep": 2077,
      "Ġstrong": 2078,
      "Ġsuccess": 2079,
      "rev": 2080,
      "atures": 2081,
      "Ġcaus": 2082,
      "let": 2083,
      "oney": 2084,
      "lected": 2085,
      "Ġproteins": 2086,
      "ĠUSA": 2087,
      "Ġshall": 2088,
      "Ġtrad": 2089,
      "Ġconsidered": 2090,
      "idd": 2091,
      "ography": 2092,
      "ino": 2093,
      "Ġep": 2094,
      "acy": 2095,
      "Ġrange": 2096,
      "Ġx": 2097,
      "ĠWikipedia": 2098,
      "Ġsum": 2099,
      "Ġlower": 2100,
      "Ġalways": 2101,
      "ĠĠâĢīĠ": 2102,
      "ĠEnglish": 2103,
      "Ġturn": 2104,
      "ĠWorld": 2105,
      "ended": 2106,
      "Ġtax": 2107,
      "ĠSm": 2108,
      "ee": 2109,
      "iles": 2110,
      "Ġregul": 2111,
      "uck": 2112,
      "Ġincrease": 2113,
      "Ġincreased": 2114,
      "Ġpages": 2115,
      "Ġrele": 2116,
      "Ġattack": 2117,
      "olar": 2118,
      "min": 2119,
      "aster": 2120,
      "ults": 2121,
      "Ġrole": 2122,
      "Ġprovide": 2123,
      "ux": 2124,
      "ĠUs": 2125,
      "aken": 2126,
      "ec": 2127,
      "Ġblood": 2128,
      "ĠAug": 2129,
      "ĠNU": 2130,
      "arent": 2131,
      "itravel": 2132,
      "Ġcho": 2133,
      "Ġcases": 2134,
      "ĠCal": 2135,
      "chan": 2136,
      "Search": 2137,
      "Ġrecept": 2138,
      "ately": 2139,
      "AR": 2140,
      "ones": 2141,
      "reg": 2142,
      "Ġlarg": 2143,
      "ney": 2144,
      "Ġtiss": 2145,
      "Ġaddition": 2146,
      "omy": 2147,
      "Ġabove": 2148,
      "Ġteam": 2149,
      "ĠWiki": 2150,
      "ried": 2151,
      "Ġnever": 2152,
      "opyright": 2153,
      "Al": 2154,
      "ĠPar": 2155,
      "Ġrecords": 2156,
      "Ġrad": 2157,
      "oolbox": 2158,
      "Ġresponse": 2159,
      "ĠNorth": 2160,
      "Ġlet": 2161,
      "MBER": 2162,
      "oring": 2163,
      "Ġhouse": 2164,
      "ĠCreative": 2165,
      "ĠII": 2166,
      "ospital": 2167,
      "lation": 2168,
      "Ġsch": 2169,
      "Ġcir": 2170,
      "itions": 2171,
      "ances": 2172,
      "Ġdifference": 2173,
      "ĠWikitravel": 2174,
      "ronic": 2175,
      "Ad": 2176,
      "Ġwebsite": 2177,
      "ches": 2178,
      "Ġlove": 2179,
      "amily": 2180,
      "ĠLicense": 2181,
      "ĠÎ¼": 2182,
      "Ġunderstand": 2183,
      "ĠSearch": 2184,
      "Ġenergy": 2185,
      "Ġsoftware": 2186,
      "ĠAM": 2187,
      "Ġcommunity": 2188,
      "Ġlikely": 2189,
      "ling": 2190,
      "atal": 2191,
      "Ġabs": 2192,
      "ĠNUMBER": 2193,
      "Ġkeep": 2194,
      "Ġstructure": 2195,
      "Ġpriv": 2196,
      "irm": 2197,
      "Ġacross": 2198,
      "ĠResearch": 2199,
      "Ġclinical": 2200,
      "Ġvir": 2201,
      "Ġhap": 2202,
      "ĠPHONE": 2203,
      "ĠMark": 2204,
      "Ġnormal": 2205,
      "CT": 2206,
      "Ġyet": 2207,
      "Ġpatient": 2208,
      "Ġrecent": 2209,
      "Ġpress": 2210,
      "ĠPe": 2211,
      "Ġcomplex": 2212,
      "ique": 2213,
      "Ġappear": 2214,
      "lobal": 2215,
      "Ab": 2216,
      "IN": 2217,
      "rie": 2218,
      "ĠOne": 2219,
      "Ġquality": 2220,
      "Ġleg": 2221,
      "Ġaccording": 2222,
      "Ġmembers": 2223,
      "Toolbox": 2224,
      "Ġsites": 2225,
      "Ġplan": 2226,
      "ma": 2227,
      "uff": 2228,
      "Ġsens": 2229,
      "ditions": 2230,
      "abet": 2231,
      "Ġart": 2232,
      "Ġgoing": 2233,
      "Ġur": 2234,
      "Ġdrug": 2235,
      "ĠDo": 2236,
      "ensive": 2237,
      "Ġperformed": 2238,
      "omb": 2239,
      "ĠCD": 2240,
      "Ġtalk": 2241,
      "Ġhost": 2242,
      "Ġoccur": 2243,
      "Ġhours": 2244,
      "osph": 2245,
      "Ġrequired": 2246,
      "Ġmonths": 2247,
      "hold": 2248,
      "Ġfar": 2249,
      "ĠSuper": 2250,
      "och": 2251,
      "itation": 2252,
      "Ġmot": 2253,
      "Ġsection": 2254,
      "ternal": 2255,
      "Ġsubject": 2256,
      "Ġmole": 2257,
      "epend": 2258,
      "hemical": 2259,
      "ird": 2260,
      "ored": 2261,
      "Ġroad": 2262,
      "share": 2263,
      "Ġsize": 2264,
      "use": 2265,
      "As": 2266,
      "asing": 2267,
      "Ġrelations": 2268,
      "uary": 2269,
      "Ġclose": 2270,
      "Ġwhether": 2271,
      "ks": 2272,
      "roll": 2273,
      "ivity": 2274,
      "Ġinflu": 2275,
      "Ġmov": 2276,
      "olic": 2277,
      "Ġrelative": 2278,
      "ledge": 2279,
      "isc": 2280,
      "ĠSouth": 2281,
      "Ġtemper": 2282,
      "ething": 2283,
      "rapy": 2284,
      "uly": 2285,
      "ream": 2286,
      "Ġcomput": 2287,
      "uthor": 2288,
      "ĠAttribution": 2289,
      "alf": 2290,
      "Ġlater": 2291,
      "osed": 2292,
      "duction": 2293,
      "Ġauthors": 2294,
      "Ġpay": 2295,
      "Ġder": 2296,
      "uture": 2297,
      "Ġvalues": 2298,
      "ĠWhat": 2299,
      "Ġenough": 2300,
      "ror": 2301,
      "amb": 2302,
      "Ġdeg": 2303,
      "Ġcann": 2304,
      "wards": 2305,
      "Ġobserved": 2306,
      "It": 2307,
      "imal": 2308,
      "Ġconcent": 2309,
      "ogn": 2310,
      "Ġdest": 2311,
      "aterial": 2312,
      "Ġbind": 2313,
      "Ġidentified": 2314,
      "Ġconditions": 2315,
      "Ġdri": 2316,
      "ĠReg": 2317,
      "edi": 2318,
      "ĠCity": 2319,
      "ĠĊĊĊ": 2320,
      "ĠWar": 2321,
      "Ġprovided": 2322,
      "Ġtarget": 2323,
      "come": 2324,
      "omp": 2325,
      "ĠCor": 2326,
      "Ġothers": 2327,
      "Ġhowever": 2328,
      "ĠDepartment": 2329,
      "ead": 2330,
      "Ġhard": 2331,
      "ĠNot": 2332,
      "Ġneg": 2333,
      "ĠApr": 2334,
      "Ġpain": 2335,
      "Ġreally": 2336,
      "lands": 2337,
      "ĠAss": 2338,
      "Ġdocument": 2339,
      "ĠSw": 2340,
      "Ġaccept": 2341,
      "nect": 2342,
      "Ġdra": 2343,
      "ille": 2344,
      "pecial": 2345,
      "ĠOct": 2346,
      "Ġadditional": 2347,
      "Ġaffect": 2348,
      "Cont": 2349,
      "Ġla": 2350,
      "Ġgenome": 2351,
      "Ġox": 2352,
      "ights": 2353,
      "ibility": 2354,
      "aps": 2355,
      "Ġmultiple": 2356,
      "ĠFl": 2357,
      "yt": 2358,
      "Ġreferences": 2359,
      "Ġsamples": 2360,
      "Ġsomething": 2361,
      "Ġbar": 2362,
      "Ch": 2363,
      "Th": 2364,
      "Ġclear": 2365,
      "roph": 2366,
      "Ġrat": 2367,
      "Ġapproach": 2368,
      "ply": 2369,
      "Ġlicens": 2370,
      "ival": 2371,
      "Ġmeans": 2372,
      "Ġcountries": 2373,
      "ĠCount": 2374,
      "Ġfem": 2375,
      "ĠMc": 2376,
      "ĠĠÂłĠĠÂłĠĠÂłĠĠÂł": 2377,
      "Ġmoney": 2378,
      "Ġhaving": 2379,
      "ĠÎ±": 2380,
      "unic": 2381,
      "Ġpositive": 2382,
      "Ġpast": 2383,
      "Ġincluded": 2384,
      "Sh": 2385,
      "ĠĠĠĠ": 2386,
      "Ġge": 2387,
      "Ġrespons": 2388,
      "ana": 2389,
      "ĠEv": 2390,
      "istic": 2391,
      "Ġcheck": 2392,
      "Ġfive": 2393,
      "omet": 2394,
      "Ġevalu": 2395,
      "Ġpoly": 2396,
      "Ġdetect": 2397,
      "hel": 2398,
      "Ġanc": 2399,
      "andom": 2400,
      "Ġvarious": 2401,
      "ES": 2402,
      "most": 2403,
      "of": 2404,
      "resp": 2405,
      "Ġdisplay": 2406,
      "Ġonline": 2407,
      "ands": 2408,
      "Ġneeds": 2409,
      "Ġsample": 2410,
      "If": 2411,
      "elp": 2412,
      "ĠRec": 2413,
      "Ġconsider": 2414,
      "Ġreason": 2415,
      "Ġprot": 2416,
      "ips": 2417,
      "estern": 2418,
      "ama": 2419,
      "Ġpattern": 2420,
      "Qu": 2421,
      "by": 2422,
      "Ġcateg": 2423,
      "ables": 2424,
      "ĠJournal": 2425,
      "These": 2426,
      "Ġclust": 2427,
      "Ġworking": 2428,
      "Ġpolit": 2429,
      "Ġsocial": 2430,
      "Ġblock": 2431,
      "Ġevidence": 2432,
      "Ġdistribution": 2433,
      "Ġdiagn": 2434,
      "Ġpolicy": 2435,
      "ister": 2436,
      "ĠMin": 2437,
      "Ġmedical": 2438,
      "ags": 2439,
      "ĠOpen": 2440,
      "Ps": 2441,
      "Ġcard": 2442,
      "Ġcertain": 2443,
      "ĠFamily": 2444,
      "rial": 2445,
      "ensus": 2446,
      "Ġupon": 2447,
      "Ġamount": 2448,
      "Ġquotation": 2449,
      "Ġmechan": 2450,
      "IL": 2451,
      "itle": 2452,
      "ilt": 2453,
      "rink": 2454,
      "ills": 2455,
      "icine": 2456,
      "Ġsystems": 2457,
      "Pro": 2458,
      "Ġself": 2459,
      "Ġmaking": 2460,
      "Ġshowed": 2461,
      "ps": 2462,
      "ilit": 2463,
      "Ġbehav": 2464,
      "Ġce": 2465,
      "Ġwar": 2466,
      "Ġdone": 2467,
      "ĠPart": 2468,
      "Ġgra": 2469,
      "ĠBo": 2470,
      "itude": 2471,
      "iting": 2472,
      "Ġdam": 2473,
      "ental": 2474,
      "reek": 2475,
      "Ġsit": 2476,
      "Ġnatural": 2477,
      "Ġcannot": 2478,
      "Ġusually": 2479,
      "Ġproduction": 2480,
      "Ġsequences": 2481,
      "Ġobtained": 2482,
      "Ġren": 2483,
      "ĠInternational": 2484,
      "Ġkey": 2485,
      "urg": 2486,
      "ĠEar": 2487,
      "Ġprovides": 2488,
      "Ġprimary": 2489,
      "Ġwide": 2490,
      "imes": 2491,
      "Ġpri": 2492,
      "ape": 2493,
      "ids": 2494,
      "cell": 2495,
      "ng": 2496,
      "Ġdescribed": 2497,
      "side": 2498,
      "icult": 2499,
      "oma": 2500,
      "erc": 2501,
      "ĠShe": 2502,
      "ĠâĢĺ": 2503,
      "Ġbody": 2504,
      "ĠBr": 2505,
      "Ġnothing": 2506,
      "Ġpercent": 2507,
      "posed": 2508,
      "Ġcalcul": 2509,
      "ule": 2510,
      "Ġwr": 2511,
      "opus": 2512,
      "ume": 2513,
      "Ġindepend": 2514,
      "Ġrecord": 2515,
      "Ġmethods": 2516,
      "respond": 2517,
      "over": 2518,
      "Ġlisting": 2519,
      "fficient": 2520,
      "Ġtoget": 2521,
      "verse": 2522,
      "ĠGet": 2523,
      "Ġemploy": 2524,
      "Ġshows": 2525,
      "Ġfactor": 2526,
      "ĠBooks": 2527,
      "ĠJanuary": 2528,
      "Ġtogether": 2529,
      "Pub": 2530,
      "sc": 2531,
      "ĠMy": 2532,
      "Un": 2533,
      "ham": 2534,
      "Ġtum": 2535,
      "Ġmarket": 2536,
      "Ġinvolved": 2537,
      "Ġhist": 2538,
      "utions": 2539,
      "ĠVer": 2540,
      "Ġexperience": 2541,
      "hest": 2542,
      "Ġplease": 2543,
      "Ġmor": 2544,
      "ength": 2545,
      "otic": 2546,
      "ĠEl": 2547,
      "Ġsignificantly": 2548,
      "iam": 2549,
      "yle": 2550,
      "Ġpers": 2551,
      "Ġoffic": 2552,
      "Ġbecome": 2553,
      "Ġrather": 2554,
      "Ġestab": 2555,
      "Ġhyp": 2556,
      "ĠDon": 2557,
      "Ġeduc": 2558,
      "ped": 2559,
      "oman": 2560,
      "ĠAct": 2561,
      "ĠJune": 2562,
      "Ġinhib": 2563,
      "Ġlive": 2564,
      "ĠHotel": 2565,
      "irth": 2566,
      "apan": 2567,
      "Ġdatab": 2568,
      "Ġbookmarked": 2569,
      "ĠPages": 2570,
      "Ġroom": 2571,
      "ĠAugust": 2572,
      "Ġrelationship": 2573,
      "oly": 2574,
      "we": 2575,
      "Ġfuture": 2576,
      "ili": 2577,
      "Ġrandom": 2578,
      "augh": 2579,
      "view": 2580,
      "aling": 2581,
      "lex": 2582,
      "Ġnight": 2583,
      "Ġproblems": 2584,
      "Ġbig": 2585,
      "utes": 2586,
      "Ġmanagement": 2587,
      "Ġill": 2588,
      "Ġaverage": 2589,
      "rag": 2590,
      "ĠPhys": 2591,
      "EN": 2592,
      "Ġfail": 2593,
      "urch": 2594,
      "ĠGerm": 2595,
      "Ġdifferences": 2596,
      "Ġblog": 2597,
      "Ġrespectively": 2598,
      "Ġmillion": 2599,
      "Ġhom": 2600,
      "ilities": 2601,
      "Ġwhole": 2602,
      "Ġcorrespond": 2603,
      "ront": 2604,
      "Ġdeveloped": 2605,
      "Ġexperiment": 2606,
      "aries": 2607,
      "ternet": 2608,
      "Ġport": 2609,
      "sequ": 2610,
      "Ġheav": 2611,
      "ĠInstit": 2612,
      "Ġconsist": 2613,
      "Ġschool": 2614,
      "bs": 2615,
      "Ġmass": 2616,
      "Ġlot": 2617,
      "ĠSci": 2618,
      "Ġdifficult": 2619,
      "DB": 2620,
      "dom": 2621,
      "imum": 2622,
      "odes": 2623,
      "Table": 2624,
      "Ġdemon": 2625,
      "MC": 2626,
      "ura": 2627,
      "ĠMicro": 2628,
      "isms": 2629,
      "Ġindividuals": 2630,
      "ires": 2631,
      "Ġcut": 2632,
      "Ġthing": 2633,
      "Ġlay": 2634,
      "ĠWill": 2635,
      "Ġselection": 2636,
      "Ġplant": 2637,
      "Ġdecre": 2638,
      "Ġforest": 2639,
      "Ġlanguages": 2640,
      "ĠFeb": 2641,
      "ĠDes": 2642,
      "View": 2643,
      "ĠSte": 2644,
      "ada": 2645,
      "istration": 2646,
      "ĠArm": 2647,
      "Ġrestrict": 2648,
      "ĠApril": 2649,
      "actions": 2650,
      "plied": 2651,
      "ĠScopus": 2652,
      "Ġparam": 2653,
      "org": 2654,
      "ett": 2655,
      "ĠĊĊĠÂłĠĊ": 2656,
      "anies": 2657,
      "Ġpublished": 2658,
      "ection": 2659,
      "Ġpack": 2660,
      "Ġarch": 2661,
      "Ġregions": 2662,
      "oading": 2663,
      "Ġinfe": 2664,
      "abor": 2665,
      "Ġdoi": 2666,
      "Ġregard": 2667,
      "Ġscreen": 2668,
      "icked": 2669,
      "Ġoffer": 2670,
      "ĠAfter": 2671,
      "vey": 2672,
      "Ġknowledge": 2673,
      "uel": 2674,
      "Ġsepar": 2675,
      "Ġver": 2676,
      "ially": 2677,
      "ffice": 2678,
      "Ġworks": 2679,
      "cies": 2680,
      "ĠHar": 2681,
      "Ġnecess": 2682,
      "Ġphysical": 2683,
      "Ġtypes": 2684,
      "ĠADD": 2685,
      "Ġred": 2686,
      "ĠMarch": 2687,
      "ĠSec": 2688,
      "Ġenter": 2689,
      "ey": 2690,
      "now": 2691,
      "Ġmention": 2692,
      "Ġmakes": 2693,
      "ades": 2694,
      "Ġvia": 2695,
      "acc": 2696,
      "dro": 2697,
      "ĠSan": 2698,
      "ĠMore": 2699,
      "chie": 2700,
      "abit": 2701,
      "ption": 2702,
      "Ġcourse": 2703,
      "ibrary": 2704,
      "Ġæ": 2705,
      "Ġcross": 2706,
      "RESS": 2707,
      "ĠEditor": 2708,
      "hi": 2709,
      "isions": 2710,
      "Ġimplement": 2711,
      "Ġintegr": 2712,
      "Ġsal": 2713,
      "ctor": 2714,
      "Ġonce": 2715,
      "ĠâĢī": 2716,
      "ĠWith": 2717,
      "Ġwhy": 2718,
      "Ġindex": 2719,
      "Ġconsum": 2720,
      "Ġà¦": 2721,
      "Ġfa": 2722,
      "Ġeff": 2723,
      "Ġexcept": 2724,
      "ĠChar": 2725,
      "Add": 2726,
      "Ġhold": 2727,
      "ĠPres": 2728,
      "ĠFran": 2729,
      "ĠWest": 2730,
      "Ġshop": 2731,
      "Ġindustry": 2732,
      "AC": 2733,
      "Con": 2734,
      "aut": 2735,
      "ze": 2736,
      "Ġsure": 2737,
      "Ġhalf": 2738,
      "Ġvisit": 2739,
      "Ġproducts": 2740,
      "ĠADDRESS": 2741,
      "Ġfall": 2742,
      "Ġfinal": 2743,
      "Ġec": 2744,
      "Ġuser": 2745,
      "Ġadj": 2746,
      "ĠAustralia": 2747,
      "ĠPage": 2748,
      "ĠInt": 2749,
      "Ġclaim": 2750,
      "Ġsurface": 2751,
      "ĠJuly": 2752,
      "Ġimpact": 2753,
      "Ġtissue": 2754,
      "Ġmaterial": 2755,
      "Ġhotel": 2756,
      "otations": 2757,
      "ĠDav": 2758,
      "ivil": 2759,
      "gor": 2760,
      "eration": 2761,
      "ese": 2762,
      "Ġpaper": 2763,
      "ĠStat": 2764,
      "Ġetc": 2765,
      "Ġrestaur": 2766,
      "imately": 2767,
      "ns": 2768,
      "Ġtaken": 2769,
      "Ġsouth": 2770,
      "Ġwiki": 2771,
      "alan": 2772,
      "ara": 2773,
      "Ġquestions": 2774,
      "Ġstatus": 2775,
      "ĠScholar": 2776,
      "Ġrates": 2777,
      "Ġseries": 2778,
      "Ġautom": 2779,
      "Ġbene": 2780,
      "Ġdate": 2781,
      "ready": 2782,
      "Ġquant": 2783,
      "ĠScience": 2784,
      "Ġrequire": 2785,
      "ĠRep": 2786,
      "selves": 2787,
      "Ġbelow": 2788,
      "Ġbinding": 2789,
      "Ġtell": 2790,
      "cember": 2791,
      "ules": 2792,
      "ategy": 2793,
      "Ġemb": 2794,
      "ĠSome": 2795,
      "Ġunc": 2796,
      "ounds": 2797,
      "ĠYork": 2798,
      "Ġtherefore": 2799,
      "Ġfeatures": 2800,
      "sp": 2801,
      "attle": 2802,
      "Ġrevision": 2803,
      "lin": 2804,
      "ising": 2805,
      "Ġreve": 2806,
      "Ġlack": 2807,
      "ĠIP": 2808,
      "seus": 2809,
      "ĠEm": 2810,
      "Ġconnect": 2811,
      "ĠLear": 2812,
      "att": 2813,
      "Ġbr": 2814,
      "Ġmind": 2815,
      "ĠSer": 2816,
      "ET": 2817,
      "Ġcreat": 2818,
      "ĠCenter": 2819,
      "Ġextract": 2820,
      "ĠCA": 2821,
      "Ġalready": 2822,
      "ĠVal": 2823,
      "Ġkind": 2824,
      "ĠClin": 2825,
      "Ġsix": 2826,
      "ĠRNA": 2827,
      "umb": 2828,
      "illed": 2829,
      "ĠThat": 2830,
      "pecially": 2831,
      "Ex": 2832,
      "Ġcr": 2833,
      "Ġinternational": 2834,
      "ste": 2835,
      "ĠJapan": 2836,
      "Ġcontact": 2837,
      "Ġfund": 2838,
      "Ġinvestig": 2839,
      "ĠTrans": 2840,
      "Ġaff": 2841,
      "Ġachie": 2842,
      "Ġuses": 2843,
      "And": 2844,
      "ĠPCR": 2845,
      "ched": 2846,
      "rast": 2847,
      "Ġnorth": 2848,
      "Ġlines": 2849,
      "ĠKing": 2850,
      "ĠDecember": 2851,
      "Ġcame": 2852,
      "ending": 2853,
      "Ġcompanies": 2854,
      "Ġcyt": 2855,
      "OR": 2856,
      "iers": 2857,
      "na": 2858,
      "Ġri": 2859,
      "Ġcop": 2860,
      "Ġcause": 2861,
      "Ġnational": 2862,
      "ĠHistory": 2863,
      "Ġphosph": 2864,
      "Ġorigin": 2865,
      "Ġbase": 2866,
      "urrent": 2867,
      "Ġvide": 2868,
      "Ġalthough": 2869,
      "Ġlength": 2870,
      "iff": 2871,
      "Ġflu": 2872,
      "ĠAfric": 2873,
      "Ġdemonstr": 2874,
      "oz": 2875,
      "Ġhit": 2876,
      "oto": 2877,
      "ender": 2878,
      "ĠOctober": 2879,
      "IV": 2880,
      "Ġwon": 2881,
      "Ġphen": 2882,
      "ington": 2883,
      "vere": 2884,
      "ĠMA": 2885,
      "urity": 2886,
      "Ġalmost": 2887,
      "Ġposition": 2888,
      "ridge": 2889,
      "Ġculture": 2890,
      "ĠÑ": 2891,
      "ony": 2892,
      "Ġinj": 2893,
      "Ġtoday": 2894,
      "ĠSub": 2895,
      "Ġconduct": 2896,
      "Ġrecently": 2897,
      "Ġtravel": 2898,
      "Ġpoints": 2899,
      "Ġmess": 2900,
      "ask": 2901,
      "Ġtrue": 2902,
      "ographic": 2903,
      "clusion": 2904,
      "rew": 2905,
      "ica": 2906,
      "ĠCell": 2907,
      "ĠFound": 2908,
      "Ġcond": 2909,
      "Ġdoing": 2910,
      "Ph": 2911,
      "vant": 2912,
      "Ġdecl": 2913,
      "ensity": 2914,
      "ĠComp": 2915,
      "To": 2916,
      "ĠEast": 2917,
      "Ġplat": 2918,
      "Ġdistribut": 2919,
      "hide": 2920,
      "pid": 2921,
      "Ġdoub": 2922,
      "istry": 2923,
      "Ġgenetic": 2924,
      "Ġdomain": 2925,
      "chers": 2926,
      "Ġthus": 2927,
      "Ġstra": 2928,
      "Ġstop": 2929,
      "ĠÎ²": 2930,
      "Ġcollection": 2931,
      "ĠGeneral": 2932,
      "Ġreturn": 2933,
      "istance": 2934,
      "ĠEngine": 2935,
      "Ġidentify": 2936,
      "ĠAir": 2937,
      "Ġlib": 2938,
      "amed": 2939,
      "irit": 2940,
      "rane": 2941,
      "Ġanti": 2942,
      "ĠĠĠ": 2943,
      "Ġrelease": 2944,
      "Ġobject": 2945,
      "cription": 2946,
      "Ġcontinu": 2947,
      "Ġreceptor": 2948,
      "Ġter": 2949,
      "Ġtour": 2950,
      "ush": 2951,
      "Ġupd": 2952,
      "ruction": 2953,
      "Ġanaly": 2954,
      "Ġapprox": 2955,
      "Ġperformance": 2956,
      "gorith": 2957,
      "Ġut": 2958,
      "Ġfeed": 2959,
      "Ġapplication": 2960,
      "ald": 2961,
      "aches": 2962,
      "Ġidea": 2963,
      "http": 2964,
      "ien": 2965,
      "oul": 2966,
      "Ġmix": 2967,
      "Ġmodels": 2968,
      "Ġbreak": 2969,
      "Ġespecially": 2970,
      "Ġtw": 2971,
      "Ġwin": 2972,
      "ĠTop": 2973,
      "raction": 2974,
      "Ġcompon": 2975,
      "Ġreceived": 2976,
      "Ġpark": 2977,
      "Ġreach": 2978,
      "ĠSE": 2979,
      "Ġevents": 2980,
      "ovember": 2981,
      "Ġsurv": 2982,
      "Ġeffort": 2983,
      "omas": 2984,
      "ĠPat": 2985,
      "Ġseems": 2986,
      "Ġevent": 2987,
      "Ġtemperature": 2988,
      "Ġresources": 2989,
      "ĠĠÂłĠĠÂłĠ": 2990,
      "Ġsitu": 2991,
      "esus": 2992,
      "Ġcamp": 2993,
      "ulations": 2994,
      "ension": 2995,
      "Ġpoor": 2996,
      "Ġbenef": 2997,
      "Loading": 2998,
      "bo": 2999,
      "ban": 3000,
      "zym": 3001,
      "Ġwind": 3002,
      "ĠPD": 3003,
      "empt": 3004,
      "izing": 3005,
      "Ġissue": 3006,
      "Ġnucle": 3007,
      "rance": 3008,
      "rown": 3009,
      "Ġbegin": 3010,
      "aring": 3011,
      "ĠInc": 3012,
      "ĠSim": 3013,
      "ĠMS": 3014,
      "ĠBrit": 3015,
      "ĠShare": 3016,
      "ĠDisplay": 3017,
      "ĠCounty": 3018,
      "aul": 3019,
      "hood": 3020,
      "iet": 3021,
      "Ġmeth": 3022,
      "Ġforward": 3023,
      "Ġprotect": 3024,
      "Ġhighly": 3025,
      "Author": 3026,
      "ĠServ": 3027,
      "Ġstage": 3028,
      "semb": 3029,
      "ĠLa": 3030,
      "Ġtechnology": 3031,
      "Ġeconomic": 3032,
      "igen": 3033,
      "Ġperm": 3034,
      "Ġexpressed": 3035,
      "Ġneeded": 3036,
      "ĠSept": 3037,
      "Ġminor": 3038,
      "Ġincreasing": 3039,
      "Ġdownload": 3040,
      "Ġantib": 3041,
      "Ġplayer": 3042,
      "Ġpreviously": 3043,
      "ĠâĢ¦": 3044,
      "Ġdeb": 3045,
      "Ġissues": 3046,
      "He": 3047,
      "ties": 3048,
      "vision": 3049,
      "Ġwords": 3050,
      "Ġhospital": 3051,
      "Ġloss": 3052,
      "Ġliving": 3053,
      "Ġsell": 3054,
      "aves": 3055,
      "ĠChina": 3056,
      "ĠInstitute": 3057,
      "inary": 3058,
      "Ġcle": 3059,
      "ĠCO": 3060,
      "Ġglobal": 3061,
      "Ġstation": 3062,
      "Ġcomment": 3063,
      "ownload": 3064,
      "Ġnovel": 3065,
      "Ġsupported": 3066,
      "Us": 3067,
      "Ġsent": 3068,
      "Ġmax": 3069,
      "asm": 3070,
      "omics": 3071,
      "Ġever": 3072,
      "idel": 3073,
      "ulated": 3074,
      "Ġconcer": 3075,
      "ests": 3076,
      "ĠStreet": 3077,
      "Ġfeel": 3078,
      "Ġlinked": 3079,
      "IC": 3080,
      "More": 3081,
      "ij": 3082,
      "Ġfire": 3083,
      "Ġvote": 3084,
      "ptoms": 3085,
      "By": 3086,
      "ĠRoad": 3087,
      "Ġarm": 3088,
      "Ġcou": 3089,
      "Ġenem": 3090,
      "Ġcreated": 3091,
      "ĠâĢīĠ": 3092,
      "pose": 3093,
      "wise": 3094,
      "Ġess": 3095,
      "aint": 3096,
      "Ġenvironmental": 3097,
      "pri": 3098,
      "ĠHer": 3099,
      "Ġchrom": 3100,
      "ĠÃĹ": 3101,
      "Ġaddress": 3102,
      "Ġflow": 3103,
      "Ġlinks": 3104,
      "Ġliter": 3105,
      "Ġprior": 3106,
      "On": 3107,
      "Ġwa": 3108,
      "otyp": 3109,
      "ĠFe": 3110,
      "ĠFrom": 3111,
      "Ġarg": 3112,
      "Ġresid": 3113,
      "hesis": 3114,
      "Ġdevice": 3115,
      "Ġindependent": 3116,
      "fort": 3117,
      "Ġbacter": 3118,
      "ĠJo": 3119,
      "Ġaltern": 3120,
      "Ġadmin": 3121,
      "Ġsym": 3122,
      "FDB": 3123,
      "bor": 3124,
      "Ġword": 3125,
      "Ġprec": 3126,
      "anks": 3127,
      "ĠBiol": 3128,
      "Ġsil": 3129,
      "Ġsays": 3130,
      "Ġshare": 3131,
      "Ġcontaining": 3132,
      "Ġpresence": 3133,
      "Ġavoid": 3134,
      "ĠLearn": 3135,
      "ging": 3136,
      "itch": 3137,
      "Ġda": 3138,
      "amin": 3139,
      "ĠNovember": 3140,
      "Ġinduced": 3141,
      "cil": 3142,
      "ĠSpe": 3143,
      "Ġability": 3144,
      "ards": 3145,
      "ervation": 3146,
      "Ġentire": 3147,
      "Ġsus": 3148,
      "Ġlo": 3149,
      "Ġstay": 3150,
      "ĠState": 3151,
      "Ġspect": 3152,
      "PI": 3153,
      "Ġcred": 3154,
      "anc": 3155,
      "Ġbring": 3156,
      "ĠNet": 3157,
      "ĠStud": 3158,
      "Ġintro": 3159,
      "Ġevolution": 3160,
      "Ġnumbers": 3161,
      "Ar": 3162,
      "aled": 3163,
      "Ġsex": 3164,
      "Ġrecogn": 3165,
      "ĠĠĠÂłĠĠ": 3166
    },
    "merges": [
      [
        "Ġ",
        "t"
      ],
      [
        "Ġ",
        "a"
      ],
      [
        "i",
        "n"
      ],
      [
        "h",
        "e"
      ],
      [
        "o",
        "n"
      ],
      [
        "r",
        "e"
      ],
      [
        "Ġ",
        "."
      ],
      [
        "Ġ",
        ","
      ],
      [
        "e",
        "r"
      ],
      [
        "a",
        "t"
      ],
      [
        "Ġt",
        "he"
      ],
      [
        "Ġ",
        "s"
      ],
      [
        "Ġ",
        "o"
      ],
      [
        "e",
        "n"
      ],
      [
        "i",
        "s"
      ],
      [
        "e",
        "s"
      ],
      [
        "Ġ",
        "c"
      ],
      [
        "Ġ",
        "-"
      ],
      [
        "e",
        "d"
      ],
      [
        "o",
        "r"
      ],
      [
        "i",
        "t"
      ],
      [
        "a",
        "n"
      ],
      [
        "Ġ",
        "w"
      ],
      [
        "a",
        "l"
      ],
      [
        "Ġ",
        "Ġ"
      ],
      [
        "Ġ",
        "p"
      ],
      [
        "Ġa",
        "n"
      ],
      [
        "Ġ",
        "f"
      ],
      [
        "Ġo",
        "f"
      ],
      [
        "a",
        "r"
      ],
      [
        "Ġ",
        "b"
      ],
      [
        "i",
        "on"
      ],
      [
        "Ġ",
        "in"
      ],
      [
        "i",
        "c"
      ],
      [
        "Ġ",
        "Ċ"
      ],
      [
        "Ġ",
        "1"
      ],
      [
        "o",
        "u"
      ],
      [
        "Ġ",
        "m"
      ],
      [
        "in",
        "g"
      ],
      [
        "Ġan",
        "d"
      ],
      [
        "Ġ",
        "d"
      ],
      [
        "Ġ",
        "0"
      ],
      [
        "Ġt",
        "o"
      ],
      [
        "r",
        "o"
      ],
      [
        "l",
        "e"
      ],
      [
        "a",
        "s"
      ],
      [
        "Ġ",
        "2"
      ],
      [
        "en",
        "t"
      ],
      [
        "Ġ",
        "h"
      ],
      [
        "c",
        "t"
      ],
      [
        "Ġt",
        "h"
      ],
      [
        "Ġ",
        "T"
      ],
      [
        "Ġ",
        "re"
      ],
      [
        "l",
        "l"
      ],
      [
        "Ġ",
        "n"
      ],
      [
        "Ġ",
        "S"
      ],
      [
        "o",
        "m"
      ],
      [
        "Ġ",
        "A"
      ],
      [
        "Ġ",
        "l"
      ],
      [
        "s",
        "t"
      ],
      [
        "Ġ",
        "e"
      ],
      [
        "Ġ",
        ":"
      ],
      [
        "v",
        "e"
      ],
      [
        "Ġ",
        "C"
      ],
      [
        "o",
        "t"
      ],
      [
        "Ġ",
        "P"
      ],
      [
        "at",
        "ion"
      ],
      [
        "e",
        "t"
      ],
      [
        "Ġ",
        "|"
      ],
      [
        "Ġ",
        "g"
      ],
      [
        "Ġ",
        "3"
      ],
      [
        "l",
        "y"
      ],
      [
        "Ġ",
        ")"
      ],
      [
        "Ġ",
        "is"
      ],
      [
        "Ġ",
        "("
      ],
      [
        "i",
        "d"
      ],
      [
        "Ġ",
        "M"
      ],
      [
        "u",
        "s"
      ],
      [
        "Ġ",
        "I"
      ],
      [
        "u",
        "t"
      ],
      [
        "r",
        "a"
      ],
      [
        "o",
        "l"
      ],
      [
        "i",
        "g"
      ],
      [
        "c",
        "e"
      ],
      [
        "Ġ",
        "on"
      ],
      [
        "Â",
        "ł"
      ],
      [
        "i",
        "m"
      ],
      [
        "Ġf",
        "or"
      ],
      [
        "Ġ",
        "5"
      ],
      [
        "Ġ",
        "4"
      ],
      [
        "c",
        "h"
      ],
      [
        "Ġ",
        "B"
      ],
      [
        "Ġ",
        "9"
      ],
      [
        "ĠĊ",
        "Ċ"
      ],
      [
        "Ġb",
        "e"
      ],
      [
        "o",
        "w"
      ],
      [
        "u",
        "r"
      ],
      [
        "a",
        "m"
      ],
      [
        "i",
        "l"
      ],
      [
        "â",
        "Ģ"
      ],
      [
        "u",
        "l"
      ],
      [
        "v",
        "er"
      ],
      [
        "Ġs",
        "t"
      ],
      [
        "Ġ",
        "F"
      ],
      [
        "Ġ",
        "6"
      ],
      [
        "Ġ",
        "âĢ"
      ],
      [
        "u",
        "n"
      ],
      [
        "it",
        "h"
      ],
      [
        "Ġ",
        "y"
      ],
      [
        "a",
        "y"
      ],
      [
        "Ġ",
        "8"
      ],
      [
        "Ġ",
        "7"
      ],
      [
        "s",
        "e"
      ],
      [
        "Ġ",
        "D"
      ],
      [
        "i",
        "f"
      ],
      [
        "he",
        "r"
      ],
      [
        "Ġ",
        "R"
      ],
      [
        "Ġ",
        "E"
      ],
      [
        "Ġw",
        "ith"
      ],
      [
        "Ġ",
        "H"
      ],
      [
        "a",
        "d"
      ],
      [
        "Ġth",
        "at"
      ],
      [
        "Ġp",
        "ro"
      ],
      [
        "Ġc",
        "on"
      ],
      [
        "Ġa",
        "s"
      ],
      [
        "Ġ",
        "G"
      ],
      [
        "Ġ",
        "Âł"
      ],
      [
        "a",
        "g"
      ],
      [
        "r",
        "i"
      ],
      [
        "Ġw",
        "e"
      ],
      [
        "i",
        "r"
      ],
      [
        "Ġ",
        "L"
      ],
      [
        "o",
        "p"
      ],
      [
        "o",
        "d"
      ],
      [
        "Ġ",
        "/"
      ],
      [
        "t",
        "er"
      ],
      [
        "u",
        "b"
      ],
      [
        "Ġ",
        "'"
      ],
      [
        "Ġy",
        "ou"
      ],
      [
        "Ġ",
        "W"
      ],
      [
        "u",
        "m"
      ],
      [
        "q",
        "u"
      ],
      [
        "ĠT",
        "he"
      ],
      [
        "Ġ",
        "\""
      ],
      [
        "Ġ",
        "N"
      ],
      [
        "is",
        "t"
      ],
      [
        "Ġ",
        "v"
      ],
      [
        "Ġa",
        "re"
      ],
      [
        "e",
        "m"
      ],
      [
        "e",
        "l"
      ],
      [
        "Ġ",
        ">"
      ],
      [
        "a",
        "b"
      ],
      [
        "at",
        "e"
      ],
      [
        "re",
        "s"
      ],
      [
        "Ġ",
        "<"
      ],
      [
        "er",
        "s"
      ],
      [
        "o",
        "s"
      ],
      [
        "Ġo",
        "r"
      ],
      [
        "ro",
        "m"
      ],
      [
        "es",
        "t"
      ],
      [
        "Ċ",
        "Ċ"
      ],
      [
        "Ġw",
        "h"
      ],
      [
        "o",
        "c"
      ],
      [
        "Ġ",
        "J"
      ],
      [
        "Ġc",
        "om"
      ],
      [
        "Ġs",
        "e"
      ],
      [
        "Ġ",
        "["
      ],
      [
        "Ġ",
        "he"
      ],
      [
        "it",
        "y"
      ],
      [
        "Ġ",
        "]"
      ],
      [
        "Ġ",
        "it"
      ],
      [
        "t",
        "h"
      ],
      [
        "Ġe",
        "x"
      ],
      [
        "p",
        "e"
      ],
      [
        "Ġb",
        "y"
      ],
      [
        "a",
        "c"
      ],
      [
        "Ġd",
        "e"
      ],
      [
        "Ġa",
        "t"
      ],
      [
        "o",
        "g"
      ],
      [
        "an",
        "t"
      ],
      [
        "ou",
        "n"
      ],
      [
        "i",
        "ve"
      ],
      [
        "i",
        "ll"
      ],
      [
        "m",
        "ent"
      ],
      [
        "an",
        "d"
      ],
      [
        "es",
        "s"
      ],
      [
        "Ġth",
        "is"
      ],
      [
        "e",
        "w"
      ],
      [
        "Ġf",
        "rom"
      ],
      [
        "o",
        "re"
      ],
      [
        "Ġ",
        "r"
      ],
      [
        "Ġw",
        "as"
      ],
      [
        "a",
        "in"
      ],
      [
        "Ġ",
        "us"
      ],
      [
        "or",
        "t"
      ],
      [
        "i",
        "es"
      ],
      [
        "f",
        "e"
      ],
      [
        "at",
        "ed"
      ],
      [
        "u",
        "re"
      ],
      [
        "Ġ",
        "O"
      ],
      [
        "Ġa",
        "l"
      ],
      [
        "k",
        "e"
      ],
      [
        "re",
        "n"
      ],
      [
        "ct",
        "ion"
      ],
      [
        "i",
        "v"
      ],
      [
        "ig",
        "h"
      ],
      [
        "u",
        "p"
      ],
      [
        "Ġn",
        "ot"
      ],
      [
        "l",
        "d"
      ],
      [
        "ĠĠ",
        "Âł"
      ],
      [
        "u",
        "d"
      ],
      [
        "ar",
        "t"
      ],
      [
        "ic",
        "al"
      ],
      [
        "Ġh",
        "a"
      ],
      [
        "ĠI",
        "n"
      ],
      [
        "p",
        "t"
      ],
      [
        "Ġc",
        "h"
      ],
      [
        "p",
        "l"
      ],
      [
        "Ġs",
        "h"
      ],
      [
        "t",
        "e"
      ],
      [
        "Ġ",
        "U"
      ],
      [
        "ou",
        "r"
      ],
      [
        "Ġ",
        "K"
      ],
      [
        "an",
        "s"
      ],
      [
        "in",
        "e"
      ],
      [
        "i",
        "a"
      ],
      [
        "o",
        "st"
      ],
      [
        "ĠP",
        "ub"
      ],
      [
        "Ġ",
        "un"
      ],
      [
        "Ġc",
        "an"
      ],
      [
        "i",
        "al"
      ],
      [
        "re",
        "d"
      ],
      [
        "Ġha",
        "ve"
      ],
      [
        "an",
        "g"
      ],
      [
        "en",
        "d"
      ],
      [
        "Ġ",
        "qu"
      ],
      [
        "u",
        "st"
      ],
      [
        "e",
        "ar"
      ],
      [
        "Ġ",
        ";"
      ],
      [
        "Ġ",
        "V"
      ],
      [
        "al",
        "l"
      ],
      [
        "e",
        "x"
      ],
      [
        "t",
        "her"
      ],
      [
        "Ġa",
        "b"
      ],
      [
        "ag",
        "e"
      ],
      [
        "Ġ",
        "k"
      ],
      [
        "ar",
        "d"
      ],
      [
        "Ġa",
        "d"
      ],
      [
        "id",
        "e"
      ],
      [
        "i",
        "p"
      ],
      [
        "igh",
        "t"
      ],
      [
        "as",
        "t"
      ],
      [
        "Ġcon",
        "t"
      ],
      [
        "Ġ",
        "le"
      ],
      [
        "ic",
        "h"
      ],
      [
        "i",
        "b"
      ],
      [
        "om",
        "e"
      ],
      [
        "Ġwe",
        "re"
      ],
      [
        "i",
        "z"
      ],
      [
        "ĠâĢ",
        "¢"
      ],
      [
        "Ġa",
        "r"
      ],
      [
        "a",
        "p"
      ],
      [
        "or",
        "m"
      ],
      [
        "oun",
        "d"
      ],
      [
        "Ġcom",
        "p"
      ],
      [
        "ation",
        "s"
      ],
      [
        "o",
        "k"
      ],
      [
        "Ġre",
        "s"
      ],
      [
        "Ġp",
        "l"
      ],
      [
        "ul",
        "t"
      ],
      [
        "as",
        "e"
      ],
      [
        "Ġa",
        "ll"
      ],
      [
        "e",
        "ll"
      ],
      [
        "ou",
        "t"
      ],
      [
        "a",
        "ct"
      ],
      [
        "Ġg",
        "en"
      ],
      [
        "ve",
        "l"
      ],
      [
        "a",
        "k"
      ],
      [
        "p",
        "ort"
      ],
      [
        "ab",
        "le"
      ],
      [
        "Ġ",
        "im"
      ],
      [
        "ou",
        "s"
      ],
      [
        "h",
        "is"
      ],
      [
        "ou",
        "ld"
      ],
      [
        "on",
        "g"
      ],
      [
        "d",
        "u"
      ],
      [
        "Ġa",
        "c"
      ],
      [
        "ion",
        "s"
      ],
      [
        "or",
        "d"
      ],
      [
        "ex",
        "t"
      ],
      [
        "g",
        "h"
      ],
      [
        "ar",
        "y"
      ],
      [
        "l",
        "is"
      ],
      [
        "u",
        "ll"
      ],
      [
        "a",
        "re"
      ],
      [
        "Ġh",
        "as"
      ],
      [
        "en",
        "ce"
      ],
      [
        "T",
        "he"
      ],
      [
        "ĠS",
        "t"
      ],
      [
        "ig",
        "n"
      ],
      [
        "res",
        "s"
      ],
      [
        "g",
        "e"
      ],
      [
        "Ġw",
        "ill"
      ],
      [
        "ent",
        "s"
      ],
      [
        "b",
        "er"
      ],
      [
        "a",
        "v"
      ],
      [
        "en",
        "s"
      ],
      [
        "p",
        "er"
      ],
      [
        "c",
        "l"
      ],
      [
        "ra",
        "ct"
      ],
      [
        "Ġc",
        "l"
      ],
      [
        "ĠĊ",
        "ĠĠ"
      ],
      [
        "Ġb",
        "ut"
      ],
      [
        "Ġwh",
        "ich"
      ],
      [
        "r",
        "y"
      ],
      [
        "ĠĊĊ",
        "ĠĠ"
      ],
      [
        "Ġ",
        "en"
      ],
      [
        "Ġd",
        "o"
      ],
      [
        "c",
        "es"
      ],
      [
        "Ġm",
        "e"
      ],
      [
        "f",
        "f"
      ],
      [
        "Ġn",
        "e"
      ],
      [
        "or",
        "k"
      ],
      [
        "ar",
        "k"
      ],
      [
        "ou",
        "gh"
      ],
      [
        "fe",
        "ren"
      ],
      [
        "Ġw",
        "he"
      ],
      [
        "ic",
        "e"
      ],
      [
        "Ġa",
        "p"
      ],
      [
        "d",
        "er"
      ],
      [
        "ow",
        "n"
      ],
      [
        "s",
        "o"
      ],
      [
        "Ġ",
        "ed"
      ],
      [
        "Ġd",
        "is"
      ],
      [
        "y",
        "s"
      ],
      [
        "Ġp",
        "er"
      ],
      [
        "ar",
        "i"
      ],
      [
        "p",
        "h"
      ],
      [
        "in",
        "d"
      ],
      [
        "u",
        "e"
      ],
      [
        "f",
        "orm"
      ],
      [
        "o",
        "ok"
      ],
      [
        "am",
        "e"
      ],
      [
        "Ġon",
        "e"
      ],
      [
        "an",
        "ce"
      ],
      [
        "Ġyou",
        "r"
      ],
      [
        "ac",
        "k"
      ],
      [
        "or",
        "y"
      ],
      [
        "Ġo",
        "ther"
      ],
      [
        "it",
        "e"
      ],
      [
        "re",
        "at"
      ],
      [
        "Ġg",
        "o"
      ],
      [
        "or",
        "s"
      ],
      [
        "if",
        "ic"
      ],
      [
        "Ġs",
        "pe"
      ],
      [
        "a",
        "ch"
      ],
      [
        "M",
        "ed"
      ],
      [
        "Ġt",
        "r"
      ],
      [
        "Ġs",
        "u"
      ],
      [
        "re",
        "e"
      ],
      [
        "on",
        "e"
      ],
      [
        "Ġ",
        "Y"
      ],
      [
        "Ġ",
        "up"
      ],
      [
        "ĊĊ",
        "ĠĠ"
      ],
      [
        "Ġm",
        "an"
      ],
      [
        "ol",
        "og"
      ],
      [
        "it",
        "ion"
      ],
      [
        "Ġin",
        "t"
      ],
      [
        "a",
        "il"
      ],
      [
        "Ġm",
        "ore"
      ],
      [
        "e",
        "p"
      ],
      [
        "u",
        "al"
      ],
      [
        "i",
        "ew"
      ],
      [
        "ri",
        "b"
      ],
      [
        "Ġ",
        "j"
      ],
      [
        "Ġthe",
        "ir"
      ],
      [
        "r",
        "u"
      ],
      [
        "at",
        "es"
      ],
      [
        "er",
        "v"
      ],
      [
        "Ġthe",
        "y"
      ],
      [
        "Ġo",
        "ut"
      ],
      [
        "oun",
        "t"
      ],
      [
        "Ġp",
        "at"
      ],
      [
        "ĠĠÂł",
        "ĠĠÂł"
      ],
      [
        "ĠF",
        "ull"
      ],
      [
        "ĠT",
        "ext"
      ],
      [
        "Ġ",
        "?"
      ],
      [
        "i",
        "re"
      ],
      [
        "Ġn",
        "o"
      ],
      [
        "ĠPub",
        "Med"
      ],
      [
        "ĠC",
        "h"
      ],
      [
        "Ġab",
        "out"
      ],
      [
        "Ġed",
        "it"
      ],
      [
        "i",
        "le"
      ],
      [
        "ot",
        "e"
      ],
      [
        "Ġp",
        "re"
      ],
      [
        "Ġal",
        "so"
      ],
      [
        "Ġ",
        "%"
      ],
      [
        "c",
        "ess"
      ],
      [
        "ver",
        "s"
      ],
      [
        "o",
        "se"
      ],
      [
        "Ġp",
        "art"
      ],
      [
        "ĠA",
        "n"
      ],
      [
        "ĠA",
        "b"
      ],
      [
        "a",
        "ce"
      ],
      [
        "i",
        "k"
      ],
      [
        "ĠĊĊĠĠ",
        "Ġ"
      ],
      [
        "a",
        "ke"
      ],
      [
        "Ġd",
        "if"
      ],
      [
        "Ġt",
        "im"
      ],
      [
        "as",
        "s"
      ],
      [
        "et",
        "w"
      ],
      [
        "on",
        "s"
      ],
      [
        "ĠPub",
        "lis"
      ],
      [
        "Ġin",
        "d"
      ],
      [
        "Ġwh",
        "o"
      ],
      [
        "Ġe",
        "v"
      ],
      [
        "Ġst",
        "ud"
      ],
      [
        "Ġre",
        "c"
      ],
      [
        "p",
        "ro"
      ],
      [
        "ter",
        "n"
      ],
      [
        "Ġs",
        "o"
      ],
      [
        "l",
        "o"
      ],
      [
        "ĠâĢ",
        "Ļ"
      ],
      [
        "Ġ",
        "Ã"
      ],
      [
        "Ġ",
        "_"
      ],
      [
        "Ġre",
        "g"
      ],
      [
        "Ġs",
        "c"
      ],
      [
        "st",
        "ract"
      ],
      [
        "in",
        "k"
      ],
      [
        "ĠPublis",
        "her"
      ],
      [
        "i",
        "e"
      ],
      [
        "on",
        "d"
      ],
      [
        "ver",
        "y"
      ],
      [
        "ic",
        "t"
      ],
      [
        "i",
        "ke"
      ],
      [
        "Ġa",
        "g"
      ],
      [
        "i",
        "an"
      ],
      [
        "Ġthe",
        "re"
      ],
      [
        "Ġhe",
        "l"
      ],
      [
        "Ġh",
        "is"
      ],
      [
        "er",
        "m"
      ],
      [
        "e",
        "ct"
      ],
      [
        "Ġth",
        "an"
      ],
      [
        "ĠT",
        "his"
      ],
      [
        "ro",
        "w"
      ],
      [
        "Ġs",
        "y"
      ],
      [
        "Ġd",
        "at"
      ],
      [
        "Ġc",
        "ell"
      ],
      [
        "f",
        "ul"
      ],
      [
        "Ġad",
        "d"
      ],
      [
        "fe",
        "ct"
      ],
      [
        "Ġp",
        "e"
      ],
      [
        "ĠU",
        "n"
      ],
      [
        "ĠR",
        "e"
      ],
      [
        "Ġ",
        "Â"
      ],
      [
        "p",
        "le"
      ],
      [
        "Ġhel",
        "p"
      ],
      [
        "o",
        "ll"
      ],
      [
        "ĠI",
        "t"
      ],
      [
        "Ġspe",
        "c"
      ],
      [
        "ĠAb",
        "stract"
      ],
      [
        "Ġt",
        "ra"
      ],
      [
        "ĠâĢ",
        "ľ"
      ],
      [
        "Ġbe",
        "en"
      ],
      [
        "Ġw",
        "ork"
      ],
      [
        "Ġn",
        "ew"
      ],
      [
        "Ġa",
        "m"
      ],
      [
        "Ġp",
        "h"
      ],
      [
        "i",
        "ed"
      ],
      [
        "ic",
        "k"
      ],
      [
        "Ġas",
        "s"
      ],
      [
        "t",
        "ic"
      ],
      [
        "w",
        "o"
      ],
      [
        "Ġ",
        "ro"
      ],
      [
        "ar",
        "ch"
      ],
      [
        "Ġre",
        "l"
      ],
      [
        "Ġk",
        "n"
      ],
      [
        "at",
        "ive"
      ],
      [
        "ul",
        "ar"
      ],
      [
        "Ġs",
        "p"
      ],
      [
        "Ġcon",
        "s"
      ],
      [
        "Ġ",
        "="
      ],
      [
        "e",
        "en"
      ],
      [
        "u",
        "c"
      ],
      [
        "Ġan",
        "y"
      ],
      [
        "Ċ",
        "ĠĠ"
      ],
      [
        "Ġtr",
        "ans"
      ],
      [
        "as",
        "ed"
      ],
      [
        "Ġs",
        "ome"
      ],
      [
        "ĠâĢ",
        "Ŀ"
      ],
      [
        "Ġdif",
        "feren"
      ],
      [
        "r",
        "al"
      ],
      [
        "Ġa",
        "ct"
      ],
      [
        "Ġl",
        "oc"
      ],
      [
        "ic",
        "s"
      ],
      [
        "w",
        "ay"
      ],
      [
        "o",
        "ve"
      ],
      [
        "Ġo",
        "ver"
      ],
      [
        "Ġin",
        "c"
      ],
      [
        "in",
        "t"
      ],
      [
        "et",
        "h"
      ],
      [
        "Ġg",
        "r"
      ],
      [
        "Ġqu",
        "ote"
      ],
      [
        "ag",
        "es"
      ],
      [
        "Ġthe",
        "m"
      ],
      [
        "ĠE",
        "n"
      ],
      [
        "Ġ",
        "if"
      ],
      [
        "Ġ",
        "Î"
      ],
      [
        "ut",
        "ion"
      ],
      [
        "a",
        "us"
      ],
      [
        "Ġus",
        "e"
      ],
      [
        "Ġcom",
        "m"
      ],
      [
        "Ġtim",
        "e"
      ],
      [
        "at",
        "er"
      ],
      [
        "Ġex",
        "p"
      ],
      [
        "Ġm",
        "ay"
      ],
      [
        "ĠH",
        "e"
      ],
      [
        "cl",
        "ud"
      ],
      [
        "ation",
        "al"
      ],
      [
        "t",
        "t"
      ],
      [
        "etw",
        "een"
      ],
      [
        "Ġun",
        "der"
      ],
      [
        "o",
        "v"
      ],
      [
        "Ġs",
        "ub"
      ],
      [
        "il",
        "d"
      ],
      [
        "Ġm",
        "od"
      ],
      [
        "ing",
        "s"
      ],
      [
        "Ġd",
        "es"
      ],
      [
        "Ġb",
        "etween"
      ],
      [
        "he",
        "d"
      ],
      [
        "n",
        "e"
      ],
      [
        "Ġon",
        "ly"
      ],
      [
        "al",
        "th"
      ],
      [
        "c",
        "ed"
      ],
      [
        "ot",
        "es"
      ],
      [
        "le",
        "ct"
      ],
      [
        "Ġy",
        "ear"
      ],
      [
        "Ġs",
        "ign"
      ],
      [
        "r",
        "it"
      ],
      [
        "on",
        "t"
      ],
      [
        "Ġc",
        "o"
      ],
      [
        "Ġp",
        "o"
      ],
      [
        "ĠT",
        "h"
      ],
      [
        "Ġof",
        "f"
      ],
      [
        "Ġt",
        "wo"
      ],
      [
        "Ġa",
        "f"
      ],
      [
        "Ġit",
        "s"
      ],
      [
        "ol",
        "d"
      ],
      [
        "al",
        "ly"
      ],
      [
        "ĠC",
        "om"
      ],
      [
        "op",
        "le"
      ],
      [
        "Ġdat",
        "a"
      ],
      [
        "Ġm",
        "ost"
      ],
      [
        "ant",
        "s"
      ],
      [
        "it",
        "ed"
      ],
      [
        "Ġint",
        "o"
      ],
      [
        "Ġin",
        "ter"
      ],
      [
        "is",
        "s"
      ],
      [
        "Ġwhe",
        "n"
      ],
      [
        "m",
        "er"
      ],
      [
        "Ġs",
        "up"
      ],
      [
        "Ġl",
        "ike"
      ],
      [
        "Ġ",
        "!"
      ],
      [
        "vel",
        "op"
      ],
      [
        "i",
        "ent"
      ],
      [
        "Ġo",
        "ur"
      ],
      [
        "Ġ",
        "+"
      ],
      [
        "Ġo",
        "b"
      ],
      [
        "ction",
        "s"
      ],
      [
        "T",
        "his"
      ],
      [
        "st",
        "em"
      ],
      [
        "Ġin",
        "clud"
      ],
      [
        "f",
        "t"
      ],
      [
        "c",
        "y"
      ],
      [
        "ĠA",
        "l"
      ],
      [
        "ut",
        "h"
      ],
      [
        "Ġthe",
        "se"
      ],
      [
        "o",
        "b"
      ],
      [
        "Ġus",
        "ed"
      ],
      [
        "Ġm",
        "y"
      ],
      [
        "ir",
        "st"
      ],
      [
        "l",
        "and"
      ],
      [
        "ot",
        "h"
      ],
      [
        "Ġ",
        "ra"
      ],
      [
        "i",
        "o"
      ],
      [
        "Ġpro",
        "v"
      ],
      [
        "ce",
        "pt"
      ],
      [
        "Ġpe",
        "ople"
      ],
      [
        "is",
        "h"
      ],
      [
        "l",
        "es"
      ],
      [
        "Ġt",
        "e"
      ],
      [
        "Ġan",
        "al"
      ],
      [
        "at",
        "ing"
      ],
      [
        "ou",
        "p"
      ],
      [
        "Ġp",
        "r"
      ],
      [
        "w",
        "n"
      ],
      [
        "r",
        "ough"
      ],
      [
        "he",
        "n"
      ],
      [
        "in",
        "s"
      ],
      [
        "Ġch",
        "ang"
      ],
      [
        "il",
        "ity"
      ],
      [
        "Ġbe",
        "c"
      ],
      [
        "id",
        "ent"
      ],
      [
        "Ġs",
        "a"
      ],
      [
        "Ġh",
        "ad"
      ],
      [
        "Ġn",
        "um"
      ],
      [
        "Ġpro",
        "te"
      ],
      [
        "Ġp",
        "os"
      ],
      [
        "j",
        "ect"
      ],
      [
        "Ġw",
        "ould"
      ],
      [
        "Ġin",
        "v"
      ],
      [
        "ro",
        "s"
      ],
      [
        "Ġp",
        "res"
      ],
      [
        "is",
        "e"
      ],
      [
        "ra",
        "m"
      ],
      [
        "he",
        "s"
      ],
      [
        "Ġpro",
        "du"
      ],
      [
        "al",
        "s"
      ],
      [
        "ĠW",
        "e"
      ],
      [
        "Ġne",
        "ed"
      ],
      [
        "pe",
        "ct"
      ],
      [
        "N",
        "A"
      ],
      [
        "Ġac",
        "c"
      ],
      [
        "olog",
        "y"
      ],
      [
        "Ġus",
        "ing"
      ],
      [
        "ĠE",
        "S"
      ],
      [
        "Ġh",
        "ow"
      ],
      [
        "ers",
        "on"
      ],
      [
        "I",
        "n"
      ],
      [
        "Ġde",
        "velop"
      ],
      [
        "form",
        "ation"
      ],
      [
        "ĠâĢ",
        "ĵ"
      ],
      [
        "o",
        "x"
      ],
      [
        "u",
        "res"
      ],
      [
        "Ġo",
        "p"
      ],
      [
        "Ġb",
        "l"
      ],
      [
        "ĠĠÂłĠĠÂł",
        "ĠĊĊ"
      ],
      [
        "Ġat",
        "t"
      ],
      [
        "at",
        "h"
      ],
      [
        "it",
        "ies"
      ],
      [
        "er",
        "t"
      ],
      [
        "ĠS",
        "e"
      ],
      [
        "Ġstud",
        "y"
      ],
      [
        "f",
        "fect"
      ],
      [
        "Ġd",
        "ist"
      ],
      [
        "Ġwh",
        "at"
      ],
      [
        "ment",
        "s"
      ],
      [
        "ĠD",
        "e"
      ],
      [
        "ĠS",
        "c"
      ],
      [
        "l",
        "ic"
      ],
      [
        "ĠP",
        "ro"
      ],
      [
        "Ġg",
        "et"
      ],
      [
        "i",
        "ly"
      ],
      [
        "ĠS",
        "h"
      ],
      [
        "ren",
        "t"
      ],
      [
        "Ġd",
        "et"
      ],
      [
        "ib",
        "le"
      ],
      [
        "Ġsu",
        "ch"
      ],
      [
        "Ġc",
        "ol"
      ],
      [
        "ur",
        "ing"
      ],
      [
        "Ġwe",
        "ll"
      ],
      [
        "o",
        "od"
      ],
      [
        "ress",
        "ion"
      ],
      [
        "aus",
        "e"
      ],
      [
        "Ġs",
        "ur"
      ],
      [
        "ĠC",
        "ent"
      ],
      [
        "c",
        "k"
      ],
      [
        "is",
        "m"
      ],
      [
        "i",
        "ous"
      ],
      [
        "Ġe",
        "m"
      ],
      [
        "ow",
        "er"
      ],
      [
        "ay",
        "s"
      ],
      [
        "Ġdifferen",
        "t"
      ],
      [
        "oll",
        "ow"
      ],
      [
        "Ġ",
        "Q"
      ],
      [
        "in",
        "al"
      ],
      [
        "Ġf",
        "irst"
      ],
      [
        "Ġf",
        "ound"
      ],
      [
        "Ġm",
        "ed"
      ],
      [
        "Ġar",
        "tic"
      ],
      [
        "Ġh",
        "igh"
      ],
      [
        "Ġres",
        "ult"
      ],
      [
        "oc",
        "i"
      ],
      [
        "Ġf",
        "e"
      ],
      [
        "i",
        "ents"
      ],
      [
        "Ġs",
        "m"
      ],
      [
        "or",
        "ld"
      ],
      [
        "Ġf",
        "l"
      ],
      [
        "f",
        "ore"
      ],
      [
        "Ġs",
        "erv"
      ],
      [
        "ad",
        "e"
      ],
      [
        "Ġor",
        "g"
      ],
      [
        "in",
        "es"
      ],
      [
        "ar",
        "g"
      ],
      [
        "Ġsh",
        "ould"
      ],
      [
        "ĠA",
        "r"
      ],
      [
        "Ġsy",
        "stem"
      ],
      [
        "Ġfor",
        "m"
      ],
      [
        "a",
        "x"
      ],
      [
        "ear",
        "ch"
      ],
      [
        "Ġaf",
        "ter"
      ],
      [
        "ĠA",
        "s"
      ],
      [
        "Ġhelp",
        "ful"
      ],
      [
        "c",
        "ent"
      ],
      [
        "Ġf",
        "un"
      ],
      [
        "Ġth",
        "rough"
      ],
      [
        "Ġanal",
        "ys"
      ],
      [
        "Ġwhe",
        "re"
      ],
      [
        "ul",
        "ation"
      ],
      [
        "oc",
        "k"
      ],
      [
        "Ġf",
        "ind"
      ],
      [
        "e",
        "ver"
      ],
      [
        "a",
        "w"
      ],
      [
        "o",
        "h"
      ],
      [
        "Ġgr",
        "oup"
      ],
      [
        "Ġe",
        "ffect"
      ],
      [
        "ig",
        "ation"
      ],
      [
        "Ġa",
        "v"
      ],
      [
        "Ġv",
        "al"
      ],
      [
        "as",
        "es"
      ],
      [
        "c",
        "er"
      ],
      [
        "r",
        "ic"
      ],
      [
        "Ġv",
        "ari"
      ],
      [
        "Ġc",
        "or"
      ],
      [
        "s",
        "w"
      ],
      [
        "Ġv",
        "otes"
      ],
      [
        "Ġ",
        "ent"
      ],
      [
        "Ġse",
        "e"
      ],
      [
        "Ġm",
        "in"
      ],
      [
        "at",
        "ure"
      ],
      [
        "ig",
        "ure"
      ],
      [
        "y",
        "p"
      ],
      [
        "it",
        "s"
      ],
      [
        "Ġh",
        "im"
      ],
      [
        "ĠW",
        "ik"
      ],
      [
        "Ġle",
        "vel"
      ],
      [
        "Ġsh",
        "ow"
      ],
      [
        "if",
        "ied"
      ],
      [
        "Ġs",
        "im"
      ],
      [
        "Ġgen",
        "er"
      ],
      [
        "Ġp",
        "ub"
      ],
      [
        "Ġman",
        "y"
      ],
      [
        "ĠĠ",
        "ĠÂł"
      ],
      [
        "Ġs",
        "et"
      ],
      [
        "Ġd",
        "i"
      ],
      [
        "ĠES",
        "V"
      ],
      [
        "al",
        "k"
      ],
      [
        "Ġe",
        "ach"
      ],
      [
        "r",
        "an"
      ],
      [
        "Ġpro",
        "b"
      ],
      [
        "n",
        "ing"
      ],
      [
        "p",
        "os"
      ],
      [
        "u",
        "es"
      ],
      [
        "s",
        "h"
      ],
      [
        "u",
        "g"
      ],
      [
        "Ġf",
        "ollow"
      ],
      [
        "ical",
        "ly"
      ],
      [
        "Ġex",
        "t"
      ],
      [
        "ro",
        "l"
      ],
      [
        "if",
        "e"
      ],
      [
        "Ġnum",
        "ber"
      ],
      [
        "Ġin",
        "formation"
      ],
      [
        "am",
        "es"
      ],
      [
        "Ġ",
        "Z"
      ],
      [
        "Ġb",
        "ook"
      ],
      [
        "ac",
        "es"
      ],
      [
        "Ġinc",
        "re"
      ],
      [
        "o",
        "ol"
      ],
      [
        "Ġcell",
        "s"
      ],
      [
        "he",
        "m"
      ],
      [
        "ĠG",
        "o"
      ],
      [
        "ĠA",
        "d"
      ],
      [
        "ri",
        "pt"
      ],
      [
        "ĠR",
        "es"
      ],
      [
        "o",
        "y"
      ],
      [
        "se",
        "l"
      ],
      [
        "al",
        "e"
      ],
      [
        "Ġse",
        "c"
      ],
      [
        "ĠF",
        "or"
      ],
      [
        "Ġf",
        "act"
      ],
      [
        "Ġin",
        "f"
      ],
      [
        "ĠĠÂł",
        "Ġ"
      ],
      [
        "Ġc",
        "ount"
      ],
      [
        "Ġl",
        "ist"
      ],
      [
        "Ġm",
        "on"
      ],
      [
        "t",
        "s"
      ],
      [
        "Ġwe",
        "b"
      ],
      [
        "iz",
        "ed"
      ],
      [
        "Ġb",
        "i"
      ],
      [
        "Ġd",
        "own"
      ],
      [
        "Ġartic",
        "le"
      ],
      [
        "Ġpre",
        "v"
      ],
      [
        "y",
        "pe"
      ],
      [
        "Ġc",
        "ould"
      ],
      [
        "ĠP",
        "h"
      ],
      [
        "a",
        "h"
      ],
      [
        "Ġpat",
        "ients"
      ],
      [
        "Ġthe",
        "n"
      ],
      [
        "y",
        "l"
      ],
      [
        "iz",
        "e"
      ],
      [
        "Ġp",
        "op"
      ],
      [
        "Ġkn",
        "ow"
      ],
      [
        "c",
        "c"
      ],
      [
        "Ġe",
        "t"
      ],
      [
        "rib",
        "ut"
      ],
      [
        "Ġre",
        "v"
      ],
      [
        "ic",
        "es"
      ],
      [
        "act",
        "er"
      ],
      [
        "Ġb",
        "us"
      ],
      [
        "Ġap",
        "pro"
      ],
      [
        "Ġc",
        "ar"
      ],
      [
        "y",
        "m"
      ],
      [
        "our",
        "ce"
      ],
      [
        "av",
        "igation"
      ],
      [
        "Ġb",
        "oth"
      ],
      [
        "ĠĠ",
        "âĢ"
      ],
      [
        "Ġact",
        "iv"
      ],
      [
        "Ġhe",
        "alth"
      ],
      [
        "ur",
        "n"
      ],
      [
        "Ġpart",
        "ic"
      ],
      [
        "Ġre",
        "m"
      ],
      [
        "Ġj",
        "ust"
      ],
      [
        "i",
        "x"
      ],
      [
        "ĠĠâĢ",
        "ī"
      ],
      [
        "ra",
        "ph"
      ],
      [
        "Ġ",
        "end"
      ],
      [
        "re",
        "st"
      ],
      [
        "pl",
        "ic"
      ],
      [
        "Ġb",
        "u"
      ],
      [
        "ĠI",
        "f"
      ],
      [
        "w",
        "ard"
      ],
      [
        "Ġb",
        "ased"
      ],
      [
        "Ġde",
        "c"
      ],
      [
        "ĠC",
        "l"
      ],
      [
        "ĠG",
        "en"
      ],
      [
        "ru",
        "ct"
      ],
      [
        "Ġex",
        "per"
      ],
      [
        "u",
        "ch"
      ],
      [
        "Ġde",
        "p"
      ],
      [
        "v",
        "ed"
      ],
      [
        "in",
        "ed"
      ],
      [
        "tt",
        "p"
      ],
      [
        "Ġm",
        "ake"
      ],
      [
        "c",
        "ript"
      ],
      [
        "Ġre",
        "port"
      ],
      [
        "n",
        "er"
      ],
      [
        "Ġin",
        "te"
      ],
      [
        "Ġanalys",
        "is"
      ],
      [
        "en",
        "se"
      ],
      [
        "ĠL",
        "e"
      ],
      [
        "Ġcomp",
        "le"
      ],
      [
        "i",
        "vers"
      ],
      [
        "Ġst",
        "r"
      ],
      [
        "eth",
        "od"
      ],
      [
        "R",
        "e"
      ],
      [
        "i",
        "ence"
      ],
      [
        "Ġ",
        "very"
      ],
      [
        "is",
        "ion"
      ],
      [
        "Ġh",
        "um"
      ],
      [
        "Ġt",
        "erm"
      ],
      [
        "i",
        "el"
      ],
      [
        "t",
        "ing"
      ],
      [
        "i",
        "er"
      ],
      [
        "r",
        "on"
      ],
      [
        "an",
        "y"
      ],
      [
        "ĠE",
        "x"
      ],
      [
        "an",
        "k"
      ],
      [
        "Ġse",
        "arch"
      ],
      [
        "Ġd",
        "uring"
      ],
      [
        "ch",
        "n"
      ],
      [
        "d",
        "it"
      ],
      [
        "Ġt",
        "est"
      ],
      [
        "iz",
        "ation"
      ],
      [
        "t",
        "en"
      ],
      [
        "Ġth",
        "ose"
      ],
      [
        "Ġar",
        "ound"
      ],
      [
        "Ġgo",
        "od"
      ],
      [
        "Ġyear",
        "s"
      ],
      [
        "Ġex",
        "am"
      ],
      [
        "Ġl",
        "ong"
      ],
      [
        "Ġc",
        "ur"
      ],
      [
        "ĠM",
        "ed"
      ],
      [
        "or",
        "th"
      ],
      [
        "ĠIn",
        "d"
      ],
      [
        "ĠV",
        "iew"
      ],
      [
        "Ġs",
        "ame"
      ],
      [
        "Ġres",
        "p"
      ],
      [
        "ar",
        "m"
      ],
      [
        "Ġg",
        "reat"
      ],
      [
        "a",
        "red"
      ],
      [
        "Ġgen",
        "e"
      ],
      [
        "Ġf",
        "ans"
      ],
      [
        "t",
        "on"
      ],
      [
        "Ġw",
        "ay"
      ],
      [
        "Ġg",
        "row"
      ],
      [
        "Ġqu",
        "est"
      ],
      [
        "um",
        "p"
      ],
      [
        "Ġde",
        "f"
      ],
      [
        "Ġc",
        "ent"
      ],
      [
        "Ġpro",
        "g"
      ],
      [
        "ĠEn",
        "g"
      ],
      [
        "ar",
        "ge"
      ],
      [
        "g",
        "y"
      ],
      [
        "Ġ",
        "est"
      ],
      [
        "Ġgen",
        "es"
      ],
      [
        "ĠCom",
        "m"
      ],
      [
        "Ġa",
        "uth"
      ],
      [
        "Ġse",
        "qu"
      ],
      [
        "Ġdis",
        "c"
      ],
      [
        "Ġre",
        "p"
      ],
      [
        "Ġin",
        "st"
      ],
      [
        "ĠW",
        "h"
      ],
      [
        "Ġav",
        "ail"
      ],
      [
        "in",
        "ation"
      ],
      [
        "Ġp",
        "ol"
      ],
      [
        "Ġre",
        "qu"
      ],
      [
        "ĠA",
        "p"
      ],
      [
        "Ġl",
        "ink"
      ],
      [
        "Ġm",
        "et"
      ],
      [
        "ur",
        "al"
      ],
      [
        "Ġsa",
        "id"
      ],
      [
        "i",
        "um"
      ],
      [
        "Ġ",
        "vers"
      ],
      [
        "Ġe",
        "very"
      ],
      [
        "Ġo",
        "wn"
      ],
      [
        "a",
        "j"
      ],
      [
        "n",
        "ess"
      ],
      [
        "Ġst",
        "art"
      ],
      [
        "t",
        "le"
      ],
      [
        "ot",
        "her"
      ],
      [
        "Ġm",
        "em"
      ],
      [
        "ĠN",
        "ew"
      ],
      [
        "Ġbe",
        "ing"
      ],
      [
        "ir",
        "on"
      ],
      [
        "od",
        "e"
      ],
      [
        "ist",
        "ory"
      ],
      [
        "Ġm",
        "ark"
      ],
      [
        "Ġs",
        "er"
      ],
      [
        "Ġbec",
        "ause"
      ],
      [
        "ord",
        "s"
      ],
      [
        "Ġn",
        "ear"
      ],
      [
        "Ġl",
        "ook"
      ],
      [
        "Ġk",
        "m"
      ],
      [
        "Ġprov",
        "id"
      ],
      [
        "Ġf",
        "ree"
      ],
      [
        "Ġb",
        "ack"
      ],
      [
        "Ġf",
        "am"
      ],
      [
        "ĠS",
        "p"
      ],
      [
        "Ġm",
        "ade"
      ],
      [
        "Ġ",
        "ident"
      ],
      [
        "Ġsign",
        "ific"
      ],
      [
        "m",
        "an"
      ],
      [
        "Ġp",
        "age"
      ],
      [
        "in",
        "ess"
      ],
      [
        "ent",
        "ion"
      ],
      [
        "og",
        "le"
      ],
      [
        "g",
        "r"
      ],
      [
        "ĠP",
        "l"
      ],
      [
        "Ġsup",
        "port"
      ],
      [
        "Ġ",
        "X"
      ],
      [
        "Ġe",
        "ar"
      ],
      [
        "ol",
        "s"
      ],
      [
        "as",
        "h"
      ],
      [
        "Ġpres",
        "ent"
      ],
      [
        "Ġst",
        "at"
      ],
      [
        "it",
        "al"
      ],
      [
        "Ġre",
        "st"
      ],
      [
        "Ġsm",
        "all"
      ],
      [
        "g",
        "g"
      ],
      [
        "Ġim",
        "pro"
      ],
      [
        "Ġ",
        "$"
      ],
      [
        "ĠB",
        "e"
      ],
      [
        "ĠThe",
        "re"
      ],
      [
        "ou",
        "se"
      ],
      [
        "Ġag",
        "ain"
      ],
      [
        "em",
        "ent"
      ],
      [
        "Ġr",
        "ight"
      ],
      [
        "Ġhe",
        "re"
      ],
      [
        "o",
        "le"
      ],
      [
        "iv",
        "id"
      ],
      [
        "Ġass",
        "oci"
      ],
      [
        "Ġmod",
        "el"
      ],
      [
        "ual",
        "ly"
      ],
      [
        "al",
        "ity"
      ],
      [
        "Ġavail",
        "able"
      ],
      [
        "Ġbe",
        "l"
      ],
      [
        "ĠCent",
        "ral"
      ],
      [
        "Ġp",
        "ar"
      ],
      [
        "our",
        "ces"
      ],
      [
        "at",
        "her"
      ],
      [
        "ver",
        "n"
      ],
      [
        "e",
        "k"
      ],
      [
        "in",
        "ce"
      ],
      [
        "Ġth",
        "ree"
      ],
      [
        "Ġw",
        "orld"
      ],
      [
        "ire",
        "ct"
      ],
      [
        "Ġan",
        "t"
      ],
      [
        "Ġm",
        "ain"
      ],
      [
        "ĠH",
        "ow"
      ],
      [
        "a",
        "ir"
      ],
      [
        "s",
        "on"
      ],
      [
        "ic",
        "ro"
      ],
      [
        "Ġan",
        "sw"
      ],
      [
        "ition",
        "al"
      ],
      [
        "iel",
        "d"
      ],
      [
        "d",
        "e"
      ],
      [
        "v",
        "en"
      ],
      [
        "a",
        "z"
      ],
      [
        "ĠU",
        "S"
      ],
      [
        "Ġexp",
        "ression"
      ],
      [
        "og",
        "raph"
      ],
      [
        "ain",
        "ed"
      ],
      [
        "ut",
        "e"
      ],
      [
        "Ġre",
        "se"
      ],
      [
        "Ġcon",
        "f"
      ],
      [
        "en",
        "cy"
      ],
      [
        "Ġpro",
        "cess"
      ],
      [
        "Ġn",
        "on"
      ],
      [
        "us",
        "s"
      ],
      [
        "Ġc",
        "are"
      ],
      [
        "Ġ",
        "&"
      ],
      [
        "le",
        "ase"
      ],
      [
        "Ġev",
        "en"
      ],
      [
        "Ġchang",
        "es"
      ],
      [
        "Ġpos",
        "s"
      ],
      [
        "ff",
        "ic"
      ],
      [
        "Ġdo",
        "es"
      ],
      [
        "Ġim",
        "port"
      ],
      [
        "Ġg",
        "u"
      ],
      [
        "ro",
        "p"
      ],
      [
        "Ġ",
        "*"
      ],
      [
        "ĠO",
        "n"
      ],
      [
        "Ġ",
        "ke"
      ],
      [
        "iv",
        "ed"
      ],
      [
        "Ġ",
        "her"
      ],
      [
        "ar",
        "s"
      ],
      [
        "ist",
        "s"
      ],
      [
        "ĠAn",
        "d"
      ],
      [
        "t",
        "ed"
      ],
      [
        "Ġv",
        "ol"
      ],
      [
        "ĠÂ",
        "·"
      ],
      [
        "Ġp",
        "ost"
      ],
      [
        "os",
        "p"
      ],
      [
        "l",
        "ed"
      ],
      [
        "ros",
        "s"
      ],
      [
        "rib",
        "ution"
      ],
      [
        "Ġl",
        "ife"
      ],
      [
        "Ġd",
        "ay"
      ],
      [
        "Ġr",
        "un"
      ],
      [
        "ĠB",
        "i"
      ],
      [
        "Ġpl",
        "ay"
      ],
      [
        "Ġin",
        "s"
      ],
      [
        "Ġspec",
        "ific"
      ],
      [
        "Ġhum",
        "an"
      ],
      [
        "Ġsignific",
        "ant"
      ],
      [
        "ent",
        "ial"
      ],
      [
        "Ġch",
        "ar"
      ],
      [
        "ĠGo",
        "ogle"
      ],
      [
        "c",
        "on"
      ],
      [
        "le",
        "m"
      ],
      [
        "Ġh",
        "ttp"
      ],
      [
        "o",
        "ad"
      ],
      [
        "Ġc",
        "re"
      ],
      [
        "Ġc",
        "all"
      ],
      [
        "iv",
        "es"
      ],
      [
        "Ġper",
        "form"
      ],
      [
        "et",
        "s"
      ],
      [
        "Ġpo",
        "int"
      ],
      [
        "a",
        "ve"
      ],
      [
        "Ġn",
        "ow"
      ],
      [
        "ou",
        "th"
      ],
      [
        "Ġm",
        "uch"
      ],
      [
        "Ġ",
        "ve"
      ],
      [
        "Ġcont",
        "ent"
      ],
      [
        "en",
        "e"
      ],
      [
        "Ġs",
        "l"
      ],
      [
        "Ġbe",
        "fore"
      ],
      [
        "oh",
        "n"
      ],
      [
        "a",
        "i"
      ],
      [
        "o",
        "id"
      ],
      [
        "ak",
        "ing"
      ],
      [
        "ĠUn",
        "ited"
      ],
      [
        "ivers",
        "ity"
      ],
      [
        "a",
        "u"
      ],
      [
        "ang",
        "e"
      ],
      [
        "ĠI",
        "s"
      ],
      [
        "A",
        "n"
      ],
      [
        "mer",
        "ic"
      ],
      [
        "Ġs",
        "am"
      ],
      [
        "Ġ",
        "i"
      ],
      [
        "olog",
        "ical"
      ],
      [
        "Ġd",
        "on"
      ],
      [
        "Ġme",
        "as"
      ],
      [
        "ĠY",
        "ou"
      ],
      [
        "Ġresult",
        "s"
      ],
      [
        "Ġwh",
        "ile"
      ],
      [
        "ari",
        "o"
      ],
      [
        "c",
        "ial"
      ],
      [
        "ĠS",
        "ch"
      ],
      [
        "Ġre",
        "f"
      ],
      [
        "ri",
        "v"
      ],
      [
        "t",
        "y"
      ],
      [
        "ain",
        "s"
      ],
      [
        "feren",
        "ces"
      ],
      [
        "Ġs",
        "ol"
      ],
      [
        "is",
        "k"
      ],
      [
        "ak",
        "es"
      ],
      [
        "v",
        "iron"
      ],
      [
        "Ġ",
        "#"
      ],
      [
        "Ġdis",
        "e"
      ],
      [
        "Ġt",
        "reat"
      ],
      [
        "ĠG",
        "od"
      ],
      [
        "Ġkn",
        "own"
      ],
      [
        "Ġm",
        "ethod"
      ],
      [
        "Ġv",
        "iew"
      ],
      [
        "Ġor",
        "ig"
      ],
      [
        "r",
        "ation"
      ],
      [
        "ĠA",
        "meric"
      ],
      [
        "erson",
        "al"
      ],
      [
        "Ġre",
        "ad"
      ],
      [
        "Ġle",
        "ad"
      ],
      [
        "E",
        "R"
      ],
      [
        "un",
        "d"
      ],
      [
        "re",
        "ad"
      ],
      [
        "am",
        "p"
      ],
      [
        "Ġloc",
        "ated"
      ],
      [
        "Ġre",
        "t"
      ],
      [
        "ab",
        "ility"
      ],
      [
        "Ġl",
        "arge"
      ],
      [
        "i",
        "qu"
      ],
      [
        "Ġcont",
        "rol"
      ],
      [
        "Ġinclud",
        "ing"
      ],
      [
        "ent",
        "ly"
      ],
      [
        "Ġpat",
        "h"
      ],
      [
        "Ġap",
        "pe"
      ],
      [
        "Ġd",
        "id"
      ],
      [
        "Ġop",
        "en"
      ],
      [
        "Ġn",
        "ame"
      ],
      [
        "Ġare",
        "a"
      ],
      [
        "un",
        "ity"
      ],
      [
        "Ġl",
        "it"
      ],
      [
        "ific",
        "ation"
      ],
      [
        "b",
        "ers"
      ],
      [
        "Ġpub",
        "lic"
      ],
      [
        "ag",
        "n"
      ],
      [
        "le",
        "ction"
      ],
      [
        "iv",
        "en"
      ],
      [
        "ĠSt",
        "ates"
      ],
      [
        "Ġs",
        "ite"
      ],
      [
        "Ġf",
        "re"
      ],
      [
        "Ġt",
        "em"
      ],
      [
        "Ġch",
        "ild"
      ],
      [
        "ivid",
        "ual"
      ],
      [
        "an",
        "n"
      ],
      [
        "Ġc",
        "ity"
      ],
      [
        "l",
        "ine"
      ],
      [
        "Ġw",
        "ant"
      ],
      [
        "ĠÂ",
        "°"
      ],
      [
        "Ġt",
        "ake"
      ],
      [
        "im",
        "ate"
      ],
      [
        "Ġf",
        "ew"
      ],
      [
        "Ġorg",
        "an"
      ],
      [
        "Ġo",
        "cc"
      ],
      [
        "it",
        "es"
      ],
      [
        "en",
        "ces"
      ],
      [
        "ĠÂł",
        "Ġ"
      ],
      [
        "in",
        "a"
      ],
      [
        "Ġwith",
        "in"
      ],
      [
        "or",
        "n"
      ],
      [
        "Ġto",
        "ols"
      ],
      [
        "Ġl",
        "og"
      ],
      [
        "id",
        "ence"
      ],
      [
        "op",
        "y"
      ],
      [
        "viron",
        "ment"
      ],
      [
        "ur",
        "ther"
      ],
      [
        "g",
        "et"
      ],
      [
        "Ġm",
        "ult"
      ],
      [
        "Ġst",
        "and"
      ],
      [
        "Ġte",
        "chn"
      ],
      [
        "c",
        "rib"
      ],
      [
        "Ġpl",
        "ace"
      ],
      [
        "lis",
        "hed"
      ],
      [
        "er",
        "y"
      ],
      [
        "en",
        "g"
      ],
      [
        "r",
        "ict"
      ],
      [
        "Ġw",
        "ater"
      ],
      [
        "Ġansw",
        "er"
      ],
      [
        "ed",
        "ia"
      ],
      [
        "ĠQ",
        "u"
      ],
      [
        "Ġwith",
        "out"
      ],
      [
        "Ġprote",
        "in"
      ],
      [
        "Ġfun",
        "ction"
      ],
      [
        "m",
        "ark"
      ],
      [
        "re",
        "en"
      ],
      [
        "od",
        "y"
      ],
      [
        "c",
        "ul"
      ],
      [
        "Ġre",
        "du"
      ],
      [
        "Ġv",
        "is"
      ],
      [
        "Ġs",
        "he"
      ],
      [
        "Ġl",
        "ow"
      ],
      [
        "ĠC",
        "on"
      ],
      [
        "Ġam",
        "ong"
      ],
      [
        "os",
        "is"
      ],
      [
        "lo",
        "ad"
      ],
      [
        "Ġt",
        "ri"
      ],
      [
        "r",
        "ing"
      ],
      [
        "at",
        "or"
      ],
      [
        "u",
        "ro"
      ],
      [
        "ĠF",
        "igure"
      ],
      [
        "Ġpro",
        "f"
      ],
      [
        "sel",
        "f"
      ],
      [
        "Ġim",
        "m"
      ],
      [
        "t",
        "al"
      ],
      [
        "ĠA",
        "m"
      ],
      [
        "Ġprodu",
        "ct"
      ],
      [
        "Ġvers",
        "ion"
      ],
      [
        "ate",
        "g"
      ],
      [
        "Ġc",
        "y"
      ],
      [
        "Ġimpro",
        "ve"
      ],
      [
        "Ġ",
        "Ð"
      ],
      [
        "Ġinte",
        "rest"
      ],
      [
        "Ġrel",
        "ated"
      ],
      [
        "Ġdes",
        "ign"
      ],
      [
        "v",
        "es"
      ],
      [
        "Ġh",
        "ig"
      ],
      [
        "le",
        "ar"
      ],
      [
        "ra",
        "p"
      ],
      [
        "S",
        "S"
      ],
      [
        "w",
        "are"
      ],
      [
        "Ġprob",
        "lem"
      ],
      [
        "Ġo",
        "ld"
      ],
      [
        "Ġl",
        "ast"
      ],
      [
        "Ġb",
        "est"
      ],
      [
        "ang",
        "u"
      ],
      [
        "Ġcl",
        "ass"
      ],
      [
        "O",
        "N"
      ],
      [
        "e",
        "b"
      ],
      [
        "Ġsec",
        "ond"
      ],
      [
        "ĠB",
        "l"
      ],
      [
        "it",
        "ive"
      ],
      [
        "i",
        "red"
      ],
      [
        "Ġs",
        "om"
      ],
      [
        "Ġm",
        "at"
      ],
      [
        "Ġo",
        "pt"
      ],
      [
        "at",
        "ory"
      ],
      [
        "Ġs",
        "ay"
      ],
      [
        "op",
        "h"
      ],
      [
        "Ġquest",
        "ion"
      ],
      [
        "v",
        "ing"
      ],
      [
        "g",
        "ed"
      ],
      [
        "Ġd",
        "em"
      ],
      [
        "r",
        "id"
      ],
      [
        "Ġac",
        "cess"
      ],
      [
        "h",
        "ip"
      ],
      [
        "Ġh",
        "and"
      ],
      [
        "Ġm",
        "ust"
      ],
      [
        "Ġcon",
        "st"
      ],
      [
        "w",
        "w"
      ],
      [
        "pl",
        "es"
      ],
      [
        "Ġdevelop",
        "ment"
      ],
      [
        "aj",
        "or"
      ],
      [
        "at",
        "ic"
      ],
      [
        "um",
        "ent"
      ],
      [
        "il",
        "ar"
      ],
      [
        "er",
        "n"
      ],
      [
        "Ġm",
        "ight"
      ],
      [
        "et",
        "ic"
      ],
      [
        "is",
        "ed"
      ],
      [
        "Ġn",
        "avigation"
      ],
      [
        "er",
        "al"
      ],
      [
        "ĠB",
        "ook"
      ],
      [
        "lis",
        "h"
      ],
      [
        "ĠHow",
        "ever"
      ],
      [
        "Ġth",
        "ink"
      ],
      [
        "om",
        "en"
      ],
      [
        "Ġpop",
        "ulation"
      ],
      [
        "way",
        "s"
      ],
      [
        "Ġp",
        "red"
      ],
      [
        "Ġad",
        "v"
      ],
      [
        "Ġbus",
        "iness"
      ],
      [
        "Ġf",
        "il"
      ],
      [
        "Ġd",
        "el"
      ],
      [
        "Ġ",
        "â"
      ],
      [
        "ri",
        "end"
      ],
      [
        "og",
        "en"
      ],
      [
        "Ġr",
        "isk"
      ],
      [
        "Ġrese",
        "arch"
      ],
      [
        "c",
        "ing"
      ],
      [
        "ĠT",
        "o"
      ],
      [
        "Ġl",
        "ess"
      ],
      [
        "Ġspec",
        "ies"
      ],
      [
        "g",
        "en"
      ],
      [
        "l",
        "ess"
      ],
      [
        "is",
        "on"
      ],
      [
        "Ġpro",
        "ject"
      ],
      [
        "ri",
        "es"
      ],
      [
        "Ġl",
        "ine"
      ],
      [
        "Ġob",
        "s"
      ],
      [
        "Ġcur",
        "rent"
      ],
      [
        "i",
        "ans"
      ],
      [
        "Ġw",
        "ww"
      ],
      [
        "pl",
        "ay"
      ],
      [
        "ow",
        "s"
      ],
      [
        "ĠThe",
        "y"
      ],
      [
        "Ġprog",
        "ram"
      ],
      [
        "Ġimport",
        "ant"
      ],
      [
        "Ġc",
        "he"
      ],
      [
        "Ġchar",
        "acter"
      ],
      [
        "etw",
        "ork"
      ],
      [
        "Ġcont",
        "ribut"
      ],
      [
        "Ġd",
        "irect"
      ],
      [
        "Ġex",
        "pl"
      ],
      [
        "Ġp",
        "ot"
      ],
      [
        "Ġf",
        "ore"
      ],
      [
        "ot",
        "el"
      ],
      [
        "ter",
        "s"
      ],
      [
        "Ġb",
        "et"
      ],
      [
        "Ġh",
        "istory"
      ],
      [
        "n",
        "al"
      ],
      [
        "Ġh",
        "y"
      ],
      [
        "im",
        "e"
      ],
      [
        "os",
        "s"
      ],
      [
        "Ġstud",
        "ies"
      ],
      [
        "Ġloc",
        "al"
      ],
      [
        "Ġfollow",
        "ing"
      ],
      [
        "Ġp",
        "ower"
      ],
      [
        "Ġgo",
        "vern"
      ],
      [
        "Ġind",
        "ividual"
      ],
      [
        "Ġmon",
        "th"
      ],
      [
        "ĠUn",
        "iversity"
      ],
      [
        "F",
        "or"
      ],
      [
        "Ġf",
        "ile"
      ],
      [
        "Ġth",
        "ough"
      ],
      [
        "Ġsu",
        "gg"
      ],
      [
        "Ġa",
        "way"
      ],
      [
        "Ġauth",
        "or"
      ],
      [
        "Ġsugg",
        "est"
      ],
      [
        "d",
        "ay"
      ],
      [
        "ĠC",
        "an"
      ],
      [
        "Ġe",
        "lect"
      ],
      [
        "tern",
        "ational"
      ],
      [
        "a",
        "pt"
      ],
      [
        "as",
        "on"
      ],
      [
        "ĠS",
        "up"
      ],
      [
        "ĠC",
        "o"
      ],
      [
        "e",
        "red"
      ],
      [
        "a",
        "ff"
      ],
      [
        "Ġb",
        "re"
      ],
      [
        "y",
        "n"
      ],
      [
        "ĠA",
        "ll"
      ],
      [
        "Ġim",
        "p"
      ],
      [
        "ĠD",
        "is"
      ],
      [
        "ĠA",
        "f"
      ],
      [
        "p",
        "ar"
      ],
      [
        "Ġc",
        "ap"
      ],
      [
        "om",
        "ic"
      ],
      [
        "i",
        "ver"
      ],
      [
        "ĠHe",
        "alth"
      ],
      [
        "l",
        "u"
      ],
      [
        "Ġt",
        "ype"
      ],
      [
        "ĠB",
        "y"
      ],
      [
        "Ġse",
        "ver"
      ],
      [
        "ĠâĢ",
        "Ķ"
      ],
      [
        "un",
        "g"
      ],
      [
        "our",
        "s"
      ],
      [
        "un",
        "e"
      ],
      [
        "ĠJ",
        "ohn"
      ],
      [
        "Ġt",
        "ext"
      ],
      [
        "Ġsy",
        "n"
      ],
      [
        "ĠM",
        "ario"
      ],
      [
        "if",
        "y"
      ],
      [
        "er",
        "ing"
      ],
      [
        "Ġc",
        "ase"
      ],
      [
        "Ġm",
        "en"
      ],
      [
        "ĠM",
        "ar"
      ],
      [
        "ĠC",
        "ont"
      ],
      [
        "Ġassoci",
        "ated"
      ],
      [
        "Ġp",
        "ur"
      ],
      [
        "Ġb",
        "as"
      ],
      [
        "Ġst",
        "ruct"
      ],
      [
        "et",
        "y"
      ],
      [
        "Ġm",
        "ajor"
      ],
      [
        "Ġagain",
        "st"
      ],
      [
        "ĠI",
        "m"
      ],
      [
        "ĠÂł",
        "ĠĊ"
      ],
      [
        "feren",
        "ce"
      ],
      [
        "at",
        "s"
      ],
      [
        "Ġpr",
        "im"
      ],
      [
        "I",
        "S"
      ],
      [
        "Ġto",
        "p"
      ],
      [
        "re",
        "t"
      ],
      [
        "F",
        "rom"
      ],
      [
        "J",
        "ump"
      ],
      [
        "r",
        "ist"
      ],
      [
        "om",
        "s"
      ],
      [
        "Ġe",
        "as"
      ],
      [
        "ĠO",
        "r"
      ],
      [
        "Ġdise",
        "ase"
      ],
      [
        "Ġor",
        "der"
      ],
      [
        "Ġind",
        "ic"
      ],
      [
        "om",
        "m"
      ],
      [
        "i",
        "or"
      ],
      [
        "an",
        "e"
      ],
      [
        "Ġst",
        "ill"
      ],
      [
        "Ġs",
        "w"
      ],
      [
        "Ġc",
        "al"
      ],
      [
        "p",
        "en"
      ],
      [
        "Ġm",
        "us"
      ],
      [
        "am",
        "m"
      ],
      [
        "ra",
        "y"
      ],
      [
        "Ġtim",
        "es"
      ],
      [
        "Ġd",
        "om"
      ],
      [
        "ot",
        "ation"
      ],
      [
        "iss",
        "ion"
      ],
      [
        "Ġtreat",
        "ment"
      ],
      [
        "it",
        "her"
      ],
      [
        "Ġdif",
        "f"
      ],
      [
        "Ġcont",
        "in"
      ],
      [
        "Ġserv",
        "ice"
      ],
      [
        "Ġmeas",
        "ure"
      ],
      [
        "le",
        "y"
      ],
      [
        "Ġinv",
        "est"
      ],
      [
        "c",
        "ular"
      ],
      [
        "Ġe",
        "qu"
      ],
      [
        "id",
        "es"
      ],
      [
        "R",
        "E"
      ],
      [
        "im",
        "ent"
      ],
      [
        "om",
        "es"
      ],
      [
        "r",
        "ight"
      ],
      [
        "ord",
        "ing"
      ],
      [
        "Ġpro",
        "m"
      ],
      [
        "Ġexam",
        "ple"
      ],
      [
        "ive",
        "ly"
      ],
      [
        "ion",
        "al"
      ],
      [
        "Ġap",
        "p"
      ],
      [
        "Ġ",
        "Ø"
      ],
      [
        "ĠC",
        "ar"
      ],
      [
        "Ġsim",
        "ilar"
      ],
      [
        "et",
        "ing"
      ],
      [
        "Ġc",
        "ost"
      ],
      [
        "ru",
        "g"
      ],
      [
        "ĠN",
        "ational"
      ],
      [
        "i",
        "od"
      ],
      [
        "m",
        "b"
      ],
      [
        "lo",
        "b"
      ],
      [
        "Ġa",
        "ge"
      ],
      [
        "Ġres",
        "pect"
      ],
      [
        "er",
        "gy"
      ],
      [
        "Ġs",
        "ing"
      ],
      [
        "Ġl",
        "im"
      ],
      [
        "Ġcl",
        "in"
      ],
      [
        "Ġrep",
        "res"
      ],
      [
        "Ġp",
        "ass"
      ],
      [
        "Ġwe",
        "ek"
      ],
      [
        "art",
        "ment"
      ],
      [
        "Ġph",
        "ys"
      ],
      [
        "ic",
        "ense"
      ],
      [
        "Ġcomm",
        "on"
      ],
      [
        "s",
        "y"
      ],
      [
        "Ġis",
        "s"
      ],
      [
        "Ġde",
        "v"
      ],
      [
        "Ġcor",
        "re"
      ],
      [
        "P",
        "ersonal"
      ],
      [
        "Ġo",
        "per"
      ],
      [
        "Ġst",
        "ate"
      ],
      [
        "Ġcan",
        "cer"
      ],
      [
        "Ġab",
        "le"
      ],
      [
        "Ġinv",
        "ol"
      ],
      [
        "ĠAd",
        "d"
      ],
      [
        "ĠA",
        "c"
      ],
      [
        "ur",
        "y"
      ],
      [
        "Ġposs",
        "ible"
      ],
      [
        "p",
        "or"
      ],
      [
        "erv",
        "ed"
      ],
      [
        "ol",
        "ution"
      ],
      [
        "Ġbook",
        "mark"
      ],
      [
        "o",
        "ot"
      ],
      [
        "Ġfre",
        "qu"
      ],
      [
        "ĠA",
        "t"
      ],
      [
        "Ġchang",
        "e"
      ],
      [
        "ĠC",
        "ol"
      ],
      [
        "ĠG",
        "r"
      ],
      [
        "Ġa",
        "ut"
      ],
      [
        "lo",
        "od"
      ],
      [
        "Ġlevel",
        "s"
      ],
      [
        "Ġpartic",
        "ip"
      ],
      [
        "Ġpro",
        "per"
      ],
      [
        "Ġn",
        "etwork"
      ],
      [
        "ĠThe",
        "se"
      ],
      [
        "Ġsever",
        "al"
      ],
      [
        "h",
        "ib"
      ],
      [
        "a",
        "f"
      ],
      [
        "ĠM",
        "e"
      ],
      [
        "Ġbe",
        "h"
      ],
      [
        "ĠD",
        "NA"
      ],
      [
        "ra",
        "in"
      ],
      [
        "m",
        "ber"
      ],
      [
        "Ġf",
        "ull"
      ],
      [
        "ĠP",
        "M"
      ],
      [
        "ain",
        "ing"
      ],
      [
        "ĠÃ",
        "©"
      ],
      [
        "Ġreport",
        "ed"
      ],
      [
        "S",
        "t"
      ],
      [
        "Ġg",
        "l"
      ],
      [
        "Ġval",
        "ue"
      ],
      [
        "ver",
        "age"
      ],
      [
        "W",
        "h"
      ],
      [
        "Ġre",
        "ce"
      ],
      [
        "ĠB",
        "ar"
      ],
      [
        "ur",
        "s"
      ],
      [
        "Ġf",
        "riend"
      ],
      [
        "em",
        "s"
      ],
      [
        "st",
        "and"
      ],
      [
        "th",
        "ough"
      ],
      [
        "I",
        "D"
      ],
      [
        "Ġl",
        "angu"
      ],
      [
        "t",
        "he"
      ],
      [
        "Ġun",
        "t"
      ],
      [
        "ik",
        "i"
      ],
      [
        "b",
        "ox"
      ],
      [
        "Ġa",
        "ir"
      ],
      [
        "Ġto",
        "wn"
      ],
      [
        "ĠA",
        "ust"
      ],
      [
        "iv",
        "ing"
      ],
      [
        "ĠT",
        "r"
      ],
      [
        "cl",
        "us"
      ],
      [
        "Ġactiv",
        "ity"
      ],
      [
        "M",
        "A"
      ],
      [
        "Ġan",
        "n"
      ],
      [
        "Ġm",
        "icro"
      ],
      [
        "ĠP",
        "er"
      ],
      [
        "op",
        "e"
      ],
      [
        "Ġsh",
        "own"
      ],
      [
        "Ġs",
        "ince"
      ],
      [
        "id",
        "er"
      ],
      [
        "ĠM",
        "ay"
      ],
      [
        "Ġ",
        "z"
      ],
      [
        "Ġg",
        "iven"
      ],
      [
        "Ġdep",
        "end"
      ],
      [
        "Ġd",
        "ays"
      ],
      [
        "Ġl",
        "aw"
      ],
      [
        "Ġbu",
        "ild"
      ],
      [
        "Ġfam",
        "ily"
      ],
      [
        "he",
        "re"
      ],
      [
        "ĠB",
        "ut"
      ],
      [
        "oc",
        "ial"
      ],
      [
        "Ġe",
        "l"
      ],
      [
        "Ġp",
        "p"
      ],
      [
        "Ġe",
        "le"
      ],
      [
        "Ġp",
        "erson"
      ],
      [
        "Ġb",
        "it"
      ],
      [
        "Ġhig",
        "her"
      ],
      [
        "Ġan",
        "other"
      ],
      [
        "Ġto",
        "tal"
      ],
      [
        "Ġw",
        "rit"
      ],
      [
        "ĠG",
        "e"
      ],
      [
        "Ġ",
        "à"
      ],
      [
        "at",
        "a"
      ],
      [
        "st",
        "it"
      ],
      [
        "Ġdet",
        "erm"
      ],
      [
        "Ġprev",
        "ious"
      ],
      [
        "Ġ",
        "å"
      ],
      [
        "Ġt",
        "arg"
      ],
      [
        "u",
        "k"
      ],
      [
        "ra",
        "b"
      ],
      [
        "Ġper",
        "iod"
      ],
      [
        "o",
        "int"
      ],
      [
        "ra",
        "d"
      ],
      [
        "em",
        "ber"
      ],
      [
        "Ġof",
        "ten"
      ],
      [
        "ĠN",
        "e"
      ],
      [
        "c",
        "o"
      ],
      [
        "oc",
        "us"
      ],
      [
        "re",
        "m"
      ],
      [
        "Ġc",
        "ult"
      ],
      [
        "Ġt",
        "yp"
      ],
      [
        "Ġ",
        "Ï"
      ],
      [
        "at",
        "ch"
      ],
      [
        "Ġth",
        "ings"
      ],
      [
        "Ġas",
        "k"
      ],
      [
        "reat",
        "ive"
      ],
      [
        "Ġd",
        "ue"
      ],
      [
        "Ġcom",
        "b"
      ],
      [
        "Ġnew",
        "s"
      ],
      [
        "Ġchild",
        "ren"
      ],
      [
        "c",
        "le"
      ],
      [
        "Ġ",
        "ide"
      ],
      [
        "Ġdes",
        "crib"
      ],
      [
        "Ġc",
        "our"
      ],
      [
        "ĠP",
        "r"
      ],
      [
        "or",
        "ies"
      ],
      [
        "Ġm",
        "ap"
      ],
      [
        "Ġ",
        "Ù"
      ],
      [
        "Ġl",
        "and"
      ],
      [
        "ot",
        "s"
      ],
      [
        "Ġgovern",
        "ment"
      ],
      [
        "ĠT",
        "e"
      ],
      [
        "ic",
        "y"
      ],
      [
        "Ġpot",
        "ential"
      ],
      [
        "Ġen",
        "vironment"
      ],
      [
        "Ġacc",
        "ount"
      ],
      [
        "p",
        "ing"
      ],
      [
        "oc",
        "ument"
      ],
      [
        "Ġpred",
        "ict"
      ],
      [
        "ot",
        "t"
      ],
      [
        "ĠM",
        "an"
      ],
      [
        "Ġbet",
        "ter"
      ],
      [
        "W",
        "e"
      ],
      [
        "d",
        "s"
      ],
      [
        "orm",
        "al"
      ],
      [
        "Ġinter",
        "v"
      ],
      [
        "Ġme",
        "an"
      ],
      [
        "ft",
        "ware"
      ],
      [
        "Ġpl",
        "aces"
      ],
      [
        "Ġgroup",
        "s"
      ],
      [
        "Ġcall",
        "ed"
      ],
      [
        "Ġ",
        "es"
      ],
      [
        "Ġsing",
        "le"
      ],
      [
        "ert",
        "ain"
      ],
      [
        "Ġorig",
        "inal"
      ],
      [
        "Ġc",
        "rit"
      ],
      [
        "o",
        "ber"
      ],
      [
        "ĠA",
        "tt"
      ],
      [
        "ĠG",
        "u"
      ],
      [
        "Ġw",
        "omen"
      ],
      [
        "Ġr",
        "ate"
      ],
      [
        "Ġp",
        "ract"
      ],
      [
        "ĠA",
        "D"
      ],
      [
        "Ġle",
        "ft"
      ],
      [
        "Ġman",
        "ag"
      ],
      [
        "Ġre",
        "al"
      ],
      [
        "a",
        "ur"
      ],
      [
        "in",
        "ing"
      ],
      [
        "ĠP",
        "C"
      ],
      [
        "our",
        "nal"
      ],
      [
        "a",
        "e"
      ],
      [
        "Ġg",
        "ame"
      ],
      [
        "ust",
        "om"
      ],
      [
        "Ġs",
        "ources"
      ],
      [
        "ĠP",
        "H"
      ],
      [
        "M",
        "B"
      ],
      [
        "Ġs",
        "k"
      ],
      [
        "ĠAmeric",
        "an"
      ],
      [
        "uro",
        "pe"
      ],
      [
        "Ġbe",
        "g"
      ],
      [
        "Ġap",
        "plic"
      ],
      [
        "Ġsu",
        "c"
      ],
      [
        "Ġcomple",
        "te"
      ],
      [
        "ip",
        "le"
      ],
      [
        "et",
        "er"
      ],
      [
        "pl",
        "oy"
      ],
      [
        "Ġweb",
        "s"
      ],
      [
        "V",
        "ari"
      ],
      [
        "Ġf",
        "our"
      ],
      [
        "ĠT",
        "able"
      ],
      [
        "ap",
        "er"
      ],
      [
        "Ġh",
        "ome"
      ],
      [
        "Ġsh",
        "ort"
      ],
      [
        "a",
        "im"
      ],
      [
        "ĠP",
        "ark"
      ],
      [
        "Ġl",
        "ab"
      ],
      [
        "ĠE",
        "dit"
      ],
      [
        "ist",
        "ics"
      ],
      [
        "Ġac",
        "id"
      ],
      [
        "a",
        "ction"
      ],
      [
        "Ġs",
        "ource"
      ],
      [
        "ab",
        "ly"
      ],
      [
        "Ġeffect",
        "s"
      ],
      [
        "Ġb",
        "ro"
      ],
      [
        "Ġf",
        "urther"
      ],
      [
        "i",
        "ol"
      ],
      [
        "ail",
        "s"
      ],
      [
        "Ġde",
        "ath"
      ],
      [
        "du",
        "ct"
      ],
      [
        "Ġterm",
        "s"
      ],
      [
        "Ġrepres",
        "ent"
      ],
      [
        "Ġst",
        "aff"
      ],
      [
        "ib",
        "r"
      ],
      [
        "ress",
        "ed"
      ],
      [
        "Ġob",
        "t"
      ],
      [
        "Ġbel",
        "ie"
      ],
      [
        "b",
        "e"
      ],
      [
        "Ġto",
        "o"
      ],
      [
        "ra",
        "vel"
      ],
      [
        "ĠL",
        "ord"
      ],
      [
        "Ġhe",
        "art"
      ],
      [
        "Ġ",
        "ã"
      ],
      [
        "Ġ",
        "ll"
      ],
      [
        "Ġf",
        "ood"
      ],
      [
        "Ġare",
        "as"
      ],
      [
        "Ġf",
        "in"
      ],
      [
        "op",
        "s"
      ],
      [
        "h",
        "ing"
      ],
      [
        "Ġcomp",
        "ared"
      ],
      [
        "Ġcomp",
        "ar"
      ],
      [
        "Ġcount",
        "ry"
      ],
      [
        "st",
        "r"
      ],
      [
        "o",
        "res"
      ],
      [
        "Y",
        "ou"
      ],
      [
        "al",
        "u"
      ],
      [
        "Ġrev",
        "iew"
      ],
      [
        "Ġt",
        "ry"
      ],
      [
        "Ġinclud",
        "e"
      ],
      [
        "ĠD",
        "ep"
      ],
      [
        "Ġe",
        "ither"
      ],
      [
        "Ġtrans",
        "cript"
      ],
      [
        "Ġle",
        "ast"
      ],
      [
        "Ġpartic",
        "ular"
      ],
      [
        "R",
        "es"
      ],
      [
        "l",
        "er"
      ],
      [
        "Ġm",
        "ut"
      ],
      [
        "Ġcom",
        "e"
      ],
      [
        "Ġstand",
        "ard"
      ],
      [
        "N",
        "avigation"
      ],
      [
        "l",
        "i"
      ],
      [
        "m",
        "s"
      ],
      [
        "Ġf",
        "ocus"
      ],
      [
        "Ġhe",
        "ad"
      ],
      [
        "Ġc",
        "ode"
      ],
      [
        "Ġm",
        "ove"
      ],
      [
        "ĠS",
        "o"
      ],
      [
        "Ġe",
        "con"
      ],
      [
        "Ġall",
        "ow"
      ],
      [
        "p",
        "ut"
      ],
      [
        "el",
        "s"
      ],
      [
        "al",
        "es"
      ],
      [
        "Ġcomp",
        "any"
      ],
      [
        "ip",
        "edia"
      ],
      [
        "ĠĠĠÂł",
        "Ġ"
      ],
      [
        "ed",
        "s"
      ],
      [
        "Ġg",
        "ive"
      ],
      [
        "Ġs",
        "ide"
      ],
      [
        "ĠS",
        "y"
      ],
      [
        "Ġus",
        "ers"
      ],
      [
        "Ġn",
        "ext"
      ],
      [
        "Ġsequ",
        "ence"
      ],
      [
        "c",
        "her"
      ],
      [
        "ple",
        "ment"
      ],
      [
        "p",
        "aces"
      ],
      [
        "ĠAust",
        "ral"
      ],
      [
        "en",
        "n"
      ],
      [
        "Ġal",
        "ong"
      ],
      [
        "N",
        "ames"
      ],
      [
        "Ġw",
        "alk"
      ],
      [
        "Ġgener",
        "al"
      ],
      [
        "Ġfact",
        "ors"
      ],
      [
        "Vari",
        "ants"
      ],
      [
        "A",
        "T"
      ],
      [
        "A",
        "ctions"
      ],
      [
        "g",
        "er"
      ],
      [
        "Ġp",
        "ut"
      ],
      [
        "Ġb",
        "o"
      ],
      [
        "ĠJ",
        "an"
      ],
      [
        "Ġen",
        "g"
      ],
      [
        "ĠCh",
        "rist"
      ],
      [
        "R",
        "NA"
      ],
      [
        "f",
        "er"
      ],
      [
        "Ġin",
        "du"
      ],
      [
        "Ġl",
        "at"
      ],
      [
        "ĠE",
        "urope"
      ],
      [
        "Ġt",
        "re"
      ],
      [
        "Names",
        "paces"
      ],
      [
        "Ġreg",
        "ion"
      ],
      [
        "it",
        "ud"
      ],
      [
        "r",
        "is"
      ],
      [
        "Ġserv",
        "ices"
      ],
      [
        "sy",
        "ch"
      ],
      [
        "re",
        "et"
      ],
      [
        "A",
        "N"
      ],
      [
        "A",
        "S"
      ],
      [
        "el",
        "f"
      ],
      [
        "Ġf",
        "ield"
      ],
      [
        "Ġin",
        "it"
      ],
      [
        "ic",
        "ens"
      ],
      [
        "ill",
        "ion"
      ],
      [
        "ĠComm",
        "ons"
      ],
      [
        "ĠA",
        "g"
      ],
      [
        "Ġl",
        "ight"
      ],
      [
        "Ġdisc",
        "uss"
      ],
      [
        "ĠN",
        "o"
      ],
      [
        "C",
        "l"
      ],
      [
        "gr",
        "ound"
      ],
      [
        "Ġ",
        "er"
      ],
      [
        "at",
        "ural"
      ],
      [
        "Ġc",
        "ustom"
      ],
      [
        "Ġunt",
        "il"
      ],
      [
        "F",
        "igure"
      ],
      [
        "f",
        "ace"
      ],
      [
        "ar",
        "n"
      ],
      [
        "Ġass",
        "ess"
      ],
      [
        "ĠW",
        "hen"
      ],
      [
        "Ġm",
        "ar"
      ],
      [
        "Ġlook",
        "ing"
      ],
      [
        "ĠB",
        "io"
      ],
      [
        "Ġ",
        "á"
      ],
      [
        "Ġse",
        "en"
      ],
      [
        "th",
        "ing"
      ],
      [
        "ou",
        "b"
      ],
      [
        "Ġadd",
        "ed"
      ],
      [
        "Ġlit",
        "tle"
      ],
      [
        "Ġn",
        "uc"
      ],
      [
        "ide",
        "red"
      ],
      [
        "The",
        "re"
      ],
      [
        "Ġen",
        "c"
      ],
      [
        "on",
        "se"
      ],
      [
        "Ġex",
        "pect"
      ],
      [
        "i",
        "ation"
      ],
      [
        "ON",
        "E"
      ],
      [
        "ĠE",
        "d"
      ],
      [
        "m",
        "it"
      ],
      [
        "in",
        "c"
      ],
      [
        "at",
        "ors"
      ],
      [
        "Ġest",
        "im"
      ],
      [
        "Ġex",
        "ist"
      ],
      [
        "Ġspec",
        "ial"
      ],
      [
        "Ġgrow",
        "th"
      ],
      [
        "Ġear",
        "ly"
      ],
      [
        "Ġcre",
        "ate"
      ],
      [
        "Ġf",
        "ac"
      ],
      [
        "Ġind",
        "ust"
      ],
      [
        "Ġst",
        "ep"
      ],
      [
        "Ġstr",
        "ong"
      ],
      [
        "Ġsuc",
        "cess"
      ],
      [
        "re",
        "v"
      ],
      [
        "at",
        "ures"
      ],
      [
        "Ġc",
        "aus"
      ],
      [
        "le",
        "t"
      ],
      [
        "one",
        "y"
      ],
      [
        "lect",
        "ed"
      ],
      [
        "Ġprote",
        "ins"
      ],
      [
        "ĠUS",
        "A"
      ],
      [
        "Ġsh",
        "all"
      ],
      [
        "Ġtra",
        "d"
      ],
      [
        "Ġcons",
        "idered"
      ],
      [
        "id",
        "d"
      ],
      [
        "ograph",
        "y"
      ],
      [
        "in",
        "o"
      ],
      [
        "Ġe",
        "p"
      ],
      [
        "ac",
        "y"
      ],
      [
        "Ġr",
        "ange"
      ],
      [
        "Ġ",
        "x"
      ],
      [
        "ĠWik",
        "ipedia"
      ],
      [
        "Ġs",
        "um"
      ],
      [
        "Ġl",
        "ower"
      ],
      [
        "Ġal",
        "ways"
      ],
      [
        "ĠĠâĢī",
        "Ġ"
      ],
      [
        "ĠEng",
        "lish"
      ],
      [
        "Ġt",
        "urn"
      ],
      [
        "ĠW",
        "orld"
      ],
      [
        "end",
        "ed"
      ],
      [
        "Ġt",
        "ax"
      ],
      [
        "ĠS",
        "m"
      ],
      [
        "e",
        "e"
      ],
      [
        "il",
        "es"
      ],
      [
        "Ġreg",
        "ul"
      ],
      [
        "uc",
        "k"
      ],
      [
        "Ġincre",
        "ase"
      ],
      [
        "Ġincre",
        "ased"
      ],
      [
        "Ġp",
        "ages"
      ],
      [
        "Ġre",
        "le"
      ],
      [
        "Ġatt",
        "ack"
      ],
      [
        "ol",
        "ar"
      ],
      [
        "m",
        "in"
      ],
      [
        "as",
        "ter"
      ],
      [
        "ult",
        "s"
      ],
      [
        "Ġro",
        "le"
      ],
      [
        "Ġprov",
        "ide"
      ],
      [
        "u",
        "x"
      ],
      [
        "ĠU",
        "s"
      ],
      [
        "ak",
        "en"
      ],
      [
        "e",
        "c"
      ],
      [
        "Ġb",
        "lood"
      ],
      [
        "ĠA",
        "ug"
      ],
      [
        "ĠN",
        "U"
      ],
      [
        "a",
        "rent"
      ],
      [
        "it",
        "ravel"
      ],
      [
        "Ġch",
        "o"
      ],
      [
        "Ġc",
        "ases"
      ],
      [
        "ĠC",
        "al"
      ],
      [
        "ch",
        "an"
      ],
      [
        "S",
        "earch"
      ],
      [
        "Ġre",
        "cept"
      ],
      [
        "ate",
        "ly"
      ],
      [
        "A",
        "R"
      ],
      [
        "on",
        "es"
      ],
      [
        "re",
        "g"
      ],
      [
        "Ġl",
        "arg"
      ],
      [
        "ne",
        "y"
      ],
      [
        "Ġt",
        "iss"
      ],
      [
        "Ġadd",
        "ition"
      ],
      [
        "om",
        "y"
      ],
      [
        "Ġab",
        "ove"
      ],
      [
        "Ġte",
        "am"
      ],
      [
        "ĠWik",
        "i"
      ],
      [
        "ri",
        "ed"
      ],
      [
        "Ġne",
        "ver"
      ],
      [
        "opy",
        "right"
      ],
      [
        "A",
        "l"
      ],
      [
        "ĠP",
        "ar"
      ],
      [
        "Ġrec",
        "ords"
      ],
      [
        "Ġra",
        "d"
      ],
      [
        "ool",
        "box"
      ],
      [
        "Ġresp",
        "onse"
      ],
      [
        "ĠN",
        "orth"
      ],
      [
        "Ġle",
        "t"
      ],
      [
        "MB",
        "ER"
      ],
      [
        "or",
        "ing"
      ],
      [
        "Ġh",
        "ouse"
      ],
      [
        "ĠC",
        "reative"
      ],
      [
        "ĠI",
        "I"
      ],
      [
        "osp",
        "ital"
      ],
      [
        "l",
        "ation"
      ],
      [
        "Ġs",
        "ch"
      ],
      [
        "Ġc",
        "ir"
      ],
      [
        "it",
        "ions"
      ],
      [
        "an",
        "ces"
      ],
      [
        "Ġdifferen",
        "ce"
      ],
      [
        "ĠWik",
        "itravel"
      ],
      [
        "ron",
        "ic"
      ],
      [
        "A",
        "d"
      ],
      [
        "Ġwebs",
        "ite"
      ],
      [
        "c",
        "hes"
      ],
      [
        "Ġl",
        "ove"
      ],
      [
        "am",
        "ily"
      ],
      [
        "ĠL",
        "icense"
      ],
      [
        "ĠÎ",
        "¼"
      ],
      [
        "Ġunder",
        "stand"
      ],
      [
        "ĠS",
        "earch"
      ],
      [
        "Ġen",
        "ergy"
      ],
      [
        "Ġso",
        "ftware"
      ],
      [
        "ĠA",
        "M"
      ],
      [
        "Ġcomm",
        "unity"
      ],
      [
        "Ġlike",
        "ly"
      ],
      [
        "l",
        "ing"
      ],
      [
        "at",
        "al"
      ],
      [
        "Ġab",
        "s"
      ],
      [
        "ĠNU",
        "MBER"
      ],
      [
        "Ġke",
        "ep"
      ],
      [
        "Ġstruct",
        "ure"
      ],
      [
        "Ġp",
        "riv"
      ],
      [
        "ir",
        "m"
      ],
      [
        "Ġac",
        "ross"
      ],
      [
        "ĠRes",
        "earch"
      ],
      [
        "Ġclin",
        "ical"
      ],
      [
        "Ġv",
        "ir"
      ],
      [
        "Ġha",
        "p"
      ],
      [
        "ĠPH",
        "ONE"
      ],
      [
        "ĠM",
        "ark"
      ],
      [
        "Ġn",
        "ormal"
      ],
      [
        "C",
        "T"
      ],
      [
        "Ġy",
        "et"
      ],
      [
        "Ġpat",
        "ient"
      ],
      [
        "Ġrec",
        "ent"
      ],
      [
        "Ġp",
        "ress"
      ],
      [
        "ĠP",
        "e"
      ],
      [
        "Ġcomple",
        "x"
      ],
      [
        "iqu",
        "e"
      ],
      [
        "Ġappe",
        "ar"
      ],
      [
        "lob",
        "al"
      ],
      [
        "A",
        "b"
      ],
      [
        "I",
        "N"
      ],
      [
        "ri",
        "e"
      ],
      [
        "ĠO",
        "ne"
      ],
      [
        "Ġqu",
        "ality"
      ],
      [
        "Ġle",
        "g"
      ],
      [
        "Ġacc",
        "ording"
      ],
      [
        "Ġmem",
        "bers"
      ],
      [
        "T",
        "oolbox"
      ],
      [
        "Ġs",
        "ites"
      ],
      [
        "Ġpl",
        "an"
      ],
      [
        "m",
        "a"
      ],
      [
        "u",
        "ff"
      ],
      [
        "Ġs",
        "ens"
      ],
      [
        "dit",
        "ions"
      ],
      [
        "ab",
        "et"
      ],
      [
        "Ġar",
        "t"
      ],
      [
        "Ġgo",
        "ing"
      ],
      [
        "Ġ",
        "ur"
      ],
      [
        "Ġd",
        "rug"
      ],
      [
        "ĠD",
        "o"
      ],
      [
        "ens",
        "ive"
      ],
      [
        "Ġperform",
        "ed"
      ],
      [
        "om",
        "b"
      ],
      [
        "ĠC",
        "D"
      ],
      [
        "Ġt",
        "alk"
      ],
      [
        "Ġh",
        "ost"
      ],
      [
        "Ġocc",
        "ur"
      ],
      [
        "Ġh",
        "ours"
      ],
      [
        "os",
        "ph"
      ],
      [
        "Ġrequ",
        "ired"
      ],
      [
        "Ġmonth",
        "s"
      ],
      [
        "h",
        "old"
      ],
      [
        "Ġf",
        "ar"
      ],
      [
        "ĠSup",
        "er"
      ],
      [
        "o",
        "ch"
      ],
      [
        "it",
        "ation"
      ],
      [
        "Ġm",
        "ot"
      ],
      [
        "Ġse",
        "ction"
      ],
      [
        "tern",
        "al"
      ],
      [
        "Ġsub",
        "ject"
      ],
      [
        "Ġm",
        "ole"
      ],
      [
        "ep",
        "end"
      ],
      [
        "hem",
        "ical"
      ],
      [
        "ir",
        "d"
      ],
      [
        "ore",
        "d"
      ],
      [
        "Ġro",
        "ad"
      ],
      [
        "sh",
        "are"
      ],
      [
        "Ġs",
        "ize"
      ],
      [
        "us",
        "e"
      ],
      [
        "A",
        "s"
      ],
      [
        "as",
        "ing"
      ],
      [
        "Ġrel",
        "ations"
      ],
      [
        "u",
        "ary"
      ],
      [
        "Ġcl",
        "ose"
      ],
      [
        "Ġwhe",
        "ther"
      ],
      [
        "k",
        "s"
      ],
      [
        "ro",
        "ll"
      ],
      [
        "iv",
        "ity"
      ],
      [
        "Ġinf",
        "lu"
      ],
      [
        "Ġm",
        "ov"
      ],
      [
        "ol",
        "ic"
      ],
      [
        "Ġrel",
        "ative"
      ],
      [
        "led",
        "ge"
      ],
      [
        "is",
        "c"
      ],
      [
        "ĠS",
        "outh"
      ],
      [
        "Ġtem",
        "per"
      ],
      [
        "eth",
        "ing"
      ],
      [
        "rap",
        "y"
      ],
      [
        "u",
        "ly"
      ],
      [
        "re",
        "am"
      ],
      [
        "Ġcomp",
        "ut"
      ],
      [
        "uth",
        "or"
      ],
      [
        "ĠAtt",
        "ribution"
      ],
      [
        "al",
        "f"
      ],
      [
        "Ġl",
        "ater"
      ],
      [
        "os",
        "ed"
      ],
      [
        "du",
        "ction"
      ],
      [
        "Ġauth",
        "ors"
      ],
      [
        "Ġp",
        "ay"
      ],
      [
        "Ġd",
        "er"
      ],
      [
        "ut",
        "ure"
      ],
      [
        "Ġval",
        "ues"
      ],
      [
        "ĠWh",
        "at"
      ],
      [
        "Ġen",
        "ough"
      ],
      [
        "r",
        "or"
      ],
      [
        "am",
        "b"
      ],
      [
        "Ġde",
        "g"
      ],
      [
        "Ġcan",
        "n"
      ],
      [
        "ward",
        "s"
      ],
      [
        "Ġobs",
        "erved"
      ],
      [
        "I",
        "t"
      ],
      [
        "im",
        "al"
      ],
      [
        "Ġcon",
        "cent"
      ],
      [
        "og",
        "n"
      ],
      [
        "Ġd",
        "est"
      ],
      [
        "ater",
        "ial"
      ],
      [
        "Ġb",
        "ind"
      ],
      [
        "Ġident",
        "ified"
      ],
      [
        "Ġcon",
        "ditions"
      ],
      [
        "Ġd",
        "ri"
      ],
      [
        "ĠRe",
        "g"
      ],
      [
        "ed",
        "i"
      ],
      [
        "ĠC",
        "ity"
      ],
      [
        "ĠĊĊ",
        "Ċ"
      ],
      [
        "ĠW",
        "ar"
      ],
      [
        "Ġprovid",
        "ed"
      ],
      [
        "Ġtarg",
        "et"
      ],
      [
        "c",
        "ome"
      ],
      [
        "om",
        "p"
      ],
      [
        "ĠC",
        "or"
      ],
      [
        "Ġother",
        "s"
      ],
      [
        "Ġhow",
        "ever"
      ],
      [
        "ĠDep",
        "artment"
      ],
      [
        "e",
        "ad"
      ],
      [
        "Ġh",
        "ard"
      ],
      [
        "ĠN",
        "ot"
      ],
      [
        "Ġne",
        "g"
      ],
      [
        "ĠAp",
        "r"
      ],
      [
        "Ġp",
        "ain"
      ],
      [
        "Ġre",
        "ally"
      ],
      [
        "land",
        "s"
      ],
      [
        "ĠAs",
        "s"
      ],
      [
        "Ġd",
        "ocument"
      ],
      [
        "ĠS",
        "w"
      ],
      [
        "Ġac",
        "cept"
      ],
      [
        "n",
        "ect"
      ],
      [
        "Ġd",
        "ra"
      ],
      [
        "il",
        "le"
      ],
      [
        "pe",
        "cial"
      ],
      [
        "ĠO",
        "ct"
      ],
      [
        "Ġadd",
        "itional"
      ],
      [
        "Ġaf",
        "fect"
      ],
      [
        "C",
        "ont"
      ],
      [
        "Ġl",
        "a"
      ],
      [
        "Ġgen",
        "ome"
      ],
      [
        "Ġo",
        "x"
      ],
      [
        "ight",
        "s"
      ],
      [
        "ib",
        "ility"
      ],
      [
        "ap",
        "s"
      ],
      [
        "Ġmult",
        "iple"
      ],
      [
        "ĠF",
        "l"
      ],
      [
        "y",
        "t"
      ],
      [
        "Ġre",
        "ferences"
      ],
      [
        "Ġsam",
        "ples"
      ],
      [
        "Ġsom",
        "ething"
      ],
      [
        "Ġb",
        "ar"
      ],
      [
        "C",
        "h"
      ],
      [
        "T",
        "h"
      ],
      [
        "Ġc",
        "lear"
      ],
      [
        "ro",
        "ph"
      ],
      [
        "Ġr",
        "at"
      ],
      [
        "Ġappro",
        "ach"
      ],
      [
        "p",
        "ly"
      ],
      [
        "Ġl",
        "icens"
      ],
      [
        "iv",
        "al"
      ],
      [
        "Ġme",
        "ans"
      ],
      [
        "Ġcount",
        "ries"
      ],
      [
        "ĠC",
        "ount"
      ],
      [
        "Ġf",
        "em"
      ],
      [
        "ĠM",
        "c"
      ],
      [
        "ĠĠÂłĠĠÂł",
        "ĠĠÂłĠĠÂł"
      ],
      [
        "Ġm",
        "oney"
      ],
      [
        "Ġha",
        "ving"
      ],
      [
        "ĠÎ",
        "±"
      ],
      [
        "un",
        "ic"
      ],
      [
        "Ġpos",
        "itive"
      ],
      [
        "Ġp",
        "ast"
      ],
      [
        "Ġinclud",
        "ed"
      ],
      [
        "S",
        "h"
      ],
      [
        "ĠĠ",
        "ĠĠ"
      ],
      [
        "Ġg",
        "e"
      ],
      [
        "Ġresp",
        "ons"
      ],
      [
        "an",
        "a"
      ],
      [
        "ĠE",
        "v"
      ],
      [
        "ist",
        "ic"
      ],
      [
        "Ġche",
        "ck"
      ],
      [
        "Ġf",
        "ive"
      ],
      [
        "om",
        "et"
      ],
      [
        "Ġev",
        "alu"
      ],
      [
        "Ġpo",
        "ly"
      ],
      [
        "Ġdet",
        "ect"
      ],
      [
        "he",
        "l"
      ],
      [
        "Ġan",
        "c"
      ],
      [
        "and",
        "om"
      ],
      [
        "Ġvari",
        "ous"
      ],
      [
        "E",
        "S"
      ],
      [
        "m",
        "ost"
      ],
      [
        "o",
        "f"
      ],
      [
        "res",
        "p"
      ],
      [
        "Ġdis",
        "play"
      ],
      [
        "Ġon",
        "line"
      ],
      [
        "and",
        "s"
      ],
      [
        "Ġneed",
        "s"
      ],
      [
        "Ġsam",
        "ple"
      ],
      [
        "I",
        "f"
      ],
      [
        "el",
        "p"
      ],
      [
        "ĠRe",
        "c"
      ],
      [
        "Ġcons",
        "ider"
      ],
      [
        "Ġre",
        "ason"
      ],
      [
        "Ġpro",
        "t"
      ],
      [
        "ip",
        "s"
      ],
      [
        "es",
        "tern"
      ],
      [
        "am",
        "a"
      ],
      [
        "Ġpat",
        "tern"
      ],
      [
        "Q",
        "u"
      ],
      [
        "b",
        "y"
      ],
      [
        "Ġc",
        "ateg"
      ],
      [
        "ab",
        "les"
      ],
      [
        "ĠJ",
        "ournal"
      ],
      [
        "The",
        "se"
      ],
      [
        "Ġcl",
        "ust"
      ],
      [
        "Ġwork",
        "ing"
      ],
      [
        "Ġpol",
        "it"
      ],
      [
        "Ġs",
        "ocial"
      ],
      [
        "Ġbl",
        "ock"
      ],
      [
        "Ġev",
        "idence"
      ],
      [
        "Ġdist",
        "ribution"
      ],
      [
        "Ġdi",
        "agn"
      ],
      [
        "Ġpol",
        "icy"
      ],
      [
        "is",
        "ter"
      ],
      [
        "ĠM",
        "in"
      ],
      [
        "Ġmed",
        "ical"
      ],
      [
        "ag",
        "s"
      ],
      [
        "ĠO",
        "pen"
      ],
      [
        "P",
        "s"
      ],
      [
        "Ġc",
        "ard"
      ],
      [
        "Ġc",
        "ertain"
      ],
      [
        "ĠF",
        "amily"
      ],
      [
        "ri",
        "al"
      ],
      [
        "ens",
        "us"
      ],
      [
        "Ġup",
        "on"
      ],
      [
        "Ġam",
        "ount"
      ],
      [
        "Ġqu",
        "otation"
      ],
      [
        "Ġme",
        "chan"
      ],
      [
        "I",
        "L"
      ],
      [
        "it",
        "le"
      ],
      [
        "il",
        "t"
      ],
      [
        "r",
        "ink"
      ],
      [
        "ill",
        "s"
      ],
      [
        "ic",
        "ine"
      ],
      [
        "Ġsystem",
        "s"
      ],
      [
        "P",
        "ro"
      ],
      [
        "Ġs",
        "elf"
      ],
      [
        "Ġm",
        "aking"
      ],
      [
        "Ġshow",
        "ed"
      ],
      [
        "p",
        "s"
      ],
      [
        "il",
        "it"
      ],
      [
        "Ġbeh",
        "av"
      ],
      [
        "Ġc",
        "e"
      ],
      [
        "Ġw",
        "ar"
      ],
      [
        "Ġd",
        "one"
      ],
      [
        "ĠP",
        "art"
      ],
      [
        "Ġg",
        "ra"
      ],
      [
        "ĠB",
        "o"
      ],
      [
        "itud",
        "e"
      ],
      [
        "it",
        "ing"
      ],
      [
        "Ġd",
        "am"
      ],
      [
        "ent",
        "al"
      ],
      [
        "ree",
        "k"
      ],
      [
        "Ġs",
        "it"
      ],
      [
        "Ġn",
        "atural"
      ],
      [
        "Ġcann",
        "ot"
      ],
      [
        "Ġus",
        "ually"
      ],
      [
        "Ġprodu",
        "ction"
      ],
      [
        "Ġsequ",
        "ences"
      ],
      [
        "Ġobt",
        "ained"
      ],
      [
        "Ġre",
        "n"
      ],
      [
        "ĠIn",
        "ternational"
      ],
      [
        "Ġke",
        "y"
      ],
      [
        "ur",
        "g"
      ],
      [
        "ĠE",
        "ar"
      ],
      [
        "Ġprovid",
        "es"
      ],
      [
        "Ġprim",
        "ary"
      ],
      [
        "Ġw",
        "ide"
      ],
      [
        "im",
        "es"
      ],
      [
        "Ġp",
        "ri"
      ],
      [
        "a",
        "pe"
      ],
      [
        "id",
        "s"
      ],
      [
        "ce",
        "ll"
      ],
      [
        "n",
        "g"
      ],
      [
        "Ġdescrib",
        "ed"
      ],
      [
        "s",
        "ide"
      ],
      [
        "ic",
        "ult"
      ],
      [
        "om",
        "a"
      ],
      [
        "er",
        "c"
      ],
      [
        "ĠS",
        "he"
      ],
      [
        "ĠâĢ",
        "ĺ"
      ],
      [
        "Ġb",
        "ody"
      ],
      [
        "ĠB",
        "r"
      ],
      [
        "Ġnot",
        "hing"
      ],
      [
        "Ġper",
        "cent"
      ],
      [
        "pos",
        "ed"
      ],
      [
        "Ġcal",
        "cul"
      ],
      [
        "u",
        "le"
      ],
      [
        "Ġw",
        "r"
      ],
      [
        "op",
        "us"
      ],
      [
        "um",
        "e"
      ],
      [
        "Ġind",
        "epend"
      ],
      [
        "Ġrec",
        "ord"
      ],
      [
        "Ġmethod",
        "s"
      ],
      [
        "resp",
        "ond"
      ],
      [
        "o",
        "ver"
      ],
      [
        "Ġlist",
        "ing"
      ],
      [
        "ffic",
        "ient"
      ],
      [
        "Ġto",
        "get"
      ],
      [
        "ver",
        "se"
      ],
      [
        "ĠG",
        "et"
      ],
      [
        "Ġem",
        "ploy"
      ],
      [
        "Ġshow",
        "s"
      ],
      [
        "Ġfact",
        "or"
      ],
      [
        "ĠBook",
        "s"
      ],
      [
        "ĠJan",
        "uary"
      ],
      [
        "Ġtoget",
        "her"
      ],
      [
        "P",
        "ub"
      ],
      [
        "s",
        "c"
      ],
      [
        "ĠM",
        "y"
      ],
      [
        "U",
        "n"
      ],
      [
        "h",
        "am"
      ],
      [
        "Ġt",
        "um"
      ],
      [
        "Ġmark",
        "et"
      ],
      [
        "Ġinvol",
        "ved"
      ],
      [
        "Ġh",
        "ist"
      ],
      [
        "ut",
        "ions"
      ],
      [
        "ĠV",
        "er"
      ],
      [
        "Ġexper",
        "ience"
      ],
      [
        "he",
        "st"
      ],
      [
        "Ġp",
        "lease"
      ],
      [
        "Ġm",
        "or"
      ],
      [
        "eng",
        "th"
      ],
      [
        "ot",
        "ic"
      ],
      [
        "ĠE",
        "l"
      ],
      [
        "Ġsignificant",
        "ly"
      ],
      [
        "i",
        "am"
      ],
      [
        "y",
        "le"
      ],
      [
        "Ġp",
        "ers"
      ],
      [
        "Ġoff",
        "ic"
      ],
      [
        "Ġbec",
        "ome"
      ],
      [
        "Ġr",
        "ather"
      ],
      [
        "Ġest",
        "ab"
      ],
      [
        "Ġh",
        "yp"
      ],
      [
        "ĠD",
        "on"
      ],
      [
        "Ġed",
        "uc"
      ],
      [
        "p",
        "ed"
      ],
      [
        "om",
        "an"
      ],
      [
        "ĠA",
        "ct"
      ],
      [
        "ĠJ",
        "une"
      ],
      [
        "Ġin",
        "hib"
      ],
      [
        "Ġl",
        "ive"
      ],
      [
        "ĠH",
        "otel"
      ],
      [
        "ir",
        "th"
      ],
      [
        "ap",
        "an"
      ],
      [
        "Ġdat",
        "ab"
      ],
      [
        "Ġbookmark",
        "ed"
      ],
      [
        "ĠP",
        "ages"
      ],
      [
        "Ġro",
        "om"
      ],
      [
        "ĠAug",
        "ust"
      ],
      [
        "Ġrelations",
        "hip"
      ],
      [
        "o",
        "ly"
      ],
      [
        "w",
        "e"
      ],
      [
        "Ġf",
        "uture"
      ],
      [
        "il",
        "i"
      ],
      [
        "Ġr",
        "andom"
      ],
      [
        "au",
        "gh"
      ],
      [
        "v",
        "iew"
      ],
      [
        "al",
        "ing"
      ],
      [
        "le",
        "x"
      ],
      [
        "Ġn",
        "ight"
      ],
      [
        "Ġproblem",
        "s"
      ],
      [
        "Ġb",
        "ig"
      ],
      [
        "ut",
        "es"
      ],
      [
        "Ġmanag",
        "ement"
      ],
      [
        "Ġ",
        "ill"
      ],
      [
        "Ġa",
        "verage"
      ],
      [
        "ra",
        "g"
      ],
      [
        "ĠPh",
        "ys"
      ],
      [
        "E",
        "N"
      ],
      [
        "Ġf",
        "ail"
      ],
      [
        "ur",
        "ch"
      ],
      [
        "ĠG",
        "erm"
      ],
      [
        "Ġdifferen",
        "ces"
      ],
      [
        "Ġbl",
        "og"
      ],
      [
        "Ġrespect",
        "ively"
      ],
      [
        "Ġm",
        "illion"
      ],
      [
        "Ġh",
        "om"
      ],
      [
        "il",
        "ities"
      ],
      [
        "Ġwho",
        "le"
      ],
      [
        "Ġcor",
        "respond"
      ],
      [
        "r",
        "ont"
      ],
      [
        "Ġdevelop",
        "ed"
      ],
      [
        "Ġexper",
        "iment"
      ],
      [
        "ar",
        "ies"
      ],
      [
        "tern",
        "et"
      ],
      [
        "Ġp",
        "ort"
      ],
      [
        "se",
        "qu"
      ],
      [
        "Ġhe",
        "av"
      ],
      [
        "ĠIn",
        "stit"
      ],
      [
        "Ġcons",
        "ist"
      ],
      [
        "Ġsch",
        "ool"
      ],
      [
        "b",
        "s"
      ],
      [
        "Ġm",
        "ass"
      ],
      [
        "Ġl",
        "ot"
      ],
      [
        "ĠSc",
        "i"
      ],
      [
        "Ġdiff",
        "icult"
      ],
      [
        "D",
        "B"
      ],
      [
        "d",
        "om"
      ],
      [
        "im",
        "um"
      ],
      [
        "od",
        "es"
      ],
      [
        "T",
        "able"
      ],
      [
        "Ġdem",
        "on"
      ],
      [
        "M",
        "C"
      ],
      [
        "u",
        "ra"
      ],
      [
        "ĠM",
        "icro"
      ],
      [
        "ism",
        "s"
      ],
      [
        "Ġindividual",
        "s"
      ],
      [
        "i",
        "res"
      ],
      [
        "Ġc",
        "ut"
      ],
      [
        "Ġth",
        "ing"
      ],
      [
        "Ġl",
        "ay"
      ],
      [
        "ĠW",
        "ill"
      ],
      [
        "Ġse",
        "lection"
      ],
      [
        "Ġpl",
        "ant"
      ],
      [
        "Ġdec",
        "re"
      ],
      [
        "Ġfore",
        "st"
      ],
      [
        "Ġlangu",
        "ages"
      ],
      [
        "ĠF",
        "eb"
      ],
      [
        "ĠD",
        "es"
      ],
      [
        "V",
        "iew"
      ],
      [
        "ĠS",
        "te"
      ],
      [
        "ad",
        "a"
      ],
      [
        "ist",
        "ration"
      ],
      [
        "ĠAr",
        "m"
      ],
      [
        "Ġrest",
        "rict"
      ],
      [
        "ĠApr",
        "il"
      ],
      [
        "a",
        "ctions"
      ],
      [
        "pl",
        "ied"
      ],
      [
        "ĠSc",
        "opus"
      ],
      [
        "Ġpar",
        "am"
      ],
      [
        "or",
        "g"
      ],
      [
        "et",
        "t"
      ],
      [
        "ĠĊĊ",
        "ĠÂłĠĊ"
      ],
      [
        "an",
        "ies"
      ],
      [
        "Ġpub",
        "lished"
      ],
      [
        "e",
        "ction"
      ],
      [
        "Ġp",
        "ack"
      ],
      [
        "Ġar",
        "ch"
      ],
      [
        "Ġreg",
        "ions"
      ],
      [
        "oad",
        "ing"
      ],
      [
        "Ġin",
        "fe"
      ],
      [
        "ab",
        "or"
      ],
      [
        "Ġdo",
        "i"
      ],
      [
        "Ġreg",
        "ard"
      ],
      [
        "Ġsc",
        "reen"
      ],
      [
        "ick",
        "ed"
      ],
      [
        "Ġoff",
        "er"
      ],
      [
        "ĠAf",
        "ter"
      ],
      [
        "ve",
        "y"
      ],
      [
        "Ġknow",
        "ledge"
      ],
      [
        "u",
        "el"
      ],
      [
        "Ġse",
        "par"
      ],
      [
        "Ġ",
        "ver"
      ],
      [
        "ial",
        "ly"
      ],
      [
        "ff",
        "ice"
      ],
      [
        "Ġwork",
        "s"
      ],
      [
        "c",
        "ies"
      ],
      [
        "ĠH",
        "ar"
      ],
      [
        "Ġne",
        "cess"
      ],
      [
        "Ġphys",
        "ical"
      ],
      [
        "Ġtyp",
        "es"
      ],
      [
        "ĠAD",
        "D"
      ],
      [
        "Ġre",
        "d"
      ],
      [
        "ĠM",
        "arch"
      ],
      [
        "ĠSe",
        "c"
      ],
      [
        "Ġent",
        "er"
      ],
      [
        "e",
        "y"
      ],
      [
        "n",
        "ow"
      ],
      [
        "Ġm",
        "ention"
      ],
      [
        "Ġm",
        "akes"
      ],
      [
        "ad",
        "es"
      ],
      [
        "Ġv",
        "ia"
      ],
      [
        "ac",
        "c"
      ],
      [
        "d",
        "ro"
      ],
      [
        "ĠS",
        "an"
      ],
      [
        "ĠM",
        "ore"
      ],
      [
        "ch",
        "ie"
      ],
      [
        "ab",
        "it"
      ],
      [
        "pt",
        "ion"
      ],
      [
        "Ġcour",
        "se"
      ],
      [
        "ibr",
        "ary"
      ],
      [
        "Ġ",
        "æ"
      ],
      [
        "Ġc",
        "ross"
      ],
      [
        "RE",
        "SS"
      ],
      [
        "ĠEdit",
        "or"
      ],
      [
        "h",
        "i"
      ],
      [
        "is",
        "ions"
      ],
      [
        "Ġim",
        "plement"
      ],
      [
        "Ġinte",
        "gr"
      ],
      [
        "Ġs",
        "al"
      ],
      [
        "ct",
        "or"
      ],
      [
        "Ġon",
        "ce"
      ],
      [
        "ĠâĢ",
        "ī"
      ],
      [
        "ĠW",
        "ith"
      ],
      [
        "Ġwh",
        "y"
      ],
      [
        "Ġind",
        "ex"
      ],
      [
        "Ġcons",
        "um"
      ],
      [
        "Ġà",
        "¦"
      ],
      [
        "Ġf",
        "a"
      ],
      [
        "Ġe",
        "ff"
      ],
      [
        "Ġex",
        "cept"
      ],
      [
        "ĠCh",
        "ar"
      ],
      [
        "Ad",
        "d"
      ],
      [
        "Ġh",
        "old"
      ],
      [
        "ĠP",
        "res"
      ],
      [
        "ĠF",
        "ran"
      ],
      [
        "ĠW",
        "est"
      ],
      [
        "Ġsh",
        "op"
      ],
      [
        "Ġindust",
        "ry"
      ],
      [
        "A",
        "C"
      ],
      [
        "C",
        "on"
      ],
      [
        "a",
        "ut"
      ],
      [
        "z",
        "e"
      ],
      [
        "Ġs",
        "ure"
      ],
      [
        "Ġh",
        "alf"
      ],
      [
        "Ġvis",
        "it"
      ],
      [
        "Ġproduct",
        "s"
      ],
      [
        "ĠADD",
        "RESS"
      ],
      [
        "Ġf",
        "all"
      ],
      [
        "Ġf",
        "inal"
      ],
      [
        "Ġe",
        "c"
      ],
      [
        "Ġus",
        "er"
      ],
      [
        "Ġad",
        "j"
      ],
      [
        "ĠAustral",
        "ia"
      ],
      [
        "ĠP",
        "age"
      ],
      [
        "ĠIn",
        "t"
      ],
      [
        "Ġcl",
        "aim"
      ],
      [
        "Ġsur",
        "face"
      ],
      [
        "ĠJ",
        "uly"
      ],
      [
        "Ġimp",
        "act"
      ],
      [
        "Ġtiss",
        "ue"
      ],
      [
        "Ġm",
        "aterial"
      ],
      [
        "Ġh",
        "otel"
      ],
      [
        "ot",
        "ations"
      ],
      [
        "ĠD",
        "av"
      ],
      [
        "iv",
        "il"
      ],
      [
        "g",
        "or"
      ],
      [
        "er",
        "ation"
      ],
      [
        "es",
        "e"
      ],
      [
        "Ġp",
        "aper"
      ],
      [
        "ĠSt",
        "at"
      ],
      [
        "Ġet",
        "c"
      ],
      [
        "Ġrest",
        "aur"
      ],
      [
        "imate",
        "ly"
      ],
      [
        "n",
        "s"
      ],
      [
        "Ġt",
        "aken"
      ],
      [
        "Ġs",
        "outh"
      ],
      [
        "Ġw",
        "iki"
      ],
      [
        "al",
        "an"
      ],
      [
        "ar",
        "a"
      ],
      [
        "Ġquest",
        "ions"
      ],
      [
        "Ġstat",
        "us"
      ],
      [
        "ĠSch",
        "olar"
      ],
      [
        "Ġr",
        "ates"
      ],
      [
        "Ġser",
        "ies"
      ],
      [
        "Ġaut",
        "om"
      ],
      [
        "Ġb",
        "ene"
      ],
      [
        "Ġd",
        "ate"
      ],
      [
        "read",
        "y"
      ],
      [
        "Ġqu",
        "ant"
      ],
      [
        "ĠSc",
        "ience"
      ],
      [
        "Ġrequ",
        "ire"
      ],
      [
        "ĠR",
        "ep"
      ],
      [
        "sel",
        "ves"
      ],
      [
        "Ġbel",
        "ow"
      ],
      [
        "Ġbind",
        "ing"
      ],
      [
        "Ġt",
        "ell"
      ],
      [
        "ce",
        "mber"
      ],
      [
        "ul",
        "es"
      ],
      [
        "ate",
        "gy"
      ],
      [
        "Ġem",
        "b"
      ],
      [
        "ĠS",
        "ome"
      ],
      [
        "Ġun",
        "c"
      ],
      [
        "ound",
        "s"
      ],
      [
        "ĠY",
        "ork"
      ],
      [
        "Ġthere",
        "fore"
      ],
      [
        "Ġfe",
        "atures"
      ],
      [
        "s",
        "p"
      ],
      [
        "at",
        "tle"
      ],
      [
        "Ġrev",
        "ision"
      ],
      [
        "l",
        "in"
      ],
      [
        "is",
        "ing"
      ],
      [
        "Ġre",
        "ve"
      ],
      [
        "Ġl",
        "ack"
      ],
      [
        "ĠI",
        "P"
      ],
      [
        "se",
        "us"
      ],
      [
        "ĠE",
        "m"
      ],
      [
        "Ġcon",
        "nect"
      ],
      [
        "ĠL",
        "ear"
      ],
      [
        "at",
        "t"
      ],
      [
        "Ġb",
        "r"
      ],
      [
        "Ġm",
        "ind"
      ],
      [
        "ĠS",
        "er"
      ],
      [
        "E",
        "T"
      ],
      [
        "Ġc",
        "reat"
      ],
      [
        "ĠCent",
        "er"
      ],
      [
        "Ġext",
        "ract"
      ],
      [
        "ĠC",
        "A"
      ],
      [
        "Ġal",
        "ready"
      ],
      [
        "ĠV",
        "al"
      ],
      [
        "Ġk",
        "ind"
      ],
      [
        "ĠCl",
        "in"
      ],
      [
        "Ġs",
        "ix"
      ],
      [
        "ĠR",
        "NA"
      ],
      [
        "um",
        "b"
      ],
      [
        "ill",
        "ed"
      ],
      [
        "ĠTh",
        "at"
      ],
      [
        "pecial",
        "ly"
      ],
      [
        "E",
        "x"
      ],
      [
        "Ġc",
        "r"
      ],
      [
        "Ġin",
        "ternational"
      ],
      [
        "st",
        "e"
      ],
      [
        "ĠJ",
        "apan"
      ],
      [
        "Ġcont",
        "act"
      ],
      [
        "Ġfun",
        "d"
      ],
      [
        "Ġinvest",
        "ig"
      ],
      [
        "ĠTr",
        "ans"
      ],
      [
        "Ġa",
        "ff"
      ],
      [
        "Ġa",
        "chie"
      ],
      [
        "Ġus",
        "es"
      ],
      [
        "An",
        "d"
      ],
      [
        "ĠPC",
        "R"
      ],
      [
        "c",
        "hed"
      ],
      [
        "r",
        "ast"
      ],
      [
        "Ġn",
        "orth"
      ],
      [
        "Ġl",
        "ines"
      ],
      [
        "ĠK",
        "ing"
      ],
      [
        "ĠDe",
        "cember"
      ],
      [
        "Ġc",
        "ame"
      ],
      [
        "end",
        "ing"
      ],
      [
        "Ġcomp",
        "anies"
      ],
      [
        "Ġcy",
        "t"
      ],
      [
        "O",
        "R"
      ],
      [
        "i",
        "ers"
      ],
      [
        "n",
        "a"
      ],
      [
        "Ġ",
        "ri"
      ],
      [
        "Ġc",
        "op"
      ],
      [
        "Ġc",
        "ause"
      ],
      [
        "Ġn",
        "ational"
      ],
      [
        "ĠH",
        "istory"
      ],
      [
        "Ġph",
        "osph"
      ],
      [
        "Ġorig",
        "in"
      ],
      [
        "Ġb",
        "ase"
      ],
      [
        "ur",
        "rent"
      ],
      [
        "Ġv",
        "ide"
      ],
      [
        "Ġal",
        "though"
      ],
      [
        "Ġl",
        "ength"
      ],
      [
        "if",
        "f"
      ],
      [
        "Ġfl",
        "u"
      ],
      [
        "ĠAf",
        "ric"
      ],
      [
        "Ġdemon",
        "str"
      ],
      [
        "o",
        "z"
      ],
      [
        "Ġh",
        "it"
      ],
      [
        "ot",
        "o"
      ],
      [
        "end",
        "er"
      ],
      [
        "ĠOct",
        "ober"
      ],
      [
        "I",
        "V"
      ],
      [
        "Ġw",
        "on"
      ],
      [
        "Ġp",
        "hen"
      ],
      [
        "ing",
        "ton"
      ],
      [
        "ve",
        "re"
      ],
      [
        "ĠM",
        "A"
      ],
      [
        "ur",
        "ity"
      ],
      [
        "Ġal",
        "most"
      ],
      [
        "Ġpos",
        "ition"
      ],
      [
        "rid",
        "ge"
      ],
      [
        "Ġcult",
        "ure"
      ],
      [
        "Ġ",
        "Ñ"
      ],
      [
        "on",
        "y"
      ],
      [
        "Ġin",
        "j"
      ],
      [
        "Ġto",
        "day"
      ],
      [
        "ĠS",
        "ub"
      ],
      [
        "Ġcon",
        "duct"
      ],
      [
        "Ġrec",
        "ently"
      ],
      [
        "Ġtra",
        "vel"
      ],
      [
        "Ġpoint",
        "s"
      ],
      [
        "Ġm",
        "ess"
      ],
      [
        "as",
        "k"
      ],
      [
        "Ġtr",
        "ue"
      ],
      [
        "ograph",
        "ic"
      ],
      [
        "clus",
        "ion"
      ],
      [
        "re",
        "w"
      ],
      [
        "ic",
        "a"
      ],
      [
        "ĠC",
        "ell"
      ],
      [
        "ĠF",
        "ound"
      ],
      [
        "Ġcon",
        "d"
      ],
      [
        "Ġdo",
        "ing"
      ],
      [
        "P",
        "h"
      ],
      [
        "v",
        "ant"
      ],
      [
        "Ġde",
        "cl"
      ],
      [
        "ens",
        "ity"
      ],
      [
        "ĠCom",
        "p"
      ],
      [
        "T",
        "o"
      ],
      [
        "ĠE",
        "ast"
      ],
      [
        "Ġpl",
        "at"
      ],
      [
        "Ġdist",
        "ribut"
      ],
      [
        "h",
        "ide"
      ],
      [
        "p",
        "id"
      ],
      [
        "Ġd",
        "oub"
      ],
      [
        "ist",
        "ry"
      ],
      [
        "Ġgen",
        "etic"
      ],
      [
        "Ġdom",
        "ain"
      ],
      [
        "cher",
        "s"
      ],
      [
        "Ġth",
        "us"
      ],
      [
        "Ġst",
        "ra"
      ],
      [
        "Ġst",
        "op"
      ],
      [
        "ĠÎ",
        "²"
      ],
      [
        "Ġcol",
        "lection"
      ],
      [
        "ĠGen",
        "eral"
      ],
      [
        "Ġret",
        "urn"
      ],
      [
        "ist",
        "ance"
      ],
      [
        "ĠEng",
        "ine"
      ],
      [
        "Ġident",
        "ify"
      ],
      [
        "ĠA",
        "ir"
      ],
      [
        "Ġl",
        "ib"
      ],
      [
        "am",
        "ed"
      ],
      [
        "ir",
        "it"
      ],
      [
        "ran",
        "e"
      ],
      [
        "Ġant",
        "i"
      ],
      [
        "ĠĠ",
        "Ġ"
      ],
      [
        "Ġre",
        "lease"
      ],
      [
        "Ġob",
        "ject"
      ],
      [
        "cript",
        "ion"
      ],
      [
        "Ġcontin",
        "u"
      ],
      [
        "Ġrecept",
        "or"
      ],
      [
        "Ġt",
        "er"
      ],
      [
        "Ġt",
        "our"
      ],
      [
        "us",
        "h"
      ],
      [
        "Ġup",
        "d"
      ],
      [
        "ru",
        "ction"
      ],
      [
        "Ġanal",
        "y"
      ],
      [
        "Ġappro",
        "x"
      ],
      [
        "Ġperform",
        "ance"
      ],
      [
        "gor",
        "ith"
      ],
      [
        "Ġ",
        "ut"
      ],
      [
        "Ġfe",
        "ed"
      ],
      [
        "Ġapplic",
        "ation"
      ],
      [
        "al",
        "d"
      ],
      [
        "ac",
        "hes"
      ],
      [
        "Ġide",
        "a"
      ],
      [
        "h",
        "ttp"
      ],
      [
        "i",
        "en"
      ],
      [
        "ou",
        "l"
      ],
      [
        "Ġm",
        "ix"
      ],
      [
        "Ġmodel",
        "s"
      ],
      [
        "Ġbre",
        "ak"
      ],
      [
        "Ġes",
        "pecially"
      ],
      [
        "Ġt",
        "w"
      ],
      [
        "Ġw",
        "in"
      ],
      [
        "ĠT",
        "op"
      ],
      [
        "ra",
        "ction"
      ],
      [
        "Ġcomp",
        "on"
      ],
      [
        "Ġrece",
        "ived"
      ],
      [
        "Ġp",
        "ark"
      ],
      [
        "Ġre",
        "ach"
      ],
      [
        "ĠS",
        "E"
      ],
      [
        "Ġev",
        "ents"
      ],
      [
        "ove",
        "mber"
      ],
      [
        "Ġsur",
        "v"
      ],
      [
        "Ġeff",
        "ort"
      ],
      [
        "om",
        "as"
      ],
      [
        "ĠP",
        "at"
      ],
      [
        "Ġse",
        "ems"
      ],
      [
        "Ġev",
        "ent"
      ],
      [
        "Ġtemper",
        "ature"
      ],
      [
        "Ġres",
        "ources"
      ],
      [
        "ĠĠÂłĠĠÂł",
        "Ġ"
      ],
      [
        "Ġsit",
        "u"
      ],
      [
        "es",
        "us"
      ],
      [
        "Ġc",
        "amp"
      ],
      [
        "ul",
        "ations"
      ],
      [
        "ens",
        "ion"
      ],
      [
        "Ġpo",
        "or"
      ],
      [
        "Ġbene",
        "f"
      ],
      [
        "L",
        "oading"
      ],
      [
        "b",
        "o"
      ],
      [
        "b",
        "an"
      ],
      [
        "z",
        "ym"
      ],
      [
        "Ġw",
        "ind"
      ],
      [
        "ĠP",
        "D"
      ],
      [
        "em",
        "pt"
      ],
      [
        "iz",
        "ing"
      ],
      [
        "Ġiss",
        "ue"
      ],
      [
        "Ġnuc",
        "le"
      ],
      [
        "r",
        "ance"
      ],
      [
        "row",
        "n"
      ],
      [
        "Ġbeg",
        "in"
      ],
      [
        "ar",
        "ing"
      ],
      [
        "ĠIn",
        "c"
      ],
      [
        "ĠS",
        "im"
      ],
      [
        "ĠM",
        "S"
      ],
      [
        "ĠB",
        "rit"
      ],
      [
        "ĠSh",
        "are"
      ],
      [
        "ĠDis",
        "play"
      ],
      [
        "ĠCount",
        "y"
      ],
      [
        "a",
        "ul"
      ],
      [
        "h",
        "ood"
      ],
      [
        "i",
        "et"
      ],
      [
        "Ġm",
        "eth"
      ],
      [
        "Ġfor",
        "ward"
      ],
      [
        "Ġprote",
        "ct"
      ],
      [
        "Ġhigh",
        "ly"
      ],
      [
        "A",
        "uthor"
      ],
      [
        "ĠS",
        "erv"
      ],
      [
        "Ġst",
        "age"
      ],
      [
        "se",
        "mb"
      ],
      [
        "ĠL",
        "a"
      ],
      [
        "Ġtechn",
        "ology"
      ],
      [
        "Ġecon",
        "omic"
      ],
      [
        "ig",
        "en"
      ],
      [
        "Ġper",
        "m"
      ],
      [
        "Ġexp",
        "ressed"
      ],
      [
        "Ġneed",
        "ed"
      ],
      [
        "ĠSe",
        "pt"
      ],
      [
        "Ġmin",
        "or"
      ],
      [
        "Ġincre",
        "asing"
      ],
      [
        "Ġdown",
        "load"
      ],
      [
        "Ġant",
        "ib"
      ],
      [
        "Ġplay",
        "er"
      ],
      [
        "Ġprevious",
        "ly"
      ],
      [
        "ĠâĢ",
        "¦"
      ],
      [
        "Ġde",
        "b"
      ],
      [
        "Ġiss",
        "ues"
      ],
      [
        "H",
        "e"
      ],
      [
        "t",
        "ies"
      ],
      [
        "v",
        "ision"
      ],
      [
        "Ġw",
        "ords"
      ],
      [
        "Ġh",
        "ospital"
      ],
      [
        "Ġl",
        "oss"
      ],
      [
        "Ġl",
        "iving"
      ],
      [
        "Ġse",
        "ll"
      ],
      [
        "av",
        "es"
      ],
      [
        "ĠCh",
        "ina"
      ],
      [
        "ĠInstit",
        "ute"
      ],
      [
        "in",
        "ary"
      ],
      [
        "Ġc",
        "le"
      ],
      [
        "ĠC",
        "O"
      ],
      [
        "Ġg",
        "lobal"
      ],
      [
        "Ġst",
        "ation"
      ],
      [
        "Ġcom",
        "ment"
      ],
      [
        "own",
        "load"
      ],
      [
        "Ġno",
        "vel"
      ],
      [
        "Ġsupport",
        "ed"
      ],
      [
        "U",
        "s"
      ],
      [
        "Ġs",
        "ent"
      ],
      [
        "Ġm",
        "ax"
      ],
      [
        "as",
        "m"
      ],
      [
        "om",
        "ics"
      ],
      [
        "Ġe",
        "ver"
      ],
      [
        "id",
        "el"
      ],
      [
        "ul",
        "ated"
      ],
      [
        "Ġcon",
        "cer"
      ],
      [
        "est",
        "s"
      ],
      [
        "ĠSt",
        "reet"
      ],
      [
        "Ġfe",
        "el"
      ],
      [
        "Ġlink",
        "ed"
      ],
      [
        "I",
        "C"
      ],
      [
        "M",
        "ore"
      ],
      [
        "i",
        "j"
      ],
      [
        "Ġf",
        "ire"
      ],
      [
        "Ġv",
        "ote"
      ],
      [
        "pt",
        "oms"
      ],
      [
        "B",
        "y"
      ],
      [
        "ĠR",
        "oad"
      ],
      [
        "Ġar",
        "m"
      ],
      [
        "Ġc",
        "ou"
      ],
      [
        "Ġen",
        "em"
      ],
      [
        "Ġcre",
        "ated"
      ],
      [
        "ĠâĢī",
        "Ġ"
      ],
      [
        "p",
        "ose"
      ],
      [
        "w",
        "ise"
      ],
      [
        "Ġ",
        "ess"
      ],
      [
        "ain",
        "t"
      ],
      [
        "Ġenvironment",
        "al"
      ],
      [
        "p",
        "ri"
      ],
      [
        "ĠH",
        "er"
      ],
      [
        "Ġch",
        "rom"
      ],
      [
        "ĠÃ",
        "Ĺ"
      ],
      [
        "Ġadd",
        "ress"
      ],
      [
        "Ġfl",
        "ow"
      ],
      [
        "Ġlink",
        "s"
      ],
      [
        "Ġlit",
        "er"
      ],
      [
        "Ġpri",
        "or"
      ],
      [
        "O",
        "n"
      ],
      [
        "Ġw",
        "a"
      ],
      [
        "ot",
        "yp"
      ],
      [
        "ĠF",
        "e"
      ],
      [
        "ĠF",
        "rom"
      ],
      [
        "Ġar",
        "g"
      ],
      [
        "Ġres",
        "id"
      ],
      [
        "hes",
        "is"
      ],
      [
        "Ġdev",
        "ice"
      ],
      [
        "Ġindepend",
        "ent"
      ],
      [
        "f",
        "ort"
      ],
      [
        "Ġb",
        "acter"
      ],
      [
        "ĠJ",
        "o"
      ],
      [
        "Ġal",
        "tern"
      ],
      [
        "Ġad",
        "min"
      ],
      [
        "Ġsy",
        "m"
      ],
      [
        "F",
        "DB"
      ],
      [
        "b",
        "or"
      ],
      [
        "Ġw",
        "ord"
      ],
      [
        "Ġpre",
        "c"
      ],
      [
        "ank",
        "s"
      ],
      [
        "ĠBi",
        "ol"
      ],
      [
        "Ġs",
        "il"
      ],
      [
        "Ġs",
        "ays"
      ],
      [
        "Ġsh",
        "are"
      ],
      [
        "Ġcont",
        "aining"
      ],
      [
        "Ġpres",
        "ence"
      ],
      [
        "Ġav",
        "oid"
      ],
      [
        "ĠLear",
        "n"
      ],
      [
        "g",
        "ing"
      ],
      [
        "it",
        "ch"
      ],
      [
        "Ġd",
        "a"
      ],
      [
        "am",
        "in"
      ],
      [
        "ĠN",
        "ovember"
      ],
      [
        "Ġindu",
        "ced"
      ],
      [
        "c",
        "il"
      ],
      [
        "ĠS",
        "pe"
      ],
      [
        "Ġab",
        "ility"
      ],
      [
        "ard",
        "s"
      ],
      [
        "erv",
        "ation"
      ],
      [
        "Ġent",
        "ire"
      ],
      [
        "Ġs",
        "us"
      ],
      [
        "Ġl",
        "o"
      ],
      [
        "Ġst",
        "ay"
      ],
      [
        "ĠSt",
        "ate"
      ],
      [
        "Ġspe",
        "ct"
      ],
      [
        "P",
        "I"
      ],
      [
        "Ġc",
        "red"
      ],
      [
        "an",
        "c"
      ],
      [
        "Ġb",
        "ring"
      ],
      [
        "ĠN",
        "et"
      ],
[...]
