{
  "version": "1.0",
  "truncation": null,
  "padding": null,
  "added_tokens": [
    {
      "id": 0,
      "content": "<|----|>",
      "single_word": false,
      "lstrip": false,
      "rstrip": false,
      "normalized": false,
      "special": true
    },
    {
      "id": 1,
      "content": "<|//|>",
      "single_word": false,
      "lstrip": false,
      "rstrip": false,
      "normalized": false,
      "special": true
    },
    {
      "id": 2,
      "content": "<|tokipona:>",
      "single_word": false,
      "lstrip": false,
      "rstrip": false,
      "normalized": false,
      "special": true
    },
    {
      "id": 3,
      "content": "<|english:>",
      "single_word": false,
      "lstrip": false,
      "rstrip": false,
      "normalized": false,
      "special": true
    },
    {
      "id": 4,
      "content": "</english:>",
      "single_word": false,
      "lstrip": false,
      "rstrip": false,
      "normalized": false,
      "special": true
    },
    {
      "id": 5,
      "content": "</tokipona:>",
      "single_word": false,
      "lstrip": false,
      "rstrip": false,
      "normalized": false,
      "special": true
    },
    {
      "id": 6,
      "content": "<|lq:>",
      "single_word": false,
      "lstrip": false,
      "rstrip": false,
      "normalized": false,
      "special": true
    },
    {
      "id": 7,
      "content": "<:lq|>",
      "single_word": false,
      "lstrip": false,
      "rstrip": false,
      "normalized": false,
      "special": true
    },
    {
      "id": 8,
      "content": "<|hq:>",
      "single_word": false,
      "lstrip": false,
      "rstrip": false,
      "normalized": false,
      "special": true
    },
    {
      "id": 9,
      "content": "<:hq|>",
      "single_word": false,
      "lstrip": false,
      "rstrip": false,
      "normalized": false,
      "special": true
    },
    {
      "id": 10,
      "content": "<|!:>",
      "single_word": false,
      "lstrip": false,
      "rstrip": false,
      "normalized": false,
      "special": true
    },
    {
      "id": 11,
      "content": "<:!|>",
      "single_word": false,
      "lstrip": false,
      "rstrip": false,
      "normalized": false,
      "special": true
    },
    {
      "id": 12,
      "content": "<|?:>",
      "single_word": false,
      "lstrip": false,
      "rstrip": false,
      "normalized": false,
      "special": true
    },
    {
      "id": 13,
      "content": "<:?|>",
      "single_word": false,
      "lstrip": false,
      "rstrip": false,
      "normalized": false,
      "special": true
    },
    {
      "id": 14,
      "content": "<|*:>",
      "single_word": false,
      "lstrip": false,
      "rstrip": false,
      "normalized": false,
      "special": true
    },
    {
      "id": 15,
      "content": "<:*|>",
      "single_word": false,
      "lstrip": false,
      "rstrip": false,
      "normalized": false,
      "special": true
    },
    {
      "id": 16,
      "content": "<|-:>",
      "single_word": false,
      "lstrip": false,
      "rstrip": false,
      "normalized": false,
      "special": true
    },
    {
      "id": 17,
      "content": "<:-|>",
      "single_word": false,
      "lstrip": false,
      "rstrip": false,
      "normalized": false,
      "special": true
    },
    {
      "id": 18,
      "content": "<|=:>",
      "single_word": false,
      "lstrip": false,
      "rstrip": false,
      "normalized": false,
      "special": true
    },
    {
      "id": 19,
      "content": "<:=|>",
      "single_word": false,
      "lstrip": false,
      "rstrip": false,
      "normalized": false,
      "special": true
    },
    {
      "id": 20,
      "content": "<|/:>",
      "single_word": false,
      "lstrip": false,
      "rstrip": false,
      "normalized": false,
      "special": true
    },
    {
      "id": 21,
      "content": "<:/|>",
      "single_word": false,
      "lstrip": false,
      "rstrip": false,
      "normalized": false,
      "special": true
    },
    {
      "id": 22,
      "content": "<|@:>",
      "single_word": false,
      "lstrip": false,
      "rstrip": false,
      "normalized": false,
      "special": true
    },
    {
      "id": 23,
      "content": "<:@|>",
      "single_word": false,
      "lstrip": false,
      "rstrip": false,
      "normalized": false,
      "special": true
    },
    {
      "id": 24,
      "content": "<|reject|>",
      "single_word": false,
      "lstrip": false,
      "rstrip": false,
      "normalized": false,
      "special": true
    },
    {
      "id": 25,
      "content": "<|think|>",
      "single_word": false,
      "lstrip": false,
      "rstrip": false,
      "normalized": false,
      "special": true
    },
    {
      "id": 26,
      "content": "<|p7|>",
      "single_word": false,
      "lstrip": false,
      "rstrip": false,
      "normalized": false,
      "special": true
    },
    {
      "id": 27,
      "content": "<|p6|>",
      "single_word": false,
      "lstrip": false,
      "rstrip": false,
      "normalized": false,
      "special": true
    },
    {
      "id": 28,
      "content": "<|p5|>",
      "single_word": false,
      "lstrip": false,
      "rstrip": false,
      "normalized": false,
      "special": true
    },
    {
      "id": 29,
      "content": "<|p4|>",
      "single_word": false,
      "lstrip": false,
      "rstrip": false,
      "normalized": false,
      "special": true
    },
    {
      "id": 30,
      "content": "<|p3|>",
      "single_word": false,
      "lstrip": false,
      "rstrip": false,
      "normalized": false,
      "special": true
    },
    {
      "id": 31,
      "content": "<|p2|>",
      "single_word": false,
      "lstrip": false,
      "rstrip": false,
      "normalized": false,
      "special": true
    },
    {
      "id": 32,
      "content": "<|p1|>",
      "single_word": false,
      "lstrip": false,
      "rstrip": false,
      "normalized": false,
      "special": true
    },
    {
      "id": 33,
      "content": "<|p0|>",
      "single_word": false,
      "lstrip": false,
      "rstrip": false,
      "normalized": false,
      "special": true
    },
    {
      "id": 34,
      "content": "<|reserved0|>",
      "single_word": false,
      "lstrip": false,
      "rstrip": false,
      "normalized": false,
      "special": true
    },
    {
      "id": 35,
      "content": "<|reserved1|>",
      "single_word": false,
      "lstrip": false,
      "rstrip": false,
      "normalized": false,
      "special": true
    },
    {
      "id": 36,
      "content": "<|reserved2|>",
      "single_word": false,
      "lstrip": false,
      "rstrip": false,
      "normalized": false,
      "special": true
    },
    {
      "id": 37,
      "content": "<|reserved3|>",
      "single_word": false,
      "lstrip": false,
      "rstrip": false,
      "normalized": false,
      "special": true
    },
    {
      "id": 38,
      "content": "<|reserved4|>",
      "single_word": false,
      "lstrip": false,
      "rstrip": false,
      "normalized": false,
      "special": true
    },
    {
      "id": 39,
      "content": "<|reserved5|>",
      "single_word": false,
      "lstrip": false,
      "rstrip": false,
      "normalized": false,
      "special": true
    },
    {
      "id": 40,
      "content": "<|reserved6|>",
      "single_word": false,
      "lstrip": false,
      "rstrip": false,
      "normalized": false,
      "special": true
    },
    {
      "id": 41,
      "content": "<|reserved7|>",
      "single_word": false,
      "lstrip": false,
      "rstrip": false,
      "normalized": false,
      "special": true
    },
    {
      "id": 29799,
      "content": "akesi",
      "single_word": false,
      "lstrip": false,
      "rstrip": false,
      "special": false,
      "normalized": false
    },
    {
      "id": 29800,
      "content": "Ġakesi",
      "single_word": false,
      "lstrip": false,
      "rstrip": false,
      "special": false,
      "normalized": false
    },
    {
      "id": 29801,
      "content": "alasa",
      "single_word": false,
      "lstrip": false,
      "rstrip": false,
      "special": false,
      "normalized": false
    },
    {
      "id": 29802,
      "content": "Ġalasa",
      "single_word": false,
      "lstrip": false,
      "rstrip": false,
      "special": false,
      "normalized": false
    },
    {
      "id": 29803,
      "content": "anpa",
      "single_word": false,
      "lstrip": false,
      "rstrip": false,
      "special": false,
      "normalized": false
    },
    {
      "id": 29804,
      "content": "Ġanpa",
      "single_word": false,
      "lstrip": false,
      "rstrip": false,
      "special": false,
      "normalized": false
    },
    {
      "id": 29805,
      "content": "Ġanu",
      "single_word": false,
      "lstrip": false,
      "rstrip": false,
      "special": false,
      "normalized": false
    },
    {
      "id": 29806,
      "content": "apeja",
      "single_word": false,
      "lstrip": false,
      "rstrip": false,
      "special": false,
      "normalized": false
    },
    {
      "id": 29807,
      "content": "Ġapeja",
      "single_word": false,
      "lstrip": false,
      "rstrip": false,
      "special": false,
      "normalized": false
    },
    {
      "id": 29808,
      "content": "awen",
      "single_word": false,
      "lstrip": false,
      "rstrip": false,
      "special": false,
      "normalized": false
    },
    {
      "id": 29809,
      "content": "Ġawen",
      "single_word": false,
      "lstrip": false,
      "rstrip": false,
      "special": false,
      "normalized": false
    },
    {
      "id": 29810,
      "content": "epiku",
      "single_word": false,
      "lstrip": false,
      "rstrip": false,
      "special": false,
      "normalized": false
    },
    {
      "id": 29811,
      "content": "Ġepiku",
      "single_word": false,
      "lstrip": false,
      "rstrip": false,
      "special": false,
      "normalized": false
    },
    {
      "id": 29812,
      "content": "esun",
      "single_word": false,
      "lstrip": false,
      "rstrip": false,
      "special": false,
      "normalized": false
    },
    {
      "id": 29813,
      "content": "Ġesun",
      "single_word": false,
      "lstrip": false,
      "rstrip": false,
      "special": false,
      "normalized": false
    },
    {
      "id": 29814,
      "content": "ijo",
      "single_word": false,
      "lstrip": false,
      "rstrip": false,
      "special": false,
      "normalized": false
    },
    {
      "id": 29815,
      "content": "Ġijo",
      "single_word": false,
      "lstrip": false,
      "rstrip": false,
      "special": false,
      "normalized": false
    },
    {
      "id": 29816,
      "content": "Ġilo",
      "single_word": false,
      "lstrip": false,
      "rstrip": false,
      "special": false,
      "normalized": false
    },
    {
      "id": 29817,
      "content": "insa",
      "single_word": false,
      "lstrip": false,
      "rstrip": false,
      "special": false,
      "normalized": false
    },
    {
      "id": 29818,
      "content": "Ġinsa",
      "single_word": false,
      "lstrip": false,
      "rstrip": false,
      "special": false,
      "normalized": false
    },
    {
      "id": 29819,
      "content": "jaki",
      "single_word": false,
      "lstrip": false,
      "rstrip": false,
      "special": false,
      "normalized": false
    },
    {
      "id": 29820,
      "content": "Ġjaki",
      "single_word": false,
      "lstrip": false,
      "rstrip": false,
      "special": false,
      "normalized": false
    },
    {
      "id": 29821,
      "content": "jasima",
      "single_word": false,
      "lstrip": false,
      "rstrip": false,
      "special": false,
      "normalized": false
    },
    {
      "id": 29822,
      "content": "Ġjasima",
      "single_word": false,
      "lstrip": false,
      "rstrip": false,
      "special": false,
      "normalized": false
    },
    {
      "id": 29823,
      "content": "jelo",
      "single_word": false,
      "lstrip": false,
      "rstrip": false,
      "special": false,
      "normalized": false
    },
    {
      "id": 29824,
      "content": "Ġjelo",
      "single_word": false,
      "lstrip": false,
      "rstrip": false,
      "special": false,
      "normalized": false
    },
    {
      "id": 29825,
      "content": "kala",
      "single_word": false,
      "lstrip": false,
      "rstrip": false,
      "special": false,
      "normalized": false
    },
    {
      "id": 29826,
      "content": "Ġkala",
      "single_word": false,
      "lstrip": false,
      "rstrip": false,
      "special": false,
      "normalized": false
    },
    {
      "id": 29827,
      "content": "kalama",
      "single_word": false,
      "lstrip": false,
      "rstrip": false,
      "special": false,
      "normalized": false
    },
    {
      "id": 29828,
      "content": "Ġkalama",
      "single_word": false,
      "lstrip": false,
      "rstrip": false,
      "special": false,
      "normalized": false
    },
    {
      "id": 29829,
      "content": "kama",
      "single_word": false,
      "lstrip": false,
      "rstrip": false,
      "special": false,
      "normalized": false
    },
    {
      "id": 29830,
      "content": "Ġkama",
      "single_word": false,
      "lstrip": false,
      "rstrip": false,
      "special": false,
      "normalized": false
    },
    {
      "id": 29831,
      "content": "kasi",
      "single_word": false,
      "lstrip": false,
      "rstrip": false,
      "special": false,
      "normalized": false
    },
    {
      "id": 29832,
      "content": "Ġkasi",
      "single_word": false,
      "lstrip": false,
      "rstrip": false,
      "special": false,
      "normalized": false
    },
    {
      "id": 29833,
      "content": "kepeken",
      "single_word": false,
      "lstrip": false,
      "rstrip": false,
      "special": false,
      "normalized": false
    },
    {
      "id": 29834,
      "content": "Ġkepeken",
      "single_word": false,
      "lstrip": false,
      "rstrip": false,
      "special": false,
      "normalized": false
    },
    {
      "id": 29835,
      "content": "kijetesantakalu",
      "single_word": false,
      "lstrip": false,
      "rstrip": false,
      "special": false,
      "normalized": false
    },
    {
      "id": 29836,
      "content": "Ġkijetesantakalu",
      "single_word": false,
      "lstrip": false,
      "rstrip": false,
      "special": false,
      "normalized": false
    },
    {
      "id": 29837,
      "content": "kili",
      "single_word": false,
      "lstrip": false,
      "rstrip": false,
      "special": false,
      "normalized": false
    },
    {
      "id": 29838,
      "content": "Ġkili",
      "single_word": false,
      "lstrip": false,
      "rstrip": false,
      "special": false,
      "normalized": false
    },
    {
      "id": 29839,
      "content": "kipisi",
      "single_word": false,
      "lstrip": false,
      "rstrip": false,
      "special": false,
      "normalized": false
    },
    {
      "id": 29840,
      "content": "Ġkipisi",
      "single_word": false,
      "lstrip": false,
      "rstrip": false,
      "special": false,
      "normalized": false
    },
    {
      "id": 29841,
      "content": "kiwen",
      "single_word": false,
      "lstrip": false,
      "rstrip": false,
      "special": false,
      "normalized": false
    },
    {
      "id": 29842,
      "content": "Ġkiwen",
      "single_word": false,
      "lstrip": false,
      "rstrip": false,
      "special": false,
      "normalized": false
    },
    {
      "id": 29843,
      "content": "kokosila",
      "single_word": false,
      "lstrip": false,
      "rstrip": false,
      "special": false,
      "normalized": false
    },
    {
      "id": 29844,
      "content": "Ġkokosila",
      "single_word": false,
      "lstrip": false,
      "rstrip": false,
      "special": false,
      "normalized": false
    },
    {
      "id": 29845,
      "content": "kule",
      "single_word": false,
      "lstrip": false,
      "rstrip": false,
      "special": false,
      "normalized": false
    },
    {
      "id": 29846,
      "content": "Ġkule",
      "single_word": false,
      "lstrip": false,
      "rstrip": false,
      "special": false,
      "normalized": false
    },
    {
      "id": 29847,
      "content": "kulupu",
      "single_word": false,
      "lstrip": false,
      "rstrip": false,
      "special": false,
      "normalized": false
    },
    {
      "id": 29848,
      "content": "Ġkulupu",
      "single_word": false,
      "lstrip": false,
      "rstrip": false,
      "special": false,
      "normalized": false
    },
    {
      "id": 29849,
      "content": "kute",
      "single_word": false,
      "lstrip": false,
      "rstrip": false,
      "special": false,
      "normalized": false
    },
    {
      "id": 29850,
      "content": "Ġkute",
      "single_word": false,
      "lstrip": false,
      "rstrip": false,
      "special": false,
      "normalized": false
    },
    {
      "id": 29851,
      "content": "lanpan",
      "single_word": false,
      "lstrip": false,
      "rstrip": false,
      "special": false,
      "normalized": false
    },
    {
      "id": 29852,
      "content": "Ġlanpan",
      "single_word": false,
      "lstrip": false,
      "rstrip": false,
      "special": false,
      "normalized": false
    },
    {
      "id": 29853,
      "content": "lape",
      "single_word": false,
      "lstrip": false,
      "rstrip": false,
      "special": false,
      "normalized": false
    },
    {
      "id": 29854,
      "content": "Ġlape",
      "single_word": false,
      "lstrip": false,
      "rstrip": false,
      "special": false,
      "normalized": false
    },
    {
      "id": 29855,
      "content": "laso",
      "single_word": false,
      "lstrip": false,
      "rstrip": false,
      "special": false,
      "normalized": false
    },
    {
      "id": 29856,
      "content": "Ġlaso",
      "single_word": false,
      "lstrip": false,
      "rstrip": false,
      "special": false,
      "normalized": false
    },
    {
      "id": 29857,
      "content": "lawa",
      "single_word": false,
      "lstrip": false,
      "rstrip": false,
      "special": false,
      "normalized": false
    },
    {
      "id": 29858,
      "content": "Ġlawa",
      "single_word": false,
      "lstrip": false,
      "rstrip": false,
      "special": false,
      "normalized": false
    },
    {
      "id": 29859,
      "content": "leko",
      "single_word": false,
      "lstrip": false,
      "rstrip": false,
      "special": false,
      "normalized": false
    },
    {
      "id": 29860,
      "content": "Ġleko",
      "single_word": false,
      "lstrip": false,
      "rstrip": false,
      "special": false,
      "normalized": false
    },
    {
      "id": 29861,
      "content": "Ġlete",
      "single_word": false,
      "lstrip": false,
      "rstrip": false,
      "special": false,
      "normalized": false
    },
    {
      "id": 29862,
      "content": "lili",
      "single_word": false,
      "lstrip": false,
      "rstrip": false,
      "special": false,
      "normalized": false
    },
    {
      "id": 29863,
      "content": "Ġlili",
      "single_word": false,
      "lstrip": false,
      "rstrip": false,
      "special": false,
      "normalized": false
    },
    {
      "id": 29864,
      "content": "linja",
      "single_word": false,
      "lstrip": false,
      "rstrip": false,
      "special": false,
      "normalized": false
    },
    {
      "id": 29865,
      "content": "Ġlinja",
      "single_word": false,
      "lstrip": false,
      "rstrip": false,
      "special": false,
      "normalized": false
    },
    {
      "id": 29866,
      "content": "lipu",
      "single_word": false,
      "lstrip": false,
      "rstrip": false,
      "special": false,
      "normalized": false
    },
    {
      "id": 29867,
      "content": "Ġlipu",
      "single_word": false,
      "lstrip": false,
      "rstrip": false,
      "special": false,
      "normalized": false
    },
    {
      "id": 29868,
      "content": "loje",
      "single_word": false,
      "lstrip": false,
      "rstrip": false,
      "special": false,
      "normalized": false
    },
    {
      "id": 29869,
      "content": "Ġloje",
      "single_word": false,
      "lstrip": false,
      "rstrip": false,
      "special": false,
      "normalized": false
    },
    {
      "id": 29870,
      "content": "luka",
      "single_word": false,
      "lstrip": false,
      "rstrip": false,
      "special": false,
      "normalized": false
    },
    {
      "id": 29871,
      "content": "Ġluka",
      "single_word": false,
      "lstrip": false,
      "rstrip": false,
      "special": false,
      "normalized": false
    },
    {
      "id": 29872,
      "content": "lukin",
      "single_word": false,
      "lstrip": false,
      "rstrip": false,
      "special": false,
      "normalized": false
    },
    {
      "id": 29873,
      "content": "Ġlukin",
      "single_word": false,
      "lstrip": false,
      "rstrip": false,
      "special": false,
      "normalized": false
    },
    {
      "id": 29874,
      "content": "lupa",
      "single_word": false,
      "lstrip": false,
      "rstrip": false,
      "special": false,
      "normalized": false
    },
    {
      "id": 29875,
      "content": "Ġlupa",
      "single_word": false,
      "lstrip": false,
      "rstrip": false,
      "special": false,
      "normalized": false
    },
    {
      "id": 29876,
      "content": "majuna",
      "single_word": false,
      "lstrip": false,
      "rstrip": false,
      "special": false,
      "normalized": false
    },
    {
      "id": 29877,
      "content": "Ġmajuna",
      "single_word": false,
      "lstrip": false,
      "rstrip": false,
      "special": false,
      "normalized": false
    },
    {
      "id": 29878,
      "content": "mama",
      "single_word": false,
      "lstrip": false,
      "rstrip": false,
      "special": false,
      "normalized": false
    },
    {
      "id": 29879,
      "content": "Ġmani",
      "single_word": false,
      "lstrip": false,
      "rstrip": false,
      "special": false,
      "normalized": false
    },
    {
      "id": 29880,
      "content": "meli",
      "single_word": false,
      "lstrip": false,
      "rstrip": false,
      "special": false,
      "normalized": false
    },
    {
      "id": 29881,
      "content": "Ġmeli",
      "single_word": false,
      "lstrip": false,
      "rstrip": false,
      "special": false,
      "normalized": false
    },
    {
      "id": 29882,
      "content": "meso",
      "single_word": false,
      "lstrip": false,
      "rstrip": false,
      "special": false,
      "normalized": false
    },
    {
      "id": 29883,
      "content": "Ġmeso",
      "single_word": false,
      "lstrip": false,
      "rstrip": false,
      "special": false,
      "normalized": false
    },
    {
      "id": 29884,
      "content": "mije",
      "single_word": false,
      "lstrip": false,
      "rstrip": false,
      "special": false,
      "normalized": false
    },
    {
      "id": 29885,
      "content": "Ġmije",
      "single_word": false,
      "lstrip": false,
      "rstrip": false,
      "special": false,
      "normalized": false
    },
    {
      "id": 29886,
      "content": "misikeke",
      "single_word": false,
      "lstrip": false,
      "rstrip": false,
      "special": false,
      "normalized": false
    },
    {
      "id": 29887,
      "content": "Ġmisikeke",
      "single_word": false,
      "lstrip": false,
      "rstrip": false,
      "special": false,
      "normalized": false
    },
    {
      "id": 29888,
      "content": "moku",
      "single_word": false,
      "lstrip": false,
      "rstrip": false,
      "special": false,
      "normalized": false
    },
    {
      "id": 29889,
      "content": "Ġmoku",
      "single_word": false,
      "lstrip": false,
      "rstrip": false,
      "special": false,
      "normalized": false
    },
    {
      "id": 29890,
      "content": "moli",
      "single_word": false,
      "lstrip": false,
      "rstrip": false,
      "special": false,
      "normalized": false
    },
    {
      "id": 29891,
      "content": "Ġmoli",
      "single_word": false,
      "lstrip": false,
      "rstrip": false,
      "special": false,
      "normalized": false
    },
    {
      "id": 29892,
      "content": "monsi",
      "single_word": false,
      "lstrip": false,
      "rstrip": false,
      "special": false,
      "normalized": false
    },
    {
      "id": 29893,
      "content": "Ġmonsi",
      "single_word": false,
      "lstrip": false,
      "rstrip": false,
      "special": false,
      "normalized": false
    },
    {
      "id": 29894,
      "content": "monsuta",
      "single_word": false,
      "lstrip": false,
      "rstrip": false,
      "special": false,
      "normalized": false
    },
    {
      "id": 29895,
      "content": "Ġmonsuta",
      "single_word": false,
      "lstrip": false,
      "rstrip": false,
      "special": false,
      "normalized": false
    },
    {
      "id": 29896,
      "content": "musi",
      "single_word": false,
      "lstrip": false,
      "rstrip": false,
      "special": false,
      "normalized": false
    },
    {
      "id": 29897,
      "content": "Ġmusi",
      "single_word": false,
      "lstrip": false,
      "rstrip": false,
      "special": false,
      "normalized": false
    },
    {
      "id": 29898,
      "content": "mute",
      "single_word": false,
      "lstrip": false,
      "rstrip": false,
      "special": false,
      "normalized": false
    },
    {
      "id": 29899,
      "content": "Ġmute",
      "single_word": false,
      "lstrip": false,
      "rstrip": false,
      "special": false,
      "normalized": false
    },
    {
      "id": 29900,
      "content": "nanpa",
      "single_word": false,
      "lstrip": false,
      "rstrip": false,
      "special": false,
      "normalized": false
    },
    {
      "id": 29901,
      "content": "Ġnanpa",
      "single_word": false,
      "lstrip": false,
      "rstrip": false,
      "special": false,
      "normalized": false
    },
    {
      "id": 29902,
      "content": "nasin",
      "single_word": false,
      "lstrip": false,
      "rstrip": false,
      "special": false,
      "normalized": false
    },
    {
      "id": 29903,
      "content": "Ġnasin",
      "single_word": false,
      "lstrip": false,
      "rstrip": false,
      "special": false,
      "normalized": false
    },
    {
      "id": 29904,
      "content": "nena",
      "single_word": false,
      "lstrip": false,
      "rstrip": false,
      "special": false,
      "normalized": false
    },
    {
      "id": 29905,
      "content": "Ġnena",
      "single_word": false,
      "lstrip": false,
      "rstrip": false,
      "special": false,
      "normalized": false
    },
    {
      "id": 29906,
      "content": "nimi",
      "single_word": false,
      "lstrip": false,
      "rstrip": false,
      "special": false,
      "normalized": false
    },
    {
      "id": 29907,
      "content": "Ġnimi",
      "single_word": false,
      "lstrip": false,
      "rstrip": false,
      "special": false,
      "normalized": false
    },
    {
      "id": 29908,
      "content": "noka",
      "single_word": false,
      "lstrip": false,
      "rstrip": false,
      "special": false,
      "normalized": false
    },
    {
      "id": 29909,
      "content": "Ġnoka",
      "single_word": false,
      "lstrip": false,
      "rstrip": false,
      "special": false,
      "normalized": false
    },
    {
      "id": 29910,
      "content": "Ġoke",
      "single_word": false,
      "lstrip": false,
      "rstrip": false,
      "special": false,
      "normalized": false
    },
    {
      "id": 29911,
      "content": "Ġolin",
      "single_word": false,
      "lstrip": false,
      "rstrip": false,
      "special": false,
      "normalized": false
    },
    {
      "id": 29912,
      "content": "Ġona",
      "single_word": false,
      "lstrip": false,
      "rstrip": false,
      "special": false,
      "normalized": false
    },
    {
      "id": 29913,
      "content": "pakala",
      "single_word": false,
      "lstrip": false,
      "rstrip": false,
      "special": false,
      "normalized": false
    },
    {
      "id": 29914,
      "content": "Ġpakala",
      "single_word": false,
      "lstrip": false,
      "rstrip": false,
      "special": false,
      "normalized": false
    },
    {
      "id": 29915,
      "content": "pali",
      "single_word": false,
      "lstrip": false,
      "rstrip": false,
      "special": false,
      "normalized": false
    },
    {
      "id": 29916,
      "content": "Ġpali",
      "single_word": false,
      "lstrip": false,
      "rstrip": false,
      "special": false,
      "normalized": false
    },
    {
      "id": 29917,
      "content": "palisa",
      "single_word": false,
      "lstrip": false,
      "rstrip": false,
      "special": false,
      "normalized": false
    },
    {
      "id": 29918,
      "content": "Ġpalisa",
      "single_word": false,
      "lstrip": false,
      "rstrip": false,
      "special": false,
      "normalized": false
    },
    {
      "id": 29919,
      "content": "pana",
      "single_word": false,
      "lstrip": false,
      "rstrip": false,
      "special": false,
      "normalized": false
    },
    {
      "id": 29920,
      "content": "Ġpana",
      "single_word": false,
      "lstrip": false,
      "rstrip": false,
      "special": false,
      "normalized": false
    },
    {
      "id": 29921,
      "content": "pilin",
      "single_word": false,
      "lstrip": false,
      "rstrip": false,
      "special": false,
      "normalized": false
    },
    {
      "id": 29922,
      "content": "Ġpilin",
      "single_word": false,
      "lstrip": false,
      "rstrip": false,
      "special": false,
      "normalized": false
    },
    {
      "id": 29923,
      "content": "pimeja",
      "single_word": false,
      "lstrip": false,
      "rstrip": false,
      "special": false,
      "normalized": false
    },
    {
      "id": 29924,
      "content": "Ġpimeja",
      "single_word": false,
      "lstrip": false,
      "rstrip": false,
      "special": false,
      "normalized": false
    },
    {
      "id": 29925,
      "content": "pini",
      "single_word": false,
      "lstrip": false,
      "rstrip": false,
      "special": false,
      "normalized": false
    },
    {
      "id": 29926,
      "content": "Ġpini",
      "single_word": false,
      "lstrip": false,
      "rstrip": false,
      "special": false,
      "normalized": false
    },
    {
      "id": 29927,
      "content": "pipi",
      "single_word": false,
      "lstrip": false,
      "rstrip": false,
      "special": false,
      "normalized": false
    },
    {
      "id": 29928,
      "content": "Ġpipi",
      "single_word": false,
      "lstrip": false,
      "rstrip": false,
      "special": false,
      "normalized": false
    },
    {
      "id": 29929,
      "content": "poka",
      "single_word": false,
      "lstrip": false,
      "rstrip": false,
      "special": false,
      "normalized": false
    },
    {
      "id": 29930,
      "content": "Ġpoka",
      "single_word": false,
      "lstrip": false,
      "rstrip": false,
      "special": false,
      "normalized": false
    },
    {
      "id": 29931,
      "content": "poki",
      "single_word": false,
      "lstrip": false,
      "rstrip": false,
      "special": false,
      "normalized": false
    },
    {
      "id": 29932,
      "content": "Ġpoki",
      "single_word": false,
      "lstrip": false,
      "rstrip": false,
      "special": false,
      "normalized": false
    },
    {
      "id": 29933,
      "content": "pona",
      "single_word": false,
      "lstrip": false,
      "rstrip": false,
      "special": false,
      "normalized": false
    },
    {
      "id": 29934,
      "content": "Ġpona",
      "single_word": false,
      "lstrip": false,
      "rstrip": false,
      "special": false,
      "normalized": false
    },
    {
      "id": 29935,
      "content": "powe",
      "single_word": false,
      "lstrip": false,
      "rstrip": false,
      "special": false,
      "normalized": false
    },
    {
      "id": 29936,
      "content": "Ġpowe",
      "single_word": false,
      "lstrip": false,
      "rstrip": false,
      "special": false,
      "normalized": false
    },
    {
      "id": 29937,
      "content": "sama",
      "single_word": false,
      "lstrip": false,
      "rstrip": false,
      "special": false,
      "normalized": false
    },
    {
      "id": 29938,
      "content": "Ġsama",
      "single_word": false,
      "lstrip": false,
      "rstrip": false,
      "special": false,
      "normalized": false
    },
    {
      "id": 29939,
      "content": "seli",
      "single_word": false,
      "lstrip": false,
      "rstrip": false,
      "special": false,
      "normalized": false
    },
    {
      "id": 29940,
      "content": "Ġseli",
      "single_word": false,
      "lstrip": false,
      "rstrip": false,
      "special": false,
      "normalized": false
    },
    {
      "id": 29941,
      "content": "selo",
      "single_word": false,
      "lstrip": false,
      "rstrip": false,
      "special": false,
      "normalized": false
    },
    {
      "id": 29942,
      "content": "Ġselo",
      "single_word": false,
      "lstrip": false,
      "rstrip": false,
      "special": false,
      "normalized": false
    },
    {
      "id": 29943,
      "content": "seme",
      "single_word": false,
      "lstrip": false,
      "rstrip": false,
      "special": false,
      "normalized": false
    },
    {
      "id": 29944,
      "content": "Ġseme",
      "single_word": false,
      "lstrip": false,
      "rstrip": false,
      "special": false,
      "normalized": false
    },
    {
      "id": 29945,
      "content": "sewi",
      "single_word": false,
      "lstrip": false,
      "rstrip": false,
      "special": false,
      "normalized": false
    },
    {
      "id": 29946,
      "content": "Ġsewi",
      "single_word": false,
      "lstrip": false,
      "rstrip": false,
      "special": false,
      "normalized": false
    },
    {
      "id": 29947,
      "content": "sijelo",
      "single_word": false,
      "lstrip": false,
      "rstrip": false,
      "special": false,
      "normalized": false
    },
    {
      "id": 29948,
      "content": "Ġsijelo",
      "single_word": false,
      "lstrip": false,
      "rstrip": false,
      "special": false,
      "normalized": false
    },
    {
      "id": 29949,
      "content": "sike",
      "single_word": false,
      "lstrip": false,
      "rstrip": false,
      "special": false,
      "normalized": false
    },
    {
      "id": 29950,
      "content": "Ġsike",
      "single_word": false,
      "lstrip": false,
      "rstrip": false,
      "special": false,
      "normalized": false
    },
    {
      "id": 29951,
      "content": "sina",
      "single_word": false,
      "lstrip": false,
      "rstrip": false,
      "special": false,
      "normalized": false
    },
    {
      "id": 29952,
      "content": "Ġsina",
      "single_word": false,
      "lstrip": false,
      "rstrip": false,
      "special": false,
      "normalized": false
    },
    {
      "id": 29953,
      "content": "sinpin",
      "single_word": false,
      "lstrip": false,
      "rstrip": false,
      "special": false,
      "normalized": false
    },
    {
      "id": 29954,
      "content": "Ġsinpin",
      "single_word": false,
      "lstrip": false,
      "rstrip": false,
      "special": false,
      "normalized": false
    },
    {
      "id": 29955,
      "content": "sitelen",
      "single_word": false,
      "lstrip": false,
      "rstrip": false,
      "special": false,
      "normalized": false
    },
    {
      "id": 29956,
      "content": "Ġsitelen",
      "single_word": false,
      "lstrip": false,
      "rstrip": false,
      "special": false,
      "normalized": false
    },
    {
      "id": 29957,
      "content": "soko",
      "single_word": false,
      "lstrip": false,
      "rstrip": false,
      "special": false,
      "normalized": false
    },
    {
      "id": 29958,
      "content": "Ġsoko",
      "single_word": false,
      "lstrip": false,
      "rstrip": false,
      "special": false,
      "normalized": false
    },
    {
      "id": 29959,
      "content": "sona",
      "single_word": false,
      "lstrip": false,
      "rstrip": false,
      "special": false,
      "normalized": false
    },
    {
      "id": 29960,
      "content": "Ġsona",
      "single_word": false,
      "lstrip": false,
      "rstrip": false,
      "special": false,
      "normalized": false
    },
    {
      "id": 29961,
      "content": "soweli",
      "single_word": false,
      "lstrip": false,
      "rstrip": false,
      "special": false,
      "normalized": false
    },
    {
      "id": 29962,
      "content": "Ġsoweli",
      "single_word": false,
      "lstrip": false,
      "rstrip": false,
      "special": false,
      "normalized": false
    },
    {
      "id": 29963,
      "content": "suli",
      "single_word": false,
      "lstrip": false,
      "rstrip": false,
      "special": false,
      "normalized": false
    },
    {
      "id": 29964,
      "content": "Ġsuli",
      "single_word": false,
      "lstrip": false,
      "rstrip": false,
      "special": false,
      "normalized": false
    },
    {
      "id": 29965,
      "content": "suno",
      "single_word": false,
      "lstrip": false,
      "rstrip": false,
      "special": false,
      "normalized": false
    },
    {
      "id": 29966,
      "content": "Ġsuno",
      "single_word": false,
      "lstrip": false,
      "rstrip": false,
      "special": false,
      "normalized": false
    },
    {
      "id": 29967,
      "content": "supa",
      "single_word": false,
      "lstrip": false,
      "rstrip": false,
      "special": false,
      "normalized": false
    },
    {
      "id": 29968,
      "content": "Ġsupa",
      "single_word": false,
      "lstrip": false,
      "rstrip": false,
      "special": false,
      "normalized": false
    },
    {
      "id": 29969,
      "content": "suwi",
      "single_word": false,
      "lstrip": false,
      "rstrip": false,
      "special": false,
      "normalized": false
    },
    {
      "id": 29970,
      "content": "Ġsuwi",
      "single_word": false,
      "lstrip": false,
      "rstrip": false,
      "special": false,
      "normalized": false
    },
    {
      "id": 29971,
      "content": "taso",
      "single_word": false,
      "lstrip": false,
      "rstrip": false,
      "special": false,
      "normalized": false
    },
    {
      "id": 29972,
      "content": "Ġtaso",
      "single_word": false,
      "lstrip": false,
      "rstrip": false,
      "special": false,
      "normalized": false
    },
    {
      "id": 29973,
      "content": "tawa",
      "single_word": false,
      "lstrip": false,
      "rstrip": false,
      "special": false,
      "normalized": false
    },
    {
      "id": 29974,
      "content": "Ġtawa",
      "single_word": false,
      "lstrip": false,
      "rstrip": false,
      "special": false,
      "normalized": false
    },
    {
      "id": 29975,
      "content": "telo",
      "single_word": false,
      "lstrip": false,
      "rstrip": false,
      "special": false,
      "normalized": false
    },
    {
      "id": 29976,
      "content": "Ġtelo",
      "single_word": false,
      "lstrip": false,
      "rstrip": false,
      "special": false,
      "normalized": false
    },
    {
      "id": 29977,
      "content": "tenpo",
      "single_word": false,
      "lstrip": false,
      "rstrip": false,
      "special": false,
      "normalized": false
    },
    {
      "id": 29978,
      "content": "Ġtenpo",
      "single_word": false,
      "lstrip": false,
      "rstrip": false,
      "special": false,
      "normalized": false
    },
    {
      "id": 29979,
      "content": "toki",
      "single_word": false,
      "lstrip": false,
      "rstrip": false,
      "special": false,
      "normalized": false
    },
    {
      "id": 29980,
      "content": "Ġtoki",
      "single_word": false,
      "lstrip": false,
      "rstrip": false,
      "special": false,
      "normalized": false
    },
    {
      "id": 29981,
      "content": "tomo",
      "single_word": false,
      "lstrip": false,
      "rstrip": false,
      "special": false,
      "normalized": false
    },
    {
      "id": 29982,
      "content": "Ġtomo",
      "single_word": false,
      "lstrip": false,
      "rstrip": false,
      "special": false,
      "normalized": false
    },
    {
      "id": 29983,
      "content": "tonsi",
      "single_word": false,
      "lstrip": false,
      "rstrip": false,
      "special": false,
      "normalized": false
    },
    {
      "id": 29984,
      "content": "Ġtonsi",
      "single_word": false,
      "lstrip": false,
      "rstrip": false,
      "special": false,
      "normalized": false
    },
    {
      "id": 29985,
      "content": "unpa",
      "single_word": false,
      "lstrip": false,
      "rstrip": false,
      "special": false,
      "normalized": false
    },
    {
      "id": 29986,
      "content": "Ġunpa",
      "single_word": false,
      "lstrip": false,
      "rstrip": false,
      "special": false,
      "normalized": false
    },
    {
      "id": 29987,
      "content": "Ġuta",
      "single_word": false,
      "lstrip": false,
      "rstrip": false,
      "special": false,
      "normalized": false
    },
    {
      "id": 29988,
      "content": "utala",
      "single_word": false,
      "lstrip": false,
      "rstrip": false,
      "special": false,
      "normalized": false
    },
    {
      "id": 29989,
      "content": "Ġutala",
      "single_word": false,
      "lstrip": false,
      "rstrip": false,
      "special": false,
      "normalized": false
    },
    {
      "id": 29990,
      "content": "walo",
      "single_word": false,
      "lstrip": false,
      "rstrip": false,
      "special": false,
      "normalized": false
    },
    {
      "id": 29991,
      "content": "Ġwalo",
      "single_word": false,
      "lstrip": false,
      "rstrip": false,
      "special": false,
      "normalized": false
    },
    {
      "id": 29992,
      "content": "waso",
      "single_word": false,
      "lstrip": false,
      "rstrip": false,
      "special": false,
      "normalized": false
    },
    {
      "id": 29993,
      "content": "Ġwaso",
      "single_word": false,
      "lstrip": false,
      "rstrip": false,
      "special": false,
      "normalized": false
    },
    {
      "id": 29994,
      "content": "wawa",
      "single_word": false,
      "lstrip": false,
      "rstrip": false,
      "special": false,
      "normalized": false
    },
    {
      "id": 29995,
      "content": "Ġwawa",
      "single_word": false,
      "lstrip": false,
      "rstrip": false,
      "special": false,
      "normalized": false
    },
    {
      "id": 29996,
      "content": "weka",
      "single_word": false,
      "lstrip": false,
      "rstrip": false,
      "special": false,
      "normalized": false
    },
    {
      "id": 29997,
      "content": "Ġweka",
      "single_word": false,
      "lstrip": false,
      "rstrip": false,
      "special": false,
      "normalized": false
    },
    {
      "id": 29998,
      "content": "wile",
      "single_word": false,
      "lstrip": false,
      "rstrip": false,
      "special": false,
      "normalized": false
    },
    {
      "id": 29999,
      "content": "Ġwile",
      "single_word": false,
      "lstrip": false,
      "rstrip": false,
      "special": false,
      "normalized": false
    }
  ],
  "normalizer": null,
  "pre_tokenizer": {
    "type": "ByteLevel",
    "add_prefix_space": false,
    "trim_offsets": true,
    "use_regex": true
  },
  "post_processor": {
    "type": "ByteLevel",
    "add_prefix_space": true,
    "trim_offsets": false,
    "use_regex": true
  },
  "decoder": {
    "type": "ByteLevel",
    "add_prefix_space": true,
    "trim_offsets": true,
    "use_regex": true
  },
  "model": {
    "type": "BPE",
    "dropout": null,
    "unk_token": null,
    "continuing_subword_prefix": null,
    "end_of_word_suffix": null,
    "fuse_unk": false,
    "byte_fallback": false,
    "ignore_merges": false,
    "vocab": {
      "<|----|>": 0,
      "<|//|>": 1,
      "<|tokipona:>": 2,
      "<|english:>": 3,
      "</english:>": 4,
      "</tokipona:>": 5,
      "<|lq:>": 6,
      "<:lq|>": 7,
      "<|hq:>": 8,
      "<:hq|>": 9,
      "<|!:>": 10,
      "<:!|>": 11,
      "<|?:>": 12,
      "<:?|>": 13,
      "<|*:>": 14,
      "<:*|>": 15,
      "<|-:>": 16,
      "<:-|>": 17,
      "<|=:>": 18,
      "<:=|>": 19,
      "<|/:>": 20,
      "<:/|>": 21,
      "<|@:>": 22,
      "<:@|>": 23,
      "<|reject|>": 24,
      "<|think|>": 25,
      "<|p7|>": 26,
      "<|p6|>": 27,
      "<|p5|>": 28,
      "<|p4|>": 29,
      "<|p3|>": 30,
      "<|p2|>": 31,
      "<|p1|>": 32,
      "<|p0|>": 33,
      "<|reserved0|>": 34,
      "<|reserved1|>": 35,
      "<|reserved2|>": 36,
      "<|reserved3|>": 37,
      "<|reserved4|>": 38,
      "<|reserved5|>": 39,
      "<|reserved6|>": 40,
      "<|reserved7|>": 41,
      "!": 42,
      "\"": 43,
      "#": 44,
      "$": 45,
      "%": 46,
      "&": 47,
      "'": 48,
      "(": 49,
      ")": 50,
      "*": 51,
      "+": 52,
      ",": 53,
      "-": 54,
      ".": 55,
      "/": 56,
      "0": 57,
      "1": 58,
      "2": 59,
      "3": 60,
      "4": 61,
      "5": 62,
      "6": 63,
      "7": 64,
      "8": 65,
      "9": 66,
      ":": 67,
      ";": 68,
      "<": 69,
      "=": 70,
      ">": 71,
      "?": 72,
      "@": 73,
      "A": 74,
      "B": 75,
      "C": 76,
      "D": 77,
      "E": 78,
      "F": 79,
      "G": 80,
      "H": 81,
      "I": 82,
      "J": 83,
      "K": 84,
      "L": 85,
      "M": 86,
      "N": 87,
      "O": 88,
      "P": 89,
      "Q": 90,
      "R": 91,
      "S": 92,
      "T": 93,
      "U": 94,
      "V": 95,
      "W": 96,
      "X": 97,
      "Y": 98,
      "Z": 99,
      "[": 100,
      "\\": 101,
      "]": 102,
      "^": 103,
      "_": 104,
      "`": 105,
      "a": 106,
      "b": 107,
      "c": 108,
      "d": 109,
      "e": 110,
      "f": 111,
      "g": 112,
      "h": 113,
      "i": 114,
      "j": 115,
      "k": 116,
      "l": 117,
      "m": 118,
      "n": 119,
      "o": 120,
      "p": 121,
      "q": 122,
      "r": 123,
      "s": 124,
      "t": 125,
      "u": 126,
      "v": 127,
      "w": 128,
      "x": 129,
      "y": 130,
      "z": 131,
      "{": 132,
      "|": 133,
      "}": 134,
      "~": 135,
      "¡": 136,
      "¢": 137,
      "£": 138,
      "¤": 139,
      "¥": 140,
      "¦": 141,
      "§": 142,
      "¨": 143,
      "©": 144,
      "ª": 145,
      "«": 146,
      "¬": 147,
      "®": 148,
      "¯": 149,
      "°": 150,
      "±": 151,
      "²": 152,
      "³": 153,
      "´": 154,
      "µ": 155,
      "¶": 156,
      "·": 157,
      "¸": 158,
      "¹": 159,
      "º": 160,
      "»": 161,
      "¼": 162,
      "½": 163,
      "¾": 164,
      "¿": 165,
      "À": 166,
      "Á": 167,
      "Â": 168,
      "Ã": 169,
      "Ä": 170,
      "Å": 171,
      "Æ": 172,
      "Ç": 173,
      "È": 174,
      "É": 175,
      "Ê": 176,
      "Ë": 177,
      "Ì": 178,
      "Í": 179,
      "Î": 180,
      "Ï": 181,
      "Ð": 182,
      "Ñ": 183,
      "Ò": 184,
      "Ó": 185,
      "Ô": 186,
      "Õ": 187,
      "Ö": 188,
      "×": 189,
      "Ø": 190,
      "Ù": 191,
      "Ú": 192,
      "Û": 193,
      "Ü": 194,
      "Ý": 195,
      "Þ": 196,
      "ß": 197,
      "à": 198,
      "á": 199,
      "â": 200,
      "ã": 201,
      "ä": 202,
      "å": 203,
      "æ": 204,
      "ç": 205,
      "è": 206,
      "é": 207,
      "ê": 208,
      "ë": 209,
      "ì": 210,
      "í": 211,
      "î": 212,
      "ï": 213,
      "ð": 214,
      "ñ": 215,
      "ò": 216,
      "ó": 217,
      "ô": 218,
      "õ": 219,
      "ö": 220,
      "÷": 221,
      "ø": 222,
      "ù": 223,
      "ú": 224,
      "û": 225,
      "ü": 226,
      "ý": 227,
      "þ": 228,
      "ÿ": 229,
      "Ā": 230,
      "ā": 231,
      "Ă": 232,
      "ă": 233,
      "Ą": 234,
      "ą": 235,
      "Ć": 236,
      "ć": 237,
      "Ĉ": 238,
      "ĉ": 239,
      "Ċ": 240,
      "ċ": 241,
      "Č": 242,
      "č": 243,
      "Ď": 244,
      "ď": 245,
      "Đ": 246,
      "đ": 247,
      "Ē": 248,
      "ē": 249,
      "Ĕ": 250,
      "ĕ": 251,
      "Ė": 252,
      "ė": 253,
      "Ę": 254,
      "ę": 255,
      "Ě": 256,
      "ě": 257,
      "Ĝ": 258,
      "ĝ": 259,
      "Ğ": 260,
      "ğ": 261,
      "Ġ": 262,
      "ġ": 263,
      "Ģ": 264,
      "ģ": 265,
      "Ĥ": 266,
      "ĥ": 267,
      "Ħ": 268,
      "ħ": 269,
      "Ĩ": 270,
      "ĩ": 271,
      "Ī": 272,
      "ī": 273,
      "Ĭ": 274,
      "ĭ": 275,
      "Į": 276,
      "į": 277,
      "İ": 278,
      "ı": 279,
      "Ĳ": 280,
      "ĳ": 281,
      "Ĵ": 282,
      "ĵ": 283,
      "Ķ": 284,
      "ķ": 285,
      "ĸ": 286,
      "Ĺ": 287,
      "ĺ": 288,
      "Ļ": 289,
      "ļ": 290,
      "Ľ": 291,
      "ľ": 292,
      "Ŀ": 293,
      "ŀ": 294,
      "Ł": 295,
      "ł": 296,
      "Ń": 297,
      "Ġt": 298,
      "Ġa": 299,
      "he": 300,
      "in": 301,
      "er": 302,
      "Ġs": 303,
      "Ġthe": 304,
      "on": 305,
      "an": 306,
      "or": 307,
      "es": 308,
      "Ġc": 309,
      "is": 310,
      "en": 311,
      "Ġb": 312,
      "||": 313,
      "Ġw": 314,
      "ar": 315,
      "Ġo": 316,
      "it": 317,
      "Ġp": 318,
      "at": 319,
      "Ġm": 320,
      "ed": 321,
      "Ġf": 322,
      "al": 323,
      "re": 324,
      "Ġin": 325,
      "Ġ||": 326,
      "Ġof": 327,
      "ic": 328,
      "Ġan": 329,
      "as": 330,
      "ro": 331,
      "Ġd": 332,
      "Ġ1": 333,
      "Ġl": 334,
      "Ġand": 335,
      "Ġh": 336,
      "ing": 337,
      "le": 338,
      "Ġn": 339,
      "un": 340,
      "ion": 341,
      "us": 342,
      "ol": 343,
      "Ġ2": 344,
      "Ġto": 345,
      "--": 346,
      "Ġg": 347,
      "ig": 348,
      "am": 349,
      "il": 350,
      "Ġ(": 351,
      "Ġis": 352,
      "ent": 353,
      "om": 354,
      "ur": 355,
      "id": 356,
      "Ġk": 357,
      "el": 358,
      "âĢ": 359,
      "Ġ19": 360,
      "Ġe": 361,
      "ct": 362,
      "00": 363,
      "Ġal": 364,
      "ot": 365,
      "ir": 366,
      "Ġwas": 367,
      "ut": 368,
      "Ġst": 369,
      "Ġth": 370,
      "ch": 371,
      "Ġhe": 372,
      "ad": 373,
      "et": 374,
      "Ġr": 375,
      "ers": 376,
      "iv": 377,
      "st": 378,
      "ĠâĢ": 379,
      "ay": 380,
      "Ġj": 381,
      "Ġre": 382,
      "ce": 383,
      "Ġon": 384,
      "Ġfor": 385,
      "im": 386,
      "ist": 387,
      "Ġit": 388,
      "ul": 389,
      "ov": 390,
      "em": 391,
      "Ġv": 392,
      "rom": 393,
      "ht": 394,
      "op": 395,
      "Ġbe": 396,
      "ation": 397,
      "ow": 398,
      "Ġas": 399,
      "ber": 400,
      "ian": 401,
      "all": 402,
      "th": 403,
      "her": 404,
      "19": 405,
      "and": 406,
      "ag": 407,
      "est": 408,
      "Ġde": 409,
      "ight": 410,
      "fe": 411,
      "ies": 412,
      "ĠâĢĶ": 413,
      "Ġfrom": 414,
      "|-": 415,
      "Ġch": 416,
      "ĠĊ": 417,
      "oc": 418,
      "um": 419,
      "os": 420,
      "ia": 421,
      "ra": 422,
      "Ġse": 423,
      "ign": 424,
      "ces": 425,
      "Ġ20": 426,
      "Ġ200": 427,
      "----": 428,
      "|----": 429,
      "|>": 430,
      "<|----": 431,
      "Ġby": 432,
      "ear": 433,
      "oun": 434,
      "Ġun": 435,
      "art": 436,
      "ith": 437,
      "ter": 438,
      "Ġat": 439,
      "Ġcom": 440,
      "fer": 441,
      "col": 442,
      "ly": 443,
      "ak": 444,
      "ac": 445,
      "Ġpl": 446,
      "av": 447,
      "ill": 448,
      "Ġwith": 449,
      "Ġwh": 450,
      "od": 451,
      "Ġare": 452,
      "ish": 453,
      "right": 454,
      "Ġor": 455,
      "ap": 456,
      "ug": 457,
      "the": 458,
      "ican": 459,
      "Ġ|": 460,
      "ity": 461,
      "ain": 462,
      "Ġy": 463,
      "color": 464,
      "Ġalign": 465,
      "gcolor": 466,
      "'s": 467,
      "=#": 468,
      "ie": 469,
      "Ġthat": 470,
      "Ġkm": 471,
      "Ġcon": 472,
      "Ġbgcolor": 473,
      "Ġpro": 474,
      "ab": 475,
      "up": 476,
      "Ġne": 477,
      "mer": 478,
      "ip": 479,
      "feren": 480,
      "ary": 481,
      "Ġsp": 482,
      "ard": 483,
      "ferences": 484,
      "ess": 485,
      "if": 486,
      "Ġ\"": 487,
      "references": 488,
      "Ġpe": 489,
      "eb": 490,
      "ople": 491,
      "ud": 492,
      "ate": 493,
      "ort": 494,
      "Ġle": 495,
      "ant": 496,
      "ust": 497,
      "20": 498,
      "ub": 499,
      "Ġpr": 500,
      "out": 501,
      "ment": 502,
      "Ġ201": 503,
      "Ġar": 504,
      "Ġsh": 505,
      "ong": 506,
      "ver": 507,
      "Ġro": 508,
      "Ġhis": 509,
      "qu": 510,
      "ame": 511,
      "fefe": 512,
      "ĠâĢĵ": 513,
      "Ġ3": 514,
      "ich": 515,
      "rit": 516,
      "ge": 517,
      "Ġwor": 518,
      "Ġen": 519,
      "Ġte": 520,
      "Ġ199": 521,
      "orn": 522,
      "ast": 523,
      "so": 524,
      "ember": 525,
      "og": 526,
      "Ġ-": 527,
      "Ġus": 528,
      "Ġlin": 529,
      "Ġmov": 530,
      "Ġmar": 531,
      "ount": 532,
      "Ġpeople": 533,
      "ated": 534,
      "Ġplay": 535,
      "Ġsoc": 536,
      "ell": 537,
      "ran": 538,
      "ive": 539,
      "ri": 540,
      "ore": 541,
      "Ġact": 542,
      "Ġamer": 543,
      "our": 544,
      "man": 545,
      "pt": 546,
      "ost": 547,
      "se": 548,
      "Ġthey": 549,
      "ath": 550,
      "Ġex": 551,
      "Ġcan": 552,
      "uc": 553,
      "pe": 554,
      "ere": 555,
      "land": 556,
      "Ġman": 557,
      "),": 558,
      "ous": 559,
      "ial": 560,
      "ire": 561,
      "Ġalso": 562,
      "ates": 563,
      "Ġ18": 564,
      "Ġthis": 565,
      "ok": 566,
      "ited": 567,
      "ine": 568,
      "Ġab": 569,
      "other": 570,
      "Ġhas": 571,
      "Ġamerican": 572,
      "Ġnew": 573,
      "orro": 574,
      "Ġ4": 575,
      "ld": 576,
      "Ġshe": 577,
      "Ġlinear": 578,
      "ry": 579,
      "Ġsocorro": 580,
      "pr": 581,
      "Ġnot": 582,
      "ors": 583,
      "Ġwere": 584,
      "own": 585,
      "ave": 586,
      "Ġcl": 587,
      "ang": 588,
      "ke": 589,
      "Ġaf": 590,
      "Ġweb": 591,
      "ord": 592,
      "sit": 593,
      "ack": 594,
      "end": 595,
      "Ġpart": 596,
      "ue": 597,
      "ern": 598,
      "age": 599,
      "Ġcomp": 600,
      "ure": 601,
      "200": 602,
      "Ġcount": 603,
      "iz": 604,
      "Ġfir": 605,
      "cl": 606,
      "ical": 607,
      "ne": 608,
      "Ġwebsit": 609,
      "Ġbec": 610,
      "ide": 611,
      "Ġsc": 612,
      "ome": 613,
      "ph": 614,
      "ther": 615,
      "ions": 616,
      "uary": 617,
      "Ġbir": 618,
      "Ġwhe": 619,
      "Ġfirst": 620,
      "Ġpol": 621,
      "Ġ5": 622,
      "ass": 623,
      "ace": 624,
      ").": 625,
      "te": 626,
      "ice": 627,
      "Ġwhich": 628,
      "ond": 629,
      "Ġser": 630,
      "ict": 631,
      "sp": 632,
      "ally": 633,
      "Ġone": 634,
      "ime": 635,
      "Ġli": 636,
      "Ġunited": 637,
      "one": 638,
      "âĢĵ": 639,
      "ational": 640,
      "ths": 641,
      "Ġcomm": 642,
      "Ġstates": 643,
      "Ġad": 644,
      "ory": 645,
      "per": 646,
      "amp": 647,
      "Ġbo": 648,
      "Ġcar": 649,
      "aw": 650,
      "Ġ7": 651,
      "Ġhave": 652,
      "Ġ198": 653,
      "ĠĠ": 654,
      "ach": 655,
      "Ġme": 656,
      "Ġfo": 657,
      "Ġco": 658,
      "Ġher": 659,
      "lish": 660,
      "Ġcol": 661,
      "to": 662,
      "und": 663,
      "ied": 664,
      "Ġall": 665,
      "Ġ6": 666,
      "Ġ8": 667,
      "Ġind": 668,
      "fefefe": 669,
      "act": 670,
      "Ġwebsites": 671,
      "Ġbirths": 672,
      "ball": 673,
      "Ġmay": 674,
      "Ġmus": 675,
      "Ġkn": 676,
      "ater": 677,
      "ound": 678,
      "ade": 679,
      "ree": 680,
      "Ġother": 681,
      "Ġtheir": 682,
      "ician": 683,
      "Ġag": 684,
      "les": 685,
      "Ġhad": 686,
      "ks": 687,
      "Ġcity": 688,
      "Ġ197": 689,
      "Ġbut": 690,
      "amer": 691,
      "Ġtw": 692,
      "io": 693,
      "Ġpar": 694,
      "wn": 695,
      "ens": 696,
      "18": 697,
      "Ġwho": 698,
      "Ġnor": 699,
      "lect": 700,
      "ult": 701,
      "ics": 702,
      "ind": 703,
      "199": 704,
      "Ġi": 705,
      "Ġyear": 706,
      "Ġfl": 707,
      "Ġ9": 708,
      "ision": 709,
      "Ġeng": 710,
      "ren": 711,
      "aus": 712,
      "Ġdeath": 713,
      "Ġph": 714,
      "Ġafter": 715,
      "ptember": 716,
      "ild": 717,
      "Ġjo": 718,
      "Ġthere": 719,
      "Ġdis": 720,
      "pl": 721,
      "american": 722,
      "Ġac": 723,
      "der": 724,
      "Ġits": 725,
      "Ġseptember": 726,
      "Ġgro": 727,
      "we": 728,
      "Ġdo": 729,
      "ans": 730,
      "Ġworld": 731,
      "Ġbl": 732,
      "ec": 733,
      "ugh": 734,
      "lev": 735,
      "Ã©": 736,
      "otball": 737,
      "une": 738,
      "Ġres": 739,
      "Ġcent": 740,
      "old": 741,
      "ib": 742,
      "ings": 743,
      "ations": 744,
      "ĠĊĠĊ": 745,
      "Ġabout": 746,
      "Âł": 747,
      "ents": 748,
      "Ġper": 749,
      "Ġsout": 750,
      "ivers": 751,
      "Ġ17": 752,
      "port": 753,
      "Ġcont": 754,
      "ah": 755,
      "Ġ196": 756,
      "Ġcall": 757,
      "for": 758,
      "ward": 759,
      "Ġfran": 760,
      "Ġnov": 761,
      "uch": 762,
      "Ġoff": 763,
      "Ġgo": 764,
      "uld": 765,
      "Ġsing": 766,
      "ff": 767,
      "ral": 768,
      "Ġap": 769,
      "ite": 770,
      "Ġpres": 771,
      "ober": 772,
      "tern": 773,
      "ubl": 774,
      "ake": 775,
      "ased": 776,
      "ick": 777,
      "Ġwar": 778,
      "che": 779,
      "201": 780,
      "ctober": 781,
      "iving": 782,
      "Ġknown": 783,
      "Ġmost": 784,
      "Ġjan": 785,
      "Ġtwo": 786,
      "Ġ2000": 787,
      "Ġpolit": 788,
      "ince": 789,
      "Ġdr": 790,
      "erson": 791,
      "Ġmany": 792,
      "ys": 793,
      "Ġmovies": 794,
      "Ġz": 795,
      "Ġwhen": 796,
      "ou": 797,
      "Ġrec": 798,
      "Ġim": 799,
      "ists": 800,
      "Ġcounty": 801,
      "Ġoctober": 802,
      "ities": 803,
      "Ġused": 804,
      "ile": 805,
      "ence": 806,
      "Ġmin": 807,
      "Ġmovie": 808,
      "Ġtr": 809,
      "erman": 810,
      "Ġfootball": 811,
      "ts": 812,
      "Ġbr": 813,
      "21": 814,
      "Ġqu": 815,
      "iss": 816,
      "ames": 817,
      "als": 818,
      "ton": 819,
      "Ġ10": 820,
      "ery": 821,
      "Ġ16": 822,
      "Ġev": 823,
      "=\"": 824,
      "ident": 825,
      "ail": 826,
      "com": 827,
      "Ġsong": 828,
      "Ġ2001": 829,
      "ugust": 830,
      "born": 831,
      "Ġsy": 832,
      "ob": 833,
      "Ġcalled": 834,
      "Ġreg": 835,
      "Ġmarch": 836,
      "Ġup": 837,
      "uct": 838,
      "Ġso": 839,
      "Ġmade": 840,
      "ments": 841,
      "clud": 842,
      "ons": 843,
      "Ġsome": 844,
      "Ġtime": 845,
      "Ġgen": 846,
      "ck": 847,
      "ina": 848,
      "ten": 849,
      "Ġnational": 850,
      "Ġpop": 851,
      "Ġdeaths": 852,
      "Ġaugust": 853,
      "ition": 854,
      "Ġbro": 855,
      "Ġjanuary": 856,
      "levision": 857,
      "uring": 858,
      "Ġsch": 859,
      "ep": 860,
      "198": 861,
      "hed": 862,
      "Ġ15": 863,
      "Ġ194": 864,
      "Ġsec": 865,
      "Ġ195": 866,
      "Ġed": 867,
      "sh": 868,
      "Ġinclud": 869,
      "irect": 870,
      "Ġfound": 871,
      "Ġdist": 872,
      "mber": 873,
      "Ġmore": 874,
      "iver": 875,
      "ik": 876,
      "Ġgr": 877,
      "ork": 878,
      "az": 879,
      "gr": 880,
      "span": 881,
      "gan": 882,
      "Ġam": 883,
      "Ġborn": 884,
      "Ġbeen": 885,
      "ms": 886,
      "Ġwill": 887,
      "Ġwrit": 888,
      "Ġest": 889,
      "Ġ14": 890,
      "cember": 891,
      "Ġnorth": 892,
      "Ġunivers": 893,
      "Ġdirect": 894,
      "22": 895,
      "Ġgre": 896,
      "Ġsouth": 897,
      "ese": 898,
      "Ġbet": 899,
      "de": 900,
      "Ġmon": 901,
      "ages": 902,
      "Ġinto": 903,
      "Ġout": 904,
      "Ġtelevision": 905,
      "ose": 906,
      "son": 907,
      "Ġem": 908,
      "Ġpre": 909,
      "ale": 910,
      "Ġstate": 911,
      "olog": 912,
      "Ġteam": 913,
      "Ġwork": 914,
      "apan": 915,
      "Ġnovember": 916,
      "ix": 917,
      "vel": 918,
      "Ġ193": 919,
      "Ġwe": 920,
      "Ġu": 921,
      "overn": 922,
      "itt": 923,
      "ays": 924,
      "Ġgerman": 925,
      "ve": 926,
      "Ġdes": 927,
      "ft": 928,
      "Ġdecember": 929,
      "Ġaust": 930,
      "ase": 931,
      "ause": 932,
      "Ġchar": 933,
      "Ġover": 934,
      "Ġking": 935,
      "Ġalb": 936,
      "Ġfam": 937,
      "urn": 938,
      "Ġ12": 939,
      "ury": 940,
      "Ġgu": 941,
      "Ġ11": 942,
      "Ġfe": 943,
      "ruary": 944,
      "ica": 945,
      "Ġbu": 946,
      "Ġdied": 947,
      "hn": 948,
      "Ġpo": 949,
      "Ġcr": 950,
      "Ġdep": 951,
      "Ġsm": 952,
      "Ġelect": 953,
      "Ġsw": 954,
      "Ġ13": 955,
      "ague": 956,
      "Ġwo": 957,
      "Ġapr": 958,
      "Ġtra": 959,
      "inn": 960,
      "Ġapril": 961,
      "Ġsup": 962,
      "Ġear": 963,
      "Ġnum": 964,
      "Ġmed": 965,
      "Ġgroup": 966,
      "Ġjul": 967,
      "Ġsa": 968,
      "ier": 969,
      "Ġfeb": 970,
      "Ġpolitician": 971,
      "Ġseries": 972,
      "Ġair": 973,
      "Ġfebruary": 974,
      "197": 975,
      "uro": 976,
      "Ġprod": 977,
      "Ġstud": 978,
      "ritish": 979,
      "Ġhig": 980,
      "Ġyears": 981,
      "Ġapp": 982,
      "ance": 983,
      "ins": 984,
      "Ġgovern": 985,
      "Ġart": 986,
      "ĊĊ": 987,
      "Ġbecame": 988,
      "rict": 989,
      "Ġlar": 990,
      "iet": 991,
      "ily": 992,
      "enn": 993,
      "Ġcre": 994,
      "row": 995,
      "uss": 996,
      "Ġwest": 997,
      "Ġduring": 998,
      "ogra": 999,
      "10": 1000,
      "Ġatt": 1001,
      "||||": 1002,
      "int": 1003,
      "Ġalbum": 1004,
      "living": 1005,
      "eng": 1006,
      "Ġjapan": 1007,
      "are": 1008,
      "Ġaward": 1009,
      "Ġass": 1010,
      "Ġonly": 1011,
      "Ġcal": 1012,
      "ught": 1013,
      "Ġpopul": 1014,
      "Ġmet": 1015,
      "Ġma": 1016,
      "Ġhow": 1017,
      "Ġla": 1018,
      "Ġbel": 1019,
      "Ġuniversity": 1020,
      "Ġthan": 1021,
      "ool": 1022,
      "ann": 1023,
      "able": 1024,
      "cess": 1025,
      "Ġdif": 1026,
      "ama": 1027,
      "17": 1028,
      "Ġname": 1029,
      "ss": 1030,
      "Ġleague": 1031,
      "Ġhim": 1032,
      "li": 1033,
      "Ġcap": 1034,
      "Ġ2002": 1035,
      "icip": 1036,
      "Ġpresident": 1037,
      "ert": 1038,
      "oth": 1039,
      "Ġmat": 1040,
      "Ġactors": 1041,
      "ween": 1042,
      "Ġthem": 1043,
      "Ġfrance": 1044,
      "Ġjuly": 1045,
      "Ġprov": 1046,
      "people": 1047,
      "air": 1048,
      "Ġestab": 1049,
      "Ġrele": 1050,
      "ely": 1051,
      "Ġter": 1052,
      "Ġbecause": 1053,
      "Ġplayed": 1054,
      "ley": 1055,
      "Ġpal": 1056,
      "Ġshow": 1057,
      "Ġmusic": 1058,
      "Ġstr": 1059,
      "med": 1060,
      "imes": 1061,
      "Ġoffic": 1062,
      "Ġstart": 1063,
      "Ġriver": 1064,
      "rib": 1065,
      "Ġge": 1066,
      "Ġbetween": 1067,
      "ett": 1068,
      "ital": 1069,
      "oll": 1070,
      "ash": 1071,
      "Ġ1999": 1072,
      "Ġthese": 1073,
      "je": 1074,
      "ouse": 1075,
      "iel": 1076,
      "round": 1077,
      "Ġspec": 1078,
      "23": 1079,
      "istory": 1080,
      "Ġplayer": 1081,
      "Ġop": 1082,
      "hip": 1083,
      "eral": 1084,
      "Ġend": 1085,
      "Ġyork": 1086,
      "Ġserv": 1087,
      "ai": 1088,
      "Ġrom": 1089,
      "ron": 1090,
      "Ġno": 1091,
      "ograph": 1092,
      "Ġtown": 1093,
      "ism": 1094,
      "Ġagain": 1095,
      "way": 1096,
      "ures": 1097,
      "Ġel": 1098,
      "ient": 1099,
      "ived": 1100,
      "\".": 1101,
      "Ġfin": 1102,
      "att": 1103,
      "ative": 1104,
      "16": 1105,
      "Ġenglish": 1106,
      "15": 1107,
      "Ġnumber": 1108,
      "Ġrel": 1109,
      "br": 1110,
      "Ġjune": 1111,
      "Ġbook": 1112,
      "Ġbritish": 1113,
      "ood": 1114,
      "Ġwhere": 1115,
      "rench": 1116,
      "urr": 1117,
      "co": 1118,
      "Ġjohn": 1119,
      "Ġrecord": 1120,
      "Ġpubl": 1121,
      "Ġeuro": 1122,
      "196": 1123,
      "ional": 1124,
      "ower": 1125,
      "Ġsecond": 1126,
      "Ġmain": 1127,
      "ason": 1128,
      "Ġlike": 1129,
      "Ġdistrict": 1130,
      "angu": 1131,
      "Ġschool": 1132,
      "rel": 1133,
      "ather": 1134,
      "Ġche": 1135,
      "my": 1136,
      "bo": 1137,
      "Ġthree": 1138,
      "Ġthen": 1139,
      "Ġlong": 1140,
      "Ġhel": 1141,
      "Ġstar": 1142,
      "unicip": 1143,
      "emb": 1144,
      "Ġwould": 1145,
      "unicipal": 1146,
      "mar": 1147,
      "lishments": 1148,
      "fect": 1149,
      "fore": 1150,
      "anc": 1151,
      "14": 1152,
      "13": 1153,
      "Ġlater": 1154,
      "Ġsuch": 1155,
      "Ġplayers": 1156,
      "Ġchamp": 1157,
      "Ġloc": 1158,
      "ives": 1159,
      "Ġbas": 1160,
      "Ġvery": 1161,
      "ĠĠĠĠ": 1162,
      "ister": 1163,
      "af": 1164,
      "rop": 1165,
      "Ġparty": 1166,
      "ious": 1167,
      "pres": 1168,
      "urg": 1169,
      "Ġwom": 1170,
      "Ġbar": 1171,
      "Ġdepart": 1172,
      "Ġperson": 1173,
      "ished": 1174,
      "til": 1175,
      "25": 1176,
      "Ġfil": 1177,
      "ually": 1178,
      "Ġwon": 1179,
      "Ġintern": 1180,
      "uk": 1181,
      "Ġchild": 1182,
      "Ġaustral": 1183,
      "Ġlead": 1184,
      "mp": 1185,
      "con": 1186,
      "000": 1187,
      "red": 1188,
      "Ġunder": 1189,
      "Ġbest": 1190,
      "Ġsub": 1191,
      "Ġcons": 1192,
      "Ġmod": 1193,
      "rough": 1194,
      "Ġlife": 1195,
      "Ġinst": 1196,
      "ual": 1197,
      "Ġmil": 1198,
      "ferent": 1199,
      "Ġtran": 1200,
      "Ġital": 1201,
      "ough": 1202,
      "Ġob": 1203,
      "\"|": 1204,
      "Ġ2020": 1205,
      "amed": 1206,
      "ement": 1207,
      "ets": 1208,
      "ey": 1209,
      "Ġreleased": 1210,
      "Ġspace": 1211,
      "Ġhigh": 1212,
      "24": 1213,
      "ise": 1214,
      "Ġuntil": 1215,
      "Ġdifferent": 1216,
      "ress": 1217,
      "cent": 1218,
      "Ġeurope": 1219,
      "mov": 1220,
      "Ġgames": 1221,
      "28": 1222,
      "Ġsl": 1223,
      "enc": 1224,
      "au": 1225,
      "Ġlaw": 1226,
      "Ġarea": 1227,
      "Ġ24": 1228,
      "Ġdepartment": 1229,
      "ung": 1230,
      "ium": 1231,
      "atch": 1232,
      "fl": 1233,
      "Ġfour": 1234,
      "29": 1235,
      "26": 1236,
      "Ġrep": 1237,
      "Ġage": 1238,
      "Ġlo": 1239,
      "30": 1240,
      "omet": 1241,
      "Ġthrough": 1242,
      "rist": 1243,
      "let": 1244,
      "aint": 1245,
      "Ġinter": 1246,
      "stem": 1247,
      "Ġent": 1248,
      "Ġisland": 1249,
      "Ġmember": 1250,
      "ky": 1251,
      "ered": 1252,
      "27": 1253,
      "its": 1254,
      "Ġret": 1255,
      "Ġestablishments": 1256,
      "Ġinv": 1257,
      "Ġsim": 1258,
      "Ġactor": 1259,
      "Ġgame": 1260,
      "Ġty": 1261,
      "hern": 1262,
      "Ġband": 1263,
      "ants": 1264,
      "me": 1265,
      "Ġcare": 1266,
      "bert": 1267,
      "ats": 1268,
      "ott": 1269,
      "Ġprof": 1270,
      "Ġsur": 1271,
      "ution": 1272,
      "Ġold": 1273,
      "ger": 1274,
      "ating": 1275,
      "Ġhouse": 1276,
      "Ġcanad": 1277,
      "Ġ25": 1278,
      "orts": 1279,
      "Ġhar": 1280,
      "Ġir": 1281,
      "ank": 1282,
      "any": 1283,
      "app": 1284,
      "Ġii": 1285,
      "Ġaut": 1286,
      "ried": 1287,
      "ull": 1288,
      "hen": 1289,
      "Ġbus": 1290,
      "rowspan": 1291,
      "Ġsystem": 1292,
      "Ġuse": 1293,
      "Ġwell": 1294,
      "Ġsince": 1295,
      "Ġfamily": 1296,
      "Ġregion": 1297,
      "xt": 1298,
      "Ġcommun": 1299,
      "Ġbefore": 1300,
      "Ġif": 1301,
      "Ġfrench": 1302,
      "iam": 1303,
      "Ġsmall": 1304,
      "mon": 1305,
      "oss": 1306,
      "Ġback": 1307,
      "Ġdiv": 1308,
      "195": 1309,
      "writ": 1310,
      "Ġland": 1311,
      "ever": 1312,
      "Ġ2003": 1313,
      "erv": 1314,
      "Ġbra": 1315,
      "ology": 1316,
      "Ġsame": 1317,
      "Ġlist": 1318,
      "ock": 1319,
      "Ġform": 1320,
      "Ġkill": 1321,
      "Ġsongs": 1322,
      "ography": 1323,
      "dom": 1324,
      "ific": 1325,
      "Ġmake": 1326,
      "by": 1327,
      "Ġformer": 1328,
      "gest": 1329,
      "Ġ1998": 1330,
      "Ġmunicipal": 1331,
      "igin": 1332,
      "Ġday": 1333,
      "Ġang": 1334,
      "form": 1335,
      "ject": 1336,
      "Ġgovernment": 1337,
      "Ġsinger": 1338,
      "ural": 1339,
      "iew": 1340,
      "key": 1341,
      "194": 1342,
      "Ġ30": 1343,
      "Ġbeing": 1344,
      "ll": 1345,
      "min": 1346,
      "Ġlangu": 1347,
      "related": 1348,
      "Ġchampions": 1349,
      "ollow": 1350,
      "ae": 1351,
      "els": 1352,
      "11": 1353,
      "Ġgl": 1354,
      "res": 1355,
      "ino": 1356,
      "Ġwater": 1357,
      "ator": 1358,
      "Ġever": 1359,
      "Ġdid": 1360,
      "\",": 1361,
      "sc": 1362,
      "Ġann": 1363,
      "Ġred": 1364,
      "ines": 1365,
      "ield": 1366,
      "ounc": 1367,
      "Ġphil": 1368,
      "Ġproduc": 1369,
      "Ġhum": 1370,
      "Ġmo": 1371,
      "Ġruss": 1372,
      "Ġ2010": 1373,
      "present": 1374,
      "ians": 1375,
      "akes": 1376,
      "Ġofficial": 1377,
      "Ã¡": 1378,
      "Ġ2004": 1379,
      "ham": 1380,
      "ĠĊĠĊĠĊĠĊ": 1381,
      "Ġoften": 1382,
      "gy": 1383,
      "Ġval": 1384,
      "ene": 1385,
      "Ġcentury": 1386,
      "ange": 1387,
      "iforn": 1388,
      "ata": 1389,
      "Ġanim": 1390,
      "Ġmill": 1391,
      "Ġpeak": 1392,
      "Ġagainst": 1393,
      "yn": 1394,
      "ifornia": 1395,
      "Ġboth": 1396,
      "Ġyou": 1397,
      "Ġown": 1398,
      "velop": 1399,
      "Ġfollow": 1400,
      "Ġinternational": 1401,
      "Ġbased": 1402,
      "Ġeast": 1403,
      "Ġmy": 1404,
      "Ġoly": 1405,
      "Ġnamed": 1406,
      "Ġnear": 1407,
      "Ġany": 1408,
      "Ġorgan": 1409,
      "Ġolymp": 1410,
      "cc": 1411,
      "Ġplace": 1412,
      "Ġpages": 1413,
      "Ġadd": 1414,
      "Ġprogr": 1415,
      "ove": 1416,
      "cer": 1417,
      "Ġcalifornia": 1418,
      "Ġwomen": 1419,
      "Ġactress": 1420,
      "Ġsaid": 1421,
      "omar": 1422,
      "Ġje": 1423,
      "Ġeach": 1424,
      "rest": 1425,
      "ful": 1426,
      "Ġstarted": 1427,
      "Ġclub": 1428,
      "Ġacc": 1429,
      "Ġcor": 1430,
      "Ġwal": 1431,
      "ma": 1432,
      "Ġ2005": 1433,
      "ille": 1434,
      "ute": 1435,
      "pro": 1436,
      "Ġrock": 1437,
      "ret": 1438,
      "ĊĠ": 1439,
      "Ġsk": 1440,
      "ev": 1441,
      "Ġdec": 1442,
      "Ġint": 1443,
      "50": 1444,
      "Ġhelp": 1445,
      "Ġseason": 1446,
      "Ġleg": 1447,
      "Ġrev": 1448,
      "Ġcareer": 1449,
      "ize": 1450,
      "Ġx": 1451,
      "Ġ2019": 1452,
      "Ġprofess": 1453,
      "Ġpalomar": 1454,
      "ries": 1455,
      "Ġsever": 1456,
      "Ġgeor": 1457,
      "12": 1458,
      "Ġwebsite": 1459,
      "ric": 1460,
      "ty": 1461,
      "atic": 1462,
      "Ġdem": 1463,
      "Ġconst": 1464,
      "icians": 1465,
      "Ġcountry": 1466,
      "Ġwhile": 1467,
      "burg": 1468,
      "Ġ23": 1469,
      "be": 1470,
      "Ġ.": 1471,
      "ala": 1472,
      "ondon": 1473,
      "Ġright": 1474,
      "Ġchrist": 1475,
      "Ġcharact": 1476,
      "Ġ2017": 1477,
      "ara": 1478,
      "ction": 1479,
      "mun": 1480,
      "ature": 1481,
      "Ġdevelop": 1482,
      "Ġtre": 1483,
      "ink": 1484,
      "elf": 1485,
      "Ġkingdom": 1486,
      "Ġorigin": 1487,
      "eter": 1488,
      "Ġengland": 1489,
      "iation": 1490,
      "Ġcup": 1491,
      "34": 1492,
      "Ġgermany": 1493,
      "ison": 1494,
      "Ġep": 1495,
      "get": 1496,
      "hes": 1497,
      "Ġ29": 1498,
      "aking": 1499,
      "Ġrepubl": 1500,
      "ling": 1501,
      "Ġ21": 1502,
      "Ġgreat": 1503,
      "Ġaround": 1504,
      "Ġrun": 1505,
      "Ġinc": 1506,
      "Ġhowever": 1507,
      "Ġsum": 1508,
      "ains": 1509,
      "Ġoper": 1510,
      "Ġcommune": 1511,
      "ular": 1512,
      "Ġlast": 1513,
      "Ġbuild": 1514,
      "Ġset": 1515,
      "Ġ26": 1516,
      "Ġpopulation": 1517,
      "yl": 1518,
      "Ġmag": 1519,
      "Ã¶": 1520,
      "80": 1521,
      "Ġminister": 1522,
      "jor": 1523,
      "37": 1524,
      "ble": 1525,
      "Ġafr": 1526,
      "Ġappear": 1527,
      "ney": 1528,
      "ody": 1529,
      "Ġlondon": 1530,
      "Ġ2014": 1531,
      "Ġsen": 1532,
      "Ġ2018": 1533,
      "Ġhistory": 1534,
      "Ġmount": 1535,
      "iness": 1536,
      "Ġspe": 1537,
      "ana": 1538,
      "Ġincluding": 1539,
      "Ġbre": 1540,
      "hing": 1541,
      "edy": 1542,
      "vent": 1543,
      "ony": 1544,
      "day": 1545,
      "âĢĻ": 1546,
      "Ġblack": 1547,
      "Ġ&": 1548,
      "Ġnet": 1549,
      "Ġmid": 1550,
      "Ġneat": 1551,
      "ner": 1552,
      "oy": 1553,
      "Ġcommon": 1554,
      "Ġ28": 1555,
      "Ġkitt": 1556,
      "west": 1557,
      "Ġchildren": 1558,
      "Ġword": 1559,
      "36": 1560,
      "Ġport": 1561,
      "Ġstat": 1562,
      "Ġ2006": 1563,
      "Ġsign": 1564,
      "ster": 1565,
      "Ġdirected": 1566,
      "Ġvers": 1567,
      "ird": 1568,
      "movies": 1569,
      "ode": 1570,
      "Ġcro": 1571,
      "Ġhome": 1572,
      "Ġchampionship": 1573,
      "watch": 1574,
      "Ġcould": 1575,
      "Ġway": 1576,
      "Ġroman": 1577,
      "Ġcov": 1578,
      "ĠĊĊ": 1579,
      "Ġav": 1580,
      "ideo": 1581,
      "Ġwinn": 1582,
      "ized": 1583,
      "Ġnow": 1584,
      "gen": 1585,
      "35": 1586,
      "Ġhead": 1587,
      "Ġcour": 1588,
      "Ġprogram": 1589,
      "40": 1590,
      "Ġdef": 1591,
      "Ġvar": 1592,
      "Ġsu": 1593,
      "Ġlive": 1594,
      "na": 1595,
      "Ġsol": 1596,
      "Ġrem": 1597,
      "Ġexamp": 1598,
      "Ġsomet": 1599,
      "Ġ2016": 1600,
      "uction": 1601,
      "Ġspacewatch": 1602,
      "39": 1603,
      "Ġopen": 1604,
      "Ġseveral": 1605,
      "ze": 1606,
      "Ġke": 1607,
      "embers": 1608,
      "Ġprovince": 1609,
      "ined": 1610,
      "Ġfilm": 1611,
      "commun": 1612,
      "Ġgeneral": 1613,
      "Ġclass": 1614,
      "Ġjust": 1615,
      "Ġstor": 1616,
      "Ġusually": 1617,
      "Ġra": 1618,
      "ald": 1619,
      "Ġcompany": 1620,
      "Ġpa": 1621,
      "38": 1622,
      "Ġimport": 1623,
      "Ġer": 1624,
      "par": 1625,
      "Ġpower": 1626,
      "ract": 1627,
      "ows": 1628,
      "pol": 1629,
      "ps": 1630,
      "Ġvi": 1631,
      "ible": 1632,
      "Ġes": 1633,
      "pos": 1634,
      "Ġfar": 1635,
      "Ġsho": 1636,
      "Ġvill": 1637,
      "ved": 1638,
      "ago": 1639,
      "Ġpark": 1640,
      "Ġindian": 1641,
      "Ġrepresent": 1642,
      "Ġcaus": 1643,
      "Ġrad": 1644,
      "Ġ2015": 1645,
      "ament": 1646,
      "urch": 1647,
      "Ġ22": 1648,
      "Ġ2011": 1649,
      "cept": 1650,
      "ues": 1651,
      "Ġpat": 1652,
      "ones": 1653,
      "ience": 1654,
      "Ġ27": 1655,
      "Ġsal": 1656,
      "que": 1657,
      "Ġmunicipality": 1658,
      "60": 1659,
      "Ġvo": 1660,
      "Ġdisc": 1661,
      "Ġtrans": 1662,
      "90": 1663,
      "Ġmajor": 1664,
      "Ġtimes": 1665,
      "not": 1666,
      "Ġ2021": 1667,
      "Ġ2007": 1668,
      "Ġcompos": 1669,
      "Ġdown": 1670,
      "Ġaustralia": 1671,
      "Ġ190": 1672,
      "Ġgood": 1673,
      "Ġdel": 1674,
      "ka": 1675,
      "Ġste": 1676,
      "Ġgod": 1677,
      "Ġcat": 1678,
      "Ġhol": 1679,
      "Ġarch": 1680,
      "Ġbig": 1681,
      "death": 1682,
      "70": 1683,
      "Ã¼": 1684,
      "Ġattack": 1685,
      "hor": 1686,
      "Ġyoun": 1687,
      "Ġext": 1688,
      "Ġjapanese": 1689,
      "istor": 1690,
      "ipp": 1691,
      "Ġamerica": 1692,
      "Ġpublic": 1693,
      "adem": 1694,
      "itz": 1695,
      "istan": 1696,
      "urrent": 1697,
      "Ġmes": 1698,
      "omin": 1699,
      "inc": 1700,
      "Ġsuc": 1701,
      "aut": 1702,
      "Ġbi": 1703,
      "Ġlived": 1704,
      "Ġdesign": 1705,
      "Ġlarge": 1706,
      "ler": 1707,
      "Ġson": 1708,
      "Ġsingle": 1709,
      "Ġill": 1710,
      "Ġbegan": 1711,
      "Ġhy": 1712,
      ".\"": 1713,
      "Ġvol": 1714,
      "Ġgra": 1715,
      "Ġanderson": 1716,
      "Ġ2013": 1717,
      "Ġ2008": 1718,
      "lo": 1719,
      "Ġ'": 1720,
      "Ġcreated": 1721,
      "Ġearly": 1722,
      "Ġcamp": 1723,
      "Ġvir": 1724,
      "Ġassoc": 1725,
      "Ġindia": 1726,
      "ane": 1727,
      "Ġchang": 1728,
      "Ġevery": 1729,
      "Ġpass": 1730,
      "Ġwhat": 1731,
      "ket": 1732,
      "side": 1733,
      "ilt": 1734,
      "Ġeas": 1735,
      "Ġtop": 1736,
      "ÃŃ": 1737,
      "Ġtit": 1738,
      "ief": 1739,
      "Ġ2012": 1740,
      "Ġmen": 1741,
      "Ġpopular": 1742,
      "Ġcolle": 1743,
      "ico": 1744,
      "Ġget": 1745,
      "ark": 1746,
      "Ġgold": 1747,
      "itary": 1748,
      "99": 1749,
      "colspan": 1750,
      "alth": 1751,
      "ex": 1752,
      "Ġdrama": 1753,
      "Ġcontro": 1754,
      "Ġmanag": 1755,
      "Ġmiss": 1756,
      "ford": 1757,
      "Ġvideo": 1758,
      "\"|-": 1759,
      "Ġimportant": 1760,
      "Ġlanguage": 1761,
      "can": 1762,
      "Ġmer": 1763,
      "ring": 1764,
      "Ġwriter": 1765,
      "Ġda": 1766,
      "Ġorder": 1767,
      "Ġanother": 1768,
      "Ġsan": 1769,
      "Ġitalian": 1770,
      "\"|-||": 1771,
      "ensus": 1772,
      "communes": 1773,
      "ches": 1774,
      "Ġ2009": 1775,
      "ior": 1776,
      "yle": 1777,
      "Ġwent": 1778,
      "Ġbatt": 1779,
      "Ġphys": 1780,
      "Ã³": 1781,
      "Ġwilliam": 1782,
      "lex": 1783,
      "Ġspecies": 1784,
      "off": 1785,
      "33": 1786,
      "Ġmass": 1787,
      "..": 1788,
      "Ġshort": 1789,
      "Ġtem": 1790,
      "Ġcapital": 1791,
      "Ġcompet": 1792,
      "Ġsupport": 1793,
      "Ġlight": 1794,
      "Ġexample": 1795,
      "Ġmal": 1796,
      "Ġmembers": 1797,
      "berg": 1798,
      "history": 1799,
      "aster": 1800,
      "Ġeven": 1801,
      "Ġwhite": 1802,
      "press": 1803,
      "iven": 1804,
      "45": 1805,
      "zil": 1806,
      "Ġmich": 1807,
      "han": 1808,
      "Ġcast": 1809,
      "Ġleft": 1810,
      "Ġwin": 1811,
      "ices": 1812,
      "Ġcountries": 1813,
      "ars": 1814,
      "Ġdirector": 1815,
      "ially": 1816,
      "Ġmesa": 1817,
      "Ġtur": 1818,
      "Ġber": 1819,
      "rog": 1820,
      "uck": 1821,
      "Ġgrand": 1822,
      "Ġmillion": 1823,
      "Ġunion": 1824,
      "Ġinclude": 1825,
      "ired": 1826,
      "Ġfather": 1827,
      "Ġcult": 1828,
      "Ġactiv": 1829,
      "Ġmor": 1830,
      "Ġbill": 1831,
      "Ġmuch": 1832,
      "Ġhistor": 1833,
      "Ġcurrent": 1834,
      "Ġhen": 1835,
      "Ġbusiness": 1836,
      "Ġant": 1837,
      "Ġlou": 1838,
      "Ġarmy": 1839,
      "ided": 1840,
      "95": 1841,
      "riend": 1842,
      "cities": 1843,
      "led": 1844,
      "ida": 1845,
      "88": 1846,
      "Ġstill": 1847,
      "Ġgroups": 1848,
      "umb": 1849,
      "la": 1850,
      "mat": 1851,
      "gin": 1852,
      "lin": 1853,
      "oph": 1854,
      "47": 1855,
      "65": 1856,
      "Ġchurch": 1857,
      "ides": 1858,
      "ivil": 1859,
      "outh": 1860,
      "Ġ2022": 1861,
      "ocr": 1862,
      "eth": 1863,
      "Ġ()": 1864,
      "amb": 1865,
      "chn": 1866,
      "aces": 1867,
      "deaths": 1868,
      "97": 1869,
      "ax": 1870,
      "wh": 1871,
      "Ġsil": 1872,
      "Ġwritten": 1873,
      "Ġline": 1874,
      "english": 1875,
      "Ã¤": 1876,
      "men": 1877,
      "Ġcomedy": 1878,
      "actors": 1879,
      "Ġocc": 1880,
      "Ġsix": 1881,
      "ertain": 1882,
      "ockey": 1883,
      "Ġcensus": 1884,
      "Ġmeans": 1885,
      "Ġdeb": 1886,
      "Ġlone": 1887,
      "por": 1888,
      "wor": 1889,
      "Ġdav": 1890,
      "Ġthird": 1891,
      "Ġfr": 1892,
      "Ġperfor": 1893,
      "Ġdon": 1894,
      "Ġrece": 1895,
      "omb": 1896,
      "Ġsummer": 1897,
      "Ġsold": 1898,
      "Ġcy": 1899,
      "96": 1900,
      "98": 1901,
      "Ġtex": 1902,
      "ek": 1903,
      "Ġrepublic": 1904,
      "Ġswed": 1905,
      "Ġjour": 1906,
      "Ġacadem": 1907,
      "idge": 1908,
      "ots": 1909,
      "Ġcontin": 1910,
      "48": 1911,
      "Ġbooks": 1912,
      "mus": 1913,
      "Ġnort": 1914,
      "Ġcond": 1915,
      "Ġloneos": 1916,
      "anish": 1917,
      "ien": 1918,
      "cy": 1919,
      "Ġmarried": 1920,
      "Ġlos": 1921,
      "Ġangel": 1922,
      "hi": 1923,
      "Ġneed": 1924,
      "Ġcentral": 1925,
      "Ġresult": 1926,
      "Ġlab": 1927,
      "ria": 1928,
      "iter": 1929,
      "Ġfamous": 1930,
      "Ġhuman": 1931,
      "ple": 1932,
      "Ġbuilt": 1933,
      "2000": 1934,
      "Ġpos": 1935,
      "ius": 1936,
      "Ġcollege": 1937,
      "iod": 1938,
      "Ġheart": 1939,
      "isc": 1940,
      "Ġhockey": 1941,
      "yal": 1942,
      "Ġcenter": 1943,
      "Ġhapp": 1944,
      "jo": 1945,
      "Ġtal": 1946,
      "Ġwestern": 1947,
      "Ġwrest": 1948,
      "Ġ1997": 1949,
      "uel": 1950,
      "ha": 1951,
      "Ġcancer": 1952,
      "Ġrich": 1953,
      "fo": 1954,
      "rote": 1955,
      "Ġfre": 1956,
      "Ġfive": 1957,
      "itar": 1958,
      "46": 1959,
      "osp": 1960,
      "Ġsea": 1961,
      "rian": 1962,
      "epend": 1963,
      "arch": 1964,
      "Ġuk": 1965,
      "Ġcanada": 1966,
      "ured": 1967,
      "ised": 1968,
      "31": 1969,
      "ards": 1970,
      "Ġnat": 1971,
      "Ġvict": 1972,
      "Ã¨": 1973,
      "Ġdoes": 1974,
      "Ġsuccess": 1975,
      "ves": 1976,
      "istics": 1977,
      "Ġtook": 1978,
      "ency": 1979,
      "urs": 1980,
      "75": 1981,
      "Ġsocial": 1982,
      "of": 1983,
      "ena": 1984,
      "lands": 1985,
      "Ġwant": 1986,
      "cast": 1987,
      "Ġfem": 1988,
      "Ġ100": 1989,
      "Ġ1990": 1990,
      "Ġstre": 1991,
      "Ġgir": 1992,
      "Ġ31": 1993,
      "Ġmean": 1994,
      "ania": 1995,
      "Ġspecial": 1996,
      "ases": 1997,
      "Ġ1996": 1998,
      "ility": 1999,
      "reek": 2000,
      "Ġengine": 2001,
      "oviet": 2002,
      "Ġecon": 2003,
      "Ġdesc": 2004,
      "pect": 2005,
      "oney": 2006,
      "go": 2007,
      "Ġheld": 2008,
      "Ġbecome": 2009,
      "ij": 2010,
      "Ġflor": 2011,
      "tt": 2012,
      "Ġwind": 2013,
      "Ġalong": 2014,
      "ael": 2015,
      "Ġstand": 2016,
      "Ġbody": 2017,
      "Ġprofessional": 2018,
      "Ġcame": 2019,
      "Ġeconom": 2020,
      "Ġsometimes": 2021,
      "Ġstage": 2022,
      "ven": 2023,
      "Ġflo": 2024,
      "Ġprime": 2025,
      "nal": 2026,
      "Ġworks": 2027,
      "Ġcivil": 2028,
      "Ġwrote": 2029,
      "Ġpolitical": 2030,
      "Ġexpl": 2031,
      "tal": 2032,
      "ival": 2033,
      "Ġalbums": 2034,
      "2010": 2035,
      "Ġmoved": 2036,
      "val": 2037,
      "Ġnorthern": 2038,
      "Ġproble": 2039,
      "aced": 2040,
      "Ġmilitary": 2041,
      "Ġeduc": 2042,
      "Ġmex": 2043,
      "Ġlargest": 2044,
      "Ġdi": 2045,
      "Ġversion": 2046,
      "Ġreal": 2047,
      "Ġpresent": 2048,
      "Ġearth": 2049,
      "||||||||": 2050,
      "ansas": 2051,
      "bs": 2052,
      "Ġliving": 2053,
      "utch": 2054,
      "Ġgiven": 2055,
      "most": 2056,
      "ya": 2057,
      "icago": 2058,
      "rod": 2059,
      "32": 2060,
      "Ġjack": 2061,
      "Ġyoung": 2062,
      "Ġauthor": 2063,
      "Ġconf": 2064,
      "Ġfollowing": 2065,
      "Ġusing": 2066,
      "ville": 2067,
      "Ġstory": 2068,
      "ids": 2069,
      "Ġpaul": 2070,
      "ning": 2071,
      "hel": 2072,
      "Ġepis": 2073,
      "Ġgovernor": 2074,
      "pes": 2075,
      "Ġque": 2076,
      "writers": 2077,
      "Ġperiod": 2078,
      "ges": 2079,
      "Ġfriend": 2080,
      "Ġgener": 2081,
      "Ġsuper": 2082,
      "polit": 2083,
      "ming": 2084,
      "85": 2085,
      "ady": 2086,
      "Ġscient": 2087,
      "olution": 2088,
      "Ġvis": 2089,
      "Ġfootballer": 2090,
      "Ġhal": 2091,
      "Ġ1995": 2092,
      "Ġrest": 2093,
      "Ġhall": 2094,
      "Ġcharacter": 2095,
      "jan": 2096,
      "Ġreturn": 2097,
      "ness": 2098,
      "Ġtro": 2099,
      "ta": 2100,
      "reen": 2101,
      "Ġstation": 2102,
      "Ġchina": 2103,
      "Ġlouis": 2104,
      "Ġlook": 2105,
      "work": 2106,
      "Ġindepend": 2107,
      "Ġrul": 2108,
      "ked": 2109,
      "Ġhand": 2110,
      "Ġevent": 2111,
      "76": 2112,
      "itions": 2113,
      "ades": 2114,
      "Ġitaly": 2115,
      "Ġcanadian": 2116,
      "aving": 2117,
      "Ġtexas": 2118,
      "ators": 2119,
      "Ġequ": 2120,
      "86": 2121,
      "iety": 2122,
      "Ġcomput": 2123,
      "Ġgot": 2124,
      "raft": 2125,
      "Ġthings": 2126,
      "Ġze": 2127,
      "Ġve": 2128,
      "Ġfed": 2129,
      "Ġhor": 2130,
      "ula": 2131,
      "Ġrussian": 2132,
      "play": 2133,
      "Ġcolor": 2134,
      "Ġjames": 2135,
      "ki": 2136,
      "Ġdu": 2137,
      "Ġsaint": 2138,
      "Ġbrazil": 2139,
      "Ġbattle": 2140,
      "Ġrole": 2141,
      "Ġcounc": 2142,
      "uted": 2143,
      "cle": 2144,
      "Ġtechn": 2145,
      "ris": 2146,
      "illa": 2147,
      "Ġprote": 2148,
      "Ġtoget": 2149,
      "Ġmedal": 2150,
      "Ġemp": 2151,
      "Ġtogether": 2152,
      "Ġkore": 2153,
      "Ġnys": 2154,
      "94": 2155,
      "Ġfood": 2156,
      "Ġworked": 2157,
      "ĠĠĠĠĠĠĠĠ": 2158,
      "ilar": 2159,
      "Ġaustralian": 2160,
      "Ġcourt": 2161,
      "Ġfight": 2162,
      "Ġfif": 2163,
      "Ġ1980": 2164,
      "sports": 2165,
      "Ġpublished": 2166,
      "Ġeuropean": 2167,
      "Ġkilled": 2168,
      "Ġtake": 2169,
      "ander": 2170,
      "Ġbrother": 2171,
      "Ġchem": 2172,
      "Ġrail": 2173,
      "Ġassociation": 2174,
      "Ġturn": 2175,
      "Ġmother": 2176,
      "line": 2177,
      "aust": 2178,
      "Ġvot": 2179,
      "Ġlat": 2180,
      "Ġgreen": 2181,
      "Ġcrit": 2182,
      "ittle": 2183,
      "Ġput": 2184,
      "Ġarr": 2185,
      "Ġver": 2186,
      "Ġbur": 2187,
      "inese": 2188,
      "Ġpoliticians": 2189,
      "Ġjournal": 2190,
      "Ġmic": 2191,
      "77": 2192,
      "Ġ1994": 2193,
      "den": 2194,
      "Ġfire": 2195,
      "Ġsee": 2196,
      "Ġdise": 2197,
      "Ġlove": 2198,
      "Ġmart": 2199,
      "ux": 2200,
      "Ġgeorge": 2201,
      "ained": 2202,
      "sw": 2203,
      "Ġmur": 2204,
      "new": 2205,
      "Ġmodern": 2206,
      "Ġscience": 2207,
      "Ġserved": 2208,
      "Ġnext": 2209,
      "Ġ1960": 2210,
      "Ġ1993": 2211,
      "avy": 2212,
      "Ġfun": 2213,
      "Ġmc": 2214,
      "Ġ1992": 2215,
      "united": 2216,
      "ota": 2217,
      "rip": 2218,
      "Ġtrad": 2219,
      "Ġbal": 2220,
      "uri": 2221,
      "Ġhot": 2222,
      "Ġdivision": 2223,
      "eum": 2224,
      "Ġsn": 2225,
      "Ġlevel": 2226,
      "Ġfew": 2227,
      "Ġ,": 2228,
      "Ġchicago": 2229,
      "ization": 2230,
      "Ġhon": 2231,
      "ged": 2232,
      "town": 2233,
      "Ġplan": 2234,
      "Ġide": 2235,
      "'t": 2236,
      "ified": 2237,
      "ams": 2238,
      "Ġsqu": 2239,
      "this": 2240,
      "Ġvillage": 2241,
      "km": 2242,
      "Ġsecret": 2243,
      "Ġarg": 2244,
      "Ġpress": 2245,
      "Ġelection": 2246,
      "Ġdev": 2247,
      "Ġrecords": 2248,
      "Ġsite": 2249,
      "Ġsent": 2250,
      "Ġanc": 2251,
      "Ġbroad": 2252,
      "ĊĠĊ": 2253,
      "Ġur": 2254,
      "ped": 2255,
      "Ġsouthern": 2256,
      "formation": 2257,
      "Ġcouncil": 2258,
      "bl": 2259,
      "Ġstars": 2260,
      "Ġfind": 2261,
      "sy": 2262,
      "ocratic": 2263,
      "Ġawards": 2264,
      "Ġprom": 2265,
      "Ġcop": 2266,
      "Ġnight": 2267,
      "Ġplays": 2268,
      "Ġfounded": 2269,
      "ii": 2270,
      "Ġdata": 2271,
      "Ġsym": 2272,
      "44": 2273,
      "Ġsports": 2274,
      "Åį": 2275,
      "Ġroad": 2276,
      "Ġparts": 2277,
      "there": 2278,
      "writer": 2279,
      "Ġartist": 2280,
      "Ġleader": 2281,
      "Ġroyal": 2282,
      "Ġmad": 2283,
      "ife": 2284,
      "Ġradio": 2285,
      "|}": 2286,
      "Ġlocal": 2287,
      "ba": 2288,
      "Ġpak": 2289,
      "Ġparis": 2290,
      "05": 2291,
      "olic": 2292,
      "gar": 2293,
      "Ġafrica": 2294,
      "antic": 2295,
      "dle": 2296,
      "Ġthose": 2297,
      "Ġvoice": 2298,
      "Ġpost": 2299,
      "Ġfrog": 2300,
      "66": 2301,
      "2006": 2302,
      "Ġstop": 2303,
      "Ġmot": 2304,
      "Ġdays": 2305,
      "87": 2306,
      "Ġconne": 2307,
      "Ġadv": 2308,
      "Ġtype": 2309,
      "ought": 2310,
      "Ġfield": 2311,
      "Ġhard": 2312,
      "Ġasia": 2313,
      "Ġcollect": 2314,
      "Ġsun": 2315,
      "istr": 2316,
      "Ġfeat": 2317,
      "car": 2318,
      "har": 2319,
      "Ġterm": 2320,
      "Ġempire": 2321,
      "Ġsound": 2322,
      "Ġguitar": 2323,
      "2007": 2324,
      "Ġangeles": 2325,
      "lements": 2326,
      "Ġcath": 2327,
      "2005": 2328,
      "Ġresear": 2329,
      "Ġspanish": 2330,
      "ument": 2331,
      "Ġbad": 2332,
      "ells": 2333,
      "ways": 2334,
      "odes": 2335,
      "Ġbecom": 2336,
      "iction": 2337,
      "rael": 2338,
      "Ġ1991": 2339,
      "ounced": 2340,
      "Ġhill": 2341,
      "Ġbelie": 2342,
      "ced": 2343,
      "2020": 2344,
      "âĢĿ": 2345,
      "Ġpict": 2346,
      "Ġtak": 2347,
      "Ġref": 2348,
      "Ġcontrol": 2349,
      "gian": 2350,
      "Ġstyle": 2351,
      "Ġjud": 2352,
      "ctor": 2353,
      "ened": 2354,
      "Ġservice": 2355,
      "Ġtour": 2356,
      "Ġfall": 2357,
      "Ġaged": 2358,
      "Ġgirl": 2359,
      "bi": 2360,
      "Ġless": 2361,
      "itzer": 2362,
      "ump": 2363,
      "Ġfree": 2364,
      "Ġoffice": 2365,
      "nd": 2366,
      "Ġlocated": 2367,
      "Ġtest": 2368,
      "Ġexper": 2369,
      "Ġmuseum": 2370,
      "Ġham": 2371,
      "Ġcir": 2372,
      "Ġsimilar": 2373,
      "Ġrelig": 2374,
      "ference": 2375,
      "Ġcaused": 2376,
      "Ġthought": 2377,
      "Ġwashing": 2378,
      "Ġoriginal": 2379,
      "ted": 2380,
      "igh": 2381,
      "Ġkar": 2382,
      "2004": 2383,
      "Ġden": 2384,
      "nes": 2385,
      "ona": 2386,
      "rew": 2387,
      "Ġdue": 2388,
      "Ġmaking": 2389,
      "iers": 2390,
      "Ġside": 2391,
      "Ġsoviet": 2392,
      "Ġreport": 2393,
      "Ġbeg": 2394,
      "Ġ[": 2395,
      "aker": 2396,
      "Ġrepl": 2397,
      "2008": 2398,
      "Ġ1970": 2399,
      "Ġcapt": 2400,
      "wood": 2401,
      "Ġobs": 2402,
      "Ġseat": 2403,
      "ste": 2404,
      "Ġrights": 2405,
      "aland": 2406,
      "Ġpoint": 2407,
      "Ġsay": 2408,
      "Ġcoast": 2409,
      "Ġled": 2410,
      "Ġstruct": 2411,
      "55": 2412,
      "oon": 2413,
      "she": 2414,
      "Ġread": 2415,
      "89": 2416,
      "Ġce": 2417,
      "dr": 2418,
      "Ġhost": 2419,
      "Ġsit": 2420,
      "Ġconstit": 2421,
      "Ġgrow": 2422,
      "):": 2423,
      "Ġwithout": 2424,
      "ape": 2425,
      "cher": 2426,
      "Ġmont": 2427,
      "ued": 2428,
      "Ġreceived": 2429,
      "Ġvirgin": 2430,
      "Ġnon": 2431,
      "Ġwashington": 2432,
      "uz": 2433,
      "Ġice": 2434,
      "Ġlot": 2435,
      "rab": 2436,
      "century": 2437,
      "over": 2438,
      "Ġlittle": 2439,
      "Ġnovel": 2440,
      "Ġsex": 2441,
      "Ġolympics": 2442,
      "Ġdet": 2443,
      "Ġdavid": 2444,
      "Ġconsid": 2445,
      "Ġbuilding": 2446,
      "Ġlim": 2447,
      "ude": 2448,
      "ground": 2449,
      "Ġcarol": 2450,
      "vers": 2451,
      "Ġscott": 2452,
      "ours": 2453,
      "06": 2454,
      "yr": 2455,
      "ura": 2456,
      "Ġmix": 2457,
      "ended": 2458,
      "kn": 2459,
      "ule": 2460,
      "Ġdest": 2461,
      "Ġfinal": 2462,
      "ĠâĢľ": 2463,
      "ording": 2464,
      "Ġemper": 2465,
      "Ġpaint": 2466,
      "Ġlost": 2467,
      "Ġef": 2468,
      "Ġrobert": 2469,
      "Ġho": 2470,
      "Ġthom": 2471,
      "str": 2472,
      "Ġinstit": 2473,
      "2001": 2474,
      "Ġfail": 2475,
      "ips": 2476,
      "Ġmel": 2477,
      "Ġprize": 2478,
      "Ġspain": 2479,
      "uce": 2480,
      "imate": 2481,
      "ror": 2482,
      "2003": 2483,
      "Ġallow": 2484,
      "gress": 2485,
      "field": 2486,
      "Ġplaces": 2487,
      "Ġmult": 2488,
      "pec": 2489,
      "07": 2490,
      "Ġterrit": 2491,
      "atives": 2492,
      "ministr": 2493,
      "Ġmoney": 2494,
      "Ġmary": 2495,
      "after": 2496,
      "itional": 2497,
      "Ġrob": 2498,
      "ee": 2499,
      "Ġdam": 2500,
      "Ġhealth": 2501,
      "Ġphot": 2502,
      "Ġpakistan": 2503,
      "iro": 2504,
      "Ġ1989": 2505,
      "Ġmust": 2506,
      "Ġinformation": 2507,
      "Ġtotal": 2508,
      "Ġball": 2509,
      "Ġcle": 2510,
      "here": 2511,
      "Ġpet": 2512,
      "Ġsam": 2513,
      "Ġaway": 2514,
      "Ġcommunity": 2515,
      "ga": 2516,
      "2002": 2517,
      "Ġislands": 2518,
      "Ġjew": 2519,
      "Ġsat": 2520,
      "Ġbord": 2521,
      "ared": 2522,
      "Ġlake": 2523,
      "Ġstatistics": 2524,
      "Ġdisease": 2525,
      "icle": 2526,
      "Ġlow": 2527,
      "aur": 2528,
      "ush": 2529,
      "Ġproducer": 2530,
      "Ġtom": 2531,
      "Ġnomin": 2532,
      "Ġseen": 2533,
      "Ġox": 2534,
      "ropical": 2535,
      "1990": 2536,
      "king": 2537,
      "Ġpoet": 2538,
      "Ġmem": 2539,
      "cis": 2540,
      "Ġ1981": 2541,
      "Ġstrong": 2542,
      "Ġacademy": 2543,
      "bor": 2544,
      "Ġ/": 2545,
      "Ġtitle": 2546,
      "Ġdaught": 2547,
      "Ġevents": 2548,
      "ont": 2549,
      "ically": 2550,
      "liament": 2551,
      "Ġast": 2552,
      "Ġcross": 2553,
      "Ġrh": 2554,
      "Ġcant": 2555,
      "Ġdescrib": 2556,
      "Ġchart": 2557,
      "iga": 2558,
      "Ġafrican": 2559,
      "Ġhit": 2560,
      "Ġproduced": 2561,
      "Ġtrib": 2562,
      "back": 2563,
      "Ġten": 2564,
      "Ġ1988": 2565,
      "Ġlate": 2566,
      "Ġresp": 2567,
      "Ġmas": 2568,
      "Ġteams": 2569,
      "fa": 2570,
      "Ġrap": 2571,
      "Ġothers": 2572,
      "Ġtv": 2573,
      "hol": 2574,
      "nor": 2575,
      "Ġalex": 2576,
      "Ġeffect": 2577,
      "Ġkind": 2578,
      "Ġcharles": 2579,
      "aves": 2580,
      "ca": 2581,
      "ĠĠĊ": 2582,
      "Ġforce": 2583,
      "Ġposs": 2584,
      "tra": 2585,
      "Ġshould": 2586,
      "2009": 2587,
      "inal": 2588,
      "mal": 2589,
      "84": 2590,
      "Ġindust": 2591,
      "inois": 2592,
      "Ġzealand": 2593,
      "Ġconnect": 2594,
      "Ġchange": 2595,
      "Ġprocess": 2596,
      "football": 2597,
      "ops": 2598,
      "Ġchinese": 2599,
      "67": 2600,
      "Ġmiddle": 2601,
      "Ġknow": 2602,
      "Ġmatch": 2603,
      "Ġdan": 2604,
      "sport": 2605,
      "ada": 2606,
      "Ġeastern": 2607,
      "ini": 2608,
      "lam": 2609,
      "Ġnob": 2610,
      "Ġmis": 2611,
      "Ġfact": 2612,
      "Ġ0": 2613,
      "Ġmakes": 2614,
      "Ġprot": 2615,
      "ols": 2616,
      "Ġrace": 2617,
      "Ġareas": 2618,
      "Ġbeh": 2619,
      "itzerland": 2620,
      "Ġparliament": 2621,
      "Ġwife": 2622,
      "iana": 2623,
      "Ġstudio": 2624,
      "aper": 2625,
      "Ġexec": 2626,
      "self": 2627,
      "Ġstudy": 2628,
      "Ġchristian": 2629,
      "unt": 2630,
      "ds": 2631,
      "Ġcla": 2632,
      "1999": 2633,
      "Ġcharacters": 2634,
      "ww": 2635,
      "Ġflorida": 2636,
      "ergy": 2637,
      "view": 2638,
      "Ġemperor": 2639,
      "Ġ50": 2640,
      "Ġelected": 2641,
      "adu": 2642,
      "ado": 2643,
      "Ġsant": 2644,
      "ering": 2645,
      "ope": 2646,
      "Ġ$": 2647,
      "Ġformed": 2648,
      "Ġmac": 2649,
      "Ġwood": 2650,
      "sportspeople": 2651,
      "93": 2652,
      "Ġnatural": 2653,
      "ari": 2654,
      "ests": 2655,
      "Ġmichael": 2656,
      "Ġcard": 2657,
      "Ġshows": 2658,
      "Ġillinois": 2659,
      "Ġinfl": 2660,
      "Ġprim": 2661,
      "Ġresearch": 2662,
      "british": 2663,
      "Ġproblems": 2664,
      "Ġgar": 2665,
      "ission": 2666,
      "bc": 2667,
      "atory": 2668,
      "gypt": 2669,
      "ny": 2670,
      "Ġrefer": 2671,
      "Ġisrael": 2672,
      "Ġamong": 2673,
      "ĠĊĠĊĠĊĠĊĠĊĠĊĠĊĠĊ": 2674,
      "vir": 2675,
      "57": 2676,
      "Ġproject": 2677,
      "ders": 2678,
      "Ġsociety": 2679,
      "Ġannounced": 2680,
      "Ġta": 2681,
      "ross": 2682,
      "ript": 2683,
      "Ġtoday": 2684,
      "Ġdefe": 2685,
      "Ġbrit": 2686,
      "Ġjoined": 2687,
      "aly": 2688,
      "Ġdutch": 2689,
      "Ġswitzerland": 2690,
      "Ġtrain": 2691,
      "pre": 2692,
      "Ġ#": 2693,
      "oma": 2694,
      "Ġfrank": 2695,
      "ender": 2696,
      "Ġatl": 2697,
      "Ġnews": 2698,
      "Ġha": 2699,
      "ored": 2700,
      "Ġder": 2701,
      "Ġcatholic": 2702,
      "Ġround": 2703,
      "Ġblue": 2704,
      "Ġcities": 2705,
      "Ġrussia": 2706,
      "fran": 2707,
      "Ġwoman": 2708,
      "Ġpun": 2709,
      "politicians": 2710,
      "ker": 2711,
      "Ġsett": 2712,
      "Ġsweden": 2713,
      "Ġtor": 2714,
      "ality": 2715,
      "92": 2716,
      "lished": 2717,
      "Ġmexico": 2718,
      "ched": 2719,
      "Ġwithin": 2720,
      "wards": 2721,
      "ita": 2722,
      "ached": 2723,
      "Ġq": 2724,
      "Ġhold": 2725,
      "Ġtreat": 2726,
      "awa": 2727,
      "Ġmos": 2728,
      "bon": 2729,
      "eball": 2730,
      "Ġrac": 2731,
      "Ġkansas": 2732,
      "Ġpolice": 2733,
      "Ġca": 2734,
      "state": 2735,
      "Ġwall": 2736,
      "Ġolympic": 2737,
      "Ġbay": 2738,
      "asons": 2739,
      "Ġlives": 2740,
      "64": 2741,
      "ima": 2742,
      "Ġ1987": 2743,
      "Ġcongress": 2744,
      ".,": 2745,
      "Ġrichard": 2746,
      "Ġprefect": 2747,
      "Ġconc": 2748,
      "Ġincluded": 2749,
      "Ġinf": 2750,
      "Ġ1986": 2751,
      "Ġadministr": 2752,
      "91": 2753,
      "german": 2754,
      "Ġcomputer": 2755,
      "year": 2756,
      "Ġ:": 2757,
      "Ġbrown": 2758,
      "Ġoh": 2759,
      "Ġvoc": 2760,
      "Ġpen": 2761,
      "Ġnetwork": 2762,
      "Ġoce": 2763,
      "ketball": 2764,
      "hemat": 2765,
      "Ġdevelopment": 2766,
      "Ġfemale": 2767,
      "Ġclos": 2768,
      "Ġpain": 2769,
      "Ġpeter": 2770,
      "no": 2771,
      "bu": 2772,
      "Ġiss": 2773,
      "Ġcart": 2774,
      "Ġscreen": 2775,
      "Ġben": 2776,
      "ront": 2777,
      "Ġcomposer": 2778,
      "Ġincludes": 2779,
      "ano": 2780,
      "Ġ=": 2781,
      "Ġlanguages": 2782,
      "Ġmodel": 2783,
      "za": 2784,
      "Ġdra": 2785,
      "Ġvirginia": 2786,
      "pa": 2787,
      "Ġboy": 2788,
      "Ġnever": 2789,
      "Ġeight": 2790,
      "icles": 2791,
      "aries": 2792,
      "though": 2793,
      "Ġchanged": 2794,
      "Ġlear": 2795,
      "comp": 2796,
      "gu": 2797,
      "oms": 2798,
      "Ġchann": 2799,
      "Ġhalf": 2800,
      "Ġcatal": 2801,
      "ireland": 2802,
      "Ġproduct": 2803,
      "Ġ1973": 2804,
      "Ġ1984": 2805,
      "Ġ1950": 2806,
      "ellow": 2807,
      "Ġfull": 2808,
      "gia": 2809,
      "Ġgreek": 2810,
      "Ġmusician": 2811,
      "1998": 2812,
      "Ġ1979": 2813,
      "Ġvan": 2814,
      "da": 2815,
      "Ġwil": 2816,
      "anies": 2817,
      "Ġol": 2818,
      "Ġcit": 2819,
      "Ġmr": 2820,
      "idents": 2821,
      "Ġanimals": 2822,
      "Ġut": 2823,
      "olf": 2824,
      "Ġbirth": 2825,
      "Ġhosp": 2826,
      "Ġcur": 2827,
      "Ã³n": 2828,
      "Ġdemocratic": 2829,
      "ims": 2830,
      "Ġprison": 2831,
      "Ġplaying": 2832,
      "Ġmark": 2833,
      "Ġstep": 2834,
      "Ġexp": 2835,
      "Ġbor": 2836,
      "Ġliter": 2837,
      "Ġpur": 2838,
      "Ġlet": 2839,
      "Ġcand": 2840,
      "olk": 2841,
      "Ġcoach": 2842,
      "2017": 2843,
      "hl": 2844,
      "Ġfish": 2845,
      "band": 2846,
      "ni": 2847,
      "ja": 2848,
      "hest": 2849,
      "eland": 2850,
      "net": 2851,
      "Ġgave": 2852,
      "do": 2853,
      "Ġ1977": 2854,
      "wa": 2855,
      "Ġ1985": 2856,
      "Ġincre": 2857,
      "ead": 2858,
      "Ġforces": 2859,
      "Ġbank": 2860,
      "uit": 2861,
      "ements": 2862,
      "ani": 2863,
      "roy": 2864,
      "01": 2865,
      "Ġtenn": 2866,
      "Ġbasketball": 2867,
      "itor": 2868,
      "Ġcome": 2869,
      "Ġwords": 2870,
      "Ġmostly": 2871,
      "lor": 2872,
      "Ġhaving": 2873,
      "song": 2874,
      "urrican": 2875,
      "Ġpenn": 2876,
      "herlands": 2877,
      "Ġdaughter": 2878,
      "craft": 2879,
      "like": 2880,
      "Ġappeared": 2881,
      "Ġmountain": 2882,
      "Ġviol": 2883,
      "Ġstreet": 2884,
      "Ġancient": 2885,
      "Ġqueen": 2886,
      "Ġkh": 2887,
      "onia": 2888,
      "Ġok": 2889,
      "Ġireland": 2890,
      "iff": 2891,
      "Ġairport": 2892,
      "war": 2893,
      "arian": 2894,
      "Ġ1976": 2895,
      "cul": 2896,
      "Ġchief": 2897,
      "Ġcarolina": 2898,
      "Ġ1983": 2899,
      "ogn": 2900,
      "Ġ1982": 2901,
      "Ġinvol": 2902,
      "Ġhenry": 2903,
      "1997": 2904,
      "Ġyour": 2905,
      "Ġaz": 2906,
      "don": 2907,
      "Ġet": 2908,
      "ware": 2909,
      "sing": 2910,
      "Ġscot": 2911,
      "Ġbetter": 2912,
      "Ġeducation": 2913,
      "iding": 2914,
      "Ġpan": 2915,
      "Ġegypt": 2916,
      "Ġmedia": 2917,
      "Ġdebut": 2918,
      "1996": 2919,
      "Ġfrancis": 2920,
      "Ġvictor": 2921,
      "Ġenergy": 2922,
      "Ġcomes": 2923,
      "Ġselect": 2924,
      "Ġculture": 2925,
      "68": 2926,
      "ser": 2927,
      "ither": 2928,
      "tar": 2929,
      "sur": 2930,
      "Ġalthough": 2931,
      "Ġdiscov": 2932,
      "Ġestablished": 2933,
      "uced": 2934,
      "Ġthink": 2935,
      "Ġbaseball": 2936,
      "04": 2937,
      "Ġview": 2938,
      "Ġdistrib": 2939,
      "towns": 2940,
      "Ġfest": 2941,
      "Ġdyn": 2942,
      "Ġinstead": 2943,
      "Ġcoll": 2944,
      "elect": 2945,
      "Ġprefecture": 2946,
      "Ġjose": 2947,
      "2014": 2948,
      "po": 2949,
      "Ġtoo": 2950,
      "Ġbud": 2951,
      "Ġsug": 2952,
      "ship": 2953,
      "iger": 2954,
      "Ġaction": 2955,
      "Ġsour": 2956,
      "ador": 2957,
      "Ġath": 2958,
      "Ġtaken": 2959,
      "des": 2960,
      "2019": 2961,
      "part": 2962,
      "Ġcho": 2963,
      "Ġ1972": 2964,
      "Ġinstr": 2965,
      "Ġbab": 2966,
      "ko": 2967,
      "Ġcam": 2968,
      "Ġey": 2969,
      "Ġmovement": 2970,
      "Ġmathemat": 2971,
      "count": 2972,
      "Ġsand": 2973,
      "Ġcomb": 2974,
      "ently": 2975,
      "Ġhom": 2976,
      "ications": 2977,
      "Ġepisode": 2978,
      "Ġcost": 2979,
      "gre": 2980,
      "ersey": 2981,
      "Ġphilos": 2982,
      "Ġappro": 2983,
      "Ġthough": 2984,
      "utes": 2985,
      "inning": 2986,
      "langu": 2987,
      "Ġkey": 2988,
      "Ġinflu": 2989,
      "Ġseven": 2990,
      "54": 2991,
      "Ġboard": 2992,
      "08": 2993,
      "Ġuses": 2994,
      "74": 2995,
      "rh": 2996,
      "Ġcentre": 2997,
      "Ġarab": 2998,
      "adian": 2999,
      "vious": 3000,
      "Ġbc": 3001,
      "ique": 3002,
      "Ġdead": 3003,
      "Ġonce": 3004,
      "Ġblood": 3005,
      "Ġsepar": 3006,
      "gb": 3007,
      "Ġwanted": 3008,
      "rial": 3009,
      "Ġ1978": 3010,
      "1995": 3011,
      "Ġstorm": 3012,
      "Ġdeveloped": 3013,
      "78": 3014,
      "Ġmusical": 3015,
      "ances": 3016,
      "board": 3017,
      "1980": 3018,
      "ube": 3019,
      "Ġaustria": 3020,
      "ned": 3021,
      "Ġthr": 3022,
      "isl": 3023,
      "Ġlower": 3024,
      "municipal": 3025,
      "ological": 3026,
      "Ġprince": 3027,
      "itect": 3028,
      "ification": 3029,
      "Ġintrod": 3030,
      "abit": 3031,
      "Ġplant": 3032,
      "french": 3033,
      "opher": 3034,
      "Ġ1975": 3035,
      "Ġthomas": 3036,
      "acy": 3037,
      "sa": 3038,
      "with": 3039,
      "ints": 3040,
      "Ġgun": 3041,
      "Ġnetherlands": 3042,
      "Ġfer": 3043,
      "ym": 3044,
      "zo": 3045,
      "Ġmeth": 3046,
      "ider": 3047,
      "Ġcrime": 3048,
      "Ġwriters": 3049,
      "Ġfur": 3050,
      "bers": 3051,
      "Ġfederal": 3052,
      "Ġrequ": 3053,
      "Ġabove": 3054,
      "Ġ1971": 3055,
      "à¤": 3056,
      "Ġaver": 3057,
      "Ġcase": 3058,
      "Ġwat": 3059,
      "mier": 3060,
      "Ġconsidered": 3061,
      "Ġalmost": 3062,
      "from": 3063,
      "igan": 3064,
      "Ġrepresentatives": 3065,
      "Ġjersey": 3066,
      "Ġiv": 3067,
      "Ġpot": 3068,
      "Ġwinners": 3069,
      "anian": 3070,
      "ately": 3071,
      "former": 3072,
      "leg": 3073,
      "Ġhale": 3074,
      "Ġspring": 3075,
      "Ġpie": 3076,
      "Ġfront": 3077,
      "Ġ1974": 3078,
      "Ġfootballers": 3079,
      "less": 3080,
      "ylv": 3081,
      "Ġaccording": 3082,
      "Ġjun": 3083,
      "Ġworking": 3084,
      "2018": 3085,
      "Ġohio": 3086,
      "elling": 3087,
      "win": 3088,
      "Ġshar": 3089,
      "56": 3090,
      "ination": 3091,
      "Ġmi": 3092,
      "Ġlibr": 3093,
      "Ġwrestling": 3094,
      "Ġnames": 3095,
      "Ġvarious": 3096,
      "Ġweek": 3097,
      "club": 3098,
      "bar": 3099,
      "lete": 3100,
      "ugu": 3101,
      "Ġdig": 3102,
      "Ġground": 3103,
      "Ġdone": 3104,
      "ho": 3105,
      "sl": 3106,
      "Ġdie": 3107,
      "char": 3108,
      "mont": 3109,
      "eds": 3110,
      "japan": 3111,
      "apt": 3112,
      "Ġposition": 3113,
      "gg": 3114,
      "Ġable": 3115,
      "iple": 3116,
      "Ġ40": 3117,
      "bab": 3118,
      "Ġsays": 3119,
      "Ġflight": 3120,
      "Ġobject": 3121,
      "Ġkeep": 3122,
      "known": 3123,
      "âĢĶ": 3124,
      "dist": 3125,
      "mark": 3126,
      "Ġminist": 3127,
      "Ġbul": 3128,
      "Ġdog": 3129,
      "Ġos": 3130,
      "72": 3131,
      "Ġkor": 3132,
      "agon": 3133,
      "Ġsurv": 3134,
      "acher": 3135,
      "used": 3136,
      "Ġplants": 3137,
      "ems": 3138,
      "aps": 3139,
      "yer": 3140,
      "eration": 3141,
      "Ġwild": 3142,
      "ban": 3143,
      "58": 3144,
      "Ġmach": 3145,
      "Ġmax": 3146,
      "Ġsus": 3147,
      "Ġbroadcast": 3148,
      "aff": 3149,
      "time": 3150,
      "ental": 3151,
      "Ġentertain": 3152,
      "Ġhospital": 3153,
      "2011": 3154,
      "ively": 3155,
      "Ġ(;": 3156,
      "Ġbecomes": 3157,
      "Ġran": 3158,
      "geography": 3159,
      "rich": 3160,
      "itch": 3161,
      "Ġpers": 3162,
      "\")": 3163,
      "Ġstudied": 3164,
      "Ġtravel": 3165,
      "1994": 3166,
      "Ġtransl": 3167,
      "Ġpast": 3168,
      "Ġpay": 3169,
      "see": 3170,
      "Ġ1968": 3171,
      "ira": 3172,
      "Ġmagaz": 3173,
      "sylv": 3174,
      "Ġobserv": 3175,
      "Ġhung": 3176,
      "Ġtar": 3177,
      "ola": 3178,
      "Ġcovid": 3179,
      "uf": 3180,
      "ox": 3181,
      "itan": 3182,
      "Ġargent": 3183,
      "Ġocean": 3184,
      "Ġpictures": 3185,
      "Ġmetal": 3186,
      "lement": 3187,
      "2015": 3188,
      "Ġperforman": 3189,
      "Ġgeorgia": 3190,
      "Ġhimself": 3191,
      "Ġjer": 3192,
      "Ġgoal": 3193,
      "Ġreview": 3194,
      "Ġident": 3195,
      "ato": 3196,
      "Ġrelations": 3197,
      "bour": 3198,
      "intern": 3199,
      "Ġcomplet": 3200,
      "Ġpriv": 3201,
      "aria": 3202,
      "Ġtemper": 3203,
      "face": 3204,
      "Ġmale": 3205,
      "early": 3206,
      "urricane": 3207,
      "Ġeos": 3208,
      "Ġproper": 3209,
      "Ġarchitect": 3210,
      "Ġnar": 3211,
      "Ġpsy": 3212,
      "Ġleast": 3213,
      "Ġbran": 3214,
      "Ġtree": 3215,
      "ention": 3216,
      "Ġbat": 3217,
      "Ġcounties": 3218,
      "ua": 3219,
      "ories": 3220,
      "Ġtropical": 3221,
      "iles": 3222,
      "list": 3223,
      "Ġindependent": 3224,
      "Ġnick": 3225,
      "2021": 3226,
      "Ġlee": 3227,
      "Ġmayor": 3228,
      "ucle": 3229,
      "Ġbox": 3230,
      "pher": 3231,
      "va": 3232,
      "bre": 3233,
      "Ġmater": 3234,
      "Ġchannel": 3235,
      "Ġhighest": 3236,
      "Ġmight": 3237,
      "Ġcolon": 3238,
      "Ġopened": 3239,
      "oh": 3240,
      "aka": 3241,
      "Ġmeas": 3242,
      "Ġhere": 3243,
      "viron": 3244,
      "Ġarm": 3245,
      "notes": 3246,
      "ashi": 3247,
      "sett": 3248,
      "Ġmusicians": 3249,
      "sch": 3250,
      "Ġsecretary": 3251,
      "Ġservices": 3252,
      "ella": 3253,
      "canadian": 3254,
      "Ġeth": 3255,
      "etts": 3256,
      "ondiss": 3257,
      "Ġsuccessful": 3258,
      "Ġfort": 3259,
      "Ġpian": 3260,
      "Ġdark": 3261,
      "Ġdoub": 3262,
      "ads": 3263,
      "rain": 3264,
      "Ġtheat": 3265,
      "Ġfig": 3266,
      "Ġren": 3267,
      "Ġcurrently": 3268,
      "Ġiii": 3269,
      "Ġdecl": 3270,
      "Ġmanager": 3271,
      "achus": 3272,
      "tr": 3273,
      "Ġ1964": 3274,
      "eg": 3275,
      "Ġgive": 3276,
      "Ġsoft": 3277,
      "Ġsilla": 3278,
      "Ġcer": 3279,
      "Ġglob": 3280,
      "Ġsmith": 3281,
      "inted": 3282,
      "ils": 3283,
      "Ġacross": 3284,
      "Ġtakes": 3285,
      "kh": 3286,
      "ote": 3287,
      "Ġdoc": 3288,
      "ivid": 3289,
      "posed": 3290,
      "Ġ1969": 3291,
      "heim": 3292,
      "Ġtim": 3293,
      "Ġproduction": 3294,
      "aign": 3295,
      "Ġsingers": 3296,
      "Ġbridge": 3297,
      "Ġwinning": 3298,
      "Ġappl": 3299,
      "Ġended": 3300,
      "Ġwales": 3301,
      "Ġaverage": 3302,
      "cks": 3303,
      "sylvania": 3304,
      "ense": 3305,
      "Ġtry": 3306,
      "ishop": 3307,
      "Ġess": 3308,
      "ending": 3309,
      "ji": 3310,
      "Ġfac": 3311,
      "Ġterritory": 3312,
      "Ġchampion": 3313,
      "Ġrain": 3314,
      "Ġmove": 3315,
      "Ġmethod": 3316,
      "Ġhaleak": 3317,
      "Ġconduct": 3318,
      "municipalities": 3319,
      "Ġcause": 3320,
      "Ġmedic": 3321,
      "Ġprofessor": 3322,
      "Ġtypes": 3323,
      "Ġwinter": 3324,
      "2016": 3325,
      "achusetts": 3326,
      "Ġassemb": 3327,
      "Ġ1930": 3328,
      "2012": 3329,
      "mad": 3330,
      "Ġpract": 3331,
      "1993": 3332,
      "Ġaud": 3333,
      "uth": 3334,
      "Ġmeet": 3335,
      "Ġcommit": 3336,
      "utive": 3337,
      "Ġlord": 3338,
      "sk": 3339,
      "Ġlu": 3340,
      "Ġaustrian": 3341,
      "ero": 3342,
      "Ġrecorded": 3343,
      "41": 3344,
      "Ġgard": 3345,
      "Ġcorn": 3346,
      "Ġsem": 3347,
      "Ġarrondiss": 3348,
      "1992": 3349,
      "Ġhaleakala": 3350,
      "language": 3351,
      "Ġscotland": 3352,
      "Ġchair": 3353,
      "pression": 3354,
      "itive": 3355,
      "care": 3356,
      "bro": 3357,
      "icial": 3358,
      "Ġ1967": 3359,
      "pal": 3360,
      "rie": 3361,
      "Ġretired": 3362,
      "era": 3363,
      "john": 3364,
      "Ġmeaning": 3365,
      "Å¡": 3366,
      "Ġrevolution": 3367,
      "dy": 3368,
      "Ġsequ": 3369,
      "ream": 3370,
      "Ġfore": 3371,
      "Ġfourth": 3372,
      "Ġscientists": 3373,
      "pop": 3374,
      "Ġ(\"": 3375,
      "Ġexist": 3376,
      "Ġsenate": 3377,
      "Ġperformed": 3378,
      "Ġfly": 3379,
      "Ġbuildings": 3380,
      "Ġaff": 3381,
      "Ġmonth": 3382,
      "Ġclose": 3383,
      "Ġcertain": 3384,
      "Ġpsych": 3385,
      "Ġrank": 3386,
      "Ġchemical": 3387,
      "Ġmaterial": 3388,
      "Ġvalley": 3389,
      "Ġcanton": 3390,
      "wer": 3391,
      "sec": 3392,
      "azz": 3393,
      "national": 3394,
      "shire": 3395,
      "Ġcitiz": 3396,
      "Ġfestival": 3397,
      "ales": 3398,
      "Ġkent": 3399,
      "09": 3400,
      "Ġmassachusetts": 3401,
      "03": 3402,
      "Ġpage": 3403,
      "Ġstudents": 3404,
      "Ġjr": 3405,
      "Ġcompanies": 3406,
      "met": 3407,
      "stein": 3408,
      "Ġpennsylvania": 3409,
      "Ġmurder": 3410,
      "Ġanimated": 3411,
      "Ġfailure": 3412,
      "ns": 3413,
      "Ġchanges": 3414,
      "Ġheavy": 3415,
      "ulf": 3416,
      "person": 3417,
      "rd": 3418,
      "ova": 3419,
      "zech": 3420,
      "2013": 3421,
      "43": 3422,
      "Ġfox": 3423,
      "Ġprotect": 3424,
      "Ġrecogn": 3425,
      "Ã¥": 3426,
      "Ġdom": 3427,
      "Ġelectric": 3428,
      "Ġbern": 3429,
      "Ġjournalist": 3430,
      "79": 3431,
      "Ġven": 3432,
      "ologist": 3433,
      "Ġalways": 3434,
      "Ġ1940": 3435,
      "Ġrepublican": 3436,
      "Ġdestroy": 3437,
      "Ġeither": 3438,
      "ĊĊĠ": 3439,
      "isher": 3440,
      "Ġbass": 3441,
      "vin": 3442,
      "souri": 3443,
      "bra": 3444,
      "Ġcycl": 3445,
      "Ġcandid": 3446,
      "Ġenviron": 3447,
      "83": 3448,
      "Ġsilver": 3449,
      "Ġwriting": 3450,
      "Ġbang": 3451,
      "Ġprevious": 3452,
      "ette": 3453,
      "Ġinstitute": 3454,
      "Ġna": 3455,
      "Ġartists": 3456,
      "settlements": 3457,
      "Ġeat": 3458,
      "Ġbomb": 3459,
      "Ġcampaign": 3460,
      "Ġkorea": 3461,
      "Ġreact": 3462,
      "Ġinvest": 3463,
      "Ġmonths": 3464,
      "idence": 3465,
      "pecially": 3466,
      "ken": 3467,
      "bel": 3468,
      "sen": 3469,
      "Ã´": 3470,
      "wan": 3471,
      "when": 3472,
      "Â°": 3473,
      "Ġarts": 3474,
      "Ġdrug": 3475,
      "vo": 3476,
      "Ġadvent": 3477,
      "Ġcastle": 3478,
      "Ġnorthwest": 3479,
      "ques": 3480,
      "Ġburn": 3481,
      "Ġgall": 3482,
      "Ġsom": 3483,
      "mo": 3484,
      "nam": 3485,
      "owa": 3486,
      "Ġrailway": 3487,
      "cel": 3488,
      "ipl": 3489,
      "urt": 3490,
      "59": 3491,
      "igr": 3492,
      "Ġtheory": 3493,
      "rey": 3494,
      "Ġcirc": 3495,
      "Ġislam": 3496,
      "49": 3497,
      "Ġinside": 3498,
      "Ġamount": 3499,
      "austral": 3500,
      "Ġnumbers": 3501,
      "Ġmedical": 3502,
      "Ġgradu": 3503,
      "use": 3504,
      "63": 3505,
      "Ġplat": 3506,
      "Ġpac": 3507,
      "Ġluc": 3508,
      "Ġfut": 3509,
      "1991": 3510,
      "Ġconserv": 3511,
      "81": 3512,
      "some": 3513,
      "acc": 3514,
      "Ġba": 3515,
      "Ġ2023": 3516,
      "Ġmainly": 3517,
      "Ġtourn": 3518,
      "Ġmicro": 3519,
      "orf": 3520,
      "Ġnative": 3521,
      "Ġcrick": 3522,
      "iated": 3523,
      "Ġsymb": 3524,
      "Ġhaw": 3525,
      "Ġjackson": 3526,
      "Ġbreak": 3527,
      "Ġscottish": 3528,
      "Ġbow": 3529,
      "Ġfriends": 3530,
      "Ġfiction": 3531,
      "Ġdynast": 3532,
      "text": 3533,
      "Ġoriginally": 3534,
      "Ġshown": 3535,
      "ends": 3536,
      "Ġinterest": 3537,
      "Ġfa": 3538,
      "Ġadult": 3539,
      "73": 3540,
      "iy": 3541,
      "Ġ1945": 3542,
      "oo": 3543,
      "Ġcell": 3544,
      "ume": 3545,
      "ateg": 3546,
      "Ġnations": 3547,
      "Ġroles": 3548,
      "Ġcele": 3549,
      "Ġsar": 3550,
      "Ġsystems": 3551,
      "Ġlibrary": 3552,
      "Ġ1966": 3553,
      "empt": 3554,
      "also": 3555,
      "bus": 3556,
      "Ġlaun": 3557,
      "Ġmartin": 3558,
      "Ġinh": 3559,
      "Ã§": 3560,
      "Ġsouthwest": 3561,
      "Ġavail": 3562,
      "Ġearl": 3563,
      "Ġtrack": 3564,
      "Ġban": 3565,
      "uan": 3566,
      "1970": 3567,
      "amm": 3568,
      "Ġmissouri": 3569,
      "Ġjim": 3570,
      "vey": 3571,
      "Ġstra": 3572,
      "Ġstructures": 3573,
      "Ġfame": 3574,
      "Ġrange": 3575,
      "Ġhonor": 3576,
      "owers": 3577,
      "Ġseats": 3578,
      "Ġgoes": 3579,
      "Ġmarket": 3580,
      "Ġresults": 3581,
      "icular": 3582,
      "Ġleaders": 3583,
      "Ġbrazilian": 3584,
      "Ġrang": 3585,
      "Ġminor": 3586,
      "Ġhelped": 3587,
      "Ġrelease": 3588,
      "Ġcolumb": 3589,
      "Ġirish": 3590,
      "stra": 3591,
      "Ġliber": 3592,
      "Ġoutside": 3593,
      "Ġlatin": 3594,
      "ites": 3595,
      "69": 3596,
      "42": 3597,
      "gro": 3598,
      "Ġmagazine": 3599,
      "Ġreached": 3600,
      "onom": 3601,
      "Ġnav": 3602,
      "reme": 3603,
      "adesh": 3604,
      "ift": 3605,
      "oto": 3606,
      "Ġpeace": 3607,
      "Ġtowns": 3608,
      "Ġprin": 3609,
      "71": 3610,
      "ication": 3611,
      "Ġstad": 3612,
      "Ġbeat": 3613,
      "ios": 3614,
      "Ġsigned": 3615,
      "abeth": 3616,
      "ray": 3617,
      "Ġ1965": 3618,
      "Ġfred": 3619,
      "Ġsomething": 3620,
      "read": 3621,
      "Ġgas": 3622,
      "dem": 3623,
      "Ġnucle": 3624,
      "Ġhurricane": 3625,
      "Ġassembly": 3626,
      "Ġic": 3627,
      "ĠĠĠ": 3628,
      "Ġdrum": 3629,
      "Ġfifa": 3630,
      "Ġkorean": 3631,
      "Ġswedish": 3632,
      "Ġdar": 3633,
      "mas": 3634,
      "Ġadded": 3635,
      "chester": 3636,
      "Ġopera": 3637,
      "edia": 3638,
      "Ġcatalina": 3639,
      "airs": 3640,
      "Ġpossible": 3641,
      "Ġinj": 3642,
      "Ġbron": 3643,
      "Ġespecially": 3644,
      "Ġprograms": 3645,
      "anda": 3646,
      "Ġdoctor": 3647,
      "may": 3648,
      "Ġidea": 3649,
      "Ġindivid": 3650,
      "Ġcra": 3651,
      "Ġwars": 3652,
      "//": 3653,
      "Ġcab": 3654,
      "Ġins": 3655,
      "mond": 3656,
      "Ġgoing": 3657,
      "Ġ1956": 3658,
      "Ã¡n": 3659,
      "Ġwid": 3660,
      "Ġlegisl": 3661,
      "Ġ1963": 3662,
      "Ġrelated": 3663,
      "uments": 3664,
      "ply": 3665,
      "Ġec": 3666,
      "Ġ)": 3667,
      "Ġpred": 3668,
      "rad": 3669,
      "Ġhus": 3670,
      "Ġenough": 3671,
      "Ġentertainment": 3672,
      "hood": 3673,
      "61": 3674,
      "Ġreturned": 3675,
      "Ġstan": 3676,
      "oke": 3677,
      "Ġpainter": 3678,
      "Ġjoseph": 3679,
      "Ġavailable": 3680,
      "Ġcut": 3681,
      "Ġreplaced": 3682,
      "Ġedward": 3683,
      "1989": 3684,
      "Ġtax": 3685,
      "Ġour": 3686,
      "Ġcommitte": 3687,
      "aining": 3688,
      "Ġenvironment": 3689,
      "Ġpresidential": 3690,
      "Ġ1947": 3691,
      "Ġconstr": 3692,
      "law": 3693,
      "Ġremov": 3694,
      "://": 3695,
      "cont": 3696,
      "Ġ1961": 3697,
      "Ġagre": 3698,
      "Ġcss": 3699,
      "Ġgh": 3700,
      "hire": 3701,
      "Ġmir": 3702,
      "aki": 3703,
      "ram": 3704,
      "2022": 3705,
      "Ġnominated": 3706,
      "gal": 3707,
      "uty": 3708,
      "Ġforeign": 3709,
      "Ġtext": 3710,
      "Ġsav": 3711,
      "Ġpersonal": 3712,
      "estab": 3713,
      "Ġbrand": 3714,
      "book": 3715,
      "Ġfle": 3716,
      "ength": 3717,
      "head": 3718,
      "Ġdiff": 3719,
      "Ġassist": 3720,
      "Ġofficer": 3721,
      "Ġdecided": 3722,
      "Ġpolish": 3723,
      "51": 3724,
      "Äĩ": 3725,
      "Ġdisney": 3726,
      "Ġstories": 3727,
      "Ġ1962": 3728,
      "Ġesc": 3729,
      "erb": 3730,
      "Ġtechnology": 3731,
      "Ġ1948": 3732,
      "Ġstudies": 3733,
      "Ġtransport": 3734,
      "Ġcompeted": 3735,
      "Ġcomed": 3736,
      "international": 3737,
      "ising": 3738,
      "Ġ80": 3739,
      "osh": 3740,
      "fir": 3741,
      "iller": 3742,
      "Ġsquare": 3743,
      "ati": 3744,
      "Ġcommission": 3745,
      "Ġparents": 3746,
      "Ġpoland": 3747,
      "Ġmountains": 3748,
      "Ġmichigan": 3749,
      "Ġorganization": 3750,
      "Ġlog": 3751,
      "Ġallowed": 3752,
      "lah": 3753,
      "Ġprinc": 3754,
      "Ġclimate": 3755,
      "82": 3756,
      "ole": 3757,
      "track": 3758,
      "Ġshoot": 3759,
      "house": 3760,
      "Ġschools": 3761,
      "din": 3762,
      "Ġimp": 3763,
      "world": 3764,
      "Ġseasons": 3765,
      "Ġhous": 3766,
      "Ġviet": 3767,
      "Ġbrought": 3768,
      "ali": 3769,
      "Ġasian": 3770,
      "ancer": 3771,
      "Ġdynasty": 3772,
      "aged": 3773,
      "ify": 3774,
      "Ġbritain": 3775,
      "Ġiowa": 3776,
      "official": 3777,
      "mir": 3778,
      "ropol": 3779,
      "Ġaircraft": 3780,
      "vill": 3781,
      "well": 3782,
      "Ġcompl": 3783,
      "ensive": 3784,
      "district": 3785,
      "Ġspir": 3786,
      "Ġhind": 3787,
      "Ġgoals": 3788,
      "hy": 3789,
      "Ġstay": 3790,
      "Ġpoints": 3791,
      "Ġarrest": 3792,
      "Ġlay": 3793,
      "rick": 3794,
      "idae": 3795,
      "1987": 3796,
      "Ġchampionships": 3797,
      "las": 3798,
      "sol": 3799,
      "chan": 3800,
      "uge": 3801,
      "mes": 3802,
      "Ġparticip": 3803,
      "Ġgolden": 3804,
      "kin": 3805,
      "Ġrow": 3806,
      "career": 3807,
      "bit": 3808,
      "publ": 3809,
      "Ġborder": 3810,
      "ila": 3811,
      "Ġpit": 3812,
      "Ġlaws": 3813,
      "govern": 3814,
      "icated": 3815,
      "ographer": 3816,
      "life": 3817,
      "Ġdomin": 3818,
      "Ġperformance": 3819,
      "ami": 3820,
      "Ġcarl": 3821,
      "nov": 3822,
      "Ġ60": 3823,
      "Ġpas": 3824,
      "Ġcommer": 3825,
      "izations": 3826,
      "Ġsoon": 3827,
      "1988": 3828,
      "Ġbob": 3829,
      "Ġship": 3830,
      "Ġfamil": 3831,
      "Ġquick": 3832,
      "ington": 3833,
      "Ġsize": 3834,
      "Ġvice": 3835,
      "Ġmu": 3836,
      "53": 3837,
      "Ġcannot": 3838,
      "Ġfeatures": 3839,
      "Ġ1942": 3840,
      "ela": 3841,
      "Ġsister": 3842,
      "Ġlonger": 3843,
      "Ġcommittee": 3844,
      "mers": 3845,
      "Ġdescribed": 3846,
      "Ġsaw": 3847,
      "tv": 3848,
      "iences": 3849,
      "Ġepisodes": 3850,
      "aine": 3851,
      "Ġdance": 3852,
      "Ġteacher": 3853,
      "Ġcode": 3854,
      "mi": 3855,
      "Ġpls": 3856,
      "more": 3857,
      "aska": 3858,
      "Ġcelebr": 3859,
      "oston": 3860,
      "62": 3861,
      "Ġcollection": 3862,
      "org": 3863,
      "02": 3864,
      "Ġstone": 3865,
      "Ġmunicipalities": 3866,
      "Ġduke": 3867,
      "ving": 3868,
      "Ġparish": 3869,
      "Ġquest": 3870,
      "Ġcub": 3871,
      "Ġfinished": 3872,
      "Ġstadium": 3873,
      "Ġoil": 3874,
      "Ġmaster": 3875,
      "russ": 3876,
      "illy": 3877,
      "Ġ1957": 3878,
      "Ġstations": 3879,
      "Ġtrade": 3880,
      "Ġach": 3881,
      "...": 3882,
      "Ġfoc": 3883,
      "Ġfair": 3884,
      "build": 3885,
      "Ġlie": 3886,
      "Ġmusl": 3887,
      "Ġsoldiers": 3888,
      "enced": 3889,
      "Ġcritic": 3890,
      "Ġastron": 3891,
      "Ġ1941": 3892,
      "1986": 3893,
      "Ġnobel": 3894,
      "Ġly": 3895,
      "Ġdate": 3896,
      "Ġshr": 3897,
      "Ġregular": 3898,
      "Ġhop": 3899,
      "Ġexecutive": 3900,
      "Ġid": 3901,
      "Ġ1958": 3902,
      "Ġnewsp": 3903,
      "Ġhigher": 3904,
      "Ġcases": 3905,
      "fil": 3906,
      "Ġrome": 3907,
      "Ġspeak": 3908,
      "Ġ1946": 3909,
      "inet": 3910,
      "Ġcontinued": 3911,
      "Ġindependence": 3912,
      "aches": 3913,
      "riage": 3914,
      "à¸": 3915,
      "isions": 3916,
      "orial": 3917,
      "Ġmah": 3918,
      "Ġmess": 3919,
      "Ġ1949": 3920,
      "Ġpil": 3921,
      "Ġod": 3922,
      "Ġshot": 3923,
      "vi": 3924,
      "Ġ1944": 3925,
      "Ġforest": 3926,
      "Ġcommunes": 3927,
      "Ġtun": 3928,
      "Ġjean": 3929,
      "Ġinvent": 3930,
      "Ġkilling": 3931,
      "Ġactivist": 3932,
      "Ġturk": 3933,
      "Ġappo": 3934,
      "Ġanth": 3935,
      "Ġcoup": 3936,
      "lahoma": 3937,
      "Ġgal": 3938,
      "Ġ1952": 3939,
      "ect": 3940,
      "Ġgenus": 3941,
      "Ġpolic": 3942,
      "Ġreligious": 3943,
      "Ġbav": 3944,
      "icult": 3945,
      "ploy": 3946,
      "sm": 3947,
      "Ġpub": 3948,
      "1983": 3949,
      "Ġspeed": 3950,
      "Ġbands": 3951,
      "south": 3952,
      "rid": 3953,
      "since": 3954,
      "Ġlouisiana": 3955,
      "Ġcas": 3956,
      "Ġparticular": 3957,
      "Ġczech": 3958,
      "Ġfrancisco": 3959,
      "chen": 3960,
      "Ġdor": 3961,
      "aya": 3962,
      "Ġbrain": 3963,
      "Ġsport": 3964,
      "Ġmiles": 3965,
      "Ġphilipp": 3966,
      "Äģ": 3967,
      "Ġattempt": 3968,
      "Ġ1959": 3969,
      "urity": 3970,
      "adel": 3971,
      "Ġawarded": 3972,
      "nel": 3973,
      "Ġnorthe": 3974,
      "Ġinterview": 3975,
      "Ġsouthe": 3976,
      "Ġ1954": 3977,
      "ounds": 3978,
      "Ġsmaller": 3979,
      "Ġpu": 3980,
      "Ġ1936": 3981,
      "Ġaccess": 3982,
      "Ġunders": 3983,
      "Ġemer": 3984,
      "Ġroll": 3985,
      "Ġonline": 3986,
      "Ġdivided": 3987,
      "elves": 3988,
      "ito": 3989,
      "rap": 3990,
      "Ġstandard": 3991,
      "Ġflag": 3992,
      "Ġ1939": 3993,
      "Ġfilms": 3994,
      "Ġforms": 3995,
      "water": 3996,
      "organ": 3997,
      "Ġvocals": 3998,
      "zy": 3999,
      "anger": 4000,
      "Ġcommand": 4001,
      "1985": 4002,
      ".)": 4003,
      "Ġminnes": 4004,
      "Ġ1938": 4005,
      "Ġkil": 4006,
      "Ġrule": 4007,
      "Ġmoon": 4008,
      "Ġnation": 4009,
      "Ġelectron": 4010,
      "Ġbeginning": 4011,
      "ucky": 4012,
      "thing": 4013,
      "gbt": 4014,
      "Ġoppos": 4015,
      "Ġ88": 4016,
      "dro": 4017,
      "wal": 4018,
      "Ġegg": 4019,
      "Ġpremier": 4020,
      "Ġ1934": 4021,
      "itted": 4022,
      "Ġminnesota": 4023,
      "Ġhistorical": 4024,
      "Ġbon": 4025,
      "ulation": 4026,
      "Ġdesigned": 4027,
      "real": 4028,
      "anth": 4029,
      "his": 4030,
      "umi": 4031,
      "italian": 4032,
      "1984": 4033,
      "Ġupper": 4034,
      "Ġfc": 4035,
      "Ġkenn": 4036,
      "Ġautom": 4037,
      "Ġ1920": 4038,
      "Ġarmen": 4039,
      "Ġles": 4040,
      "cell": 4041,
      "Ġfeel": 4042,
      "Ġpromot": 4043,
      "Ġeun": 4044,
      "Ġoldest": 4045,
      "Ġintroduced": 4046,
      "Ġwinner": 4047,
      "Ġprivate": 4048,
      "bach": 4049,
      "Ġtheatre": 4050,
      "footballers": 4051,
      "kyo": 4052,
      "Ġanton": 4053,
      "Ġarticle": 4054,
      "Ġcauses": 4055,
      "agn": 4056,
      "Ã£": 4057,
      "ĊĠĊĠĊ": 4058,
      "gl": 4059,
      "Ġ1955": 4060,
      "bell": 4061,
      "gers": 4062,
      "Ġfast": 4063,
      "Ġanimal": 4064,
      "australian": 4065,
      "Ġtournament": 4066,
      "Ġ90": 4067,
      "Ġpap": 4068,
      "Ġromantic": 4069,
      "Ġsingles": 4070,
      "Ġlawyer": 4071,
      "Ġatlantic": 4072,
      "Ġcells": 4073,
      "1981": 4074,
      "Ġinternet": 4075,
      "enth": 4076,
      "Ġnaz": 4077,
      "Ġfuture": 4078,
      "thur": 4079,
      "Ġmatches": 4080,
      "Ġlem": 4081,
      "iting": 4082,
      "ffic": 4083,
      "Ġorche": 4084,
      "Ġindustry": 4085,
      "iment": 4086,
      "Ġqual": 4087,
      "Ġimpro": 4088,
      "Ġtam": 4089,
      "lie": 4090,
      "Ġbelieved": 4091,
      "Ġexcept": 4092,
      "Ġeconomic": 4093,
      "Ġcitizens": 4094,
      "Ġoklahoma": 4095,
      "uses": 4096,
      "Ġkid": 4097,
      "eld": 4098,
      "Ġdiscovered": 4099,
      "52": 4100,
      "Ġclaim": 4101,
      "Ġtold": 4102,
      "1979": 4103,
      "Ġsurface": 4104,
      "Ġ1929": 4105,
      "Ġstock": 4106,
      "Ġcontains": 4107,
      "tic": 4108,
      "Ġberlin": 4109,
      "gree": 4110,
      "Ġthems": 4111,
      "Ġaffect": 4112,
      "value": 4113,
      "Ġprobab": 4114,
      "Ġjazz": 4115,
      "hann": 4116,
      "Ġjob": 4117,
      "Ġram": 4118,
      "Ġpope": 4119,
      "Ġtraditional": 4120,
      "inger": 4121,
      "Ġiran": 4122,
      "Ġhero": 4123,
      "mann": 4124,
      "ises": 4125,
      "Ġneigh": 4126,
      "ential": 4127,
      "Ġtable": 4128,
      "Ã±": 4129,
      "Ġ1951": 4130,
      "sort": 4131,
      "asy": 4132,
      "raine": 4133,
      "Ġ1933": 4134,
      "japanese": 4135,
      "Ġpacific": 4136,
      "Ġsir": 4137,
      "Ġbirds": 4138,
      "Ġthemselves": 4139,
      "Ġ1953": 4140,
      "Ġsenator": 4141,
      "ping": 4142,
      "lines": 4143,
      "agan": 4144,
      "phy": 4145,
      "mit": 4146,
      "Ġstarring": 4147,
      "Ġlabor": 4148,
      "Ġyellow": 4149,
      "Ġwindows": 4150,
      "Ġreported": 4151,
      "upt": 4152,
      "Ġtokyo": 4153,
      "Ġ1943": 4154,
      "Ġjustice": 4155,
      "Ã¢": 4156,
      "reg": 4157,
      "Ġsubject": 4158,
      "Ġliterature": 4159,
      "Ġko": 4160,
      "Ġjohnson": 4161,
      "mod": 4162,
      "Ġrivers": 4163,
      "icks": 4164,
      "Ġnord": 4165,
      "1960": 4166,
      "Ġsource": 4167,
      "Ġanti": 4168,
      "Ġlarger": 4169,
      "Ġcompetition": 4170,
      "Ġleading": 4171,
      "Ġbase": 4172,
      "Ġ70": 4173,
      "ropolitan": 4174,
      "Ġtrue": 4175,
      "Ġedition": 4176,
      "Ġgian": 4177,
      "Ġsomeone": 4178,
      "Ġface": 4179,
      "first": 4180,
      "Ġanal": 4181,
      "Ġkong": 4182,
      "Ġcreate": 4183,
      "Ġprincess": 4184,
      "Ġ1935": 4185,
      "Ġrelationship": 4186,
      "Ġgree": 4187,
      "Ġaddition": 4188,
      "Ġmedicine": 4189,
      "utions": 4190,
      "ients": 4191,
      "tran": 4192,
      "Ġhumans": 4193,
      "Ġrules": 4194,
      "Ġlov": 4195,
      "Ġlady": 4196,
      "Ġpand": 4197,
      "lers": 4198,
      "endo": 4199,
      "ffer": 4200,
      "Ġathlet": 4201,
      "Ġbell": 4202,
      "iced": 4203,
      "abama": 4204,
      "1982": 4205,
      "Ġgets": 4206,
      "hold": 4207,
      "Ġlength": 4208,
      "Ġdisestab": 4209,
      "during": 4210,
      "ippi": 4211,
      ",\"": 4212,
      "Ġinit": 4213,
      "obile": 4214,
      "inct": 4215,
      "elle": 4216,
      "Ġcorpor": 4217,
      "Ġlik": 4218,
      "Ġsyn": 4219,
      "Ġjones": 4220,
      "Ġwik": 4221,
      "akh": 4222,
      "Ġactive": 4223,
      "Ġ1937": 4224,
      "Ġhappened": 4225,
      "Ġdeep": 4226,
      "ias": 4227,
      "Ġweap": 4228,
      "osa": 4229,
      "Ġbol": 4230,
      "Ġark": 4231,
      "county": 4232,
      "Ġfant": 4233,
      "Ġitself": 4234,
      "wide": 4235,
      "yan": 4236,
      "tw": 4237,
      "Ġcook": 4238,
      "Ġdifficult": 4239,
      "imin": 4240,
      "Ġgram": 4241,
      "aven": 4242,
      "Ġsoftware": 4243,
      "ĠâĢ¢": 4244,
      "Ġamericans": 4245,
      "ictional": 4246,
      "Ġbelong": 4247,
      "hib": 4248,
      "Ġquart": 4249,
      "Ġhusband": 4250,
      "Ġself": 4251,
      "fred": 4252,
      "Ġaccept": 4253,
      "Ġperform": 4254,
      "Ġbelieve": 4255,
      "Ġgett": 4256,
      "Ġnavy": 4257,
      "istry": 4258,
      "cow": 4259,
      "Ġak": 4260,
      "Ġsax": 4261,
      "mil": 4262,
      "Ġtall": 4263,
      "Ġthroughout": 4264,
      "Ġ+": 4265,
      "Ġtried": 4266,
      "Ġdistributed": 4267,
      "Ġcover": 4268,
      "Ġvote": 4269,
      "jul": 4270,
      "Ġ1931": 4271,
      "Ġinhabit": 4272,
      "Ġelst": 4273,
      "Ġways": 4274,
      "Ġcontest": 4275,
      "Ġfollowed": 4276,
      "Ġschol": 4277,
      "Ġbusinessman": 4278,
      "Ġmap": 4279,
      "Ġsuggest": 4280,
      "Ġimm": 4281,
      "Ġcommonly": 4282,
      "Ġnature": 4283,
      "Ġ1928": 4284,
      "ores": 4285,
      "isa": 4286,
      "ros": 4287,
      "Ġray": 4288,
      "Ġreading": 4289,
      "enna": 4290,
      "izabeth": 4291,
      "spanish": 4292,
      "ights": 4293,
      "Ġjewish": 4294,
      "works": 4295,
      "su": 4296,
      "Ġbishop": 4297,
      "sup": 4298,
      "roke": 4299,
      "Ġministers": 4300,
      "asa": 4301,
      "rol": 4302,
      "Ġfurther": 4303,
      "Ġcold": 4304,
      "Ġconstitution": 4305,
      "Ã£o": 4306,
      "Ġalexander": 4307,
      "Ġdocument": 4308,
      "Ġowned": 4309,
      "ora": 4310,
      "Ġfund": 4311,
      "Ġring": 4312,
      "fam": 4313,
      "reat": 4314,
      "Ġsignif": 4315,
      "fin": 4316,
      "acter": 4317,
      "Ġoccup": 4318,
      "Ġamb": 4319,
      "Ġswim": 4320,
      "Ġphilosopher": 4321,
      "aching": 4322,
      "Ġguard": 4323,
      "Ġentire": 4324,
      "Ġmexican": 4325,
      "Ġalabama": 4326,
      "Ġrat": 4327,
      "Ġbeaut": 4328,
      "Ġlines": 4329,
      "uefa": 4330,
      "Ġcry": 4331,
      "phia": 4332,
      "Ġtri": 4333,
      "Ġkings": 4334,
      "Ġraised": 4335,
      "Ġvictoria": 4336,
      "issippi": 4337,
      "Ġcolumbia": 4338,
      "Ġolder": 4339,
      "Ã¼r": 4340,
      "ophy": 4341,
      "iÄĩ": 4342,
      "Ġdistricts": 4343,
      "Ġmultiple": 4344,
      "emic": 4345,
      "Ġengineer": 4346,
      "hu": 4347,
      "where": 4348,
      "ting": 4349,
      "Ġ(,": 4350,
      "Ġ1932": 4351,
      "Ġsecurity": 4352,
      "Ġfamilies": 4353,
      "Ġprimary": 4354,
      "ech": 4355,
      "Ġnine": 4356,
      "Ġlegal": 4357,
      "bridge": 4358,
      "Ġplann": 4359,
      "Ġreligion": 4360,
      "ilities": 4361,
      "Ġlett": 4362,
      "Ġspok": 4363,
      "Ġron": 4364,
      "kar": 4365,
      "songwriter": 4366,
      "cal": 4367,
      "Ġleon": 4368,
      "will": 4369,
      "oid": 4370,
      "Ġchap": 4371,
      "Ġboston": 4372,
      "Ġbelow": 4373,
      "Ġkr": 4374,
      "Ġvon": 4375,
      "Ġbavaria": 4376,
      "last": 4377,
      "astern": 4378,
      "Ġmaria": 4379,
      "Ġhours": 4380,
      "disc": 4381,
      "inson": 4382,
      "Ġstaff": 4383,
      "Ġwel": 4384,
      "Ġpath": 4385,
      "Ġkob": 4386,
      "Ġgrew": 4387,
      "Ġelections": 4388,
      "Ġselected": 4389,
      "Ġtemperature": 4390,
      "ois": 4391,
      "itude": 4392,
      "ãĥ": 4393,
      "burgh": 4394,
      "ston": 4395,
      "aijan": 4396,
      "Ġrespons": 4397,
      "Ġconv": 4398,
      "Ġmotor": 4399,
      "Ġcaptain": 4400,
      "Ġdefeated": 4401,
      "Ġjeff": 4402,
      "Ġga": 4403,
      "Ġjac": 4404,
      "1977": 4405,
      "amin": 4406,
      "Ġconference": 4407,
      "1974": 4408,
      "Ġarrondissement": 4409,
      "du": 4410,
      "enty": 4411,
      "Ġcamer": 4412,
      "adelphia": 4413,
      "Ġcontract": 4414,
      "Ġplanet": 4415,
      "Ġdun": 4416,
      "ava": 4417,
      "tor": 4418,
      "onto": 4419,
      "ners": 4420,
      "Ġproblem": 4421,
      "apore": 4422,
      "Ġgirls": 4423,
      "bury": 4424,
      "erbaijan": 4425,
      "san": 4426,
      "Ġeventually": 4427,
      "ĠÂ": 4428,
      "Ġmetropolitan": 4429,
      "anta": 4430,
      "uation": 4431,
      "Ġsanta": 4432,
      "Ġdirectors": 4433,
      "Ġwa": 4434,
      "Ġfav": 4435,
      "Ġfel": 4436,
      "Ã©e": 4437,
      "1976": 4438,
      "Ġreason": 4439,
      "Ġhunt": 4440,
      "Ġwilliams": 4441,
      "gium": 4442,
      "orpor": 4443,
      "Ġinfect": 4444,
      "russian": 4445,
      "oper": 4446,
      "Ġdegree": 4447,
      "ences": 4448,
      "Ġracing": 4449,
      "Ġspl": 4450,
      "ĠĠĠĠĠĠĠĠĠĠĠĠĠĠĠĠ": 4451,
      "bas": 4452,
      "Ġpaper": 4453,
      "Ġslow": 4454,
      "Ġalbert": 4455,
      "eda": 4456,
      "Ġspread": 4457,
      "Ġsky": 4458,
      "Ġfal": 4459,
      "Ġfounder": 4460,
      "Ġherit": 4461,
      "Ġclubs": 4462,
      "Ġoffer": 4463,
      "Ġfoundation": 4464,
      "Ġ1926": 4465,
      "Ġregions": 4466,
      "Ġexpress": 4467,
      "rem": 4468,
      "Ġveh": 4469,
      "1972": 4470,
      "musicians": 4471,
      "oman": 4472,
      "Ġfreed": 4473,
      "saint": 4474,
      "osl": 4475,
      "dis": 4476,
      "Ġtenness": 4477,
      "Ġstarting": 4478,
      "aga": 4479,
      "Ġkentucky": 4480,
      "anding": 4481,
      "1973": 4482,
      "down": 4483,
      "liga": 4484,
      "Ġsignifican": 4485,
      "Ġ1927": 4486,
      "Ġcontrib": 4487,
      "1978": 4488,
      "Ġsexual": 4489,
      "Ġneg": 4490,
      "ril": 4491,
      "Ġdesert": 4492,
      "Ġpoor": 4493,
      "Ġmississippi": 4494,
      "cial": 4495,
      "Ġbehind": 4496,
      "Ġwear": 4497,
      "Ġusa": 4498,
      "Ġtemple": 4499,
      "Ġterms": 4500,
      "Ġtennessee": 4501,
      "tot": 4502,
      "uries": 4503,
      "Ġyouth": 4504,
      "Ġletter": 4505,
      "Ġbranch": 4506,
      "ili": 4507,
      "Ġnorway": 4508,
      "istic": 4509,
      "Ġrunning": 4510,
      "Ġindones": 4511,
      "prod": 4512,
      "Ġheritage": 4513,
      "eder": 4514,
      "Ġpick": 4515,
      "Ġchile": 4516,
      "Ġleave": 4517,
      "hem": 4518,
      "dney": 4519,
      "Â²": 4520,
      "Ġfifth": 4521,
      "how": 4522,
      "ousand": 4523,
      "iest": 4524,
      "Ġtel": 4525,
      "Ġ1925": 4526,
      "Ġdeal": 4527,
      "pet": 4528,
      "Ġneeded": 4529,
      "ready": 4530,
      "div": 4531,
      "Ãº": 4532,
      "fort": 4533,
      "Ġjes": 4534,
      "Ġva": 4535,
      "Ġjoin": 4536,
      "Ġmachine": 4537,
      "Ġquickly": 4538,
      "igned": 4539,
      "Ġparaly": 4540,
      "Ġproducers": 4541,
      "fall": 4542,
      "quart": 4543,
      "box": 4544,
      "Ġenc": 4545,
      "Ġaccident": 4546,
      "Ġdaniel": 4547,
      "nat": 4548,
      "Ġspecific": 4549,
      "Ġbbc": 4550,
      "Ġpra": 4551,
      "Ġclear": 4552,
      "Ġcricket": 4553,
      "Ġappointed": 4554,
      "dess": 4555,
      "uten": 4556,
      "Ġacting": 4557,
      "Ġbiggest": 4558,
      "Ġeditor": 4559,
      "teen": 4560,
      "Ð°": 4561,
      "Ġwide": 4562,
      "Ġrespect": 4563,
      "rec": 4564,
      "Ġmission": 4565,
      "Ġcomplex": 4566,
      "Ġideas": 4567,
      "background": 4568,
      "Ġbeach": 4569,
      "Ġbronze": 4570,
      "Ġelev": 4571,
      "Ġ35": 4572,
      "Ġiron": 4573,
      "Ġimper": 4574,
      "tario": 4575,
      "Ġontario": 4576,
      "Ġash": 4577,
      "Ġinhabitants": 4578,
      "tim": 4579,
      "Ġnic": 4580,
      "Ġjoe": 4581,
      "Ġgenerally": 4582,
      "vert": 4583,
      "ugal": 4584,
      "elly": 4585,
      "Ġindiana": 4586,
      "Ġbrothers": 4587,
      "Ġpalace": 4588,
      "ori": 4589,
      "sour": 4590,
      "order": 4591,
      "attle": 4592,
      "onsin": 4593,
      "atl": 4594,
      "Ġsurround": 4595,
      "Ġorganis": 4596,
      "Ġmario": 4597,
      "dh": 4598,
      "Ġbull": 4599,
      "Ġharry": 4600,
      "Ġsab": 4601,
      "Ġott": 4602,
      "bec": 4603,
      "arm": 4604,
      "Ġenem": 4605,
      "Ġmarriage": 4606,
      "Ġhills": 4607,
      "erve": 4608,
      "Ġkim": 4609,
      "Ġblock": 4610,
      "ustr": 4611,
      "1975": 4612,
      "isconsin": 4613,
      "Ġprotest": 4614,
      "Ġrather": 4615,
      "Ġmyth": 4616,
      "Ġtaking": 4617,
      "Ġken": 4618,
      "Ġunit": 4619,
      "Ġgives": 4620,
      "Ġthousand": 4621,
      "Ġcomposers": 4622,
      "Ġjane": 4623,
      "Ġhydro": 4624,
      "ourg": 4625,
      "Ġtell": 4626,
      "Ġaqu": 4627,
      "indian": 4628,
      "Ġfeet": 4629,
      "Ġmole": 4630,
      "Ġmoscow": 4631,
      "Ġbecoming": 4632,
      "Ġruns": 4633,
      "Ġalph": 4634,
      "Ġera": 4635,
      "Ġachie": 4636,
      "Ġfrequ": 4637,
      "ription": 4638,
      "television": 4639,
      "Ġcateg": 4640,
      "uguese": 4641,
      "christ": 4642,
      "Ġ;": 4643,
      "Ġwhole": 4644,
      "Ġnorm": 4645,
      "ghan": 4646,
      "ulpt": 4647,
      "ails": 4648,
      "Ġdisestablishments": 4649,
      "ctions": 4650,
      "Ġtrump": 4651,
      "Ġpasseng": 4652,
      "Ġchairman": 4653,
      "intendo": 4654,
      "vention": 4655,
      "Ġhund": 4656,
      "Ġupon": 4657,
      "Ġskin": 4658,
      "Äį": 4659,
      "Ġcust": 4660,
      "Ġvietnam": 4661,
      "Ġdamage": 4662,
      "star": 4663,
      "Ġago": 4664,
      "Ġinvolved": 4665,
      "Ġcultural": 4666,
      "iac": 4667,
      "rence": 4668,
      "Ġasked": 4669,
      "ternal": 4670,
      "ysis": 4671,
      "Ġhorror": 4672,
      "ening": 4673,
      "asion": 4674,
      "Ġturkey": 4675,
      "Ġdeputy": 4676,
      "esc": 4677,
      "Ġros": 4678,
      "Ġparalymp": 4679,
      "Ġ1924": 4680,
      "icide": 4681,
      "Ġscored": 4682,
      "oral": 4683,
      "www": 4684,
      "Ġnuclear": 4685,
      "Ġts": 4686,
      "Ġrose": 4687,
      "Ġvisit": 4688,
      "kins": 4689,
      "Ġdrop": 4690,
      "una": 4691,
      "Ġsuffer": 4692,
      "alb": 4693,
      "Ġofficially": 4694,
      "Ġroom": 4695,
      "ingu": 4696,
      "Ġbangl": 4697,
      "Ġdin": 4698,
      "Ġsel": 4699,
      "light": 4700,
      "Ġheat": 4701,
      "Ġbillboard": 4702,
      "Ġmand": 4703,
      "Ġsubst": 4704,
      "Ġcomedian": 4705,
      "wegian": 4706,
      "Ġeag": 4707,
      "add": 4708,
      "omer": 4709,
      "Ġjon": 4710,
      "Ġformula": 4711,
      "Ġelizabeth": 4712,
      "Ġbehav": 4713,
      "Ġsud": 4714,
      "undes": 4715,
      ");": 4716,
      "Ġmcc": 4717,
      "Ġple": 4718,
      "Ġdoug": 4719,
      "Ġdestroyed": 4720,
      "yers": 4721,
      "Ġip": 4722,
      "Ġmechan": 4723,
      "Ġfunction": 4724,
      "Ġprobably": 4725,
      "Ġadditional": 4726,
      "Ġye": 4727,
      "Ġemploy": 4728,
      "Ġconstitu": 4729,
      "cala": 4730,
      "osaur": 4731,
      "Ġell": 4732,
      "Ġalready": 4733,
      "Ġbott": 4734,
      "Ġdipl": 4735,
      "Ġ1900": 4736,
      "1971": 4737,
      "villages": 4738,
      "Ġcarbon": 4739,
      "Ġtan": 4740,
      "ability": 4741,
      "Ġkept": 4742,
      "uv": 4743,
      "Ġanne": 4744,
      "Ġbrook": 4745,
      "ancy": 4746,
      "Ġbod": 4747,
      "Ġrug": 4748,
      "personal": 4749,
      "Ġwisconsin": 4750,
      "Ġparties": 4751,
      "Ġbh": 4752,
      "Ġniger": 4753,
      "Ġunderst": 4754,
      "bed": 4755,
      "Ġsearch": 4756,
      "Ġengineering": 4757,
      "utt": 4758,
      "inem": 4759,
      "Ġphysic": 4760,
      "now": 4761,
      "Ġmun": 4762,
      "Ġroute": 4763,
      "bal": 4764,
      "Ġhtt": 4765,
      "Ġaltern": 4766,
      "Ġtraining": 4767,
      "soft": 4768,
      "Ġnormal": 4769,
      "Ġsle": 4770,
      "ties": 4771,
      "Ġdigital": 4772,
      "nic": 4773,
      "Ġcreek": 4774,
      "Ġdriver": 4775,
      "origin": 4776,
      "Ġpack": 4777,
      "many": 4778,
      "Ġgreatest": 4779,
      "Ġlinks": 4780,
      "Ġguitarist": 4781,
      "uff": 4782,
      "Ġhundred": 4783,
      "Ġlas": 4784,
      "Ġ1922": 4785,
      "ikh": 4786,
      "Ġlung": 4787,
      "Ġsculpt": 4788,
      "1969": 4789,
      "ceed": 4790,
      "Ġfought": 4791,
      "Ġsnow": 4792,
      "Ġunits": 4793,
      "igation": 4794,
      "iot": 4795,
      "Ġclar": 4796,
      "Ġwrite": 4797,
      "ester": 4798,
      "Ġorchestra": 4799,
      "Ġuniverse": 4800,
      "Ġsoccer": 4801,
      "Ġ45": 4802,
      "Ġpier": 4803,
      "Ġconstant": 4804,
      "Ġsac": 4805,
      "musical": 4806,
      "Ġsection": 4807,
      "Ġqueens": 4808,
      "Ġstructure": 4809,
      "long": 4810,
      "Ġphysics": 4811,
      "Ġfighting": 4812,
      "Ġopt": 4813,
      "Ġsites": 4814,
      "ika": 4815,
      "Ġtells": 4816,
      "Ġthm": 4817,
      "atures": 4818,
      "Ġrot": 4819,
      "Ġswe": 4820,
      "align": 4821,
      "Ġgoddess": 4822,
      "Ġnewspaper": 4823,
      "icted": 4824,
      "arg": 4825,
      "Ġdraw": 4826,
      "eks": 4827,
      "Ġrecording": 4828,
      "Ġbird": 4829,
      "Ġblues": 4830,
      "Ġrub": 4831,
      "Ġgreece": 4832,
      "hr": 4833,
      "mic": 4834,
      "Ġ1923": 4835,
      "Ġswiss": 4836,
      "pp": 4837,
      "Ġwwe": 4838,
      "Ġger": 4839,
      "roll": 4840,
      "Ġkan": 4841,
      "Ġsupreme": 4842,
      "Ġkir": 4843,
      "sey": 4844,
      "Ġfigure": 4845,
      "etic": 4846,
      "Ġbillion": 4847,
      "Ġot": 4848,
      "Ġtalk": 4849,
      "Ġphilippines": 4850,
      "Ġdak": 4851,
      "Ġka": 4852,
      "100": 4853,
      "Ġlic": 4854,
      "Ġcomplete": 4855,
      "Ġkhan": 4856,
      "Ġprop": 4857,
      "Ġpublisher": 4858,
      "Ġtag": 4859,
      "ension": 4860,
      "Ġalt": 4861,
      "calais": 4862,
      "put": 4863,
      "izes": 4864,
      "Ã©n": 4865,
      "Ġgrant": 4866,
      "1968": 4867,
      "ricult": 4868,
      "Ġadministrative": 4869,
      "Ġazerbaijan": 4870,
      "inces": 4871,
      "station": 4872,
      "onne": 4873,
      "Ġtowards": 4874,
      "Ġfeatured": 4875,
      "Ġjudge": 4876,
      "Ġ65": 4877,
      "Ġelectr": 4878,
      "Ġspent": 4879,
      "Ġarkansas": 4880,
      "iny": 4881,
      "Ġspirit": 4882,
      "Ġcovered": 4883,
      "ipe": 4884,
      "total": 4885,
      "Ġapart": 4886,
      "Ġcrown": 4887,
      "Ġalum": 4888,
      "edit": 4889,
      "Ġrand": 4890,
      "Ġwhose": 4891,
      "Ġtrees": 4892,
      "Ġtroops": 4893,
      "Ġevolution": 4894,
      "Ġelements": 4895,
      "Ġtay": 4896,
      "Ġsund": 4897,
      "Ġbelgium": 4898,
      "usion": 4899,
      "Ġelement": 4900,
      "group": 4901,
      "road": 4902,
      "Ġandrew": 4903,
      "Ġalg": 4904,
      "aded": 4905,
      "Ġexplor": 4906,
      "Ġleaves": 4907,
      "Ġurban": 4908,
      "Ġhun": 4909,
      "Ġloss": 4910,
      "Ġweather": 4911,
      "Ġprofile": 4912,
      "Ġthir": 4913,
      "uki": 4914,
      "Ġaccount": 4915,
      "Ġadop": 4916,
      "Ġbegins": 4917,
      "och": 4918,
      "Ġwhy": 4919,
      "phil": 4920,
      "Ġbaby": 4921,
      "Ġtyp": 4922,
      "worth": 4923,
      "biography": 4924,
      "Ġmind": 4925,
      "change": 4926,
      "weight": 4927,
      "encies": 4928,
      "bir": 4929,
      "1967": 4930,
      "Ġtennis": 4931,
      "Ġstudent": 4932,
      "Ġky": 4933,
      "Ġphiladelphia": 4934,
      "iate": 4935,
      "Ġforced": 4936,
      "Ġabd": 4937,
      "Ġbush": 4938,
      "Ġ87": 4939,
      "Ġsingapore": 4940,
      "Ġletters": 4941,
      "Ġarthur": 4942,
      "stan": 4943,
      "ologists": 4944,
      "Ġcd": 4945,
      "gra": 4946,
      "Ġhan": 4947,
      "Ġpho": 4948,
      "Ġairlines": 4949,
      "Ġexamples": 4950,
      "Ġspr": 4951,
      "north": 4952,
      "Ġbarb": 4953,
      "ires": 4954,
      "Ġphysical": 4955,
      "roit": 4956,
      "Ġarms": 4957,
      "1950": 4958,
      "Ġnap": 4959,
      "Ġsaf": 4960,
      "Ġcontroll": 4961,
      "Ġtower": 4962,
      "Ġconfl": 4963,
      "orporated": 4964,
      "Ġmit": 4965,
      "Ġsciences": 4966,
      "Ġpowerful": 4967,
      "Ġfantasy": 4968,
      "Ġargentina": 4969,
      "Ġbond": 4970,
      "Ġstri": 4971,
      "Ġnortheast": 4972,
      "aq": 4973,
      "Ġspoken": 4974,
      "à¦": 4975,
      "Ġdeter": 4976,
      "business": 4977,
      "Ġdanger": 4978,
      "Ġturned": 4979,
      "Ġult": 4980,
      "Ġfoss": 4981,
      "Ġgreater": 4982,
      "Ġsupported": 4983,
      "Ġruled": 4984,
      "Ġlimited": 4985,
      "hum": 4986,
      "Ġearlier": 4987,
      "they": 4988,
      "Ġfoot": 4989,
      "ayashi": 4990,
      "Ġcandidate": 4991,
      "Ġcommercial": 4992,
      "Ġsignificant": 4993,
      "Ġ500": 4994,
      "Ġstephen": 4995,
      "Ġchris": 4996,
      "educ": 4997,
      "neum": 4998,
      "Ġcham": 4999,
      "Ġukraine": 5000,
      "Ġjews": 5001,
      "Ġgetting": 5002,
      "iang": 5003,
      "Ġlisted": 5004,
      "Ġmonarch": 5005,
      "Ġassistant": 5006,
      "Ġthriller": 5007,
      "Ġteen": 5008,
      "Ġsydney": 5009,
      "Ġsimple": 5010,
      "Ġcritics": 5011,
      "rainian": 5012,
      "Ġchall": 5013,
      "Ġobservatory": 5014,
      "Ġsoutheast": 5015,
      "ls": 5016,
      "Ġvalue": 5017,
      "itation": 5018,
      "Ġsoul": 5019,
      "Ġenter": 5020,
      "Ġplaced": 5021,
      "Ġrepresentative": 5022,
      "Ġpassed": 5023,
      "Ġconfir": 5024,
      "Ġreviews": 5025,
      "Ġregional": 5026,
      "sky": 5027,
      "Ġale": 5028,
      "bet": 5029,
      "Ġwrestler": 5030,
      "Ġmoving": 5031,
      "ÅĤ": 5032,
      "Ġ86": 5033,
      "Ġ1918": 5034,
      "ills": 5035,
      "Ġmanagement": 5036,
      "Ġborough": 5037,
      "igen": 5038,
      "Ġcarry": 5039,
      "Ġmajority": 5040,
      "Ġpicture": 5041,
      "aux": 5042,
      "Ġ84": 5043,
      "Ġhistoric": 5044,
      "lar": 5045,
      "Ġtele": 5046,
      "endar": 5047,
      "vis": 5048,
      "Ġboys": 5049,
      "Ġfolk": 5050,
      "Ġfu": 5051,
      "Ġholy": 5052,
      "Ġmanagers": 5053,
      "ci": 5054,
      "Ġcharge": 5055,
      "1940": 5056,
      "Ġmemorial": 5057,
      "Ġeffects": 5058,
      "imated": 5059,
      "Ġmarsh": 5060,
      "Ġminutes": 5061,
      "ogne": 5062,
      "Ġpiano": 5063,
      "asing": 5064,
      "ilton": 5065,
      "rane": 5066,
      "Ġ77": 5067,
      "Ġworkers": 5068,
      "Ġ1921": 5069,
      "Ġtas": 5070,
      "Ġali": 5071,
      "Ġrepresented": 5072,
      "Ġconstruction": 5073,
      "buildings": 5074,
      "Ġpositive": 5075,
      "Ġbah": 5076,
      "Ġcars": 5077,
      "Ġmixed": 5078,
      "ufact": 5079,
      "Ġadventure": 5080,
      "Ġseparate": 5081,
      "Ġjos": 5082,
      "Ġ64": 5083,
      "Ġillustr": 5084,
      "based": 5085,
      "Ġprovinces": 5086,
      "Ġmorn": 5087,
      "omen": 5088,
      "ashion": 5089,
      "lad": 5090,
      "Ġclin": 5091,
      "cr": 5092,
      "enez": 5093,
      "Ġorganizations": 5094,
      "Ġportugal": 5095,
      "Ġlaunched": 5096,
      "Ġmut": 5097,
      "oud": 5098,
      "Ġ75": 5099,
      "Ġtoronto": 5100,
      "Ġorange": 5101,
      "Ġuefa": 5102,
      "Ġsymbol": 5103,
      "Ġindividual": 5104,
      "pat": 5105,
      "ugg": 5106,
      "Ġhistorian": 5107,
      "Ġfinland": 5108,
      "Ġped": 5109,
      "1930": 5110,
      "Ġweeks": 5111,
      "Ġliver": 5112,
      "Ġhair": 5113,
      "Ġattacks": 5114,
      "Ġaffairs": 5115,
      "Ġdiplom": 5116,
      "icut": 5117,
      "Ġreign": 5118,
      "Ġafghan": 5119,
      "Ġfinanc": 5120,
      "Ġlisting": 5121,
      "di": 5122,
      "Ġdry": 5123,
      "Ã¨re": 5124,
      "ellig": 5125,
      "Ġuniversities": 5126,
      "wis": 5127,
      "aled": 5128,
      "Ġhong": 5129,
      "Ã¶r": 5130,
      "Ġappearance": 5131,
      "gall": 5132,
      "Ġfalls": 5133,
      "Ġadministration": 5134,
      "dam": 5135,
      "ĠÐ": 5136,
      "Ġdiam": 5137,
      "Ġprincip": 5138,
      "Ġstatus": 5139,
      "Ġbelgian": 5140,
      "Ġsher": 5141,
      "alled": 5142,
      "Ġnearly": 5143,
      "euro": 5144,
      "Ġlikely": 5145,
      "Ġdakota": 5146,
      "ogy": 5147,
      "Ġbring": 5148,
      "afr": 5149,
      "hon": 5150,
      "hal": 5151,
      "izona": 5152,
      "Ġhighway": 5153,
      "Ġpressure": 5154,
      "singers": 5155,
      "Ġpiece": 5156,
      "Ġmeters": 5157,
      "Ġstarts": 5158,
      "oven": 5159,
      "Ġstopped": 5160,
      "Ġmeant": 5161,
      "dutch": 5162,
      "Ġeyes": 5163,
      "Ġmedalists": 5164,
      "brazil": 5165,
      "Ġvotes": 5166,
      "Ġtwenty": 5167,
      "class": 5168,
      "Ġclosed": 5169,
      "Ġscientific": 5170,
      "inter": 5171,
      "chi": 5172,
      "Ġpoly": 5173,
      "Ġgraph": 5174,
      "died": 5175,
      "Ġpandemic": 5176,
      "Ġnik": 5177,
      "Ġproducts": 5178,
      "Ġdouble": 5179,
      "Ġah": 5180,
      "Ġhay": 5181,
      "hedral": 5182,
      "Ġconcert": 5183,
      "elled": 5184,
      "Ġcompleted": 5185,
      "Ġarran": 5186,
      "Ġglobal": 5187,
      "omy": 5188,
      "Ġassociated": 5189,
      "Ġfeature": 5190,
      "hard": 5191,
      "rock": 5192,
      "reng": 5193,
      "Ã©r": 5194,
      "Ġris": 5195,
      "Ġweight": 5196,
      "Ġwolf": 5197,
      "Ġpul": 5198,
      "stone": 5199,
      "500": 5200,
      "uals": 5201,
      "Ġworldwide": 5202,
      "Ġcomposed": 5203,
      "eman": 5204,
      "Ġsurvey": 5205,
      "Ġjesus": 5206,
      "Ġoxford": 5207,
      "general": 5208,
      "Ġagricult": 5209,
      "Ġacid": 5210,
      "pite": 5211,
      "jew": 5212,
      "Ġtai": 5213,
      "march": 5214,
      "found": 5215,
      "Ġgil": 5216,
      "iday": 5217,
      "yth": 5218,
      "ables": 5219,
      "Ġgeneration": 5220,
      "spec": 5221,
      "zen": 5222,
      "Ġconcept": 5223,
      "Ġrecent": 5224,
      "Ġfreedom": 5225,
      "Ġ32": 5226,
      "1964": 5227,
      "Ġmike": 5228,
      "Ġ83": 5229,
      "Ġdonald": 5230,
      "Ġthing": 5231,
      "Ġlegend": 5232,
      "hs": 5233,
      "Ġvolcan": 5234,
      "Ġeggs": 5235,
      "Ġwatch": 5236,
      "Ġgala": 5237,
      "Ġdream": 5238,
      "Ġdraft": 5239,
      "scient": 5240,
      "Ġdial": 5241,
      "Ġcommander": 5242,
      "Ġloire": 5243,
      "Ġvolley": 5244,
      "cha": 5245,
      "Ġshowed": 5246,
      "uy": 5247,
      "Ġcrew": 5248,
      "cycl": 5249,
      "undesliga": 5250,
      "cons": 5251,
      "Ġmom": 5252,
      "Ġnag": 5253,
      "umn": 5254,
      "Ġmerged": 5255,
      "Ġ76": 5256,
      "Ġcolomb": 5257,
      "Ġfinally": 5258,
      "haw": 5259,
      "ng": 5260,
      "ĠÃ©": 5261,
      "Ġheadquart": 5262,
      "Ġinte": 5263,
      "ados": 5264,
      "erst": 5265,
      "sequ": 5266,
      "Ġyounger": 5267,
      "Ġmaryland": 5268,
      "Ġfat": 5269,
      "aped": 5270,
      "ĠĊĠĊĠĊĠĊĠĊĠĊĠĊĠĊĠĊĠĊĠĊĠĊĠĊĠĊĠĊĠĊ": 5271,
      "Ġhouses": 5272,
      "''": 5273,
      "oka": 5274,
      "sect": 5275,
      "Ġpneum": 5276,
      "ovak": 5277,
      "Ġprogress": 5278,
      "Ġwilson": 5279,
      "Ġreve": 5280,
      "Ġpolitics": 5281,
      "Ġlif": 5282,
      "Ġwr": 5283,
      "Ġhotel": 5284,
      "Ġetc": 5285,
      "Ġhaut": 5286,
      "Ġtreaty": 5287,
      "august": 5288,
      "utenant": 5289,
      "bourne": 5290,
      "Ġmerc": 5291,
      "Ġissues": 5292,
      "Ġvienna": 5293,
      "music": 5294,
      "asc": 5295,
      "Ġjohann": 5296,
      "het": 5297,
      "1966": 5298,
      "Ġchristmas": 5299,
      "Ġju": 5300,
      "under": 5301,
      "pected": 5302,
      "Ġactivists": 5303,
      "coln": 5304,
      "Ġhyg": 5305,
      "Ġsail": 5306,
      "Ġkal": 5307,
      "Ġhart": 5308,
      "Ġdistance": 5309,
      "ager": 5310,
      "Ġevidence": 5311,
      "aily": 5312,
      "zh": 5313,
      "Ġkat": 5314,
      "kee": 5315,
      "Ð¾": 5316,
      "Ġconnecticut": 5317,
      "usc": 5318,
      "Ġconditions": 5319,
      "Ġmeasure": 5320,
      "Ġconflict": 5321,
      "Ġfile": 5322,
      "lyn": 5323,
      "Ġresour": 5324,
      "||||||||||": 5325,
      "Ġbiography": 5326,
      "mor": 5327,
      "Ġgang": 5328,
      "Ġ1919": 5329,
      "Ġ85": 5330,
      "die": 5331,
      "Ġnam": 5332,
      "Ġgene": 5333,
      "hammad": 5334,
      "osis": 5335,
      "Ġclim": 5336,
      "film": 5337,
      "ben": 5338,
      "election": 5339,
      "gn": 5340,
      "Ġsolo": 5341,
      "Ġfederation": 5342,
      "Ġcorporation": 5343,
      "Ġgab": 5344,
      "Ġrate": 5345,
      "ardo": 5346,
      "Ġflood": 5347,
      "Ġscreenwriter": 5348,
      "pson": 5349,
      "Ġdepression": 5350,
      "Ġ95": 5351,
      "uther": 5352,
      "Ġmorning": 5353,
      "Ġscore": 5354,
      "Ġbasic": 5355,
      "astic": 5356,
      "anced": 5357,
      "mel": 5358,
      "Ġsimply": 5359,
      "Ġkinds": 5360,
      "Ġconqu": 5361,
      "Ġ36": 5362,
      "Ġphilip": 5363,
      "osen": 5364,
      "Ġancest": 5365,
      "ione": 5366,
      "Ġcalendar": 5367,
      "anna": 5368,
      "pose": 5369,
      "Ġbit": 5370,
      "Ġcomic": 5371,
      "Ġmanchester": 5372,
      "Ġrapid": 5373,
      "ye": 5374,
      "Ġrab": 5375,
      "sex": 5376,
      "Ġweak": 5377,
      "Ġnhl": 5378,
      "geor": 5379,
      "Ġpieces": 5380,
      "pon": 5381,
      "Ġeye": 5382,
      "top": 5383,
      "Ġtaylor": 5384,
      "Ġbos": 5385,
      "ifor": 5386,
      "fish": 5387,
      "members": 5388,
      "iva": 5389,
      "Ġdrink": 5390,
      "Ġcommunities": 5391,
      "enburg": 5392,
      "Ġjur": 5393,
      "Ġexhib": 5394,
      "Ġcharts": 5395,
      "Ġcathedral": 5396,
      "Ġkilomet": 5397,
      "Ġactually": 5398,
      "Ġappears": 5399,
      "Ġpolicy": 5400,
      "Ġlor": 5401,
      "rect": 5402,
      "Ġpad": 5403,
      "Ġmanufact": 5404,
      "ãĤ": 5405,
      "idel": 5406,
      "inary": 5407,
      "Ġmagn": 5408,
      "Ġbangladesh": 5409,
      "Ġraj": 5410,
      "Ġpractice": 5411,
      "Ġrugby": 5412,
      "Ġintellig": 5413,
      "Ġwhether": 5414,
      "Ġ78": 5415,
      "Ġproduce": 5416,
      "athan": 5417,
      "season": 5418,
      "Ġdenmark": 5419,
      "Ġlabel": 5420,
      "Ġinsp": 5421,
      "Ġislamic": 5422,
      "Ġkobayashi": 5423,
      "Ġwit": 5424,
      "Ġunknown": 5425,
      "Ġversions": 5426,
      "Ġcoun": 5427,
      "Ġsevent": 5428,
      "Ġabb": 5429,
      "january": 5430,
      "izumi": 5431,
      "video": 5432,
      "unk": 5433,
      "Ġdoing": 5434,
      "Ġsuicide": 5435,
      "Ġcommunist": 5436,
      "iber": 5437,
      "sub": 5438,
      "Ġfres": 5439,
      "Ġeconomy": 5440,
      "Ġsin": 5441,
      "Ġremains": 5442,
      "Ġbed": 5443,
      "Ġvia": 5444,
      "Ġromania": 5445,
      "Ġtreatment": 5446,
      "Ġpneumonia": 5447,
      "Ġsongwriter": 5448,
      "Ġvolleyball": 5449,
      "ters": 5450,
      "name": 5451,
      "Ġbright": 5452,
      "urb": 5453,
      "1965": 5454,
      "Ġextra": 5455,
      "Ġcomment": 5456,
      "Ġarizona": 5457,
      "Ġshape": 5458,
      "Ġbacter": 5459,
      "univers": 5460,
      "Ġpowers": 5461,
      "Ġdies": 5462,
      "Ġindustrial": 5463,
      "Ġ79": 5464,
      "Ġstroke": 5465,
      "Ġcos": 5466,
      "Ġfashion": 5467,
      "Ġprogramming": 5468,
      "agu": 5469,
      "aver": 5470,
      "Ġchess": 5471,
      "Ġgarden": 5472,
      "Ġliberal": 5473,
      "alia": 5474,
      "Ġstev": 5475,
      "Ġships": 5476,
      "Ġtherefore": 5477,
      "Ġresist": 5478,
      "Ġlevels": 5479,
      "Ġgalax": 5480,
      "itting": 5481,
      "Ġweapons": 5482,
      "Ġterror": 5483,
      "dra": 5484,
      "Ġdat": 5485,
      "Ġflu": 5486,
      "Ġconsist": 5487,
      "Ġsteve": 5488,
      "gas": 5489,
      "ista": 5490,
      "osed": 5491,
      "spe": 5492,
      "alo": 5493,
      "Ġkit": 5494,
      "ÃŃa": 5495,
      "Ġinfluence": 5496,
      "Ġproperty": 5497,
      "ĠÃ": 5498,
      "Ġstreng": 5499,
      "events": 5500,
      "Ġâ": 5501,
      "Ġnearby": 5502,
      "Ġsenior": 5503,
      "Ġjunior": 5504,
      "Ġ34": 5505,
      "Ġbene": 5506,
      "aro": 5507,
      "Ġtrains": 5508,
      "Ġoperation": 5509,
      "iance": 5510,
      "september": 5511,
      "Ġlux": 5512,
      "Ġreach": 5513,
      "Ġfinn": 5514,
      "uston": 5515,
      "Ġ74": 5516,
      "1963": 5517,
      "Ġcompounds": 5518,
      "Ġregard": 5519,
      "Ġgreg": 5520,
      "Ġhear": 5521,
      "Ġchamber": 5522,
      "Ġ1917": 5523,
      "enge": 5524,
      "lywood": 5525,
      "Ġcolorado": 5526,
      "republ": 5527,
      "Ġlyn": 5528,
      "Ġstore": 5529,
      "Ġserb": 5530,
      "Ġwidely": 5531,
      "fc": 5532,
      "Ġstarred": 5533,
      "ledge": 5534,
      "mid": 5535,
      "asters": 5536,
      "Ġisraeli": 5537,
      "Ġcomplications": 5538,
      "xim": 5539,
      "Ġtradition": 5540,
      "Ġkl": 5541,
      "Ġkam": 5542,
      "Ġvictory": 5543,
      "Ġearthqu": 5544,
      "Ġnepal": 5545,
      "run": 5546,
      "Ġsamp": 5547,
      "april": 5548,
      "Ġlemmon": 5549,
      "Ġdaily": 5550,
      "iden": 5551,
      "Ġends": 5552,
      "kes": 5553,
      "soviet": 5554,
      "cla": 5555,
      "Ġlearn": 5556,
      "july": 5557,
      "Ġremoved": 5558,
      "jab": 5559,
      "Ġturkish": 5560,
      "Ġstanley": 5561,
      "ãģ": 5562,
      "ĠdÃ©": 5563,
      "austrian": 5564,
      "Ġimperial": 5565,
      "Ġvin": 5566,
      "ebec": 5567,
      "Ġprevent": 5568,
      "Ġliga": 5569,
      "Ġkaz": 5570,
      "democratic": 5571,
      "Ġanalysis": 5572,
      "mission": 5573,
      "ographic": 5574,
      "Ġmuslim": 5575,
      "iful": 5576,
      "Ġreferred": 5577,
      "Ġow": 5578,
      "Ġax": 5579,
      "Ġmort": 5580,
      "east": 5581,
      "ÅŁ": 5582,
      "Ġcher": 5583,
      "Ġmention": 5584,
      "illed": 5585,
      "Ġtony": 5586,
      "ras": 5587,
      "Ġscientist": 5588,
      "ocks": 5589,
      "wall": 5590,
      "Ġni": 5591,
      "Ġ81": 5592,
      "Ġattract": 5593,
      "Ġlawrence": 5594,
      "anti": 5595,
      "Ġcav": 5596,
      "Ġactivities": 5597,
      "zz": 5598,
      "Å«": 5599,
      "anded": 5600,
      "design": 5601,
      "Ġiraq": 5602,
      "Ġhappen": 5603,
      "Ġquarter": 5604,
      "egon": 5605,
      "central": 5606,
      "Ã¼n": 5607,
      "Ġmadrid": 5608,
      "jewish": 5609,
      "vd": 5610,
      "Ġ120": 5611,
      "Ġele": 5612,
      "ensity": 5613,
      "Ġcomics": 5614,
      "Ġdivor": 5615,
      "Ġopening": 5616,
      "ante": 5617,
      "Ġclassical": 5618,
      "iat": 5619,
      "Ġford": 5620,
      "june": 5621,
      "Ġchemistry": 5622,
      "Ġtrial": 5623,
      "Ġbag": 5624,
      "Ġcartoon": 5625,
      "Ġmps": 5626,
      "ception": 5627,
      "Ġric": 5628,
      "Ġones": 5629,
      "mart": 5630,
      "Ġimage": 5631,
      "what": 5632,
      "Ġvocal": 5633,
      "iba": 5634,
      "Ġargentine": 5635,
      "Ġliqu": 5636,
      "Ġpersonality": 5637,
      "Ġentered": 5638,
      "Ġportuguese": 5639,
      "ti": 5640,
      "Ġreally": 5641,
      "Ġzone": 5642,
      "Ġcrash": 5643,
      "ef": 5644,
      "Ġmol": 5645,
      "eding": 5646,
      "serie": 5647,
      "Ġinstrument": 5648,
      "Ġkle": 5649,
      "wright": 5650,
      "Ġnumer": 5651,
      "Ġflat": 5652,
      "main": 5653,
      "Ġmarine": 5654,
      "Ġnorwegian": 5655,
      "Ġguide": 5656,
      "Ġtaught": 5657,
      "Ġhorn": 5658,
      "porary": 5659,
      "Ġconservative": 5660,
      "best": 5661,
      "Ġspeech": 5662,
      "Ġcerem": 5663,
      "Ġdrive": 5664,
      "sor": 5665,
      "Ġross": 5666,
      "onstr": 5667,
      "ayer": 5668,
      "Ġfans": 5669,
      "Ġsleep": 5670,
      "Ġburied": 5671,
      "ares": 5672,
      "Ġcinem": 5673,
      "businesspeople": 5674,
      "Ð¸": 5675,
      "Ġlabour": 5676,
      "sal": 5677,
      "ivity": 5678,
      "Ġwalter": 5679,
      "abor": 5680,
      "Ġmarc": 5681,
      "Ġcoal": 5682,
      "leveland": 5683,
      "Ġmaine": 5684,
      "Ġthreat": 5685,
      "Ġneeds": 5686,
      "udi": 5687,
      "Ġcopies": 5688,
      "sim": 5689,
      "Ġjam": 5690,
      "william": 5691,
      "Ġsplit": 5692,
      "Ġhorse": 5693,
      "Ġpreviously": 5694,
      "enezuel": 5695,
      "Ġwins": 5696,
      "Ġbac": 5697,
      "Ġthus": 5698,
      "Ġoregon": 5699,
      "Ġshin": 5700,
      "movie": 5701,
      "Ġcroat": 5702,
      "rupt": 5703,
      "Ġlincoln": 5704,
      "Ġagency": 5705,
      "onse": 5706,
      "Ġtwice": 5707,
      "Ġmissing": 5708,
      "october": 5709,
      "Ġacademic": 5710,
      "orter": 5711,
      "Ġinsect": 5712,
      "izing": 5713,
      "ging": 5714,
      "Ġdoll": 5715,
      "Ġrestaur": 5716,
      "Ġneighbor": 5717,
      "pan": 5718,
      "Ġconfirmed": 5719,
      "Ġ93": 5720,
      "Ġmatter": 5721,
      "Ġremained": 5722,
      "Ġobjects": 5723,
      "Ġ91": 5724,
      "'.": 5725,
      "kov": 5726,
      "Ġcrow": 5727,
      "rison": 5728,
      "cd": 5729,
      "iology": 5730,
      "Ġpig": 5731,
      "lets": 5732,
      "Ġallows": 5733,
      "which": 5734,
      "Ġphysicist": 5735,
      "non": 5736,
      "Ġplane": 5737,
      "Ġcool": 5738,
      "Ġscholar": 5739,
      "feb": 5740,
      "cancer": 5741,
      "Ġgods": 5742,
      "lot": 5743,
      "Ġthin": 5744,
      "ocol": 5745,
      "Ġnintendo": 5746,
      "Ġcreation": 5747,
      "1951": 5748,
      "african": 5749,
      "Ġchosen": 5750,
      "Ġoverall": 5751,
      "Ġprovide": 5752,
      "arus": 5753,
      "arily": 5754,
      "gallery": 5755,
      "Ġgay": 5756,
      "Ġpoll": 5757,
      "france": 5758,
      "Ġfix": 5759,
      "Ġtrust": 5760,
      "Ġeff": 5761,
      "Ġtermin": 5762,
      "Ġgraduated": 5763,
      "Ġsang": 5764,
      "iminal": 5765,
      "gold": 5766,
      "Ġflows": 5767,
      "Ġful": 5768,
      "ogle": 5769,
      "zburg": 5770,
      "abet": 5771,
      "brazilian": 5772,
      "cap": 5773,
      "ding": 5774,
      "rÃ©": 5775,
      "pur": 5776,
      "Ġpic": 5777,
      "Ġbros": 5778,
      "Ġfarm": 5779,
      "rhin": 5780,
      "Ġmp": 5781,
      "Ġ55": 5782,
      "Ġcontent": 5783,
      "Ġtrying": 5784,
      "Ġatom": 5785,
      "Ġsolar": 5786,
      "Ġvs": 5787,
      "bul": 5788,
      "Ġorth": 5789,
      "eller": 5790,
      "Ġslav": 5791,
      "Ġglass": 5792,
      "Ġjord": 5793,
      "ÃŁ": 5794,
      "Ġsurg": 5795,
      "Ġded": 5796,
      "Ġharv": 5797,
      "Ġequal": 5798,
      "Ġil": 5799,
      "inth": 5800,
      "Ġlyr": 5801,
      "Ġ(),": 5802,
      "umber": 5803,
      "swed": 5804,
      "Ġ48": 5805,
      "Ġquestion": 5806,
      "Ġwing": 5807,
      "Ġyout": 5808,
      "ographical": 5809,
      "Ġsuff": 5810,
      "Ġpainting": 5811,
      "Ġbound": 5812,
      "Ġ37": 5813,
      "ibility": 5814,
      "fur": 5815,
      "isi": 5816,
      "Ġrio": 5817,
      "Ġbought": 5818,
      "ez": 5819,
      "lan": 5820,
      "Ġdub": 5821,
      "prof": 5822,
      "Ġincreased": 5823,
      "Ġsaying": 5824,
      "Ġprint": 5825,
      "Ġshop": 5826,
      "1962": 5827,
      "Ġkennedy": 5828,
      "Ġdrugs": 5829,
      "Ġfellow": 5830,
      "Ġ1914": 5831,
      "Ġhawai": 5832,
      "bn": 5833,
      "Ġyet": 5834,
      "Ġcambridge": 5835,
      "Ġmak": 5836,
      "Ġconfeder": 5837,
      "cor": 5838,
      "ety": 5839,
      "uda": 5840,
      "Ġwheel": 5841,
      "Ġcras": 5842,
      "Ġdefense": 5843,
      "names": 5844,
      "Ġtransit": 5845,
      "Ġtaiwan": 5846,
      "erto": 5847,
      "Ġdisplay": 5848,
      "Ġlocation": 5849,
      "Ġattacked": 5850,
      "dav": 5851,
      "Ġsides": 5852,
      "ygen": 5853,
      "Ġsalt": 5854,
      "Ġincrease": 5855,
      "ees": 5856,
      "Ġ82": 5857,
      "black": 5858,
      "Ġarchitecture": 5859,
      "Ġdouglas": 5860,
      "tery": 5861,
      "Ġcontain": 5862,
      "ru": 5863,
      "Ġern": 5864,
      "Ġcel": 5865,
      "Ġdetroit": 5866,
      "Ġsixth": 5867,
      "Ġmathematician": 5868,
      "Ġlad": 5869,
      "Ġexperience": 5870,
      "november": 5871,
      "vol": 5872,
      "onic": 5873,
      "Ġdiscuss": 5874,
      "Ġdefeat": 5875,
      "government": 5876,
      "Ġwave": 5877,
      "Ġfreder": 5878,
      "Ġpup": 5879,
      "Ġ96": 5880,
      "Ġafghanistan": 5881,
      "Ġfinancial": 5882,
      "feld": 5883,
      "Ġscor": 5884,
      "Ġpercent": 5885,
      "Ġbackground": 5886,
      "oly": 5887,
      "Ġcourse": 5888,
      "Ġprec": 5889,
      "Ġhelps": 5890,
      "scientists": 5891,
      "Ġfictional": 5892,
      "ammals": 5893,
      "Ġhamp": 5894,
      "Ġalco": 5895,
      "Ġbeng": 5896,
      "uts": 5897,
      "Ġbear": 5898,
      "uma": 5899,
      "Ġcloth": 5900,
      "Ġbelief": 5901,
      "Ġeasily": 5902,
      "Ġmaxim": 5903,
      "rat": 5904,
      "Ġhip": 5905,
      "Ġgiving": 5906,
      "Ġsolid": 5907,
      "Ġtransfer": 5908,
      "ogen": 5909,
      "van": 5910,
      "Ġhug": 5911,
      "Ġ1912": 5912,
      "Ġnotable": 5913,
      "wart": 5914,
      "Ġarticles": 5915,
      "Ġeagle": 5916,
      "stat": 5917,
      "allas": 5918,
      "Ġrefers": 5919,
      "Ġhttp": 5920,
      "europe": 5921,
      "Ġcow": 5922,
      "Ġhu": 5923,
      "Ġkur": 5924,
      "Ġauthority": 5925,
      "lu": 5926,
      "pers": 5927,
      "Ġwings": 5928,
      "Ġmanip": 5929,
      "Ġhungary": 5930,
      "Ġranked": 5931,
      "Ðµ": 5932,
      "Ġwed": 5933,
      "Ġreasons": 5934,
      "1961": 5935,
      "Ġfruit": 5936,
      "Ġdespite": 5937,
      "Ġearned": 5938,
      "rele": 5939,
      "olis": 5940,
      "Ġindic": 5941,
      "Ġflow": 5942,
      "Ġconsists": 5943,
      "Ġactivity": 5944,
      "Ä±": 5945,
      "centr": 5946,
      "forms": 5947,
      "Ġserving": 5948,
      "Ġ89": 5949,
      "Ġmodels": 5950,
      "Ġdol": 5951,
      "Ġdirection": 5952,
      "bgcolor": 5953,
      "Ġtu": 5954,
      "robert": 5955,
      "Ġbrad": 5956,
      "1945": 5957,
      "Ġwants": 5958,
      "Ġpenins": 5959,
      "Ġindonesia": 5960,
      "ĊĊĠĊ": 5961,
      "Ġsources": 5962,
      "Ġhungarian": 5963,
      "Ġkelly": 5964,
      "Ġaired": 5965,
      "1956": 5966,
      "Ġcass": 5967,
      "Ġmarie": 5968,
      "Ġknight": 5969,
      "pool": 5970,
      "Ġgrass": 5971,
      "awards": 5972,
      "according": 5973,
      "ucted": 5974,
      "Ġcoming": 5975,
      "angel": 5976,
      "Ġexchange": 5977,
      "yo": 5978,
      "mich": 5979,
      "Ġelse": 5980,
      "Ġbuddh": 5981,
      "ski": 5982,
      "olas": 5983,
      "Ġru": 5984,
      "Ġ47": 5985,
      "Ġcomune": 5986,
      "bur": 5987,
      "Ġlewis": 5988,
      "onder": 5989,
      "Ġattorn": 5990,
      "Ġmythology": 5991,
      "ums": 5992,
      "Ġgrowth": 5993,
      "Ġdur": 5994,
      "Ġcovers": 5995,
      "Ġukrainian": 5996,
      "rier": 5997,
      "february": 5998,
      "Ġdj": 5999,
      "Ġreplace": 6000,
      "Ġoak": 6001,
      "child": 6002,
      "Ġdemocr": 6003,
      "Ġsquad": 6004,
      "chers": 6005,
      "nie": 6006,
      "Ġbible": 6007,
      "liest": 6008,
      "Ġlieutenant": 6009,
      "avia": 6010,
      "Ġresponsible": 6011,
      ";\"": 6012,
      "Ġmouth": 6013,
      "Ġpolo": 6014,
      "Ġagent": 6015,
      "Ġsteel": 6016,
      "Ġpilot": 6017,
      "Ġsons": 6018,
      "Ġcaptured": 6019,
      "onde": 6020,
      "Ġul": 6021,
      "Ġelectronic": 6022,
      "Ġaer": 6023,
      "Ġshooting": 6024,
      "Ġhans": 6025,
      "Ġpir": 6026,
      "Ġansw": 6027,
      "Ġdanc": 6028,
      "dorf": 6029,
      "itals": 6030,
      "Ġphilosophy": 6031,
      "Ġ92": 6032,
      "celona": 6033,
      "Ġtouch": 6034,
      "Ġ38": 6035,
      "Ġbuy": 6036,
      "father": 6037,
      "ando": 6038,
      "Ġnotes": 6039,
      "\").": 6040,
      "Ġprix": 6041,
      "Ġdiagn": 6042,
      "Ġsad": 6043,
      "Ġplate": 6044,
      "Ġconvention": 6045,
      "Ġstudios": 6046,
      "Ġquebec": 6047,
      "Ġegyptian": 6048,
      "Ġconductor": 6049,
      "kir": 6050,
      "Ġalumni": 6051,
      "Ġais": 6052,
      "ctors": 6053,
      "Ġdirectly": 6054,
      "Ġparalympics": 6055,
      "Ġcenturies": 6056,
      "Ġgrammy": 6057,
      "Ġburg": 6058,
      "Ġcategory": 6059,
      "Ġbrian": 6060,
      "Ġhousehold": 6061,
      "iop": 6062,
      "later": 6063,
      "Ġdeclared": 6064,
      "Ġbodies": 6065,
      "december": 6066,
      "Ġinstruments": 6067,
      "Ġglobe": 6068,
      "mill": 6069,
      "soc": 6070,
      "Ġwhom": 6071,
      "Ġiranian": 6072,
      "Ġdefin": 6073,
      "Ġleb": 6074,
      "Ġheadquarters": 6075,
      "Ġ33": 6076,
      "Ġattended": 6077,
      "two": 6078,
      "Ġserious": 6079,
      "Ġlyrics": 6080,
      "Ġoperating": 6081,
      "uter": 6082,
      "Ġwalk": 6083,
      "ju": 6084,
      "ordon": 6085,
      "iti": 6086,
      "1959": 6087,
      "Ġvariety": 6088,
      "Ġissue": 6089,
      "Ġsid": 6090,
      "Ġusers": 6091,
      "ÂłÂł": 6092,
      "Ġleaving": 6093,
      "Ġowner": 6094,
      "Ġsiding": 6095,
      "Ġguine": 6096,
      "Ġmobile": 6097,
      "Ġ44": 6098,
      "Ġanimation": 6099,
      "Ġprotection": 6100,
      "Ġarrested": 6101,
      "full": 6102,
      "Ġille": 6103,
      "Ġacts": 6104,
      "Ġ49": 6105,
      "Ġapple": 6106,
      "Ġgenes": 6107,
      "Ġsupporting": 6108,
      "Ġexact": 6109,
      "kan": 6110,
      "ache": 6111,
      "Ġhappens": 6112,
      "Ġmemory": 6113,
      "onian": 6114,
      "Ġ1910": 6115,
      "Ġadam": 6116,
      "Ġ67": 6117,
      "Ġsequel": 6118,
      "Ġannual": 6119,
      "Ġroy": 6120,
      "Ġrecognized": 6121,
      "hens": 6122,
      "Ġpink": 6123,
      "othes": 6124,
      "greg": 6125,
      "load": 6126,
      "ml": 6127,
      "anne": 6128,
      "Ġdro": 6129,
      "Ġgran": 6130,
      "Ġconcentr": 6131,
      "mex": 6132,
      "Ġpaintings": 6133,
      "Ġrural": 6134,
      "Ġmathematics": 6135,
      "Ġgor": 6136,
      "Ġaddress": 6137,
      "Ġfocus": 6138,
      "center": 6139,
      "Ġbulgar": 6140,
      "Ġhits": 6141,
      "sel": 6142,
      "Ġdiet": 6143,
      "kshire": 6144,
      "Ġpoetry": 6145,
      "cop": 6146,
      "mount": 6147,
      "Ġathlete": 6148,
      "Ġsor": 6149,
      "Ġquite": 6150,
      "tropical": 6151,
      "Ġbure": 6152,
      "pton": 6153,
      "oul": 6154,
      "Ġkash": 6155,
      "Ġrid": 6156,
      "presidents": 6157,
      "friend": 6158,
      "Ġcha": 6159,
      "Ġyam": 6160,
      "Ġdavis": 6161,
      "Ġtheor": 6162,
      "Ġconnected": 6163,
      "these": 6164,
      "iko": 6165,
      "Ġanthony": 6166,
      "Ġolympians": 6167,
      "Ġwalt": 6168,
      "Ġsilent": 6169,
      "Ġpatrick": 6170,
      "ingen": 6171,
      "Ġeasy": 6172,
      "Ġmeeting": 6173,
      "Ġ73": 6174,
      "Ġevil": 6175,
      "Ġoxygen": 6176,
      "Ġpin": 6177,
      "abad": 6178,
      "Ġalexand": 6179,
      "Ġrod": 6180,
      "Ġvolume": 6181,
      "republican": 6182,
      "Ġfear": 6183,
      "Ġdiscovery": 6184,
      "Ġpp": 6185,
      "Ġ39": 6186,
      "bird": 6187,
      "Ġsri": 6188,
      "Ġalone": 6189,
      "Ġund": 6190,
      "Ġages": 6191,
      "Ġvide": 6192,
      "Ġvert": 6193,
      "Ġlooks": 6194,
      "Ġsucceed": 6195,
      "Ġfrogs": 6196,
      "hatt": 6197,
      "family": 6198,
      "set": 6199,
      "Ġfern": 6200,
      "Ġrein": 6201,
      "place": 6202,
      "Ġvoices": 6203,
      "Ġfields": 6204,
      "Ġhang": 6205,
      "iano": 6206,
      "Ã©t": 6207,
      "Ġinteract": 6208,
      "Ġdal": 6209,
      "1957": 6210,
      "oli": 6211,
      "Ġpriest": 6212,
      "ods": 6213,
      "ucks": 6214,
      "Ġdragon": 6215,
      "Ġoizumi": 6216,
      "asia": 6217,
      "lishing": 6218,
      "Ġpattern": 6219,
      "Ġconcern": 6220,
      "Ġofficers": 6221,
      "Ġmalays": 6222,
      "Ġplatform": 6223,
      "gi": 6224,
      "Ġhour": 6225,
      "Ġ46": 6226,
      "Ġprovided": 6227,
      "Ġimpact": 6228,
      "enh": 6229,
      "Ġprisoners": 6230,
      "Ġtamil": 6231,
      "Ġmales": 6232,
      "Ġmaterials": 6233,
      "alpes": 6234,
      "Ġforward": 6235,
      "Ġchron": 6236,
      "frog": 6237,
      "Ġethnic": 6238,
      "contin": 6239,
      "military": 6240,
      "Ġcert": 6241,
      "natural": 6242,
      "Ġability": 6243,
      "Ġpeninsula": 6244,
      "oe": 6245,
      "rast": 6246,
      "Ġgi": 6247,
      "Ġambass": 6248,
      "Ġshare": 6249,
      "iki": 6250,
      "Ġhoward": 6251,
      "Ġallen": 6252,
      "Ġ69": 6253,
      "Ġcriminal": 6254,
      "Ġcompared": 6255,
      "Ġcouple": 6256,
      "Ġbeautiful": 6257,
      "urches": 6258,
      "cules": 6259,
      "Ġemerg": 6260,
      "Ġbart": 6261,
      "Ġlgbt": 6262,
      "Ġcontrovers": 6263,
      "Ġplanned": 6264,
      "ulty": 6265,
      "gram": 6266,
      "ifer": 6267,
      "atar": 6268,
      "Ġjenn": 6269,
      "Ġpaid": 6270,
      "Ġrapper": 6271,
      "1958": 6272,
      "aku": 6273,
      "cm": 6274,
      "Ġshel": 6275,
      "Ġcarried": 6276,
      "Ġspect": 6277,
      "ÃŃn": 6278,
      "usal": 6279,
      "Ġtracks": 6280,
      "Ġ118": 6281,
      "Ġ1916": 6282,
      "Ġedge": 6283,
      "Ġsoldier": 6284,
      "Ġtrip": 6285,
      "Ġlongest": 6286,
      "Ġviolin": 6287,
      "Ġward": 6288,
      "Ġfinish": 6289,
      "].": 6290,
      "ishes": 6291,
      "Ġpyr": 6292,
      "stract": 6293,
      "external": 6294,
      "sources": 6295,
      "Ġenemy": 6296,
      "Ã¸": 6297,
      "Ġlank": 6298,
      "Ġraw": 6299,
      "Ġvenezuel": 6300,
      "Ġrangers": 6301,
      "wing": 6302,
      "Ġstated": 6303,
      "Ġtheme": 6304,
      "Ġ1911": 6305,
      "Ġdecision": 6306,
      "ably": 6307,
      "league": 6308,
      "Ġquant": 6309,
      "Ġmyst": 6310,
      "Ġlegs": 6311,
      "ault": 6312,
      "Ġstran": 6313,
      "Ġjournalists": 6314,
      "Ġmethods": 6315,
      "Ġhabit": 6316,
      "Ġvel": 6317,
      "Ġserve": 6318,
      "Ġremix": 6319,
      "Ġbottom": 6320,
      "Ġmotion": 6321,
      "Ġmontreal": 6322,
      "Ġhampshire": 6323,
      "'m": 6324,
      "via": 6325,
      "Ġcolour": 6326,
      "Ġimages": 6327,
      "Ġpoets": 6328,
      "Ġattorney": 6329,
      "Ġfried": 6330,
      "Ġcomputers": 6331,
      "Ġcompletely": 6332,
      "ih": 6333,
      "Ð½": 6334,
      "Ġnote": 6335,
      "Ġlooking": 6336,
      "Ġclaimed": 6337,
      "james": 6338,
      "oa": 6339,
      "Ġagreement": 6340,
      "Ġgiant": 6341,
      "mand": 6342,
      "1955": 6343,
      "Ġ1913": 6344,
      "Ġoperations": 6345,
      "Ġutah": 6346,
      "Ġcontact": 6347,
      "imir": 6348,
      "prime": 6349,
      "Ġguy": 6350,
      "swedish": 6351,
      "jack": 6352,
      "Ġku": 6353,
      "Ġalaska": 6354,
      "Ġoblast": 6355,
      "1946": 6356,
      "Ġveget": 6357,
      "estic": 6358,
      "discography": 6359,
      "Ġfell": 6360,
      "Ġ1915": 6361,
      "Ġcalcul": 6362,
      "Ġborders": 6363,
      "Ġresources": 6364,
      "nia": 6365,
      "Ġforests": 6366,
      "lgbt": 6367,
      "Ġbot": 6368,
      "Ġbey": 6369,
      "Ġillness": 6370,
      "Ġrenamed": 6371,
      "Ġalphabet": 6372,
      "Ġmichel": 6373,
      "leman": 6374,
      "agen": 6375,
      "Ġfemales": 6376,
      "Ġinn": 6377,
      "Ġlack": 6378,
      "Ġvik": 6379,
      "Ġcape": 6380,
      "Ġstrip": 6381,
      "Ġdim": 6382,
      "Ã¤r": 6383,
      "Ġcondition": 6384,
      "iser": 6385,
      "Ġjump": 6386,
      "Ġrober": 6387,
      "Ġeveryone": 6388,
      "Ġhosted": 6389,
      "Ġll": 6390,
      "Ġcolors": 6391,
      "1948": 6392,
      "Ġivan": 6393,
      "while": 6394,
      "Ġimmigr": 6395,
      "cyclop": 6396,
      "mag": 6397,
      "Ġdna": 6398,
      "stit": 6399,
      "Ġperman": 6400,
      "Ġresponse": 6401,
      "Ġay": 6402,
      "Ġholds": 6403,
      "Ġosc": 6404,
      "Ġandre": 6405,
      "Ġbroke": 6406,
      "Ġmars": 6407,
      "Ġunderstand": 6408,
      "uble": 6409,
      "mouth": 6410,
      "otic": 6411,
      "cles": 6412,
      "Ġgray": 6413,
      "1947": 6414,
      "Ġministry": 6415,
      "Ġgrowing": 6416,
      "Ġgallery": 6417,
      "Ġpron": 6418,
      "ords": 6419,
      "designated": 6420,
      "iya": 6421,
      "Ġmanaged": 6422,
      "Ġfra": 6423,
      "Ġlith": 6424,
      "1939": 6425,
      "Ġdefence": 6426,
      "Ġadopted": 6427,
      "Ġdatab": 6428,
      "Ġ300": 6429,
      "Ġsense": 6430,
      "Ġdesigner": 6431,
      "Ġmist": 6432,
      "Ġkon": 6433,
      "Ġarmed": 6434,
      "Ġmilan": 6435,
      "Ġrecently": 6436,
      "elli": 6437,
      "awn": 6438,
      "Ġcolony": 6439,
      "Ã©s": 6440,
      "Ġhindu": 6441,
      ")\"": 6442,
      "Ġton": 6443,
      "Ġ68": 6444,
      "Ġprepar": 6445,
      "Ã¶n": 6446,
      "Ġ1908": 6447,
      "Ġacqu": 6448,
      "Ġknowledge": 6449,
      "netic": 6450,
      "een": 6451,
      "Ġign": 6452,
      "ptoms": 6453,
      "appear": 6454,
      "Ġappearances": 6455,
      "Ã¨s": 6456,
      "Ġwrong": 6457,
      "ĠdÃ©part": 6458,
      "bean": 6459,
      "Ġtol": 6460,
      "1934": 6461,
      "1936": 6462,
      "stad": 6463,
      "ĠĊĠ": 6464,
      "Ġaisne": 6465,
      "isters": 6466,
      "Ġarchae": 6467,
      "Ġsend": 6468,
      "Ġ97": 6469,
      "Ġmelbourne": 6470,
      "Ġtail": 6471,
      "osphere": 6472,
      "Ġpassengers": 6473,
      "Ġbruce": 6474,
      "political": 6475,
      "1949": 6476,
      "Ġeconomics": 6477,
      "Ġdevice": 6478,
      "you": 6479,
      "thew": 6480,
      "Ġrecip": 6481,
      "Ġbrief": 6482,
      "Ġvlad": 6483,
      "Ġpalest": 6484,
      "president": 6485,
      "Ġsugar": 6486,
      "green": 6487,
      "Ġearthquake": 6488,
      "Ġalfred": 6489,
      "1954": 6490,
      "Ġintelligence": 6491,
      "Ġorganized": 6492,
      "ĠjosÃ©": 6493,
      "Ġjay": 6494,
      "wind": 6495,
      "atively": 6496,
      "Ġcopy": 6497,
      "dan": 6498,
      "oshi": 6499,
      "tsburgh": 6500,
      "Ġmicrosoft": 6501,
      "Ġbrun": 6502,
      "Ġnormally": 6503,
      "Ġrud": 6504,
      "Ġmetres": 6505,
      "uces": 6506,
      "Ġrepe": 6507,
      "Ġyoutube": 6508,
      "Ø§": 6509,
      "Ġdancer": 6510,
      "Ġencyclop": 6511,
      "Ġterritories": 6512,
      "Ġsemi": 6513,
      "Ġcloud": 6514,
      "premier": 6515,
      "dale": 6516,
      "Ġanna": 6517,
      "Ġpresented": 6518,
      "ibli": 6519,
      "Ġny": 6520,
      "Ġmargar": 6521,
      "Ġcoc": 6522,
      "Ġsty": 6523,
      "Ġregister": 6524,
      "Ġshah": 6525,
      "Ġadams": 6526,
      "Ġunderground": 6527,
      "Ġbrid": 6528,
      "Ġwaters": 6529,
      "mis": 6530,
      "Ġhat": 6531,
      "andy": 6532,
      "Ġprice": 6533,
      "Ġescape": 6534,
      "Ġlam": 6535,
      "Ġgon": 6536,
      "Ġelectoral": 6537,
      "Ġlists": 6538,
      "Ġmetro": 6539,
      "Ġtitles": 6540,
      "Ġplans": 6541,
      "Ġgoogle": 6542,
      "Ġfollows": 6543,
      "Ġraces": 6544,
      "Ġgulf": 6545,
      "Ġsched": 6546,
      "Ġapproxim": 6547,
      "wealth": 6548,
      "Ġreaction": 6549,
      "uador": 6550,
      "Ġspin": 6551,
      "Ġnovels": 6552,
      "Ġmaint": 6553,
      "Ġvirt": 6554,
      "Ġbann": 6555,
      "Ġrare": 6556,
      "iami": 6557,
      "Ġhands": 6558,
      "Ġnazi": 6559,
      "Ġwy": 6560,
      "||||||": 6561,
      "Ġwarm": 6562,
      "Ġrequired": 6563,
      "tes": 6564,
      "aling": 6565,
      "Ġworth": 6566,
      "Ġbarcelona": 6567,
      "but": 6568,
      "Ġdebuts": 6569,
      "Ġsouthwestern": 6570,
      "Ġfresh": 6571,
      "Ġhappy": 6572,
      "enz": 6573,
      "1933": 6574,
      "Ġscale": 6575,
      "Ġsinging": 6576,
      "Ġresc": 6577,
      "Ġ150": 6578,
      "Ġlands": 6579,
      "Ġcorrect": 6580,
      "Ġdrums": 6581,
      "Ġdanish": 6582,
      "abe": 6583,
      "Ġuniversal": 6584,
      "Ġscript": 6585,
      "Ġconstituency": 6586,
      "Ġ54": 6587,
      "Ġclean": 6588,
      "Ġdistribution": 6589,
      "Ġdangerous": 6590,
      "Ġguinea": 6591,
      "mm": 6592,
      "Ġ57": 6593,
      "Ġsed": 6594,
      "Ġuser": 6595,
      "Ã©rie": 6596,
      "Ġguest": 6597,
      "Ġfavor": 6598,
      "âĢİ": 6599,
      "phone": 6600,
      "Ġparks": 6601,
      "Ġantonio": 6602,
      "bes": 6603,
      "Ġdia": 6604,
      "Ġsimon": 6605,
      "Ġclassification": 6606,
      "jac": 6607,
      "Ġarmenian": 6608,
      "histor": 6609,
      "ÑĢ": 6610,
      "Ġbun": 6611,
      "Ġalan": 6612,
      "Ġrise": 6613,
      "rome": 6614,
      "apes": 6615,
      "low": 6616,
      "Ġsie": 6617,
      "atin": 6618,
      "Ġmagic": 6619,
      "Ġenvironmental": 6620,
      "ĠdÃ©partement": 6621,
      "Ġard": 6622,
      "Ġfailed": 6623,
      "Ġpoems": 6624,
      "Ġaccepted": 6625,
      "Ġcontrolled": 6626,
      "igenous": 6627,
      "Ġsocialist": 6628,
      "tur": 6629,
      "Ġplaywright": 6630,
      "Ġcircle": 6631,
      "eline": 6632,
      "Ġry": 6633,
      "Ġzh": 6634,
      "1942": 6635,
      "Ġdefend": 6636,
      "cat": 6637,
      "si": 6638,
      "wick": 6639,
      "Ġ71": 6640,
      "1937": 6641,
      "achi": 6642,
      "Ġpunk": 6643,
      "Ġnaval": 6644,
      "mary": 6645,
      "oster": 6646,
      "Ġcabinet": 6647,
      "Ġalcohol": 6648,
      "just": 6649,
      "enue": 6650,
      "1929": 6651,
      "Ġfemin": 6652,
      "Ġcombined": 6653,
      "Ã´ne": 6654,
      "Ġambassador": 6655,
      "joy": 6656,
      "oda": 6657,
      "ipedia": 6658,
      "Ġdiego": 6659,
      "Ġ72": 6660,
      "aho": 6661,
      "timore": 6662,
      "var": 6663,
      "Ġagreed": 6664,
      "1920": 6665,
      "Ġdogs": 6666,
      "Ġchristopher": 6667,
      "Ġpurpose": 6668,
      "Ġdy": 6669,
      "Ġ51": 6670,
      "Ġalternative": 6671,
      "oba": 6672,
      "Ġdetect": 6673,
      "Ġlion": 6674,
      "1931": 6675,
      "Ġtheater": 6676,
      "Ġadapt": 6677,
      "Ġcorps": 6678,
      "game": 6679,
      "mitted": 6680,
      "Ġraf": 6681,
      "Ġmaur": 6682,
      "1941": 6683,
      "miss": 6684,
      "Ġcrimes": 6685,
      "Ġinvasion": 6686,
      "ailand": 6687,
      "Ġoccurr": 6688,
      "Ġkev": 6689,
      "Ġofficials": 6690,
      "elve": 6691,
      "Ġchurches": 6692,
      "Ġthrone": 6693,
      "1935": 6694,
      "Ġ400": 6695,
      "Ġassass": 6696,
      "Ġdifference": 6697,
      "1952": 6698,
      "Ġflying": 6699,
      "Ġmiller": 6700,
      "Ġnas": 6701,
      "ello": 6702,
      "Ġbuff": 6703,
      "Ġcalv": 6704,
      "Ġexplos": 6705,
      "david": 6706,
      "white": 6707,
      "Ġtarget": 6708,
      "Ġapplied": 6709,
      "Ġhors": 6710,
      "Ġsales": 6711,
      "frogs": 6712,
      "Ġgrey": 6713,
      "sters": 6714,
      "Ġshell": 6715,
      "Ġlasted": 6716,
      "Ġcontinue": 6717,
      "1938": 6718,
      "uche": 6719,
      "Ġ98": 6720,
      "Ġquality": 6721,
      "Ġsweet": 6722,
      "web": 6723,
      "academ": 6724,
      "second": 6725,
      "Ġbureau": 6726,
      "Ġsain": 6727,
      "aging": 6728,
      "Ġarrondissements": 6729,
      "Ġpuerto": 6730,
      "1944": 6731,
      "Ġeverything": 6732,
      "paul": 6733,
      "incorporated": 6734,
      "Ġdebuted": 6735,
      "Ġlev": 6736,
      "ults": 6737,
      "Ġemb": 6738,
      "Ġtribut": 6739,
      "Ġcircuit": 6740,
      "Ġsymbols": 6741,
      "oro": 6742,
      "odox": 6743,
      "Ġsounds": 6744,
      "Ġsafety": 6745,
      "usalem": 6746,
      "oes": 6747,
      "Äĥ": 6748,
      "Ġpunjab": 6749,
      "was": 6750,
      "Ġlies": 6751,
      "Ġvent": 6752,
      "Ġtreas": 6753,
      "Ġjordan": 6754,
      "Ġestimated": 6755,
      "Ġhighly": 6756,
      "mund": 6757,
      "lee": 6758,
      "tha": 6759,
      "Ġorbit": 6760,
      "Ġalliance": 6761,
      "Ġdescribe": 6762,
      "Ġpersian": 6763,
      "osaurs": 6764,
      "Ġthrow": 6765,
      "ayan": 6766,
      "Ġtries": 6767,
      "Ġfaculty": 6768,
      "hattan": 6769,
      "inner": 6770,
      "Ġhouston": 6771,
      "current": 6772,
      "Ġordered": 6773,
      "Ġchoice": 6774,
      "Ġnak": 6775,
      "ffe": 6776,
      "prov": 6777,
      "Ġker": 6778,
      "Ġlibert": 6779,
      "Ġentry": 6780,
      "Ġvillages": 6781,
      "Ġfaith": 6782,
      "page": 6783,
      "entine": 6784,
      "Ġsettlement": 6785,
      "Ġthousands": 6786,
      "Ġheight": 6787,
      "Ġkarl": 6788,
      "Ġcatch": 6789,
      "Ġbirthday": 6790,
      "aj": 6791,
      "super": 6792,
      "Ġtools": 6793,
      "Ġjuan": 6794,
      "Ġcooper": 6795,
      "Ġcris": 6796,
      "Ġnovelist": 6797,
      "Ñģ": 6798,
      "Ġsave": 6799,
      "Ġpow": 6800,
      "chinese": 6801,
      "adi": 6802,
      "oyd": 6803,
      "Ġhamilton": 6804,
      "Ġiceland": 6805,
      "Ġgained": 6806,
      "akers": 6807,
      "Ġtribe": 6808,
      "Ġbenef": 6809,
      "Ġhollywood": 6810,
      "Ġcontinu": 6811,
      "anthrop": 6812,
      "Ġvas": 6813,
      "1932": 6814,
      "anny": 6815,
      "drama": 6816,
      "Ġinvented": 6817,
      "Ġ66": 6818,
      "Ġliquid": 6819,
      "Ġsure": 6820,
      "cht": 6821,
      "Ġbacteria": 6822,
      "ipment": 6823,
      "Ġreserv": 6824,
      "Ġprovides": 6825,
      "aco": 6826,
      "Ġsell": 6827,
      "atsu": 6828,
      "onomy": 6829,
      "Ġreagan": 6830,
      "ourt": 6831,
      "Ġdisp": 6832,
      "nik": 6833,
      "alle": 6834,
      "Ġnich": 6835,
      "Ġnoted": 6836,
      "uku": 6837,
      "phys": 6838,
      "Ġpays": 6839,
      "Ġlearning": 6840,
      "Ġcolombia": 6841,
      "city": 6842,
      "Ġflower": 6843,
      "Ġspeaker": 6844,
      "Ġfloor": 6845,
      "Ġshrine": 6846,
      "Ġmentioned": 6847,
      "Ġatm": 6848,
      "Ġsingh": 6849,
      "vement": 6850,
      "Ġdc": 6851,
      "Ġwhit": 6852,
      "Ġwrestlers": 6853,
      "Ġoppon": 6854,
      "1953": 6855,
      "Ġbanks": 6856,
      "Ġwelsh": 6857,
      "Ġamaz": 6858,
      "Ġrunner": 6859,
      "Ġdocumentary": 6860,
      "Ġserge": 6861,
      "Ġattention": 6862,
      "Ġpianist": 6863,
      "further": 6864,
      "Ġ43": 6865,
      "books": 6866,
      "Ġpartner": 6867,
      "Ġkw": 6868,
      "Ġharris": 6869,
      "Ġremember": 6870,
      "holm": 6871,
      "Ġmong": 6872,
      "ibbean": 6873,
      "Ġmuslims": 6874,
      "Ġdallas": 6875,
      "Ġkids": 6876,
      "clus": 6877,
      "Ġsche": 6878,
      "before": 6879,
      "Ġsomme": 6880,
      "Ġsv": 6881,
      "Ġgers": 6882,
      "Ġconcer": 6883,
      "Ġrocks": 6884,
      "Ġcounter": 6885,
      "Ġsick": 6886,
      "Ġnel": 6887,
      "utional": 6888,
      "Ġjess": 6889,
      "ocra": 6890,
      "plot": 6891,
      "Ġnom": 6892,
      "irement": 6893,
      "Ġscen": 6894,
      "Ġreality": 6895,
      "bat": 6896,
      "Ġhuge": 6897,
      "Ġchain": 6898,
      "Ġuncle": 6899,
      "iley": 6900,
      "Ġtribes": 6901,
      "wise": 6902,
      "Ġneut": 6903,
      "Ġbry": 6904,
      "Ġanthe": 6905,
      "Ġimmed": 6906,
      "Ġcalvados": 6907,
      "bad": 6908,
      "Ġscene": 6909,
      "Ġoccur": 6910,
      "Ġnegative": 6911,
      "enne": 6912,
      "Ġroger": 6913,
      "Ġwarri": 6914,
      "grand": 6915,
      "atherine": 6916,
      "Ġvirus": 6917,
      "Ġhistorians": 6918,
      "aware": 6919,
      "Ġcuba": 6920,
      "Ġpull": 6921,
      "illes": 6922,
      "bishop": 6923,
      "avel": 6924,
      "Ġmoore": 6925,
      "||||||||||||||||": 6926,
      "Ġrisk": 6927,
      "Ġgordon": 6928,
      "force": 6929,
      "Ġbour": 6930,
      "Ġleaf": 6931,
      "Ġcred": 6932,
      "Ġopposition": 6933,
      "Ġbigger": 6934,
      "Ġlearned": 6935,
      "Ġdialect": 6936,
      "Ġvideos": 6937,
      "Ġnebr": 6938,
      "Ġsynd": 6939,
      "Ġsalv": 6940,
      "Ġri": 6941,
      "Ġconver": 6942,
      "live": 6943,
      "Ġara": 6944,
      "Ġproposed": 6945,
      "Ġmoves": 6946,
      "donald": 6947,
      "bing": 6948,
      "imal": 6949,
      "Ġunique": 6950,
      "Ġski": 6951,
      "Ġstream": 6952,
      "Ġexperim": 6953,
      "Ġmolec": 6954,
      "Ġbilly": 6955,
      "Ġcreating": 6956,
      "Ġremain": 6957,
      "Ġindividuals": 6958,
      "Ġnebraska": 6959,
      "Ġphotographer": 6960,
      "300": 6961,
      "wig": 6962,
      "Ġincome": 6963,
      "Ġdetermin": 6964,
      "Ġsr": 6965,
      "Ġopposite": 6966,
      "Ġatlanta": 6967,
      "Ġinvestig": 6968,
      "ugosl": 6969,
      "Ġhell": 6970,
      "burn": 6971,
      "Ġjerusalem": 6972,
      "sr": 6973,
      "tom": 6974,
      "Ġstraight": 6975,
      "Ġvehicles": 6976,
      "loc": 6977,
      "Ġfuel": 6978,
      "Ġfan": 6979,
      "lead": 6980,
      "ffff": 6981,
      "Ġtranslated": 6982,
      "Ġparticularly": 6983,
      "Ġpear": 6984,
      "Ġdensity": 6985,
      "Ġrick": 6986,
      "Ġcycle": 6987,
      "european": 6988,
      "dise": 6989,
      "Ġau": 6990,
      "Ġtoy": 6991,
      "Ġearliest": 6992,
      "Ġghost": 6993,
      "michael": 6994,
      "enos": 6995,
      "about": 6996,
      "ession": 6997,
      "Ġ42": 6998,
      "Ġsatell": 6999,
      "ipped": 7000,
      "\"),": 7001,
      "Ġlots": 7002,
      "Ġinfluenced": 7003,
      "Ġelectricity": 7004,
      "Ġronald": 7005,
      "rix": 7006,
      "Ġjimmy": 7007,
      "Ġpok": 7008,
      "essed": 7009,
      "Ġclay": 7010,
      "Ġjobs": 7011,
      "Ġfranch": 7012,
      "Ġfranklin": 7013,
      "Ġfinnish": 7014,
      "Ġitems": 7015,
      "Ġkills": 7016,
      "Ġequipment": 7017,
      "Ġmuhammad": 7018,
      "Ġdiseases": 7019,
      "'re": 7020,
      "igo": 7021,
      "1926": 7022,
      "Ġidentity": 7023,
      "ivor": 7024,
      "olo": 7025,
      "Ġteaching": 7026,
      "Ġphone": 7027,
      "original": 7028,
      "eing": 7029,
      "Ġending": 7030,
      "Ġextended": 7031,
      "Ġsymptoms": 7032,
      "Ġkevin": 7033,
      "uits": 7034,
      "usa": 7035,
      "Ġpositions": 7036,
      "Ġgalaxy": 7037,
      "Ġacted": 7038,
      "Ġlaur": 7039,
      "Ġclassic": 7040,
      "Ġflowers": 7041,
      "Ġmunich": 7042,
      "Ġorthodox": 7043,
      "Ġ121": 7044,
      "Ġtwelve": 7045,
      "Ġformerly": 7046,
      "somet": 7047,
      "Ġyor": 7048,
      "Ġexc": 7049,
      "Ġtrail": 7050,
      "Å¡n": 7051,
      "Ġcleveland": 7052,
      "Ġwien": 7053,
      "Ġpel": 7054,
      "Ġbrig": 7055,
      "Ġcarter": 7056,
      "Ġdatabase": 7057,
      "hero": 7058,
      "eva": 7059,
      "Ġpeters": 7060,
      "Ġpy": 7061,
      "Ġpersonnel": 7062,
      "Ġrussell": 7063,
      "1943": 7064,
      "production": 7065,
      "night": 7066,
      "Ġdre": 7067,
      "Ġdates": 7068,
      "anton": 7069,
      "1928": 7070,
      "Ġ59": 7071,
      "aza": 7072,
      "Ġbiology": 7073,
      "zi": 7074,
      "Ġsens": 7075,
      "Ġcontem": 7076,
      "Ġecuador": 7077,
      "Ġottoman": 7078,
      "à¥": 7079,
      "Ġgam": 7080,
      "colle": 7081,
      "Ġparam": 7082,
      "Ġcryst": 7083,
      "rus": 7084,
      "Ġbehavior": 7085,
      "named": 7086,
      "Ã«": 7087,
      "Ġhawaii": 7088,
      "Ġ1907": 7089,
      "Ġviolence": 7090,
      "ogue": 7091,
      "Ġperu": 7092,
      "Ġinjured": 7093,
      "Ġpromoted": 7094,
      "Ġsets": 7095,
      "Ġbegin": 7096,
      "Ġspider": 7097,
      "Ġnothing": 7098,
      "Ġcore": 7099,
      "Ġalger": 7100,
      "Ġanything": 7101,
      "Ġfrederick": 7102,
      "Ġgib": 7103,
      "Ġbaron": 7104,
      "Ġmilk": 7105,
      "Ġnomination": 7106,
      "tit": 7107,
      "arn": 7108,
      "obi": 7109,
      "Ġrif": 7110,
      "Ġarn": 7111,
      "sea": 7112,
      "Ġgenetic": 7113,
      "Ġpair": 7114,
      "Ġconsum": 7115,
      "who": 7116,
      "Ġom": 7117,
      "Ġproductions": 7118,
      "Ġluxemb": 7119,
      "Ġcem": 7120,
      "Ġlang": 7121,
      "ovich": 7122,
      "Ġphill": 7123,
      "Ġpurple": 7124,
      "sam": 7125,
      "Ġhope": 7126,
      "Ġpartners": 7127,
      "Ġzo": 7128,
      "ailed": 7129,
      "Ġaffected": 7130,
      "1927": 7131,
      "Ġcompar": 7132,
      "Ġ94": 7133,
      "Ġtrav": 7134,
      "boy": 7135,
      "Ġlakes": 7136,
      "Ġqueensland": 7137,
      "ocracy": 7138,
      "ancell": 7139,
      "Ġ1906": 7140,
      "Ġmaps": 7141,
      "heimer": 7142,
      "zer": 7143,
      "udio": 7144,
      "Ġdecor": 7145,
      "Ġtrophy": 7146,
      "Ġselection": 7147,
      "Ġinspired": 7148,
      "gh": 7149,
      "Ġplus": 7150,
      "Ġengines": 7151,
      "oir": 7152,
      "Ġ99": 7153,
      "Ġdidn": 7154,
      "Ġrevealed": 7155,
      "Ġtorn": 7156,
      "Ġpatri": 7157,
      "Ġresistance": 7158,
      "arts": 7159,
      "Ġcardinal": 7160,
      "Ġhiro": 7161,
      "ctic": 7162,
      "Ġcommonwealth": 7163,
      "Ġmanhattan": 7164,
      "Ġoccurs": 7165,
      "itter": 7166,
      "asian": 7167,
      "omers": 7168,
      "ĠsÃ£o": 7169,
      "enix": 7170,
      "Ġstayed": 7171,
      "ike": 7172,
      "jamin": 7173,
      "uins": 7174,
      "Ġ140": 7175,
      "Ġlink": 7176,
      "Ġade": 7177,
      "gun": 7178,
      "Ġhid": 7179,
      "ouver": 7180,
      "Ġadults": 7181,
      "hex": 7182,
      "Ġarc": 7183,
      "Ġseem": 7184,
      "Ġ1903": 7185,
      "Ġ1905": 7186,
      "Ġseventh": 7187,
      "big": 7188,
      "lou": 7189,
      "Ġactions": 7190,
      "Ġeric": 7191,
      "Ġperfect": 7192,
      "Ġtechnical": 7193,
      "Ġapproximately": 7194,
      "nn": 7195,
      "Ġfine": 7196,
      "Ġorient": 7197,
      "Ġholland": 7198,
      "Ġthailand": 7199,
      "Ġextrem": 7200,
      "Ġfeaturing": 7201,
      "Ġparticipated": 7202,
      "brew": 7203,
      "pen": 7204,
      "1901": 7205,
      "Ġadvert": 7206,
      "Ġcolumn": 7207,
      "Ġdefined": 7208,
      "Ġlegislative": 7209,
      "Ġreserve": 7210,
      "Ġtrin": 7211,
      "xual": 7212,
      "Ġanat": 7213,
      "Ġheard": 7214,
      "Ġreference": 7215,
      "Ġdisorder": 7216,
      "Ġappe": 7217,
      "Ã¥n": 7218,
      "Ġadventures": 7219,
      "Ġemergency": 7220,
      "Ġdoor": 7221,
      "george": 7222,
      "phe": 7223,
      "imed": 7224,
      "Ġ1909": 7225,
      "Ġunlike": 7226,
      "apolis": 7227,
      "Ġbroken": 7228,
      "Ġresidents": 7229,
      "Ġsalzburg": 7230,
      "illo": 7231,
      "resp": 7232,
      "Ġchristians": 7233,
      "gs": 7234,
      "haus": 7235,
      "Ġjerry": 7236,
      "Ġnigeria": 7237,
      "Ġvic": 7238,
      "Ġcoron": 7239,
      "Ġinfant": 7240,
      "esh": 7241,
      "ario": 7242,
      "Ġdedicated": 7243,
      "Ġillegal": 7244,
      "come": 7245,
      "Ġmargaret": 7246,
      "Ġbath": 7247,
      "Ġprior": 7248,
      "Ġjoint": 7249,
      "Ġtypically": 7250,
      "Ġdiamond": 7251,
      "Ġlanc": 7252,
      "Ġdram": 7253,
      "Ġruler": 7254,
      "mexican": 7255,
      "idency": 7256,
      "htt": 7257,
      "Ġwalls": 7258,
      "Ġthick": 7259,
      "Ġsecondary": 7260,
      "Ġ1901": 7261,
      "Ġnfl": 7262,
      "eless": 7263,
      "Ġedit": 7264,
      "Ġmoroc": 7265,
      "Ġrhyth": 7266,
      "companies": 7267,
      "Ġmental": 7268,
      "erse": 7269,
      "cott": 7270,
      "Ġreprod": 7271,
      "Ġcongressional": 7272,
      "Ġclothing": 7273,
      "Ġkashmir": 7274,
      "Ġchance": 7275,
      "vision": 7276,
      "Ġhurt": 7277,
      "ĠâĢĺ": 7278,
      "Ġhyp": 7279,
      "Ġballet": 7280,
      "Ġarmenia": 7281,
      "Ġwikipedia": 7282,
      "hung": 7283,
      "Ġ41": 7284,
      "ordin": 7285,
      "Ġtraffic": 7286,
      "Ġoperated": 7287,
      "Ġwonder": 7288,
      "Ġmiami": 7289,
      "Ġzoo": 7290,
      "Ġslight": 7291,
      "Ãł": 7292,
      "style": 7293,
      "Ġseg": 7294,
      "ancouver": 7295,
      "Ġroads": 7296,
      "Ġrobinson": 7297,
      "women": 7298,
      "Ġgriff": 7299,
      "Ġpublishing": 7300,
      "Ġ122": 7301,
      "Ġshir": 7302,
      "Ġpatients": 7303,
      "los": 7304,
      "rob": 7305,
      "presents": 7306,
      "Ġremaining": 7307,
      "Ġbroadcasting": 7308,
      "Ġrevolutionary": 7309,
      "Ġspot": 7310,
      "Ġliterary": 7311,
      "aceous": 7312,
      "Ġdick": 7313,
      "ilia": 7314,
      "oku": 7315,
      "oor": 7316,
      "Ġformation": 7317,
      "Ġagriculture": 7318,
      "Ġsurgery": 7319,
      "four": 7320,
      "alan": 7321,
      "urer": 7322,
      "Ġrebell": 7323,
      "Ġonto": 7324,
      "Ġrough": 7325,
      "sis": 7326,
      "inian": 7327,
      "Ġadvance": 7328,
      "called": 7329,
      "Ġgender": 7330,
      "Ġliked": 7331,
      "Ġexplorer": 7332,
      "bill": 7333,
      "iders": 7334,
      "Ġinsects": 7335,
      "sum": 7336,
      "Ġrepresents": 7337,
      "Ġ63": 7338,
      "Ġeconomist": 7339,
      "Ġsymph": 7340,
      "sir": 7341,
      "Ġwet": 7342,
      "Ġmonte": 7343,
      "Ġvehicle": 7344,
      "Ġneuro": 7345,
      "Ġnarr": 7346,
      "fr": 7347,
      "urray": 7348,
      "Ġpersonalities": 7349,
      "Ġmatt": 7350,
      "Ġreflect": 7351,
      "Ġseparated": 7352,
      "Ġcandidates": 7353,
      "cro": 7354,
      "far": 7355,
      "Ġrice": 7356,
      "lotte": 7357,
      "final": 7358,
      "Ġovers": 7359,
      "Ġmall": 7360,
      "Ġboat": 7361,
      "ivia": 7362,
      "1925": 7363,
      "Ġvisual": 7364,
      "Ġadvanced": 7365,
      "Ġcodes": 7366,
      "Ġcarn": 7367,
      "Ġ107": 7368,
      "Ġdivers": 7369,
      "ivan": 7370,
      "uba": 7371,
      "Ġens": 7372,
      "Ġresigned": 7373,
      "scott": 7374,
      "umbent": 7375,
      "Ġcous": 7376,
      "agues": 7377,
      "ichi": 7378,
[...]
