{
  "version": "1.0",
  "truncation": null,
  "padding": null,
  "added_tokens": [
    {
      "id": 4967,
      "content": "<|----|>",
      "single_word": false,
      "lstrip": false,
      "rstrip": false,
      "normalized": false,
      "special": true
    },
    {
      "id": 4968,
      "content": "<|//|>",
      "single_word": false,
      "lstrip": false,
      "rstrip": false,
      "normalized": false,
      "special": true
    },
    {
      "id": 4969,
      "content": "<|tokipona:>",
      "single_word": false,
      "lstrip": false,
      "rstrip": false,
      "normalized": false,
      "special": true
    },
    {
      "id": 4970,
      "content": "<|english:>",
      "single_word": false,
      "lstrip": false,
      "rstrip": false,
      "normalized": false,
      "special": true
    },
    {
      "id": 4971,
      "content": "</english:>",
      "single_word": false,
      "lstrip": false,
      "rstrip": false,
      "normalized": false,
      "special": true
    },
    {
      "id": 4972,
      "content": "</tokipona:>",
      "single_word": false,
      "lstrip": false,
      "rstrip": false,
      "normalized": false,
      "special": true
    },
    {
      "id": 4973,
      "content": "<|lq:>",
      "single_word": false,
      "lstrip": false,
      "rstrip": false,
      "normalized": false,
      "special": true
    },
    {
      "id": 4974,
      "content": "<:lq|>",
      "single_word": false,
      "lstrip": false,
      "rstrip": false,
      "normalized": false,
      "special": true
    },
    {
      "id": 4975,
      "content": "<|hq:>",
      "single_word": false,
      "lstrip": false,
      "rstrip": false,
      "normalized": false,
      "special": true
    },
    {
      "id": 4976,
      "content": "<:hq|>",
      "single_word": false,
      "lstrip": false,
      "rstrip": false,
      "normalized": false,
      "special": true
    },
    {
      "id": 4977,
      "content": "<|!:>",
      "single_word": false,
      "lstrip": false,
      "rstrip": false,
      "normalized": false,
      "special": true
    },
    {
      "id": 4978,
      "content": "<:!|>",
      "single_word": false,
      "lstrip": false,
      "rstrip": false,
      "normalized": false,
      "special": true
    },
    {
      "id": 4979,
      "content": "<|?:>",
      "single_word": false,
      "lstrip": false,
      "rstrip": false,
      "normalized": false,
      "special": true
    },
    {
      "id": 4980,
      "content": "<:?|>",
      "single_word": false,
      "lstrip": false,
      "rstrip": false,
      "normalized": false,
      "special": true
    },
    {
      "id": 4981,
      "content": "<|*:>",
      "single_word": false,
      "lstrip": false,
      "rstrip": false,
      "normalized": false,
      "special": true
    },
    {
      "id": 4982,
      "content": "<:*|>",
      "single_word": false,
      "lstrip": false,
      "rstrip": false,
      "normalized": false,
      "special": true
    },
    {
      "id": 4983,
      "content": "<|-:>",
      "single_word": false,
      "lstrip": false,
      "rstrip": false,
      "normalized": false,
      "special": true
    },
    {
      "id": 4984,
      "content": "<:-|>",
      "single_word": false,
      "lstrip": false,
      "rstrip": false,
      "normalized": false,
      "special": true
    },
    {
      "id": 4985,
      "content": "<|=:>",
      "single_word": false,
      "lstrip": false,
      "rstrip": false,
      "normalized": false,
      "special": true
    },
    {
      "id": 4986,
      "content": "<:=|>",
      "single_word": false,
      "lstrip": false,
      "rstrip": false,
      "normalized": false,
      "special": true
    },
    {
      "id": 4987,
      "content": "<|/:>",
      "single_word": false,
      "lstrip": false,
      "rstrip": false,
      "normalized": false,
      "special": true
    },
    {
      "id": 4988,
      "content": "<:/|>",
      "single_word": false,
      "lstrip": false,
      "rstrip": false,
      "normalized": false,
      "special": true
    },
    {
      "id": 4989,
      "content": "<|@:>",
      "single_word": false,
      "lstrip": false,
      "rstrip": false,
      "normalized": false,
      "special": true
    },
    {
      "id": 4990,
      "content": "<:@|>",
      "single_word": false,
      "lstrip": false,
      "rstrip": false,
      "normalized": false,
      "special": true
    },
    {
      "id": 4991,
      "content": "<|think|>",
      "single_word": false,
      "lstrip": false,
      "rstrip": false,
      "normalized": false,
      "special": true
    },
    {
      "id": 4992,
      "content": "<|p7|>",
      "single_word": false,
      "lstrip": false,
      "rstrip": false,
      "normalized": false,
      "special": true
    },
    {
      "id": 4993,
      "content": "<|p6|>",
      "single_word": false,
      "lstrip": false,
      "rstrip": false,
      "normalized": false,
      "special": true
    },
    {
      "id": 4994,
      "content": "<|p5|>",
      "single_word": false,
      "lstrip": false,
      "rstrip": false,
      "normalized": false,
      "special": true
    },
    {
      "id": 4995,
      "content": "<|p4|>",
      "single_word": false,
      "lstrip": false,
      "rstrip": false,
      "normalized": false,
      "special": true
    },
    {
      "id": 4996,
      "content": "<|p3|>",
      "single_word": false,
      "lstrip": false,
      "rstrip": false,
      "normalized": false,
      "special": true
    },
    {
      "id": 4997,
      "content": "<|p2|>",
      "single_word": false,
      "lstrip": false,
      "rstrip": false,
      "normalized": false,
      "special": true
    },
    {
      "id": 4998,
      "content": "<|p1|>",
      "single_word": false,
      "lstrip": false,
      "rstrip": false,
      "normalized": false,
      "special": true
    },
    {
      "id": 4999,
      "content": "<|p0|>",
      "single_word": false,
      "lstrip": false,
      "rstrip": false,
      "normalized": false,
      "special": true
    }
  ],
  "normalizer": null,
  "pre_tokenizer": {
    "type": "ByteLevel",
    "add_prefix_space": false,
    "trim_offsets": true,
    "use_regex": true
  },
  "post_processor": {
    "type": "ByteLevel",
    "add_prefix_space": true,
    "trim_offsets": false,
    "use_regex": true
  },
  "decoder": {
    "type": "ByteLevel",
    "add_prefix_space": true,
    "trim_offsets": true,
    "use_regex": true
  },
  "model": {
    "type": "BPE",
    "dropout": null,
    "unk_token": null,
    "continuing_subword_prefix": null,
    "end_of_word_suffix": null,
    "fuse_unk": false,
    "byte_fallback": false,
    "ignore_merges": false,
    "vocab": {
      "!": 0,
      "\"": 1,
      "#": 2,
      "$": 3,
      "%": 4,
      "&": 5,
      "'": 6,
      "(": 7,
      ")": 8,
      "*": 9,
      "+": 10,
      ",": 11,
      "-": 12,
      ".": 13,
      "/": 14,
      "0": 15,
      "1": 16,
      "2": 17,
      "3": 18,
      "4": 19,
      "5": 20,
      "6": 21,
      "7": 22,
      "8": 23,
      "9": 24,
      ":": 25,
      ";": 26,
      "<": 27,
      "=": 28,
      ">": 29,
      "?": 30,
      "@": 31,
      "A": 32,
      "B": 33,
      "C": 34,
      "D": 35,
      "E": 36,
      "F": 37,
      "G": 38,
      "H": 39,
      "I": 40,
      "J": 41,
      "K": 42,
      "L": 43,
      "M": 44,
      "N": 45,
      "O": 46,
      "P": 47,
      "Q": 48,
      "R": 49,
      "S": 50,
      "T": 51,
      "U": 52,
      "V": 53,
      "W": 54,
      "X": 55,
      "Y": 56,
      "Z": 57,
      "[": 58,
      "\\": 59,
      "]": 60,
      "^": 61,
      "_": 62,
      "`": 63,
      "a": 64,
      "b": 65,
      "c": 66,
      "d": 67,
      "e": 68,
      "f": 69,
      "g": 70,
      "h": 71,
      "i": 72,
      "j": 73,
      "k": 74,
      "l": 75,
      "m": 76,
      "n": 77,
      "o": 78,
      "p": 79,
      "q": 80,
      "r": 81,
      "s": 82,
      "t": 83,
      "u": 84,
      "v": 85,
      "w": 86,
      "x": 87,
      "y": 88,
      "z": 89,
      "{": 90,
      "|": 91,
      "}": 92,
      "~": 93,
      "¡": 94,
      "¢": 95,
      "£": 96,
      "¤": 97,
      "¥": 98,
      "¦": 99,
      "§": 100,
      "¨": 101,
      "©": 102,
      "ª": 103,
      "«": 104,
      "¬": 105,
      "®": 106,
      "¯": 107,
      "°": 108,
      "±": 109,
      "²": 110,
      "³": 111,
      "´": 112,
      "µ": 113,
      "¶": 114,
      "·": 115,
      "¸": 116,
      "¹": 117,
      "º": 118,
      "»": 119,
      "¼": 120,
      "½": 121,
      "¾": 122,
      "¿": 123,
      "À": 124,
      "Á": 125,
      "Â": 126,
      "Ã": 127,
      "Ä": 128,
      "Å": 129,
      "Æ": 130,
      "Ç": 131,
      "È": 132,
      "É": 133,
      "Ê": 134,
      "Ë": 135,
      "Ì": 136,
      "Í": 137,
      "Î": 138,
      "Ï": 139,
      "Ð": 140,
      "Ñ": 141,
      "Ò": 142,
      "Ó": 143,
      "Ô": 144,
      "Õ": 145,
      "Ö": 146,
      "×": 147,
      "Ø": 148,
      "Ù": 149,
      "Ú": 150,
      "Û": 151,
      "Ü": 152,
      "Ý": 153,
      "Þ": 154,
      "ß": 155,
      "à": 156,
      "á": 157,
      "â": 158,
      "ã": 159,
      "ä": 160,
      "å": 161,
      "æ": 162,
      "ç": 163,
      "è": 164,
      "é": 165,
      "ê": 166,
      "ë": 167,
      "ì": 168,
      "í": 169,
      "î": 170,
      "ï": 171,
      "ð": 172,
      "ñ": 173,
      "ò": 174,
      "ó": 175,
      "ô": 176,
      "õ": 177,
      "ö": 178,
      "÷": 179,
      "ø": 180,
      "ù": 181,
      "ú": 182,
      "û": 183,
      "ü": 184,
      "ý": 185,
      "þ": 186,
      "ÿ": 187,
      "Ā": 188,
      "ā": 189,
      "Ă": 190,
      "ă": 191,
      "Ą": 192,
      "ą": 193,
      "Ć": 194,
      "ć": 195,
      "Ĉ": 196,
      "ĉ": 197,
      "Ċ": 198,
      "ċ": 199,
      "Č": 200,
      "č": 201,
      "Ď": 202,
      "ď": 203,
      "Đ": 204,
      "đ": 205,
      "Ē": 206,
      "ē": 207,
      "Ĕ": 208,
      "ĕ": 209,
      "Ė": 210,
      "ė": 211,
      "Ę": 212,
      "ę": 213,
      "Ě": 214,
      "ě": 215,
      "Ĝ": 216,
      "ĝ": 217,
      "Ğ": 218,
      "ğ": 219,
      "Ġ": 220,
      "ġ": 221,
      "Ģ": 222,
      "ģ": 223,
      "Ĥ": 224,
      "ĥ": 225,
      "Ħ": 226,
      "ħ": 227,
      "Ĩ": 228,
      "ĩ": 229,
      "Ī": 230,
      "ī": 231,
      "Ĭ": 232,
      "ĭ": 233,
      "Į": 234,
      "į": 235,
      "İ": 236,
      "ı": 237,
      "Ĳ": 238,
      "ĳ": 239,
      "Ĵ": 240,
      "ĵ": 241,
      "Ķ": 242,
      "ķ": 243,
      "ĸ": 244,
      "Ĺ": 245,
      "ĺ": 246,
      "Ļ": 247,
      "ļ": 248,
      "Ľ": 249,
      "ľ": 250,
      "Ŀ": 251,
      "ŀ": 252,
      "Ł": 253,
      "ł": 254,
      "Ń": 255,
      "Ġt": 256,
      "Ġa": 257,
      "in": 258,
      "he": 259,
      "re": 260,
      "on": 261,
      "Ġs": 262,
      "Ġ.": 263,
      "Ġ,": 264,
      "Ġthe": 265,
      "Ġc": 266,
      "er": 267,
      "at": 268,
      "Ġo": 269,
      "Ġp": 270,
      "en": 271,
      "is": 272,
      "Ġw": 273,
      "es": 274,
      "Ġf": 275,
      "Ġb": 276,
      "it": 277,
      "ed": 278,
      "Ġ-": 279,
      "Ġm": 280,
      "an": 281,
      "or": 282,
      "al": 283,
      "Ġan": 284,
      "ĠĠ": 285,
      "Ġin": 286,
      "Ġd": 287,
      "ar": 288,
      "Ġof": 289,
      "ion": 290,
      "ic": 291,
      "ĠĊ": 292,
      "Ġ1": 293,
      "ou": 294,
      "Ġand": 295,
      "ing": 296,
      "Ġto": 297,
      "Ġl": 298,
      "ro": 299,
      "Ġ0": 300,
      "Ġh": 301,
      "Ġn": 302,
      "as": 303,
      "Ġ2": 304,
      "le": 305,
      "Ġth": 306,
      "ent": 307,
      "Ġe": 308,
      "Ġg": 309,
      "Ġre": 310,
      "ct": 311,
      "ll": 312,
      "om": 313,
      "st": 314,
      "Ġ:": 315,
      "ve": 316,
      "ot": 317,
      "ation": 318,
      "et": 319,
      "Ġ|": 320,
      "Ġu": 321,
      "Ġis": 322,
      "Ġ3": 323,
      "ly": 324,
      "Ġ)": 325,
      "Ġ(": 326,
      "id": 327,
      "ra": 328,
      "Ġon": 329,
      "Ġfor": 330,
      "ol": 331,
      "im": 332,
      "ig": 333,
      "ut": 334,
      "Ġst": 335,
      "ce": 336,
      "se": 337,
      "Âł": 338,
      "Ġ5": 339,
      "Ġbe": 340,
      "Ġv": 341,
      "ch": 342,
      "Ġ4": 343,
      "Ġy": 344,
      "Ġ9": 345,
      "ĠĊĊ": 346,
      "ow": 347,
      "il": 348,
      "am": 349,
      "ur": 350,
      "âĢ": 351,
      "if": 352,
      "ul": 353,
      "Ġ6": 354,
      "ĠâĢ": 355,
      "ith": 356,
      "Ġcon": 357,
      "Ġpro": 358,
      "ay": 359,
      "Ġr": 360,
      "Ġ8": 361,
      "Ġas": 362,
      "Ġ7": 363,
      "her": 364,
      "Ġwe": 365,
      "ers": 366,
      "Ġwith": 367,
      "ad": 368,
      "Ġthat": 369,
      "ir": 370,
      "Ġde": 371,
      "Ġj": 372,
      "qu": 373,
      "Ġse": 374,
      "Ġyou": 375,
      "ag": 376,
      "Ġhe": 377,
      "ĠÂł": 378,
      "Ġk": 379,
      "Ġit": 380,
      "op": 381,
      "Ġ/": 382,
      "ri": 383,
      "od": 384,
      "um": 385,
      "th": 386,
      "ub": 387,
      "Ġ'": 388,
      "Ġcom": 389,
      "us": 390,
      "ist": 391,
      "ver": 392,
      "Ġ\"": 393,
      "ab": 394,
      "Ġare": 395,
      "est": 396,
      "Ġor": 397,
      "res": 398,
      "Ġwh": 399,
      "Ġthis": 400,
      "ate": 401,
      "Ġ>": 402,
      "Ġex": 403,
      "rom": 404,
      "Ġ<": 405,
      "os": 406,
      "Ġat": 407,
      "ter": 408,
      "Ġby": 409,
      "ĊĊ": 410,
      "ac": 411,
      "oc": 412,
      "pe": 413,
      "ment": 414,
      "Ġch": 415,
      "Ġ[": 416,
      "ity": 417,
      "Ġ]": 418,
      "un": 419,
      "Ġne": 420,
      "Ġal": 421,
      "iv": 422,
      "og": 423,
      "and": 424,
      "ill": 425,
      "ant": 426,
      "ive": 427,
      "em": 428,
      "oun": 429,
      "ess": 430,
      "Ġfrom": 431,
      "Ġun": 432,
      "ore": 433,
      "Ġab": 434,
      "el": 435,
      "Ġwas": 436,
      "Ġsh": 437,
      "ain": 438,
      "Ġnot": 439,
      "ort": 440,
      "fe": 441,
      "ies": 442,
      "Ġi": 443,
      "ated": 444,
      "ure": 445,
      "ren": 446,
      "ak": 447,
      "ction": 448,
      "art": 449,
      "igh": 450,
      "Ġha": 451,
      "ld": 452,
      "pp": 453,
      "ĠĠÂł": 454,
      "Ġpub": 455,
      "Ġen": 456,
      "ud": 457,
      "Ġus": 458,
      "ical": 459,
      "pt": 460,
      "Ġad": 461,
      "Ġcan": 462,
      "Ġar": 463,
      "Ġte": 464,
      "Ġqu": 465,
      "Ġsu": 466,
      "te": 467,
      "ans": 468,
      "our": 469,
      "Ġle": 470,
      "ia": 471,
      "ine": 472,
      "pl": 473,
      "ost": 474,
      "Ġpl": 475,
      "Ġgen": 476,
      "ial": 477,
      "ie": 478,
      "ge": 479,
      "age": 480,
      "Ġcont": 481,
      "Ġhave": 482,
      "red": 483,
      "Ġres": 484,
      "all": 485,
      "Ġ;": 486,
      "ik": 487,
      "Ġcomp": 488,
      "Ġall": 489,
      "ust": 490,
      "ide": 491,
      "Ġac": 492,
      "ast": 493,
      "ard": 494,
      "Ġcl": 495,
      "ther": 496,
      "Ġim": 497,
      "ib": 498,
      "per": 499,
      "ight": 500,
      "ich": 501,
      "Ġwere": 502,
      "the": 503,
      "ome": 504,
      "ip": 505,
      "ok": 506,
      "iz": 507,
      "ĠâĢ¢": 508,
      "for": 509,
      "Ġed": 510,
      "Ġwor": 511,
      "ound": 512,
      "Ġgo": 513,
      "ations": 514,
      "ase": 515,
      "act": 516,
      "xt": 517,
      "Ġme": 518,
      "out": 519,
      "vel": 520,
      "ult": 521,
      "able": 522,
      "cl": 523,
      "Ġtr": 524,
      "ber": 525,
      "med": 526,
      "Ġbut": 527,
      "ous": 528,
      "Ġdis": 529,
      "ould": 530,
      "Ġwill": 531,
      "ress": 532,
      "gh": 533,
      "ions": 534,
      "end": 535,
      "Ġdo": 536,
      "Ġwhe": 537,
      "ary": 538,
      "Ġsc": 539,
      "Ġhas": 540,
      "lis": 541,
      "are": 542,
      "ull": 543,
      "Ġper": 544,
      "du": 545,
      "Ġam": 546,
      "ign": 547,
      "ong": 548,
      "ence": 549,
      "ap": 550,
      "ang": 551,
      "av": 552,
      "Ġph": 553,
      "ph": 554,
      "der": 555,
      "ract": 556,
      "ell": 557,
      "Ġro": 558,
      "Ġno": 559,
      "ĠĊĠĠ": 560,
      "Ġman": 561,
      "Ġwhich": 562,
      "ens": 563,
      "ents": 564,
      "Ġone": 565,
      "ĠĊĊĠĠ": 566,
      "ces": 567,
      "ice": 568,
      "one": 569,
      "ark": 570,
      "so": 571,
      "Ġind": 572,
      "ough": 573,
      "feren": 574,
      "Ġthey": 575,
      "Ġspe": 576,
      "ys": 577,
      "arch": 578,
      "ind": 579,
      "Ġtext": 580,
      "Ġedit": 581,
      "Ġother": 582,
      "Ġyour": 583,
      "Ġfull": 584,
      "ari": 585,
      "ook": 586,
      "ack": 587,
      "own": 588,
      "ff": 589,
      "ree": 590,
      "ame": 591,
      "Ġthere": 592,
      "Ġpat": 593,
      "Ġint": 594,
      "Ġmore": 595,
      "ance": 596,
      "Ġsp": 597,
      "Ġpre": 598,
      "ory": 599,
      "ite": 600,
      "ue": 601,
      "reat": 602,
      "Ġco": 603,
      "ific": 604,
      "ach": 605,
      "Ġrec": 606,
      "Ġnew": 607,
      "ry": 608,
      "Ġadd": 609,
      "ru": 610,
      "ail": 611,
      "Ġif": 612,
      "we": 613,
      "ors": 614,
      "Ġpart": 615,
      "ĊĊĠĠ": 616,
      "Ġup": 617,
      "Ġso": 618,
      "olog": 619,
      "Ġout": 620,
      "Ġinter": 621,
      "Ġtheir": 622,
      "Ġev": 623,
      "ord": 624,
      "Ġsy": 625,
      "port": 626,
      "Ġtim": 627,
      "Ġcomm": 628,
      "Ġalso": 629,
      "iew": 630,
      "form": 631,
      "Ġpublis": 632,
      "ition": 633,
      "ount": 634,
      "erv": 635,
      "Ġag": 636,
      "ates": 637,
      "ĠĠÂłĠĠÂł": 638,
      "rib": 639,
      "ual": 640,
      "Ġabout": 641,
      "Ġpe": 642,
      "ire": 643,
      "Ġreg": 644,
      "Ġ?": 645,
      "Ġwho": 646,
      "Ġpubmed": 647,
      "Ġquot": 648,
      "ile": 649,
      "Ġapp": 650,
      "Ġfe": 651,
      "Ġbl": 652,
      "Ġ%": 653,
      "Ġstud": 654,
      "Ġdif": 655,
      "Ġra": 656,
      "cess": 657,
      "lp": 658,
      "ake": 659,
      "ĠĊĊĠĠĠ": 660,
      "Ġgr": 661,
      "Ġbet": 662,
      "ace": 663,
      "ass": 664,
      "Ġdat": 665,
      "ks": 666,
      "Ġaf": 667,
      "Ġtra": 668,
      "Ġcell": 669,
      "Ġhis": 670,
      "ose": 671,
      "Ġass": 672,
      "Ġpublisher": 673,
      "Ġthan": 674,
      "ĠâĢĻ": 675,
      "ian": 676,
      "ĠÃ": 677,
      "con": 678,
      "Ġ_": 679,
      "Ġmay": 680,
      "stract": 681,
      "ne": 682,
      "Ġbi": 683,
      "Ġspec": 684,
      "ict": 685,
      "ike": 686,
      "Ġsome": 687,
      "Ġhelp": 688,
      "Ġact": 689,
      "Ġmed": 690,
      "au": 691,
      "Ġcent": 692,
      "Ġhow": 693,
      "Ġtw": 694,
      "Ġmet": 695,
      "Ġpo": 696,
      "Ġtrans": 697,
      "Ġcons": 698,
      "ful": 699,
      "fect": 700,
      "ĠÂ": 701,
      "Ġabstract": 702,
      "Ġem": 703,
      "Ġrel": 704,
      "Ġfo": 705,
      "Ġloc": 706,
      "row": 707,
      "ms": 708,
      "Ġpr": 709,
      "Ġinc": 710,
      "ear": 711,
      "ĠâĢľ": 712,
      "ons": 713,
      "Ġbeen": 714,
      "Ġdes": 715,
      "Ġthese": 716,
      "ied": 717,
      "Ġsub": 718,
      "Ġfl": 719,
      "Ġover": 720,
      "Ġwhen": 721,
      "Ġany": 722,
      "ep": 723,
      "Ġexp": 724,
      "Ġuse": 725,
      "uc": 726,
      "Ġmod": 727,
      "Ġnum": 728,
      "Ġkn": 729,
      "Ġdifferen": 730,
      "Ġtime": 731,
      "ics": 732,
      "ative": 733,
      "int": 734,
      "ular": 735,
      "Ġart": 736,
      "ink": 737,
      "Ġ=": 738,
      "Ġsa": 739,
      "ĊĠĠ": 740,
      "Ġcol": 741,
      "way": 742,
      "Ġunder": 743,
      "Ġmo": 744,
      "ased": 745,
      "ĠâĢĿ": 746,
      "Ġoff": 747,
      "ral": 748,
      "Ġmy": 749,
      "ple": 750,
      "Ġsign": 751,
      "ages": 752,
      "Ġquote": 753,
      "Ġthem": 754,
      "lic": 755,
      "Ġwork": 756,
      "ution": 757,
      "Ġmost": 758,
      "Ġonly": 759,
      "ater": 760,
      "clud": 761,
      "ĠÎ": 762,
      "ect": 763,
      "ick": 764,
      "Ġob": 765,
      "Ġatt": 766,
      "ational": 767,
      "alth": 768,
      "ween": 769,
      "Ġdata": 770,
      "ings": 771,
      "Ġtwo": 772,
      "Ġbetween": 773,
      "Ġyear": 774,
      "Ġour": 775,
      "ild": 776,
      "Ġsm": 777,
      "Ġes": 778,
      "Ġits": 779,
      "hed": 780,
      "ced": 781,
      "lect": 782,
      "lo": 783,
      "Ġlike": 784,
      "Ġpres": 785,
      "rit": 786,
      "Ġbook": 787,
      "Ġap": 788,
      "Ġma": 789,
      "Ġanal": 790,
      "Ġbec": 791,
      "iss": 792,
      "na": 793,
      "ps": 794,
      "ally": 795,
      "Ġwhat": 796,
      "ople": 797,
      "Ġinto": 798,
      "ants": 799,
      "ery": 800,
      "Ġprov": 801,
      "wn": 802,
      "ident": 803,
      "Ġget": 804,
      "Ġ!": 805,
      "Ġview": 806,
      "velop": 807,
      "ient": 808,
      "Ġpeople": 809,
      "Ġinclud": 810,
      "Ġaut": 811,
      "Ġinv": 812,
      "Ġfir": 813,
      "Ġimp": 814,
      "Ġprote": 815,
      "this": 816,
      "Ġ+": 817,
      "Ġnumber": 818,
      "stem": 819,
      "ctions": 820,
      "erm": 821,
      "old": 822,
      "cy": 823,
      "ft": 824,
      "Ġcar": 825,
      "ish": 826,
      "Ġdevelop": 827,
      "Ġused": 828,
      "Ġvot": 829,
      "Ġacc": 830,
      "Ġz": 831,
      "Ġhealth": 832,
      "ited": 833,
      "Ġmin": 834,
      "Ġcor": 835,
      "ments": 836,
      "Ġsur": 837,
      "cept": 838,
      "Ġafter": 839,
      "land": 840,
      "ating": 841,
      "Ġhad": 842,
      "Ġprodu": 843,
      "Ġpos": 844,
      "Ġfound": 845,
      "Ġserv": 846,
      "rough": 847,
      "ins": 848,
      "Ġav": 849,
      "oth": 850,
      "les": 851,
      "ility": 852,
      "Ġsupp": 853,
      "Ġdist": 854,
      "search": 855,
      "Ġusing": 856,
      "Ġhigh": 857,
      "Ġdep": 858,
      "Ġwould": 859,
      "Ġmon": 860,
      "Ġjo": 861,
      "Ġfirst": 862,
      "ros": 863,
      "ject": 864,
      "Ġsystem": 865,
      "Ġwik": 866,
      "Ġval": 867,
      "Ġneed": 868,
      "Ġche": 869,
      "Ġgener": 870,
      "als": 871,
      "Ġstudy": 872,
      "Ġinform": 873,
      "Ġartic": 874,
      "sh": 875,
      "Ġdet": 876,
      "erson": 877,
      "ert": 878,
      "Ġnor": 879,
      "ology": 880,
      "Ġrep": 881,
      "Ġbu": 882,
      "Ġwell": 883,
      "Ġcount": 884,
      "tt": 885,
      "Ġgrou": 886,
      "Ġsuch": 887,
      "ĠâĢĵ": 888,
      "pect": 889,
      "Ġsim": 890,
      "Ġsee": 891,
      "ures": 892,
      "Ġorg": 893,
      "ond": 894,
      "ĠĠÂłĠĠÂłĠĊĊ": 895,
      "Ġfun": 896,
      "ities": 897,
      "Ġday": 898,
      "ffect": 899,
      "ox": 900,
      "Ġresult": 901,
      "Ġrev": 902,
      "oci": 903,
      "Ġca": 904,
      "ily": 905,
      "Ġshow": 906,
      "rent": 907,
      "ise": 908,
      "Ġpa": 909,
      "Ġanalys": 910,
      "ible": 911,
      "Ġdifferent": 912,
      "get": 913,
      "Ġdi": 914,
      "very": 915,
      "uring": 916,
      "Ġeffect": 917,
      "Ġeng": 918,
      "llow": 919,
      "ause": 920,
      "ression": 921,
      "Ġsearch": 922,
      "Ġinformation": 923,
      "ath": 924,
      "Ġwhere": 925,
      "Ġent": 926,
      "ange": 927,
      "ious": 928,
      "ov": 929,
      "inal": 930,
      "Ġshould": 931,
      "Ġmany": 932,
      "Ġfind": 933,
      "Ġchar": 934,
      "Ġbr": 935,
      "Ġla": 936,
      "fore": 937,
      "Ġinf": 938,
      "Ġthrough": 939,
      "ients": 940,
      "ood": 941,
      "ade": 942,
      "Ġop": 943,
      "Ġinst": 944,
      "Ġty": 945,
      "Ġset": 946,
      "Ġeach": 947,
      "ram": 948,
      "Ġform": 949,
      "Ġpop": 950,
      "Ġgu": 951,
      "ines": 952,
      "Ġdown": 953,
      "Ġhelpful": 954,
      "Ġprev": 955,
      "hes": 956,
      "Ġpol": 957,
      "Ġweb": 958,
      "ulation": 959,
      "ower": 960,
      "Ġhist": 961,
      "ck": 962,
      "Ġpar": 963,
      "Ġant": 964,
      "Ġthen": 965,
      "Ġvari": 966,
      "Ġmark": 967,
      "Ġprob": 968,
      "Ġlevel": 969,
      "Ġlar": 970,
      "Ġstr": 971,
      "Ġfam": 972,
      "Ġarticle": 973,
      "Ġx": 974,
      "Ġbus": 975,
      "igation": 976,
      "ases": 977,
      "Ġext": 978,
      "Ġfollow": 979,
      "Ġvotes": 980,
      "Ġworld": 981,
      "ern": 982,
      "Ġest": 983,
      "Ġhim": 984,
      "Ġhum": 985,
      "Ġlist": 986,
      "its": 987,
      "Ġexper": 988,
      "igure": 989,
      "ature": 990,
      "Ġfact": 991,
      "man": 992,
      "ified": 993,
      "ric": 994,
      "Ġear": 995,
      "Ġway": 996,
      "ĠĠĠÂł": 997,
      "Ġdec": 998,
      "Ġesv": 999,
      "Ġjust": 1000,
      "Ġcells": 1001,
      "ivers": 1002,
      "Ġend": 1003,
      "Ġincre": 1004,
      "Ġcur": 1005,
      "Ġmu": 1006,
      "Ġinte": 1007,
      "ues": 1008,
      "ically": 1009,
      "Ġmem": 1010,
      "ife": 1011,
      "Ġsour": 1012,
      "rol": 1013,
      "ron": 1014,
      "Ġmar": 1015,
      "Ġpage": 1016,
      "Ġpatients": 1017,
      "ames": 1018,
      "Ġmeth": 1019,
      "ning": 1020,
      "Ġtest": 1021,
      "Ġboth": 1022,
      "Ġhy": 1023,
      "Ġprog": 1024,
      "ale": 1025,
      "aces": 1026,
      "Ġappro": 1027,
      "Ġet": 1028,
      "Ġser": 1029,
      "sel": 1030,
      "Ġrem": 1031,
      "Ġchang": 1032,
      "Ġsch": 1033,
      "Ġgene": 1034,
      "ript": 1035,
      "Ġgreat": 1036,
      "Ġdef": 1037,
      "Ġbased": 1038,
      "Ġreport": 1039,
      "Ġknow": 1040,
      "Ġactiv": 1041,
      "ved": 1042,
      "ism": 1043,
      "ĠĠÂłĠ": 1044,
      "Ġher": 1045,
      "Ġcould": 1046,
      "Ġvers": 1047,
      "ized": 1048,
      "ke": 1049,
      "Ġanalysis": 1050,
      "Ġexam": 1051,
      "Ġgood": 1052,
      "ever": 1053,
      "Ġpartic": 1054,
      "sw": 1055,
      "alk": 1056,
      "hing": 1057,
      "ward": 1058,
      "ols": 1059,
      "ize": 1060,
      "Ġcomple": 1061,
      "cc": 1062,
      "de": 1063,
      "Ġfree": 1064,
      "ices": 1065,
      "Ġduring": 1066,
      "Ġke": 1067,
      "ove": 1068,
      "Ġmake": 1069,
      "gg": 1070,
      "ts": 1071,
      "ribut": 1072,
      "Ġlong": 1073,
      "acter": 1074,
      "ds": 1075,
      "yl": 1076,
      "Ġdon": 1077,
      "avigation": 1078,
      "tern": 1079,
      "ĠĠâĢ": 1080,
      "Ġauth": 1081,
      "cent": 1082,
      "Ġnet": 1083,
      "Ġhere": 1084,
      "raph": 1085,
      "rest": 1086,
      "Ġvery": 1087,
      "ĠĠâĢī": 1088,
      "ty": 1089,
      "other": 1090,
      "ruct": 1091,
      "io": 1092,
      "wor": 1093,
      "Ġcity": 1094,
      "Ġquest": 1095,
      "Ġmain": 1096,
      "Ġthose": 1097,
      "Ġcare": 1098,
      "ined": 1099,
      "Ġcentral": 1100,
      "cript": 1101,
      "Ġopen": 1102,
      "Ġresp": 1103,
      "Ġevery": 1104,
      "Ġshe": 1105,
      "erg": 1106,
      "to": 1107,
      "Ġsou": 1108,
      "ense": 1109,
      "Ġsam": 1110,
      "Ġident": 1111,
      "Ġintern": 1112,
      "Ġbo": 1113,
      "Ġpost": 1114,
      "Ġdisc": 1115,
      "ting": 1116,
      "Ġsequ": 1117,
      "ience": 1118,
      "ision": 1119,
      "ax": 1120,
      "iel": 1121,
      "Ġbel": 1122,
      "Ġbecause": 1123,
      "Ġstat": 1124,
      "chn": 1125,
      "Ġgrow": 1126,
      "Ġaround": 1127,
      "Ġmic": 1128,
      "ttp": 1129,
      "Ġyears": 1130,
      "Ġresearch": 1131,
      "Ġgenes": 1132,
      "Ġassoci": 1133,
      "ization": 1134,
      "gr": 1135,
      "Ġback": 1136,
      "ier": 1137,
      "Ġsl": 1138,
      "Ġlic": 1139,
      "Ġsame": 1140,
      "Ġright": 1141,
      "Ġbar": 1142,
      "Ġansw": 1143,
      "Ġrest": 1144,
      "Ġve": 1145,
      "ock": 1146,
      "hen": 1147,
      "arm": 1148,
      "Ġcre": 1149,
      "Ġstart": 1150,
      "cer": 1151,
      "Ġplay": 1152,
      "Ġhowever": 1153,
      "Ġins": 1154,
      "Ġsupport": 1155,
      "Ġnear": 1156,
      "Ġfans": 1157,
      "Ġrequ": 1158,
      "Ġavail": 1159,
      "urn": 1160,
      "Ġlook": 1161,
      "ared": 1162,
      "ah": 1163,
      "Ġgroup": 1164,
      "ix": 1165,
      "Ġcal": 1166,
      "iron": 1167,
      "Ġrecord": 1168,
      "Ġhuman": 1169,
      "ium": 1170,
      "eric": 1171,
      "Ġprovid": 1172,
      "ten": 1173,
      "Ġkm": 1174,
      "Ġconf": 1175,
      "Ġown": 1176,
      "Ġbeing": 1177,
      "ner": 1178,
      "Ġaddition": 1179,
      "Ġwhile": 1180,
      "Ġstate": 1181,
      "Ġsaid": 1182,
      "ination": 1183,
      "Ġnon": 1184,
      "Ġmodel": 1185,
      "ton": 1186,
      "Ġnow": 1187,
      "Ġdire": 1188,
      "ural": 1189,
      "ality": 1190,
      "Ġagain": 1191,
      "Ġvol": 1192,
      "Ġthree": 1193,
      "Ġsmall": 1194,
      "ateg": 1195,
      "Ġeven": 1196,
      "tle": 1197,
      "ump": 1198,
      "Ġsignific": 1199,
      "Ġimpro": 1200,
      "Ġsay": 1201,
      "Ġstates": 1202,
      "Ġpresent": 1203,
      "Ġsol": 1204,
      "Ġdise": 1205,
      "ness": 1206,
      "Ġmade": 1207,
      "ode": 1208,
      "Ġpublic": 1209,
      "ob": 1210,
      "Ġcommun": 1211,
      "Ġret": 1212,
      "ital": 1213,
      "day": 1214,
      "iness": 1215,
      "ently": 1216,
      "Ġlife": 1217,
      "ogle": 1218,
      "ention": 1219,
      "Ġtri": 1220,
      "Ġmethod": 1221,
      "Ġmat": 1222,
      "Ġavailable": 1223,
      "Ġexpression": 1224,
      "ving": 1225,
      "Ġge": 1226,
      "Ġtechn": 1227,
      "Ġprocess": 1228,
      "Ġ$": 1229,
      "ym": 1230,
      "omet": 1231,
      "Ġlink": 1232,
      "iversity": 1233,
      "Ġfre": 1234,
      "ouse": 1235,
      "ivid": 1236,
      "Ġrun": 1237,
      "Ġdoes": 1238,
      "ex": 1239,
      "ran": 1240,
      "ug": 1241,
      "Ġhistory": 1242,
      "ually": 1243,
      "Ġel": 1244,
      "ince": 1245,
      "ather": 1246,
      "com": 1247,
      "hn": 1248,
      "Ġtem": 1249,
      "Ġread": 1250,
      "vern": 1251,
      "uss": 1252,
      "Ġcy": 1253,
      "Ġpoint": 1254,
      "Ġchanges": 1255,
      "Ġimport": 1256,
      "Ġgoogle": 1257,
      "Ġsw": 1258,
      "Ġpri": 1259,
      "Ġgod": 1260,
      "Ġposs": 1261,
      "ograph": 1262,
      "Ġcontrol": 1263,
      "Ġpath": 1264,
      "Ġcall": 1265,
      "ained": 1266,
      "Ġcontent": 1267,
      "Ġtreat": 1268,
      "ency": 1269,
      "ute": 1270,
      "load": 1271,
      "Ġter": 1272,
      "any": 1273,
      "Ġbefore": 1274,
      "Ġphys": 1275,
      "Ġname": 1276,
      "Ġresults": 1277,
      "Ġ&": 1278,
      "Ġversion": 1279,
      "Ġref": 1280,
      "oy": 1281,
      "Ġlit": 1282,
      "Ġspecific": 1283,
      "Ġfamily": 1284,
      "not": 1285,
      "led": 1286,
      "Ġdem": 1287,
      "Ġ*": 1288,
      "line": 1289,
      "Ġlead": 1290,
      "Ġmeas": 1291,
      "Ġbre": 1292,
      "ived": 1293,
      "Ġsignificant": 1294,
      "co": 1295,
      "Ġchild": 1296,
      "ross": 1297,
      "Ġorgan": 1298,
      "ĠÂ·": 1299,
      "Ġmuch": 1300,
      "Ġvis": 1301,
      "Ġenv": 1302,
      "up": 1303,
      "Ġlib": 1304,
      "Ġgiv": 1305,
      "Ġanswer": 1306,
      "Ġlocated": 1307,
      "ists": 1308,
      "Ġclass": 1309,
      "ribution": 1310,
      "Ġnational": 1311,
      "Ġclin": 1312,
      "Ġadv": 1313,
      "Ġfore": 1314,
      "Ġwater": 1315,
      "Ġdevelopment": 1316,
      "Ġtak": 1317,
      "Ġple": 1318,
      "Ġfigure": 1319,
      "Ġtools": 1320,
      "ential": 1321,
      "Ġunited": 1322,
      "ene": 1323,
      "Ġgovern": 1324,
      "Ġorig": 1325,
      "Ġarea": 1326,
      "son": 1327,
      "Ġmult": 1328,
      "ffic": 1329,
      "Ġtop": 1330,
      "ted": 1331,
      "Ġold": 1332,
      "Ġdid": 1333,
      "Ġprof": 1334,
      "Ġwar": 1335,
      "osp": 1336,
      "Ġtake": 1337,
      "oid": 1338,
      "Ġappe": 1339,
      "Ġhttp": 1340,
      "ological": 1341,
      "Ġameric": 1342,
      "tal": 1343,
      "ves": 1344,
      "Ġgra": 1345,
      "Ġcle": 1346,
      "Ġocc": 1347,
      "ario": 1348,
      "Ġlarge": 1349,
      "Ġknown": 1350,
      "Ġmen": 1351,
      "Ġstand": 1352,
      "Ġmicro": 1353,
      "Ġair": 1354,
      "Ġline": 1355,
      "Ġprim": 1356,
      "ains": 1357,
      "Ġaccess": 1358,
      "Ġ#": 1359,
      "be": 1360,
      "Ġbas": 1361,
      "Ġdel": 1362,
      "Ġhot": 1363,
      "mark": 1364,
      "Ġsecon": 1365,
      "Ġlog": 1366,
      "Ġsite": 1367,
      "Ġcreat": 1368,
      "Ġris": 1369,
      "ration": 1370,
      "ware": 1371,
      "ferences": 1372,
      "Ġenviron": 1373,
      "Ġcop": 1374,
      "ability": 1375,
      "ersonal": 1376,
      "Ġgl": 1377,
      "Ġprotein": 1378,
      "itions": 1379,
      "Ġproject": 1380,
      "Ġincluding": 1381,
      "iqu": 1382,
      "iver": 1383,
      "Ġfil": 1384,
      "Ġlab": 1385,
      "Ġdesign": 1386,
      "Ġinterest": 1387,
      "Ġlow": 1388,
      "Ġplace": 1389,
      "mal": 1390,
      "Ġamong": 1391,
      "Ġfile": 1392,
      "Ġhand": 1393,
      "Ġopt": 1394,
      "az": 1395,
      "Ġwant": 1396,
      "Ġmak": 1397,
      "eng": 1398,
      "Ġwest": 1399,
      "Ġlast": 1400,
      "Ġconst": 1401,
      "Ġfri": 1402,
      "Ġwithin": 1403,
      "Ġindivid": 1404,
      "Ġdirect": 1405,
      "gen": 1406,
      "ired": 1407,
      "uro": 1408,
      "Ġsit": 1409,
      "Ġbest": 1410,
      "Ġwithout": 1411,
      "Ġproduct": 1412,
      "bers": 1413,
      "Ġcour": 1414,
      "lection": 1415,
      "ification": 1416,
      "ina": 1417,
      "Ġexpl": 1418,
      "Ġcancer": 1419,
      "Ġcap": 1420,
      "Ġfunction": 1421,
      "Ġcurrent": 1422,
      "Ġfew": 1423,
      "me": 1424,
      "amp": 1425,
      "agn": 1426,
      "Ġelect": 1427,
      "ĠÂ°": 1428,
      "Ġhig": 1429,
      "Ġauthor": 1430,
      "Ġindividual": 1431,
      "actions": 1432,
      "Ġredu": 1433,
      "Ġbusiness": 1434,
      "cial": 1435,
      "Ġsk": 1436,
      "ĠÂłĠ": 1437,
      "Ġfur": 1438,
      "Ġpower": 1439,
      "ences": 1440,
      "Ġsing": 1441,
      "imate": 1442,
      "Ġpark": 1443,
      "crib": 1444,
      "Ġrele": 1445,
      "read": 1446,
      "Ġsecond": 1447,
      "Ġwom": 1448,
      "Ġrelated": 1449,
      "Ġproble": 1450,
      "rict": 1451,
      "Ġuniversity": 1452,
      "Ġpages": 1453,
      "Ġpot": 1454,
      "idence": 1455,
      "ven": 1456,
      "Ġpopulation": 1457,
      "Ġquestion": 1458,
      "cul": 1459,
      "wh": 1460,
      "Ġpred": 1461,
      "Ġimprove": 1462,
      "Ġenvironment": 1463,
      "edia": 1464,
      "play": 1465,
      "ody": 1466,
      "Ġmaj": 1467,
      "Ġsec": 1468,
      "work": 1469,
      "Ġcond": 1470,
      "Ġcharacter": 1471,
      "Ġstudies": 1472,
      "reen": 1473,
      "osis": 1474,
      "Ġlocal": 1475,
      "ator": 1476,
      "ets": 1477,
      "self": 1478,
      "Ġservice": 1479,
      "Ġww": 1480,
      "Ġgeneral": 1481,
      "Ġless": 1482,
      "Ġsyn": 1483,
      "Ġsuper": 1484,
      "ield": 1485,
      "ged": 1486,
      "ave": 1487,
      "Ġdom": 1488,
      "Ġsource": 1489,
      "Ġeas": 1490,
      "Ġimm": 1491,
      "Ġstre": 1492,
      "rop": 1493,
      "Ġmust": 1494,
      "Ġorder": 1495,
      "Ġspecies": 1496,
      "angu": 1497,
      "Ġtype": 1498,
      "osed": 1499,
      "ars": 1500,
      "Ġthough": 1501,
      "Ġsever": 1502,
      "Ġfollowing": 1503,
      "Ġlim": 1504,
      "ank": 1505,
      "less": 1506,
      "itive": 1507,
      "orn": 1508,
      "ggest": 1509,
      "Ġpur": 1510,
      "Ġdev": 1511,
      "Ġcontribut": 1512,
      "Ġobs": 1513,
      "Ġbro": 1514,
      "Ġland": 1515,
      "oph": 1516,
      "atory": 1517,
      "Ġmight": 1518,
      "Ġlear": 1519,
      "air": 1520,
      "Ġdoc": 1521,
      "Ġur": 1522,
      "ger": 1523,
      "Ġtable": 1524,
      "Ġnavigation": 1525,
      "ives": 1526,
      "Ġnat": 1527,
      "ument": 1528,
      "ways": 1529,
      "ples": 1530,
      "Ġpm": 1531,
      "Ġep": 1532,
      "ilar": 1533,
      "Ġfurther": 1534,
      "Ġequ": 1535,
      "Ġstruct": 1536,
      "atic": 1537,
      "cing": 1538,
      "Ġimportant": 1539,
      "ised": 1540,
      "Ġcost": 1541,
      "Ġnorth": 1542,
      "nal": 1543,
      "view": 1544,
      "etic": 1545,
      "ĠÐ": 1546,
      "ison": 1547,
      "Ġinvest": 1548,
      "Ġsince": 1549,
      "Ġdisease": 1550,
      "Ġmajor": 1551,
      "Ġtown": 1552,
      "Ġfin": 1553,
      "Ġtimes": 1554,
      "ogen": 1555,
      "Ġlaw": 1556,
      "Ġinfl": 1557,
      "Ġer": 1558,
      "Ġâ": 1559,
      "oss": 1560,
      "Ġcase": 1561,
      "ash": 1562,
      "Ġwww": 1563,
      "ai": 1564,
      "ucle": 1565,
      "Ġage": 1566,
      "Ġthink": 1567,
      "ians": 1568,
      "Ġcontin": 1569,
      "Ġsouth": 1570,
      "Ġiss": 1571,
      "aut": 1572,
      "Ġmonth": 1573,
      "Ġallow": 1574,
      "Ġcommon": 1575,
      "Ġmus": 1576,
      "Ġsuggest": 1577,
      "Ġsimilar": 1578,
      "Ġdr": 1579,
      "Ġoper": 1580,
      "Ġfriend": 1581,
      "Ġpolic": 1582,
      "Ġtar": 1583,
      "Ġrisk": 1584,
      "Ġaway": 1585,
      "Ġagainst": 1586,
      "Ġlet": 1587,
      "Ġstill": 1588,
      "Ġbeh": 1589,
      "Ġwee": 1590,
      "Ġtreatment": 1591,
      "ason": 1592,
      "Ġprom": 1593,
      "ries": 1594,
      "Ġindic": 1595,
      "Ġnews": 1596,
      "omic": 1597,
      "Ġpp": 1598,
      "Ġregion": 1599,
      "ann": 1600,
      "til": 1601,
      "Ġpass": 1602,
      "Ġterm": 1603,
      "Ġdisplay": 1604,
      "Ġjohn": 1605,
      "Ġassociated": 1606,
      "Ġcat": 1607,
      "plic": 1608,
      "aff": 1609,
      "ĠâĢĶ": 1610,
      "Ġroad": 1611,
      "Ġmario": 1612,
      "ify": 1613,
      "Ġmeasure": 1614,
      "Ġsal": 1615,
      "ering": 1616,
      "Ġprogram": 1617,
      "ety": 1618,
      "Ġhour": 1619,
      "Ġchange": 1620,
      "hip": 1621,
      "Ġdiff": 1622,
      "from": 1623,
      "une": 1624,
      "Ġphone": 1625,
      "ĠÂłĠĊ": 1626,
      "ane": 1627,
      "ley": 1628,
      "Ġseveral": 1629,
      "jump": 1630,
      "Ġq": 1631,
      "Ġlat": 1632,
      "Ġaddress": 1633,
      "Ġrepres": 1634,
      "ior": 1635,
      "mb": 1636,
      "by": 1637,
      "Ġexample": 1638,
      "Ġinternational": 1639,
      "ides": 1640,
      "Ġcorre": 1641,
      "Ġps": 1642,
      "Ġplaces": 1643,
      "iment": 1644,
      "Ġele": 1645,
      "Ġanother": 1646,
      "oms": 1647,
      "ission": 1648,
      "Ġgovernment": 1649,
      "Ġcr": 1650,
      "Ġfrequ": 1651,
      "Ġhotel": 1652,
      "Ġbra": 1653,
      "ither": 1654,
      "Ġlangu": 1655,
      "und": 1656,
      "Ġopp": 1657,
      "Ġparticip": 1658,
      "cular": 1659,
      "Ġbuild": 1660,
      "ergy": 1661,
      "rodu": 1662,
      "Ġproper": 1663,
      "rap": 1664,
      "ung": 1665,
      "ference": 1666,
      "cle": 1667,
      "ively": 1668,
      "Ġrespect": 1669,
      "Ġcult": 1670,
      "Ġobserv": 1671,
      "ma": 1672,
      "Ġlo": 1673,
      "ĠØ": 1674,
      "Ġlin": 1675,
      "Ġhome": 1676,
      "ids": 1677,
      "lish": 1678,
      "Ġcomb": 1679,
      "rug": 1680,
      "Ġsoft": 1681,
      "Ġchem": 1682,
      "br": 1683,
      "Ġecon": 1684,
      "Ġinvol": 1685,
      "Ġvir": 1686,
      "Ġjour": 1687,
      "Ġrad": 1688,
      "Ġmedic": 1689,
      "iod": 1690,
      "Ġcrit": 1691,
      "artment": 1692,
      "personal": 1693,
      "Ġmedical": 1694,
      "par": 1695,
      "Ġtotal": 1696,
      "Ġable": 1697,
      "Ġpress": 1698,
      "Ġbookmark": 1699,
      "Ġmarket": 1700,
      "Ġlevels": 1701,
      "Ġchildren": 1702,
      "Ġpossible": 1703,
      "Ġsoc": 1704,
      "Ġreview": 1705,
      "Ġtre": 1706,
      "Ġgiven": 1707,
      "Ġgame": 1708,
      "Ġmove": 1709,
      "Ġvalue": 1710,
      "Ġsomet": 1711,
      "Ġmap": 1712,
      "Ġmean": 1713,
      "ĠÃ©": 1714,
      "Ġtarget": 1715,
      "Ġaust": 1716,
      "Ġactivity": 1717,
      "Ġemail": 1718,
      "Ġmor": 1719,
      "Ġrece": 1720,
      "Ġshort": 1721,
      "pes": 1722,
      "Ġpract": 1723,
      "Ġdepend": 1724,
      "box": 1725,
      "Ġreported": 1726,
      "che": 1727,
      "Ġide": 1728,
      "Ġdue": 1729,
      "formed": 1730,
      "bs": 1731,
      "Ġfour": 1732,
      "Ġhouse": 1733,
      "Ġver": 1734,
      "Ġprop": 1735,
      "hib": 1736,
      "Ġfood": 1737,
      "rist": 1738,
      "ats": 1739,
      "olution": 1740,
      "Ġprevious": 1741,
      "aw": 1742,
      "Ġwrit": 1743,
      "Ġsum": 1744,
      "Ġbit": 1745,
      "ury": 1746,
      "Ġapplic": 1747,
      "yr": 1748,
      "mber": 1749,
      "Ġmill": 1750,
      "aining": 1751,
      "Ġcompar": 1752,
      "Ġpredict": 1753,
      "Ġwomen": 1754,
      "vari": 1755,
      "verage": 1756,
      "Ġnext": 1757,
      "ording": 1758,
      "Ġdri": 1759,
      "Ġhigher": 1760,
      "Ġdna": 1761,
      "Ġlicense": 1762,
      "Ġperson": 1763,
      "stand": 1764,
      "Ġdeterm": 1765,
      "Ġste": 1766,
      "Ġheart": 1767,
      "Ġenergy": 1768,
      "Ġdays": 1769,
      "ĠÏ": 1770,
      "Ġnucle": 1771,
      "Ġservices": 1772,
      "Ġreal": 1773,
      "lob": 1774,
      "Ġcreate": 1775,
      "Ġarm": 1776,
      "Ġperiod": 1777,
      "Ġsingle": 1778,
      "Ġadditional": 1779,
      "Ġdeath": 1780,
      "Ġcompany": 1781,
      "yn": 1782,
      "Ġce": 1783,
      "ems": 1784,
      "ret": 1785,
      "Ġshown": 1786,
      "Ġpotential": 1787,
      "Ġhosp": 1788,
      "Ġoften": 1789,
      "Ġthings": 1790,
      "clus": 1791,
      "Ġaccount": 1792,
      "Ġdra": 1793,
      "Ġec": 1794,
      "Ġhead": 1795,
      "ray": 1796,
      "Ġbooks": 1797,
      "Ġwikip": 1798,
      "Ġll": 1799,
      "urs": 1800,
      "ots": 1801,
      "Ġmid": 1802,
      "Ġstatist": 1803,
      "Ġdrug": 1804,
      "Ġgroups": 1805,
      "Ġeffects": 1806,
      "Ġbetter": 1807,
      "Ġmut": 1808,
      "Ġfoc": 1809,
      "Ġir": 1810,
      "Ġsuc": 1811,
      "Ġà": 1812,
      "Ġsources": 1813,
      "Ġå": 1814,
      "Ġrecords": 1815,
      "Ġbeg": 1816,
      "ble": 1817,
      "Ġusers": 1818,
      "cription": 1819,
      "Ġeuro": 1820,
      "Ġleg": 1821,
      "por": 1822,
      "Ġisland": 1823,
      "Ġconne": 1824,
      "Ġput": 1825,
      "Ġleft": 1826,
      "Ġcust": 1827,
      "Ġrate": 1828,
      "Ġcode": 1829,
      "Ġcommunity": 1830,
      "Ġinit": 1831,
      "Ġdescrib": 1832,
      "ertain": 1833,
      "ories": 1834,
      "pr": 1835,
      "Ġoriginal": 1836,
      "ĠÙ": 1837,
      "Ġwalk": 1838,
      "Ġfac": 1839,
      "Ġstandard": 1840,
      "Ġask": 1841,
      "ops": 1842,
      "Ġresour": 1843,
      "Ġtry": 1844,
      "Ġtag": 1845,
      "Ġtalk": 1846,
      "Ġhar": 1847,
      "Ġadded": 1848,
      "Ġmole": 1849,
      "cop": 1850,
      "Ġcd": 1851,
      "Ġassess": 1852,
      "here": 1853,
      "Ġrepresent": 1854,
      "ca": 1855,
      "ider": 1856,
      "Ġcenter": 1857,
      "Ġperform": 1858,
      "add": 1859,
      "Ġcomplete": 1860,
      "Ġcreative": 1861,
      "Ġcalled": 1862,
      "Ġstaff": 1863,
      "Ġcountry": 1864,
      "Ġwebs": 1865,
      "Ġmil": 1866,
      "let": 1867,
      "Ġwiki": 1868,
      "Ġplease": 1869,
      "Ġlight": 1870,
      "Ġnetwork": 1871,
      "Ġindust": 1872,
      "af": 1873,
      "Ġspecial": 1874,
      "Ġlord": 1875,
      "Ġadm": 1876,
      "go": 1877,
      "Ġclinical": 1878,
      "ining": 1879,
      "Ġshare": 1880,
      "Ġamerican": 1881,
      "Ġside": 1882,
      "Ġabs": 1883,
      "Ġtoo": 1884,
      "Ġcome": 1885,
      "Ġmal": 1886,
      "cr": 1887,
      "Ġfar": 1888,
      "Ġsize": 1889,
      "Ġcir": 1890,
      "Ġplan": 1891,
      "Ġfocus": 1892,
      "Ġox": 1893,
      "Ġareas": 1894,
      "Ġbelie": 1895,
      "action": 1896,
      "Ġann": 1897,
      "ploy": 1898,
      "Ġsoftware": 1899,
      "names": 1900,
      "ool": 1901,
      "iple": 1902,
      "Ġaccording": 1903,
      "though": 1904,
      "Ġbiom": 1905,
      "Ġcompared": 1906,
      "Ġtrad": 1907,
      "Ġfactors": 1908,
      "Ġstep": 1909,
      "Ġterms": 1910,
      "Ġobt": 1911,
      "pub": 1912,
      "Ġarch": 1913,
      "ae": 1914,
      "Ġho": 1915,
      "oty": 1916,
      "ably": 1917,
      "Ġsequence": 1918,
      "aim": 1919,
      "ott": 1920,
      "iol": 1921,
      "Ġcho": 1922,
      "Ġdiscuss": 1923,
      "Ġlearn": 1924,
      "Ġjournal": 1925,
      "eth": 1926,
      "Ġcommons": 1927,
      "Ġlittle": 1928,
      "Ġpet": 1929,
      "Ġeither": 1930,
      "Ġnever": 1931,
      "Ġteam": 1932,
      "Ġcustom": 1933,
      "Ġblood": 1934,
      "Ġtax": 1935,
      "Ġgive": 1936,
      "Ġcard": 1937,
      "str": 1938,
      "Ġinclude": 1939,
      "Ġã": 1940,
      "Ġindu": 1941,
      "Ġgenome": 1942,
      "Ġeast": 1943,
      "share": 1944,
      "Ġchrist": 1945,
      "Ġscience": 1946,
      "Ġparticular": 1947,
      "ered": 1948,
      "Ġred": 1949,
      "amm": 1950,
      "lf": 1951,
      "more": 1952,
      "Ġsn": 1953,
      "Ġcomput": 1954,
      "Ġaustral": 1955,
      "face": 1956,
      "cont": 1957,
      "Ġearly": 1958,
      "Ġport": 1959,
      "Ġpriv": 1960,
      "Ġturn": 1961,
      "Ġsens": 1962,
      "Ġexpress": 1963,
      "Ġestim": 1964,
      "navigation": 1965,
      "alu": 1966,
      "ows": 1967,
      "Ġalong": 1968,
      "Ġleast": 1969,
      "Ġwind": 1970,
      "Ġalthough": 1971,
      "ler": 1972,
      "itor": 1973,
      "Ġlove": 1974,
      "Ġunderstand": 1975,
      "Ġbir": 1976,
      "Ġuntil": 1977,
      "Ġeduc": 1978,
      "Ġmanage": 1979,
      "you": 1980,
      "cher": 1981,
      "Ġmot": 1982,
      "Ġtherefore": 1983,
      "ores": 1984,
      "Ġwat": 1985,
      "cted": 1986,
      "Ġattack": 1987,
      "Ġjan": 1988,
      "Ġsuccess": 1989,
      "ĠĠĠÂłĠ": 1990,
      "Ġsocial": 1991,
      "rev": 1992,
      "Ġbat": 1993,
      "Ġregul": 1994,
      "aur": 1995,
      "reg": 1996,
      "Ġrange": 1997,
      "Ġsumm": 1998,
      "Ġpay": 1999,
      "Ġii": 2000,
      "Ġeurope": 2001,
      "paces": 2002,
      "Ġstra": 2003,
      "Ġking": 2004,
      "ych": 2005,
      "Ġstrong": 2006,
      "Ġgrowth": 2007,
      "Ġrecently": 2008,
      "variants": 2009,
      "Ġwikipedia": 2010,
      "Ġinstit": 2011,
      "Ġlooking": 2012,
      "Ġfr": 2013,
      "Ġquality": 2014,
      "ground": 2015,
      "Ġexpect": 2016,
      "Ġrole": 2017,
      "namespaces": 2018,
      "figure": 2019,
      "li": 2020,
      "Ġlower": 2021,
      "Ġhard": 2022,
      "itud": 2023,
      "eds": 2024,
      "fer": 2025,
      "Ġthus": 2026,
      "Ġplant": 2027,
      "Ġregist": 2028,
      "enn": 2029,
      "ope": 2030,
      "Ġproteins": 2031,
      "Ġdepartment": 2032,
      "Ġsection": 2033,
      "Ġkeep": 2034,
      "Ġwr": 2035,
      "Ġenc": 2036,
      "Ġlicens": 2037,
      "lished": 2038,
      "ledge": 2039,
      "Ġder": 2040,
      "Ġstrateg": 2041,
      "there": 2042,
      "Ġaug": 2043,
      "thing": 2044,
      "Ġexist": 2045,
      "most": 2046,
      "Ġalways": 2047,
      "Ġpoly": 2048,
      "Ġseen": 2049,
      "Ġindex": 2050,
      "Ġá": 2051,
      "ino": 2052,
      "Ġconc": 2053,
      "Ġcaus": 2054,
      "ux": 2055,
      "hem": 2056,
      "Ġda": 2057,
      "idered": 2058,
      "Ġengine": 2059,
      "Ġincreased": 2060,
      "itra": 2061,
      "Ġshall": 2062,
      "Ġdifference": 2063,
      "Ġenglish": 2064,
      "Ġearth": 2065,
      "Ġpolicy": 2066,
      "iation": 2067,
      "uk": 2068,
      "Ġill": 2069,
      "Ġstructure": 2070,
      "Ġhal": 2071,
      "Ġcomplex": 2072,
      "onse": 2073,
      "Ġsun": 2074,
      "ators": 2075,
      "Ġhost": 2076,
      "Ġprot": 2077,
      "Ġpatient": 2078,
      "Ġconsidered": 2079,
      "Ġanc": 2080,
      "Ġdam": 2081,
      "Ġyet": 2082,
      "Ġsil": 2083,
      "Ġmass": 2084,
      "Ġmater": 2085,
      "Ġrecept": 2086,
      "Ġphysical": 2087,
      "Ġhapp": 2088,
      "Ġrecent": 2089,
      "Ġmembers": 2090,
      "Ġtiss": 2091,
      "atures": 2092,
      "acy": 2093,
      "Ġos": 2094,
      "omes": 2095,
      "Ġusa": 2096,
      "Ġincrease": 2097,
      "els": 2098,
      "lected": 2099,
      "ography": 2100,
      "Ġonline": 2101,
      "Ġprovide": 2102,
      "ng": 2103,
      "isf": 2104,
      "oney": 2105,
      "Ġnormal": 2106,
      "vers": 2107,
      "yt": 2108,
      "Ġabove": 2109,
      "ended": 2110,
      "Ġmr": 2111,
      "chan": 2112,
      "Ġtour": 2113,
      "ĠĠâĢīĠ": 2114,
      "Ġresponse": 2115,
      "Ġappear": 2116,
      "Ġdocument": 2117,
      "Ġweek": 2118,
      "Ġcamp": 2119,
      "Ġru": 2120,
      "pro": 2121,
      "Ġwebsite": 2122,
      "Ġcases": 2123,
      "Ġbig": 2124,
      "iving": 2125,
      "Ġje": 2126,
      "Ġnatural": 2127,
      "Ġreferences": 2128,
      "Ġrat": 2129,
      "Ġaccept": 2130,
      "ches": 2131,
      "itravel": 2132,
      "Ġmount": 2133,
      "Ġju": 2134,
      "new": 2135,
      "Ġdate": 2136,
      "olbox": 2137,
      "Ġclear": 2138,
      "ones": 2139,
      "ately": 2140,
      "Ġsites": 2141,
      "Ġacross": 2142,
      "ling": 2143,
      "eral": 2144,
      "Ġpd": 2145,
      "Ġfa": 2146,
      "Ġbur": 2147,
      "ney": 2148,
      "ote": 2149,
      "Ġlater": 2150,
      "Ġrelations": 2151,
      "Ġwikitravel": 2152,
      "yright": 2153,
      "Ġang": 2154,
      "Ġlikely": 2155,
      "bo": 2156,
      "Ġcoun": 2157,
      "Ġforest": 2158,
      "ances": 2159,
      "ronic": 2160,
      "Ġmultiple": 2161,
      "ĠÎ¼": 2162,
      "of": 2163,
      "Ġwhether": 2164,
      "Ġsystems": 2165,
      "Ġproblem": 2166,
      "Ġpsych": 2167,
      "ror": 2168,
      "Ġgoing": 2169,
      "Ġphot": 2170,
      "Ġsubject": 2171,
      "Ġmethods": 2172,
      "Ġanim": 2173,
      "Ġclose": 2174,
      "Ġbecome": 2175,
      "ml": 2176,
      "Ġoct": 2177,
      "Ġfem": 2178,
      "Ġneg": 2179,
      "Ġevalu": 2180,
      "Ġnight": 2181,
      "Ġkey": 2182,
      "Ġaff": 2183,
      "omy": 2184,
      "Ġmeet": 2185,
      "aster": 2186,
      "Ġonce": 2187,
      "Ġinflu": 2188,
      "back": 2189,
      "over": 2190,
      "Ġpain": 2191,
      "Ġbind": 2192,
      "Ġmm": 2193,
      "Ġclust": 2194,
      "wards": 2195,
      "Ġrequired": 2196,
      "Ġstreet": 2197,
      "Ġmanagement": 2198,
      "uck": 2199,
      "Ġtemper": 2200,
      "Ġoccur": 2201,
      "Ġdest": 2202,
      "toolbox": 2203,
      "ique": 2204,
      "lobal": 2205,
      "Ġdatab": 2206,
      "Ġrelative": 2207,
      "Ġcheck": 2208,
      "Ġworking": 2209,
      "Ġlibr": 2210,
      "Ġdiagn": 2211,
      "Ġhours": 2212,
      "ze": 2213,
      "Ġuser": 2214,
      "Ġdeg": 2215,
      "abet": 2216,
      "ember": 2217,
      "Ġperformed": 2218,
      "Ġvalues": 2219,
      "inc": 2220,
      "Ġcateg": 2221,
      "ensive": 2222,
      "Ġblog": 2223,
      "Ġauthors": 2224,
      "Ġfive": 2225,
      "Ġacid": 2226,
      "Ġfut": 2227,
      "Ġmonths": 2228,
      "su": 2229,
      "ime": 2230,
      "osph": 2231,
      "ival": 2232,
      "Ġcontact": 2233,
      "Ġdetail": 2234,
      "Ġcounty": 2235,
      "itation": 2236,
      "Ġothers": 2237,
      "Ġattribution": 2238,
      "Ġpolit": 2239,
      "Ġpast": 2240,
      "Ġwhy": 2241,
      "Ġbehav": 2242,
      "Ġpers": 2243,
      "Ġhaving": 2244,
      "epend": 2245,
      "Ġcross": 2246,
      "Ġreally": 2247,
      "amet": 2248,
      "ored": 2249,
      "ption": 2250,
      "Ġhospital": 2251,
      "Ġconcent": 2252,
      "Ġschool": 2253,
      "Ġapproach": 2254,
      "mit": 2255,
      "put": 2256,
      "Ġsoci": 2257,
      "rie": 2258,
      "Ġapr": 2259,
      "Ġdownload": 2260,
      "Ġcut": 2261,
      "Ġconditions": 2262,
      "pa": 2263,
      "uary": 2264,
      "Ġsat": 2265,
      "Ġml": 2266,
      "roll": 2267,
      "olar": 2268,
      "Ġrand": 2269,
      "Ġmechan": 2270,
      "Ġprimary": 2271,
      "asing": 2272,
      "ille": 2273,
      "Ġdistribution": 2274,
      "Ġself": 2275,
      "Ġsamples": 2276,
      "Ġfail": 2277,
      "Ġmoney": 2278,
      "Ġevidence": 2279,
      "rapy": 2280,
      "ec": 2281,
      "Ġenough": 2282,
      "Ġsym": 2283,
      "Ġobserved": 2284,
      "Ġwin": 2285,
      "Ġaffect": 2286,
      "Ġidentified": 2287,
      "ctor": 2288,
      "ili": 2289,
      "Ġoffic": 2290,
      "lation": 2291,
      "Ġfield": 2292,
      "Ġinterv": 2293,
      "Ġexperiment": 2294,
      "Ġriver": 2295,
      "Ġconsider": 2296,
      "Ġsomething": 2297,
      "ogn": 2298,
      "Ġpositive": 2299,
      "Ġmer": 2300,
      "ama": 2301,
      "ips": 2302,
      "Ġmeans": 2303,
      "Ġprovided": 2304,
      "Ġmaking": 2305,
      "itional": 2306,
      "Ġsample": 2307,
      "Ġtechnology": 2308,
      "Ġcertain": 2309,
      "ata": 2310,
      "ĠĊĊĊ": 2311,
      "Ġworks": 2312,
      "Ġpaper": 2313,
      "Ġrespons": 2314,
      "Ġresources": 2315,
      "do": 2316,
      "Ġreason": 2317,
      "hi": 2318,
      "Ġsan": 2319,
      "Ġhom": 2320,
      "Ġdetect": 2321,
      "Ġimmun": 2322,
      "Ġpattern": 2323,
      "Ġupon": 2324,
      "Ġcountries": 2325,
      "Ġbiomed": 2326,
      "Ġdou": 2327,
      "Ġroom": 2328,
      "Ġpublished": 2329,
      "auth": 2330,
      "ibility": 2331,
      "acc": 2332,
      "Ġindepend": 2333,
      "ĠÎ±": 2334,
      "resp": 2335,
      "Ġproduction": 2336,
      "Ġinn": 2337,
      "ional": 2338,
      "rad": 2339,
      "Ġfall": 2340,
      "Ġsurve": 2341,
      "Ġenvironmental": 2342,
      "Ġvarious": 2343,
      "Ġpresident": 2344,
      "Ġfund": 2345,
      "ss": 2346,
      "Ġson": 2347,
      "Ġgreen": 2348,
      "Ġemploy": 2349,
      "Ġneeds": 2350,
      "Ġfuture": 2351,
      "Ġgerm": 2352,
      "Ġstation": 2353,
      "Ġeditor": 2354,
      "Ġanti": 2355,
      "Ġbreak": 2356,
      "ĠĠÂłĠĠÂłĠĠÂłĠĠÂł": 2357,
      "Ġfactor": 2358,
      "Ġfire": 2359,
      "ana": 2360,
      "Ġdone": 2361,
      "roph": 2362,
      "cell": 2363,
      "Ġnothing": 2364,
      "Ġincluded": 2365,
      "Ġbrow": 2366,
      "Ġnature": 2367,
      "Ġthir": 2368,
      "pat": 2369,
      "ĠĠĠĠ": 2370,
      "ham": 2371,
      "mon": 2372,
      "omm": 2373,
      "ring": 2374,
      "Ġbill": 2375,
      "ford": 2376,
      "apt": 2377,
      "Ġtit": 2378,
      "Ġtum": 2379,
      "Ġbody": 2380,
      "Ġimage": 2381,
      "ults": 2382,
      "Ġseries": 2383,
      "Ġsequences": 2384,
      "Ġlive": 2385,
      "Ġdece": 2386,
      "ables": 2387,
      "Ġusually": 2388,
      "Ġsci": 2389,
      "Ġagree": 2390,
      "hold": 2391,
      "Ġtoday": 2392,
      "these": 2393,
      "isms": 2394,
      "ivity": 2395,
      "Ġmiss": 2396,
      "Ġappl": 2397,
      "Ġmember": 2398,
      "Ġamount": 2399,
      "Ġhyp": 2400,
      "Ġhit": 2401,
      "Ġvote": 2402,
      "Ġexperience": 2403,
      "off": 2404,
      "Ġvill": 2405,
      "Ġwide": 2406,
      "ensus": 2407,
      "Ġvisit": 2408,
      "gest": 2409,
      "Ġshop": 2410,
      "Ġrestaur": 2411,
      "Ġfra": 2412,
      "Ġbase": 2413,
      "ste": 2414,
      "Ġrich": 2415,
      "Ġquotation": 2416,
      "Ġlisting": 2417,
      "bert": 2418,
      "Ġavoid": 2419,
      "Ġcalcul": 2420,
      "Ġcoll": 2421,
      "Ġshowed": 2422,
      "key": 2423,
      "Ġrandom": 2424,
      "ilt": 2425,
      "Ġheav": 2426,
      "verse": 2427,
      "aps": 2428,
      "Ġmc": 2429,
      "Ġprovides": 2430,
      "Ġobtained": 2431,
      "Ġmaterial": 2432,
      "ites": 2433,
      "Ġglobal": 2434,
      "Ġintegr": 2435,
      "Ġtoget": 2436,
      "Ġrather": 2437,
      "itude": 2438,
      "Ġtogether": 2439,
      "my": 2440,
      "Ġpack": 2441,
      "Ġcannot": 2442,
      "Ġpercent": 2443,
      "reek": 2444,
      "Ġproblems": 2445,
      "ura": 2446,
      "inist": 2447,
      "Ġren": 2448,
      "Ġconsum": 2449,
      "xim": 2450,
      "Ġarg": 2451,
      "Ġenter": 2452,
      "Ġinhib": 2453,
      "Ġkill": 2454,
      "ires": 2455,
      "yle": 2456,
      "Ġic": 2457,
      "Ġpan": 2458,
      "orm": 2459,
      "Ġsubst": 2460,
      "Ġsignal": 2461,
      "Ġestab": 2462,
      "Ġlanguages": 2463,
      "Ġshows": 2464,
      "Ġmarch": 2465,
      "Ġblack": 2466,
      "Ġsubs": 2467,
      "Ġpal": 2468,
      "Ġbal": 2469,
      "Ġeffic": 2470,
      "Ġpharm": 2471,
      "Ġimpact": 2472,
      "Ġpopular": 2473,
      "Ġhyd": 2474,
      "Ġstatus": 2475,
      "Ġtaken": 2476,
      "Ġdescribed": 2477,
      "den": 2478,
      "icult": 2479,
      "Ġlay": 2480,
      "idge": 2481,
      "orts": 2482,
      "Ġphosph": 2483,
      "respond": 2484,
      "ĠâĢĺ": 2485,
      "Ġquant": 2486,
      "Ġdifferences": 2487,
      "Ġach": 2488,
      "Ġupd": 2489,
      "sequ": 2490,
      "Ġchur": 2491,
      "Ġinvolved": 2492,
      "Ġrelationship": 2493,
      "mat": 2494,
      "ental": 2495,
      "rial": 2496,
      "Ġindustry": 2497,
      "ha": 2498,
      "Ġfran": 2499,
      "Ġvan": 2500,
      "kn": 2501,
      "ising": 2502,
      "ork": 2503,
      "Ġwhole": 2504,
      "Ġjanuary": 2505,
      "table": 2506,
      "Ġlot": 2507,
      "Ġhen": 2508,
      "opus": 2509,
      "Ġcorrespond": 2510,
      "Ġaverage": 2511,
      "Ġinfe": 2512,
      "Ġspot": 2513,
      "Ġconsist": 2514,
      "Ġcollection": 2515,
      "Ġsignificantly": 2516,
      "ength": 2517,
      "Ġdig": 2518,
      "Ġscreen": 2519,
      "Ġregions": 2520,
      "lin": 2521,
      "Ġknowledge": 2522,
      "Ġmedicine": 2523,
      "Ġfinal": 2524,
      "ster": 2525,
      "Ġfeb": 2526,
      "Ġmillion": 2527,
      "Ġmit": 2528,
      "Ġvia": 2529,
      "iam": 2530,
      "part": 2531,
      "Ġcou": 2532,
      "istic": 2533,
      "Ġcompet": 2534,
      "Ġconserv": 2535,
      "Ġemb": 2536,
      "pos": 2537,
      "Ġwa": 2538,
      "Ġden": 2539,
      "Ġjune": 2540,
      "Ġregard": 2541,
      "je": 2542,
      "Ġess": 2543,
      "Ġnames": 2544,
      "otic": 2545,
      "Ġplat": 2546,
      "apan": 2547,
      "Ġflu": 2548,
      "Ġaugust": 2549,
      "Ġwild": 2550,
      "Ġhold": 2551,
      "Ġeth": 2552,
      "ands": 2553,
      "Ġtell": 2554,
      "Ġbookmarked": 2555,
      "Ġfather": 2556,
      "Ġselection": 2557,
      "no": 2558,
      "augh": 2559,
      "Ġdemon": 2560,
      "jo": 2561,
      "Ġms": 2562,
      "Ġdav": 2563,
      "Ġperse": 2564,
      "Ġautom": 2565,
      "Ġdeveloped": 2566,
      "Ġindividuals": 2567,
      "side": 2568,
      "Ġgenetic": 2569,
      "Ġimple": 2570,
      "Ġrestrict": 2571,
      "Ġdifficult": 2572,
      "Ġeducation": 2573,
      "bor": 2574,
      "utes": 2575,
      "Ġdoi": 2576,
      "cially": 2577,
      "db": 2578,
      "Ġcourt": 2579,
      "och": 2580,
      "Ġthing": 2581,
      "Ġvide": 2582,
      "Ġevents": 2583,
      "bur": 2584,
      "Ġscholar": 2585,
      "Ġrespectively": 2586,
      "Ġhalf": 2587,
      "Ġrom": 2588,
      "ried": 2589,
      "Ġparty": 2590,
      "Ġcentre": 2591,
      "Ġinvestig": 2592,
      "Ġcompan": 2593,
      "Ġsurface": 2594,
      "Ġtypes": 2595,
      "Ġdecre": 2596,
      "Ġproducts": 2597,
      "Ġsure": 2598,
      "Ġwall": 2599,
      "aries": 2600,
      "Ġuk": 2601,
      "Ġcourse": 2602,
      "utions": 2603,
      "ume": 2604,
      "Ġguid": 2605,
      "ta": 2606,
      "Ġbene": 2607,
      "Ġstar": 2608,
      "Ġyoung": 2609,
      "odes": 2610,
      "Ġeconomic": 2611,
      "ges": 2612,
      "Ġspir": 2613,
      "Ġimplement": 2614,
      "dom": 2615,
      "Ġben": 2616,
      "ara": 2617,
      "Ġhu": 2618,
      "Ġhill": 2619,
      "ask": 2620,
      "ada": 2621,
      "Ġsepar": 2622,
      "Ġoffer": 2623,
      "Ġculture": 2624,
      "Ġapril": 2625,
      "Ġeff": 2626,
      "Ġdeb": 2627,
      "Ġid": 2628,
      "Ġsus": 2629,
      "Ġwhite": 2630,
      "Ġadj": 2631,
      "Ġcolle": 2632,
      "Ġtissue": 2633,
      "Ġsqu": 2634,
      "Ġnecess": 2635,
      "bi": 2636,
      "Ġexcept": 2637,
      "Ġparamet": 2638,
      "Ġmakes": 2639,
      "Ġpict": 2640,
      "Ġscopus": 2641,
      "Ġinternet": 2642,
      "Ġbinding": 2643,
      "ĠÑ": 2644,
      "isc": 2645,
      "Ġstop": 2646,
      "ĠĊĊĠÂłĠĊ": 2647,
      "Ġsea": 2648,
      "Ġorigin": 2649,
      "loc": 2650,
      "oma": 2651,
      "ource": 2652,
      "Ġfeatures": 2653,
      "tic": 2654,
      "Ġdu": 2655,
      "Ġcondu": 2656,
      "icked": 2657,
      "Ġwon": 2658,
      "Ġmess": 2659,
      "Ġperformance": 2660,
      "Ġcam": 2661,
      "Ġmind": 2662,
      "Ġaltern": 2663,
      "iat": 2664,
      "ese": 2665,
      "Ġrates": 2666,
      "ially": 2667,
      "Ġclaim": 2668,
      "Ġcoast": 2669,
      "Ġevolution": 2670,
      "Ġtravel": 2671,
      "Ġmac": 2672,
      "Ġli": 2673,
      "abit": 2674,
      "Ġbelow": 2675,
      "Ġwestern": 2676,
      "Ġadminist": 2677,
      "Ġdatabase": 2678,
      "mc": 2679,
      "Ġsix": 2680,
      "Ġstay": 2681,
      "ilities": 2682,
      "Ġkind": 2683,
      "Ġalg": 2684,
      "Ġboard": 2685,
      "Ġmention": 2686,
      "Ġword": 2687,
      "Ġrelease": 2688,
      "oint": 2689,
      "Ġissue": 2690,
      "Ġæ": 2691,
      "Ġciv": 2692,
      "Ġetc": 2693,
      "Ġassociation": 2694,
      "isions": 2695,
      "Ġbox": 2696,
      "iting": 2697,
      "Ġlack": 2698,
      "Ġip": 2699,
      "Ġevent": 2700,
      "Ġquestions": 2701,
      "Ġcyt": 2702,
      "Ġapplication": 2703,
      "semb": 2704,
      "ĠâĢī": 2705,
      "Ġintrodu": 2706,
      "Ġrequire": 2707,
      "Ġà¦": 2708,
      "omb": 2709,
      "Ġcomment": 2710,
      "Ġtrue": 2711,
      "ii": 2712,
      "ping": 2713,
      "sp": 2714,
      "Ġaustralia": 2715,
      "Ġlibrary": 2716,
      "hy": 2717,
      "Ġnan": 2718,
      "Ġreve": 2719,
      "ortun": 2720,
      "Ġhistor": 2721,
      "Ġmolecular": 2722,
      "ls": 2723,
      "Ġlines": 2724,
      "ades": 2725,
      "Ġdiseases": 2726,
      "Ġprofess": 2727,
      "Ġjuly": 2728,
      "tr": 2729,
      "Ġsept": 2730,
      "Ġextract": 2731,
      "da": 2732,
      "uel": 2733,
      "Ġobject": 2734,
      "Ġscient": 2735,
      "Ġrevision": 2736,
      "imately": 2737,
      "wise": 2738,
      "Ġalmost": 2739,
      "Ġspeak": 2740,
      "ready": 2741,
      "Ġpromot": 2742,
      "Ġtl": 2743,
      "Ġcause": 2744,
      "Ġreference": 2745,
      "Ġcompanies": 2746,
      "come": 2747,
      "ober": 2748,
      "Ġcompon": 2749,
      "ounds": 2750,
      "Ġmedia": 2751,
      "Ġdistrict": 2752,
      "Ġoh": 2753,
      "Ġphen": 2754,
      "Ġnovel": 2755,
      "Ġblock": 2756,
      "Ġcontinu": 2757,
      "Ġlength": 2758,
      "ules": 2759,
      "Ġdecl": 2760,
      "selves": 2761,
      "Ġplayer": 2762,
      "bl": 2763,
      "fs": 2764,
      "ipp": 2765,
      "Ġgold": 2766,
      "Ġstage": 2767,
      "Ġreturn": 2768,
      "Ġachie": 2769,
      "book": 2770,
      "Ġmel": 2771,
      "Ġul": 2772,
      "Ġalready": 2773,
      "Ġuses": 2774,
      "place": 2775,
      "use": 2776,
      "akes": 2777,
      "Ġresist": 2778,
      "Ġsurv": 2779,
      "Ġposition": 2780,
      "Ġidentify": 2781,
      "Ġpoints": 2782,
      "Ġlabor": 2783,
      "Ġsympt": 2784,
      "han": 2785,
      "Ġmag": 2786,
      "Ġjapan": 2787,
      "Ġliter": 2788,
      "Ġstrategy": 2789,
      "Ġil": 2790,
      "Ġprior": 2791,
      "Ġlinks": 2792,
      "Ġcame": 2793,
      "Ġpcr": 2794,
      "Ġsell": 2795,
      "Ġdoing": 2796,
      "Ġtransport": 2797,
      "Ġespe": 2798,
      "ront": 2799,
      "Ġchurch": 2800,
      "Ġperseus": 2801,
      "ched": 2802,
      "Ġaction": 2803,
      "lex": 2804,
      "Ġever": 2805,
      "Ġenem": 2806,
      "Ġcommit": 2807,
      "Ġafric": 2808,
      "Ġflow": 2809,
      "Ġdistribut": 2810,
      "Ġissues": 2811,
      "Ġey": 2812,
      "vere": 2813,
      "Ġfeed": 2814,
      "Ġbenef": 2815,
      "Ġspect": 2816,
      "Ġmaint": 2817,
      "what": 2818,
      "Ġbegin": 2819,
      "Ġcivil": 2820,
      "amed": 2821,
      "Ġdomain": 2822,
      "Ġdecember": 2823,
      "rs": 2824,
      "Ġbacter": 2825,
      "Ġmodels": 2826,
      "Ġfriends": 2827,
      "Ġcirc": 2828,
      "Ġespecially": 2829,
      "hel": 2830,
      "Ġnote": 2831,
      "Ġpoor": 2832,
      "Ġreceptor": 2833,
      "Ġoctober": 2834,
      "hide": 2835,
      "Ġbuilding": 2836,
      "Ġdemonstr": 2837,
      "Ġforward": 2838,
      "Ġsex": 2839,
      "Ġut": 2840,
      "Ġtags": 2841,
      "Ġfig": 2842,
      "Ġbrit": 2843,
      "urity": 2844,
      "Ġjud": 2845,
      "ights": 2846,
      "ensity": 2847,
      "Ġvict": 2848,
      "Ġchrom": 2849,
      "Ġspace": 2850,
      "ographic": 2851,
      "Ġidea": 2852,
      "Ġtemperature": 2853,
      "ters": 2854,
      "Ġreach": 2855,
      "Ġoffice": 2856,
      "Ġminor": 2857,
      "clusion": 2858,
      "Ġinstitute": 2859,
      "Ġfed": 2860,
      "aring": 2861,
      "Ġdevice": 2862,
      "Ġsent": 2863,
      "ĠÎ²": 2864,
      "Ġsitu": 2865,
      "Ġpdf": 2866,
      "Ġwal": 2867,
      "Ġface": 2868,
      "Ġliving": 2869,
      "Ġpeace": 2870,
      "chers": 2871,
      "cies": 2872,
      "ien": 2873,
      "ns": 2874,
      "Ġcred": 2875,
      "eration": 2876,
      "ship": 2877,
      "Ġreceived": 2878,
      "author": 2879,
      "Ġindependent": 2880,
      "iers": 2881,
      "Ġht": 2882,
      "Ġseems": 2883,
      "Ġcolon": 2884,
      "Ġcomparison": 2885,
      "imes": 2886,
      "Ġresid": 2887,
      "Ġfeature": 2888,
      "rane": 2889,
      "Ġlanguage": 2890,
      "ĠĠĠ": 2891,
      "Ġrd": 2892,
      "abol": 2893,
      "Ġacad": 2894,
      "Ġanaly": 2895,
      "val": 2896,
      "orith": 2897,
      "Ġdiv": 2898,
      "Ġscale": 2899,
      "ruction": 2900,
      "Ġtranscription": 2901,
      "Ġhighly": 2902,
      "vant": 2903,
      "aches": 2904,
      "Ġsays": 2905,
      "Ġlinked": 2906,
      "ban": 2907,
      "dr": 2908,
      "mer": 2909,
      "Ġtherapy": 2910,
      "Ġalph": 2911,
      "Ġantib": 2912,
      "Ġpreviously": 2913,
      "published": 2914,
      "Ġprivate": 2915,
      "ead": 2916,
      "Ġoil": 2917,
      "Ġnort": 2918,
      "Ġimages": 2919,
      "Ġbuy": 2920,
      "Ġincreasing": 2921,
      "Ġcurrently": 2922,
      "Ġpractice": 2923,
      "Ġalgorith": 2924,
      "ises": 2925,
      "Ġloss": 2926,
      "Ġwords": 2927,
      "zym": 2928,
      "Ġgot": 2929,
      "Ġrna": 2930,
      "Ġcommand": 2931,
      "Ġneeded": 2932,
      "Ġoptim": 2933,
      "Ġconcern": 2934,
      "esus": 2935,
      "ending": 2936,
      "Ġnove": 2937,
      "ĠĠÂłĠĠÂłĠ": 2938,
      "Ġmuse": 2939,
      "loading": 2940,
      "ream": 2941,
      "Ġfav": 2942,
      "alan": 2943,
      "opt": 2944,
      "ension": 2945,
      "Ġfeel": 2946,
      "Ġvalid": 2947,
      "Ġthird": 2948,
      "Ġspirit": 2949,
      "ws": 2950,
      "Ġcm": 2951,
      "Ġcast": 2952,
      "ulations": 2953,
      "medi": 2954,
      "ixed": 2955,
      "Ġcapital": 2956,
      "well": 2957,
      "izing": 2958,
      "Ġbiological": 2959,
      "Ġviews": 2960,
      "Ġgeor": 2961,
      "Ġbirth": 2962,
      "Ġbor": 2963,
      "igen": 2964,
      "empt": 2965,
      "Ġfemale": 2966,
      "ming": 2967,
      "wik": 2968,
      "xic": 2969,
      "aves": 2970,
      "Ġgetting": 2971,
      "Ġcreated": 2972,
      "Ġsupported": 2973,
      "Ġsynthe": 2974,
      "Ġexpressed": 2975,
      "but": 2976,
      "hood": 2977,
      "omas": 2978,
      "iles": 2979,
      "Ġbring": 2980,
      "Ġairport": 2981,
      "Ġhol": 2982,
      "aging": 2983,
      "Ġinstead": 2984,
      "Ġwatch": 2985,
      "app": 2986,
      "sc": 2987,
      "Ġmort": 2988,
      "Ġsurg": 2989,
      "Ġsecret": 2990,
      "Ġsurvey": 2991,
      "Ġplatform": 2992,
      "word": 2993,
      "Ġmagn": 2994,
      "omics": 2995,
      "Ġyork": 2996,
      "ĠâĢ¦": 2997,
      "Ġrecogn": 2998,
      "Ġamerica": 2999,
      "inary": 3000,
      "Ġfram": 3001,
      "rast": 3002,
      "where": 3003,
      "Ġtur": 3004,
      "Ġspeed": 3005,
      "Ġbiol": 3006,
      "Ġprice": 3007,
      "Ġinduced": 3008,
      "cil": 3009,
      "ties": 3010,
      "quot": 3011,
      "Ġchina": 3012,
      "Ġpresence": 3013,
      "Ġdrugs": 3014,
      "Ġol": 3015,
      "Ġbay": 3016,
      "Ġmale": 3017,
      "Ġisol": 3018,
      "Ġphil": 3019,
      "Ġmg": 3020,
      "alog": 3021,
      "Ġstress": 3022,
      "Ġstyle": 3023,
      "Ġbeach": 3024,
      "Ġuseful": 3025,
      "Ġnumbers": 3026,
      "Ġsolution": 3027,
      "Ġthought": 3028,
      "iet": 3029,
      "Ġrepe": 3030,
      "ulated": 3031,
      "Ġmob": 3032,
      "Ġprevent": 3033,
      "Ġparticipants": 3034,
      "ĠâĢīĠ": 3035,
      "fact": 3036,
      "Ġara": 3037,
      "Ġcensus": 3038,
      "Ġforce": 3039,
      "Ġprec": 3040,
      "Ġrecomm": 3041,
      "Ġbroad": 3042,
      "pan": 3043,
      "Ġweight": 3044,
      "Ġcontaining": 3045,
      "ĠÃĹ": 3046,
      "Ġentire": 3047,
      "hol": 3048,
      "Ġhide": 3049,
      "rams": 3050,
      "ochem": 3051,
      "Ġability": 3052,
      "Ġminist": 3053,
      "Ġapprox": 3054,
      "Ġfish": 3055,
      "Ġmail": 3056,
      "oring": 3057,
      "Ġquick": 3058,
      "iction": 3059,
      "Ġgreater": 3060,
      "ternal": 3061,
      "http": 3062,
      "Ġcod": 3063,
      "Ġparent": 3064,
      "Ġvideo": 3065,
      "Ġnovember": 3066,
      "ee": 3067,
      "Ġdim": 3068,
      "Ġbelieve": 3069,
      "Ġnegative": 3070,
      "Ġmuseum": 3071,
      "Ġpen": 3072,
      "Ġmir": 3073,
      "ica": 3074,
      "asm": 3075,
      "Ġarticles": 3076,
      "Ġeasy": 3077,
      "bon": 3078,
      "ners": 3079,
      "Ġsold": 3080,
      "Ġproced": 3081,
      "Ġstatistics": 3082,
      "Ġtub": 3083,
      "ift": 3084,
      "Ġcontains": 3085,
      "cin": 3086,
      "full": 3087,
      "see": 3088,
      "Ġvit": 3089,
      "istics": 3090,
      "Ġground": 3091,
      "Ġcolum": 3092,
      "Ġtesting": 3093,
      "Ġcommunic": 3094,
      "dle": 3095,
      "references": 3096,
      "icks": 3097,
      "Ġgre": 3098,
      "Ġphase": 3099,
      "Ġanything": 3100,
      "ĠĠĠÂłĠĠ": 3101,
      "Ġinfection": 3102,
      "how": 3103,
      "Ġsand": 3104,
      "Ġrob": 3105,
      "Ġdefin": 3106,
      "Ġlonger": 3107,
      "sis": 3108,
      "Ġgas": 3109,
      "iday": 3110,
      "Ġactive": 3111,
      "Ġanalyses": 3112,
      "Ġconfir": 3113,
      "Ġbud": 3114,
      "uth": 3115,
      "amin": 3116,
      "Ġitself": 3117,
      "usion": 3118,
      "Ġquite": 3119,
      "Ġbookmarks": 3120,
      "Ġancient": 3121,
      "Ġdamage": 3122,
      "isfdb": 3123,
      "ij": 3124,
      "Ġhor": 3125,
      "Ġmaxim": 3126,
      "mor": 3127,
      "Ġfit": 3128,
      "Ġalle": 3129,
      "Ġwashing": 3130,
      "Ġminutes": 3131,
      "Ġprobably": 3132,
      "Ġelse": 3133,
      "Ġmanus": 3134,
      "Ġeffective": 3135,
      "Ġdrink": 3136,
      "Ġapplied": 3137,
      "Ġmentioned": 3138,
      "Ġmol": 3139,
      "aled": 3140,
      "Ġled": 3141,
      "Ġstory": 3142,
      "Ġrap": 3143,
      "Ġmedium": 3144,
      "Ġfrequently": 3145,
      "Ġmanuscript": 3146,
      "itary": 3147,
      "berg": 3148,
      "Ġquotations": 3149,
      "Ġactually": 3150,
      "Ġprint": 3151,
      "ondon": 3152,
      "iated": 3153,
      "Ġsem": 3154,
      "Ġflo": 3155,
      "Ġsimple": 3156,
      "Ġtests": 3157,
      "Ġfrequency": 3158,
      "leep": 3159,
      "ceed": 3160,
      "Ġdeal": 3161,
      "Ġwilliam": 3162,
      "Ġstudents": 3163,
      "Ġbio": 3164,
      "Ġlocation": 3165,
      "Ġguide": 3166,
      "Ġswit": 3167,
      "Ġcosts": 3168,
      "Ġlatest": 3169,
      "Ġchemical": 3170,
      "Ġlicensed": 3171,
      "Ġsymptoms": 3172,
      "lated": 3173,
      "Ġblue": 3174,
      "ĠÃ¡": 3175,
      "Ġdefined": 3176,
      "Ġrights": 3177,
      "Ġtakes": 3178,
      "cs": 3179,
      "pri": 3180,
      "za": 3181,
      "Ġborn": 3182,
      "Ġtowards": 3183,
      "amb": 3184,
      "Ġmetabol": 3185,
      "ault": 3186,
      "ira": 3187,
      "Ġ@": 3188,
      "ached": 3189,
      "Ġcapt": 3190,
      "Ġbreast": 3191,
      "Ġtreated": 3192,
      "Ġsen": 3193,
      "esis": 3194,
      "rogen": 3195,
      "Ġquotes": 3196,
      "Ġtranscript": 3197,
      "Ġcategory": 3198,
      "ga": 3199,
      "ky": 3200,
      "ole": 3201,
      "Ġlu": 3202,
      "ulf": 3203,
      "Ġconcept": 3204,
      "Ġcomputer": 3205,
      "fl": 3206,
      "pre": 3207,
      "Ġcro": 3208,
      "erve": 3209,
      "Ġbott": 3210,
      "Ġperm": 3211,
      "Ġpolitical": 3212,
      "source": 3213,
      "eria": 3214,
      "ished": 3215,
      "Ġwood": 3216,
      "Ġnm": 3217,
      "Ġcomes": 3218,
      "Ġchall": 3219,
      "Ġengland": 3220,
      "Ġbad": 3221,
      "iments": 3222,
      "aged": 3223,
      "Ġtrain": 3224,
      "Ġpreval": 3225,
      "otype": 3226,
      "Ġeuropean": 3227,
      "Ġcas": 3228,
      "rence": 3229,
      "ruit": 3230,
      "Ġtyp": 3231,
      "Ġpmid": 3232,
      "Ġderived": 3233,
      "Ġtitle": 3234,
      "Ġfront": 3235,
      "Ġcontroll": 3236,
      "Ġthank": 3237,
      "Ġpair": 3238,
      "Ġlargest": 3239,
      "Ġexpected": 3240,
      "Ġcry": 3241,
      "erc": 3242,
      "Ġlondon": 3243,
      "Ġjesus": 3244,
      "Ġfoundation": 3245,
      "type": 3246,
      "ply": 3247,
      "osure": 3248,
      "Ġplants": 3249,
      "ifications": 3250,
      "Ġformer": 3251,
      "Ġlogged": 3252,
      "Ġsociety": 3253,
      "Ġspl": 3254,
      "Ġgard": 3255,
      "Ġdatas": 3256,
      "Ġminim": 3257,
      "Ġcopyright": 3258,
      "Ġfunctional": 3259,
      "Ġreduced": 3260,
      "Ġcardi": 3261,
      "Ġseptember": 3262,
      "Ġdark": 3263,
      "Ġbasic": 3264,
      "Ġtool": 3265,
      "Ġhope": 3266,
      "Ġnone": 3267,
      "Ġviol": 3268,
      "Ġenzym": 3269,
      "Ġcoal": 3270,
      "Ġemerg": 3271,
      "Ġreprodu": 3272,
      "Ġsecurity": 3273,
      "Ġcontributing": 3274,
      "Ġassessment": 3275,
      "Ġtree": 3276,
      "Ġmach": 3277,
      "ĊĊĊ": 3278,
      "Ġagg": 3279,
      "Ġtaking": 3280,
      "fficient": 3281,
      "ynam": 3282,
      "Ġconnect": 3283,
      "ya": 3284,
      "Ġfib": 3285,
      "Ġoverall": 3286,
      "Ġactivities": 3287,
      "Ġfast": 3288,
      "rote": 3289,
      "Ġexec": 3290,
      "Ġcontain": 3291,
      "Ġprojects": 3292,
      "Ġurn": 3293,
      "Ġweeks": 3294,
      "Ġcit": 3295,
      "Ġhiv": 3296,
      "Ġalign": 3297,
      "abetes": 3298,
      "atically": 3299,
      "Ġko": 3300,
      "ester": 3301,
      "aced": 3302,
      "Ġunique": 3303,
      "Ġgenet": 3304,
      "Ġoutside": 3305,
      "Ġtraffic": 3306,
      "Ġextra": 3307,
      "Ġhyper": 3308,
      "Ġye": 3309,
      "iff": 3310,
      "Ġselect": 3311,
      "ief": 3312,
      "Ġpoll": 3313,
      "Ġgenerally": 3314,
      "Ġremov": 3315,
      "Ġmusic": 3316,
      "Ġmiddle": 3317,
      "ffe": 3318,
      "Ġrou": 3319,
      "hern": 3320,
      "ruary": 3321,
      "Ġago": 3322,
      "Ġprogress": 3323,
      "Ġsequen": 3324,
      "Ġrefer": 3325,
      "Ġtopic": 3326,
      "Ġlimited": 3327,
      "Ġpersonal": 3328,
      "Ġeg": 3329,
      "unch": 3330,
      "Ġassist": 3331,
      "Ġmodern": 3332,
      "Ġalternative": 3333,
      "Ġgal": 3334,
      "Ġque": 3335,
      "Ġworth": 3336,
      "Ġcover": 3337,
      "Ġsomeone": 3338,
      "Ġoptions": 3339,
      "Ġtele": 3340,
      "Ġacqu": 3341,
      "Ġbuilt": 3342,
      "Ġdirectly": 3343,
      "Ġvillage": 3344,
      "wiki": 3345,
      "uration": 3346,
      "Ġclimate": 3347,
      "Ġtrial": 3348,
      "views": 3349,
      "Ġsav": 3350,
      "Ġband": 3351,
      "char": 3352,
      "cles": 3353,
      "Ġincludes": 3354,
      "Ġpresented": 3355,
      "Ġaccepted": 3356,
      "known": 3357,
      "Ġapproximately": 3358,
      "Ġmur": 3359,
      "Ġhabit": 3360,
      "Ġregular": 3361,
      "Ġsmok": 3362,
      "lands": 3363,
      "Ġdecision": 3364,
      "Ġfinan": 3365,
      "Ġcand": 3366,
      "Ġfort": 3367,
      "text": 3368,
      "ĠĊĠĠĠĠ": 3369,
      "Ġcalif": 3370,
      "des": 3371,
      "Ġinj": 3372,
      "Ġsafe": 3373,
      "works": 3374,
      "Ġappears": 3375,
      "Ġdaily": 3376,
      "gin": 3377,
      "Ġmig": 3378,
      "Ġgar": 3379,
      "Ġvon": 3380,
      "format": 3381,
      "Ġattempt": 3382,
      "Ġproduce": 3383,
      "Ġdiabetes": 3384,
      "inese": 3385,
      "Ġfebruary": 3386,
      "iency": 3387,
      "set": 3388,
      "ville": 3389,
      "ĠÄ": 3390,
      "Ġfal": 3391,
      "Ġlate": 3392,
      "ils": 3393,
      "why": 3394,
      "Ġnuclear": 3395,
      "Ġinitial": 3396,
      "care": 3397,
      "Ġmis": 3398,
      "Ġstri": 3399,
      "astic": 3400,
      "Ġbrain": 3401,
      "Ġopportun": 3402,
      "Ġwashington": 3403,
      "zer": 3404,
      "Ġaim": 3405,
      "lying": 3406,
      "ided": 3407,
      "aman": 3408,
      "Ġprinc": 3409,
      "Ġä": 3410,
      "help": 3411,
      "ont": 3412,
      "Ġban": 3413,
      "ceived": 3414,
      "Ġrock": 3415,
      "Ġcra": 3416,
      "Ġassemb": 3417,
      "Ġfoot": 3418,
      "Ġsimply": 3419,
      "Ġdisplayed": 3420,
      "Ġframe": 3421,
      "Ġselected": 3422,
      "Ġanyone": 3423,
      "Ġdistance": 3424,
      "Ġestimated": 3425,
      "Ġofficial": 3426,
      "Ġtumor": 3427,
      "Ġbeaut": 3428,
      "Ġnotes": 3429,
      "Ġotherwise": 3430,
      "ened": 3431,
      "oud": 3432,
      "Ġproport": 3433,
      "Ġjump": 3434,
      "Ġitems": 3435,
      "Ġsha": 3436,
      "Ġoppos": 3437,
      "Ġnecessary": 3438,
      "Ġinfect": 3439,
      "Ġjalan": 3440,
      "Ġheld": 3441,
      "abor": 3442,
      "Ġbiology": 3443,
      "Ġprotect": 3444,
      "Ġstarting": 3445,
      "Ġradio": 3446,
      "cite": 3447,
      "ius": 3448,
      "Ġfer": 3449,
      "Ġstren": 3450,
      "Ġruss": 3451,
      "Ġunl": 3452,
      "Ġextre": 3453,
      "Ġorganization": 3454,
      "Ġtend": 3455,
      "research": 3456,
      "eness": 3457,
      "Ġfat": 3458,
      "itis": 3459,
      "thern": 3460,
      "Ġfindings": 3461,
      "ki": 3462,
      "hest": 3463,
      "rael": 3464,
      "Ġvacc": 3465,
      "Ġseem": 3466,
      "Ġarth": 3467,
      "Ġolder": 3468,
      "Ġinteresting": 3469,
      "Ġdiscussion": 3470,
      "Ġparticularly": 3471,
      "Ġexperimental": 3472,
      "ging": 3473,
      "mar": 3474,
      "Ġbank": 3475,
      "Ġnut": 3476,
      "ament": 3477,
      "Ġexpert": 3478,
      "Ġfilm": 3479,
      "Ġcharacteristics": 3480,
      "Ġcontinue": 3481,
      "Ġdependent": 3482,
      "Ġmeeting": 3483,
      "Ġjr": 3484,
      "arily": 3485,
      "Ġcommer": 3486,
      "Ġgeneration": 3487,
      "Ġcorrect": 3488,
      "Ġapplications": 3489,
      "ci": 3490,
      "down": 3491,
      "lor": 3492,
      "Ġwent": 3493,
      "Ġmother": 3494,
      "ula": 3495,
      "ields": 3496,
      "Ġclassification": 3497,
      "Ġpolicies": 3498,
      "Ġwritten": 3499,
      "Ġfaith": 3500,
      "zy": 3501,
      "Ġfill": 3502,
      "Ġber": 3503,
      "itative": 3504,
      "Ġgreek": 3505,
      "vert": 3506,
      "Ġadapt": 3507,
      "Ġcentury": 3508,
      "Ġoccup": 3509,
      "Ġconstit": 3510,
      "Ġunderstanding": 3511,
      "Ġnorthern": 3512,
      "car": 3513,
      "ule": 3514,
      "Ġcrow": 3515,
      "Ġdynam": 3516,
      "Ġlost": 3517,
      "Ġhous": 3518,
      "Ġdeep": 3519,
      "Ġchronic": 3520,
      "pper": 3521,
      "Ġprocesses": 3522,
      "Ġforeign": 3523,
      "Ġcritical": 3524,
      "Ġten": 3525,
      "anger": 3526,
      "Ġoffers": 3527,
      "Ġleading": 3528,
      "Ġload": 3529,
      "Ġrapid": 3530,
      "Ġprevalence": 3531,
      "col": 3532,
      "oe": 3533,
      "Ġfair": 3534,
      "Ġtraining": 3535,
      "Ġpressure": 3536,
      "Ġdetails": 3537,
      "Ġped": 3538,
      "aly": 3539,
      "abstract": 3540,
      "Ġthemselves": 3541,
      "Ġdoesn": 3542,
      "Ġdetermined": 3543,
      "Ġanimals": 3544,
      "Ġrelatively": 3545,
      "fully": 3546,
      "gment": 3547,
      "lu": 3548,
      "Ġtren": 3549,
      "onal": 3550,
      "Ġbound": 3551,
      "ancy": 3552,
      "Ġconv": 3553,
      "Ġpros": 3554,
      "que": 3555,
      "emic": 3556,
      "Ġhimself": 3557,
      "Ġmicroar": 3558,
      "Ġessential": 3559,
      "Ġcaliforn": 3560,
      "Ġstim": 3561,
      "Ġindian": 3562,
      "Ġproduced": 3563,
      "Ġfamous": 3564,
      "Ġeasily": 3565,
      "Ġchoice": 3566,
      "gn": 3567,
      "now": 3568,
      "Ġannot": 3569,
      "Ġrese": 3570,
      "rome": 3571,
      "Ġindia": 3572,
      "Ġparts": 3573,
      "Ġreports": 3574,
      "Ġstarted": 3575,
      "Ġlearning": 3576,
      "Ġmeasured": 3577,
      "light": 3578,
      "ris": 3579,
      "Ġta": 3580,
      "Ġnd": 3581,
      "ocyt": 3582,
      "Ġneigh": 3583,
      "Ġinstall": 3584,
      "Ġanswers": 3585,
      "Ġreading": 3586,
      "vis": 3587,
      "Ġsleep": 3588,
      "Ġdead": 3589,
      "Ġchinese": 3590,
      "Ġsust": 3591,
      "Ġdesigned": 3592,
      "Ġstreng": 3593,
      "head": 3594,
      "ĠÃ¶": 3595,
      "Ġspecified": 3596,
      "Ġearl": 3597,
      "Ġcalculated": 3598,
      "Ġparameters": 3599,
      "disc": 3600,
      "Ġham": 3601,
      "Ġnamed": 3602,
      "ured": 3603,
      "Ġprotoc": 3604,
      "nes": 3605,
      "Ġax": 3606,
      "ocks": 3607,
      "Ġrooms": 3608,
      "Ġwhose": 3609,
      "Ġbuff": 3610,
      "Ġrunning": 3611,
      "comm": 3612,
      "Ġproperties": 3613,
      "cal": 3614,
      "Ġtor": 3615,
      "Ġisrael": 3616,
      "Ġens": 3617,
      "Ġsaf": 3618,
      "Ġzh": 3619,
      "Ġtrials": 3620,
      "Ġbrother": 3621,
      "Ġbattle": 3622,
      "Ġconcentration": 3623,
      "Ġadjust": 3624,
      "Ġiron": 3625,
      "Ġod": 3626,
      "Ġpi": 3627,
      "ching": 3628,
      "Ġcontext": 3629,
      "elines": 3630,
      "Ġinteraction": 3631,
      "Ġgrand": 3632,
      "Ġlarger": 3633,
      "Ġcorresponding": 3634,
      "Ġtlg": 3635,
      "Ġchromos": 3636,
      "Ġcalifornia": 3637,
      "Ġç": 3638,
      "Ġjames": 3639,
      "Ġallows": 3640,
      "Ġsometimes": 3641,
      "Ġdetermine": 3642,
      "Ġstatistical": 3643,
      "bid": 3644,
      "can": 3645,
      "gs": 3646,
      "jan": 3647,
      "la": 3648,
      "Ġci": 3649,
      "Ġmi": 3650,
      "ago": 3651,
      "Ġrelig": 3652,
      "Ġexamination": 3653,
      "Ġmovement": 3654,
      "Ġfight": 3655,
      "Ġunless": 3656,
      "ĠĠÂłĠĊ": 3657,
      "Ġproperty": 3658,
      "Ġcredit": 3659,
      "gu": 3660,
      "pet": 3661,
      "Ġtook": 3662,
      "Ġgh": 3663,
      "Ġsaw": 3664,
      "Ġbecame": 3665,
      "Ġcarried": 3666,
      "ymph": 3667,
      "Ġfiles": 3668,
      "enian": 3669,
      "Ġdele": 3670,
      "plo": 3671,
      "Ġtruth": 3672,
      "Ġappropri": 3673,
      "Ġpathway": 3674,
      "Ġcondition": 3675,
      "Ġlimit": 3676,
      "revision": 3677,
      "Ġcouncil": 3678,
      "Ġbehavior": 3679,
      "Ġconcentr": 3680,
      "Ġbottom": 3681,
      "ned": 3682,
      "oo": 3683,
      "ascular": 3684,
      "Ġchann": 3685,
      "Ġsouthern": 3686,
      "Ġratio": 3687,
      "Ġjun": 3688,
      "Ġcomments": 3689,
      "Ġprep": 3690,
      "Ġways": 3691,
      "Ġconstruct": 3692,
      "ĠØ§": 3693,
      "contents": 3694,
      "Ġmortality": 3695,
      "Ġcandid": 3696,
      "atives": 3697,
      "Ġlip": 3698,
      "Ġthomas": 3699,
      "Ġeat": 3700,
      "othe": 3701,
      "Ġkin": 3702,
      "rix": 3703,
      "ellow": 3704,
      "Ġpeak": 3705,
      "Ġgrant": 3706,
      "Ġze": 3707,
      "Ġthroughout": 3708,
      "Ġrespond": 3709,
      "copyright": 3710,
      "background": 3711,
      "john": 3712,
      "Ġlake": 3713,
      "Ġgave": 3714,
      "othes": 3715,
      "Ġstore": 3716,
      "results": 3717,
      "oses": 3718,
      "Ġtrade": 3719,
      "Ġassum": 3720,
      "Ġtransfer": 3721,
      "Ġfamil": 3722,
      "Ġmeasures": 3723,
      "Ġdrive": 3724,
      "Ġrestaurant": 3725,
      "va": 3726,
      "when": 3727,
      "Ġpie": 3728,
      "Ġmom": 3729,
      "Ġlymph": 3730,
      "Ġvent": 3731,
      "ays": 3732,
      "Ġwhom": 3733,
      "Ġleave": 3734,
      "Ġdesp": 3735,
      "Ġcolor": 3736,
      "Ġdeveloping": 3737,
      "Ġprograms": 3738,
      "Ġeverything": 3739,
      "Ġmenu": 3740,
      "Ġinterests": 3741,
      "Ġdouble": 3742,
      "men": 3743,
      "wat": 3744,
      "ero": 3745,
      "Ġbm": 3746,
      "Ġmice": 3747,
      "Ġseason": 3748,
      "ria": 3749,
      "Ġscore": 3750,
      "Ġpopulations": 3751,
      "Ġvariation": 3752,
      "Ġfollowed": 3753,
      "Ġwrite": 3754,
      "wa": 3755,
      "ony": 3756,
      "Ġnation": 3757,
      "urrent": 3758,
      "rene": 3759,
      "Ġacids": 3760,
      "ologies": 3761,
      "ordin": 3762,
      "ĠĠÂłĠĠÂłĠĊ": 3763,
      "Ġrail": 3764,
      "cycl": 3765,
      "Ġformation": 3766,
      "Ġmatter": 3767,
      "Ġelectronic": 3768,
      "Ġpurch": 3769,
      "Ġepid": 3770,
      "Ġdavid": 3771,
      "ection": 3772,
      "Ġles": 3773,
      "Ġweak": 3774,
      "Ġunc": 3775,
      "rench": 3776,
      "Ġinflamm": 3777,
      "Ġãģ": 3778,
      "Ġwindows": 3779,
      "office": 3780,
      "Ġè": 3781,
      "Ġmouse": 3782,
      "oura": 3783,
      "ctors": 3784,
      "Ġsevere": 3785,
      "Ġexerc": 3786,
      "Ġphyl": 3787,
      "Ġsolutions": 3788,
      "Ġaccessed": 3789,
      "Ġmilitary": 3790,
      "Ġdiagnosis": 3791,
      "Ġss": 3792,
      "Ġmb": 3793,
      "Ġlt": 3794,
      "Ġreaction": 3795,
      "Ġforms": 3796,
      "Ġcong": 3797,
      "Ġcompl": 3798,
      "Ġamb": 3799,
      "ĠÂ±": 3800,
      "Ġjob": 3801,
      "Ġhighest": 3802,
      "Ġachieve": 3803,
      "rep": 3804,
      "Ġther": 3805,
      "ett": 3806,
      "opl": 3807,
      "Ġneuro": 3808,
      "Ġregulation": 3809,
      "Ġsigns": 3810,
      "Ġexperiments": 3811,
      "Ġsynd": 3812,
      "Ġdetected": 3813,
      "overy": 3814,
      "Ġsend": 3815,
      "uments": 3816,
      "Ġdetection": 3817,
      "Ġseek": 3818,
      "Ġcopy": 3819,
      "Ġreduce": 3820,
      "Ġemails": 3821,
      "Ġinfluence": 3822,
      "Ġestablished": 3823,
      "ios": 3824,
      "pose": 3825,
      "town": 3826,
      "Ġcities": 3827,
      "Ġthreat": 3828,
      "Ġrang": 3829,
      "Ġcoming": 3830,
      "tee": 3831,
      "Ġimmedi": 3832,
      "Ġreflect": 3833,
      "Ġdomin": 3834,
      "Ġproposed": 3835,
      "Ġtraditional": 3836,
      "ka": 3837,
      "Ġsac": 3838,
      "Ġtheory": 3839,
      "Ġmart": 3840,
      "Ġcontents": 3841,
      "Ġcycle": 3842,
      "Ġrelevant": 3843,
      "Ġverified": 3844,
      "Ġexisting": 3845,
      "Ġpy": 3846,
      "Ġga": 3847,
      "Ġgall": 3848,
      "Ġunivers": 3849,
      "Ġsoon": 3850,
      "Ġvariety": 3851,
      "Ġactivation": 3852,
      "plications": 3853,
      "Ġmountain": 3854,
      "Ġliterature": 3855,
      "west": 3856,
      "Ġmall": 3857,
      "Ġcanada": 3858,
      "ards": 3859,
      "Ġtrack": 3860,
      "Ġmuscle": 3861,
      "Ġlegal": 3862,
      "Ġcluster": 3863,
      "sa": 3864,
      "Ġaud": 3865,
      "Ġwave": 3866,
      "active": 3867,
      "Ġrepub": 3868,
      "Ġfunctions": 3869,
      "Ġsett": 3870,
      "Ġdemand": 3871,
      "zed": 3872,
      "Ġoce": 3873,
      "Ġpc": 3874,
      "Ġassign": 3875,
      "Ġmemb": 3876,
      "Ġmarri": 3877,
      "Ġslow": 3878,
      "Ġcombined": 3879,
      "Ġwil": 3880,
      "Ġfarm": 3881,
      "Ġexhib": 3882,
      "Ġunit": 3883,
      "feeds": 3884,
      "Ġlee": 3885,
      "oke": 3886,
      "Ġmethyl": 3887,
      "Ġmajority": 3888,
      "aneous": 3889,
      "Ġcauses": 3890,
      "Ġcollege": 3891,
      "Ġresear": 3892,
      "late": 3893,
      "Ġhon": 3894,
      "Ġones": 3895,
      "ush": 3896,
      "Ġneu": 3897,
      "Ġvolume": 3898,
      "Ġcapac": 3899,
      "Ġreleased": 3900,
      "Ġancest": 3901,
      "Ġbehavi": 3902,
      "Ġmaximum": 3903,
      "inct": 3904,
      "Ġseven": 3905,
      "izes": 3906,
      "Ġautomatically": 3907,
      "Ġdistributed": 3908,
      "Ġfederal": 3909,
      "quotation": 3910,
      "Ġtas": 3911,
      "att": 3912,
      "ening": 3913,
      "Ġround": 3914,
      "Ġtrying": 3915,
      "Ġscientific": 3916,
      "Ġresistance": 3917,
      "meth": 3918,
      "oh": 3919,
      "yan": 3920,
      "Ġba": 3921,
      "ales": 3922,
      "Ġthous": 3923,
      "Ġheter": 3924,
      "Ġasked": 3925,
      "Ġfailure": 3926,
      "ba": 3927,
      "ostic": 3928,
      "Ġcollect": 3929,
      "Ġfreed": 3930,
      "Ġbehind": 3931,
      "Ġvirus": 3932,
      "partner": 3933,
      "burg": 3934,
      "body": 3935,
      "point": 3936,
      "Ġiv": 3937,
      "icle": 3938,
      "Ġheat": 3939,
      "Ġrare": 3940,
      "ĠÃ³": 3941,
      "Ġhealthcare": 3942,
      "ricult": 3943,
      "Ġafrica": 3944,
      "ufact": 3945,
      "inations": 3946,
      "roy": 3947,
      "Ġkar": 3948,
      "eline": 3949,
      "pping": 3950,
      "Ġdefault": 3951,
      "Ġidentification": 3952,
      "Ġretrie": 3953,
      "Ġarmy": 3954,
      "clusions": 3955,
      "Ġhtml": 3956,
      "itable": 3957,
      "Ġnar": 3958,
      "Ġnations": 3959,
      "Ġstories": 3960,
      "Ġjer": 3961,
      "Ġkong": 3962,
      "Ġarri": 3963,
      "Ġpartners": 3964,
      "Ġreli": 3965,
      "Ġmonitor": 3966,
      "Ġxml": 3967,
      "Ġinside": 3968,
      "cules": 3969,
      "Ġcaused": 3970,
      "Ġaffili": 3971,
      "Ġpatterns": 3972,
      "Ġextracted": 3973,
      "Ġextreme": 3974,
      "user": 3975,
      "Ġinteractions": 3976,
      "Ġelements": 3977,
      "Ġhydro": 3978,
      "Ġrepublic": 3979,
      "iology": 3980,
      "name": 3981,
      "Ġign": 3982,
      "onym": 3983,
      "Ġcc": 3984,
      "Ġbul": 3985,
      "Ġcompare": 3986,
      "Ġedited": 3987,
      "Ġprices": 3988,
      "Ġjoint": 3989,
      "Ġdirection": 3990,
      "Ġcorrelation": 3991,
      "Ġkingdom": 3992,
      "Ġfinancial": 3993,
      "uff": 3994,
      "era": 3995,
      "isation": 3996,
      "ibli": 3997,
      "ĠÃŃ": 3998,
      "Ġwhereas": 3999,
      "Ġgives": 4000,
      "Ġoxid": 4001,
      "lit": 4002,
      "Ġdan": 4003,
      "Ġthread": 4004,
      "tered": 4005,
      "Ġyourself": 4006,
      "Ġdevelopers": 4007,
      "Ġbeginning": 4008,
      "fort": 4009,
      "Ġnoted": 4010,
      "Ġmetres": 4011,
      "Ġcollected": 4012,
      "Ġpaul": 4013,
      "Ġbasis": 4014,
      "Ġindicate": 4015,
      "Ġfamilies": 4016,
      "Ġcp": 4017,
      "erate": 4018,
      "Ġdensity": 4019,
      "Ġng": 4020,
      "Ġconvers": 4021,
      "Ġchain": 4022,
      "thew": 4023,
      "ĠÃ¼": 4024,
      "Ġclean": 4025,
      "Ġskill": 4026,
      "Ġsteps": 4027,
      "Ġfrance": 4028,
      "Ġintervention": 4029,
      "Ġguidelines": 4030,
      "reoffice": 4031,
      "Ġsense": 4032,
      "Ġcontrast": 4033,
      "Ġsche": 4034,
      "soft": 4035,
      "Ġagricult": 4036,
      "Ġmode": 4037,
      "Ġpublication": 4038,
      "Ġenemy": 4039,
      "pload": 4040,
      "Ġocean": 4041,
      "Ġsin": 4042,
      "Ġpac": 4043,
      "anced": 4044,
      "outh": 4045,
      "ests": 4046,
      "resh": 4047,
      "Ġexcell": 4048,
      "ocr": 4049,
      "aka": 4050,
      "Ġmanufact": 4051,
      "Ġopin": 4052,
      "Ġsets": 4053,
      "Ġpolice": 4054,
      "Ġsecondary": 4055,
      "Ġestimates": 4056,
      "Ġrestaurants": 4057,
      "Ġpharmac": 4058,
      "Ġdataset": 4059,
      "list": 4060,
      "wood": 4061,
      "asons": 4062,
      "Ġchief": 4063,
      "iveness": 4064,
      "Ġclub": 4065,
      "Ġgenerated": 4066,
      "joy": 4067,
      "sen": 4068,
      "Ġcore": 4069,
      "Ġok": 4070,
      "Ġbone": 4071,
      "Ġdm": 4072,
      "Ġliver": 4073,
      "Ġkb": 4074,
      "Ġintra": 4075,
      "Ġcarbon": 4076,
      "Ġphysic": 4077,
      "Ġwrong": 4078,
      "Ġmobile": 4079,
      "fo": 4080,
      "water": 4081,
      "ystem": 4082,
      "Ġ~": 4083,
      "Ġsd": 4084,
      "state": 4085,
      "ida": 4086,
      "Ġvs": 4087,
      "aint": 4088,
      "claim": 4089,
      "iques": 4090,
      "Ġwoman": 4091,
      "Ġurban": 4092,
      "Ġhousehold": 4093,
      "Ġconducted": 4094,
      "Ġice": 4095,
      "iful": 4096,
      "Ġkil": 4097,
      "rian": 4098,
      "pective": 4099,
      "Ġvisual": 4100,
      "nas": 4101,
      "ĠÅ": 4102,
      "Ġtal": 4103,
      "Ġgames": 4104,
      "ods": 4105,
      "istry": 4106,
      "acher": 4107,
      "Ġmarine": 4108,
      "Ġslight": 4109,
      "Ġappropriate": 4110,
      "Ġsed": 4111,
      "Ġbros": 4112,
      "Ġprol": 4113,
      "Ġitem": 4114,
      "Ġencycl": 4115,
      "Ġram": 4116,
      "rought": 4117,
      "Ġtested": 4118,
      "Ġrestriction": 4119,
      "Ġrevealed": 4120,
      "Ġcommittee": 4121,
      "Ġbritish": 4122,
      "Ġalphabet": 4123,
      "Ġfavor": 4124,
      "Ġmicroarray": 4125,
      "Ġphylogen": 4126,
      "Ġencyclop": 4127,
      "bre": 4128,
      "Ġrout": 4129,
      "Ġproviding": 4130,
      "comes": 4131,
      "Ġgermany": 4132,
      "Ġdc": 4133,
      "Ġlan": 4134,
      "Ġlif": 4135,
      "Ġgraph": 4136,
      "Ġutil": 4137,
      "Ġrt": 4138,
      "odies": 4139,
      "Ġalt": 4140,
      "Ġalone": 4141,
      "emo": 4142,
      "pped": 4143,
      "Ġgoes": 4144,
      "Ġrobert": 4145,
      "Ġexposure": 4146,
      "Ġnumer": 4147,
      "Ġresulting": 4148,
      "Ġshowing": 4149,
      "Ġbran": 4150,
      "Ġvariables": 4151,
      "Ġnearly": 4152,
      "Ġcalc": 4153,
      "Ġreceive": 4154,
      "Ġmrna": 4155,
      "Ġsciences": 4156,
      "Ġshopping": 4157,
      "cast": 4158,
      "ups": 4159,
      "yer": 4160,
      "Ġmad": 4161,
      "Ġdog": 4162,
      "Ġeu": 4163,
      "Ġven": 4164,
      "Ġacute": 4165,
      "Ġmemory": 4166,
      "Ġannoun": 4167,
      "Ġevaluation": 4168,
      "Ġgeorge": 4169,
      "Ġroute": 4170,
      "field": 4171,
      "Ġtun": 4172,
      "Ġball": 4173,
      "Ġdro": 4174,
      "Ġnice": 4175,
      "Ġorth": 4176,
      "izations": 4177,
      "Ġspread": 4178,
      "Ġcoverage": 4179,
      "ĠÂ©": 4180,
      "Ġincor": 4181,
      "Ġfinally": 4182,
      "Ġislands": 4183,
      "Ġsequencing": 4184,
      "esh": 4185,
      "Ġmich": 4186,
      "Ġupload": 4187,
      "Ġformed": 4188,
      "Ġka": 4189,
      "phone": 4190,
      "Ġhybr": 4191,
      "Ġserum": 4192,
      "Ġbackground": 4193,
      "Ġpurpose": 4194,
      "Ġsuggests": 4195,
      "Ġideas": 4196,
      "Ġsquare": 4197,
      "Ġhistorical": 4198,
      "Ġmaintain": 4199,
      "Ġexecut": 4200,
      "Ġsyndrome": 4201,
      "met": 4202,
      "pir": 4203,
      "wer": 4204,
      "ygen": 4205,
      "Ġpit": 4206,
      "arter": 4207,
      "Ġlung": 4208,
      "Ġna": 4209,
      "Ġrank": 4210,
      "Ġord": 4211,
      "Ġexc": 4212,
      "Ġexch": 4213,
      "Ġclick": 4214,
      "Ġfear": 4215,
      "Ġwebcite": 4216,
      "Ġtempl": 4217,
      "Ġcontributions": 4218,
      "Ġsummer": 4219,
      "Ġregistration": 4220,
      "Ġcontrolled": 4221,
      "haps": 4222,
      "ken": 4223,
      "tra": 4224,
      "Ġig": 4225,
      "Ġpra": 4226,
      "Ġwis": 4227,
      "Ġvo": 4228,
      "used": 4229,
      "Ġserious": 4230,
      "Ġpicture": 4231,
      "Ġcart": 4232,
      "Ġpow": 4233,
      "aling": 4234,
      "Ġconference": 4235,
      "ested": 4236,
      "unt": 4237,
      "Ġsho": 4238,
      "Ġedits": 4239,
      "Ġfully": 4240,
      "ritis": 4241,
      "Ġserved": 4242,
      "Ġdidn": 4243,
      "Ġcustomize": 4244,
      "Ġãĥ": 4245,
      "Ġdegree": 4246,
      "Ġregarding": 4247,
      "lict": 4248,
      "ser": 4249,
      "encies": 4250,
      "Ġinput": 4251,
      "Ġforum": 4252,
      "Ġbey": 4253,
      "Ġexact": 4254,
      "Ġbiochem": 4255,
      "Ġremains": 4256,
      "Ġprofile": 4257,
      "Ġreduction": 4258,
      "Ġvirt": 4259,
      "Ġcompletely": 4260,
      "Ġalgorithm": 4261,
      "mia": 4262,
      "rim": 4263,
      "rich": 4264,
      "sm": 4265,
      "ying": 4266,
      "rees": 4267,
      "Ġlov": 4268,
      "Ġgly": 4269,
      "umb": 4270,
      "Ġteach": 4271,
      "Ġbutton": 4272,
      "Ġperfect": 4273,
      "Ġjoin": 4274,
      "tty": 4275,
      "Ġct": 4276,
      "Ġcru": 4277,
      "Ġpick": 4278,
      "Ġfold": 4279,
      "asis": 4280,
      "oper": 4281,
      "Ġtrust": 4282,
      "Ġroy": 4283,
      "ought": 4284,
      "Ġpept": 4285,
      "Ġpool": 4286,
      "Ġversus": 4287,
      "Ġnetworks": 4288,
      "Ġsaying": 4289,
      "Ġoption": 4290,
      "Ġchoose": 4291,
      "Ġinfluen": 4292,
      "Ġcomponents": 4293,
      "Ġsustain": 4294,
      "gi": 4295,
      "Ġbed": 4296,
      "ams": 4297,
      "Ġunion": 4298,
      "Ġqual": 4299,
      "Ġsuff": 4300,
      "Ġcontract": 4301,
      "Ġdoor": 4302,
      "mann": 4303,
      "Ġtechnical": 4304,
      "Ġruns": 4305,
      "Ġindicated": 4306,
      "Ġregional": 4307,
      "Ġmaterials": 4308,
      "Ġadministration": 4309,
      "Ġcapacity": 4310,
      "Ġfreedom": 4311,
      "bour": 4312,
      "lee": 4313,
      "enty": 4314,
      "Ġrh": 4315,
      "Ġdefe": 4316,
      "Ġsubsequ": 4317,
      "Ġoverl": 4318,
      "Ġinsert": 4319,
      "Ġrecorded": 4320,
      "Ġcriteria": 4321,
      "otypes": 4322,
      "Ġsurvival": 4323,
      "nor": 4324,
      "Ġtou": 4325,
      "Ġcited": 4326,
      "ifically": 4327,
      "Ġconsequ": 4328,
      "Ġweap": 4329,
      "Ġkid": 4330,
      "Ġcarry": 4331,
      "Ġfinding": 4332,
      "Ġincreases": 4333,
      "Ġeveryone": 4334,
      "Ġexplain": 4335,
      "Ġresource": 4336,
      "Ġanimal": 4337,
      "Ġheaven": 4338,
      "Ġlaboratory": 4339,
      "post": 4340,
      "ua": 4341,
      "Ġcook": 4342,
      "Ġfu": 4343,
      "Ġhall": 4344,
      "Ġgi": 4345,
      "Ġaspect": 4346,
      "Ġoutcomes": 4347,
      "Ġcommission": 4348,
      "Ġvalley": 4349,
      "Ġproperly": 4350,
      "gar": 4351,
      "Ġswe": 4352,
      "ĠĊĠÂłĠĊ": 4353,
      "lling": 4354,
      "Ġrating": 4355,
      "Ġperman": 4356,
      "Ġpregn": 4357,
      "Ġsurr": 4358,
      "hens": 4359,
      "Ġallowed": 4360,
      "Ġsatisf": 4361,
      "Ġcitiz": 4362,
      "bel": 4363,
      "itals": 4364,
      "Ġgp": 4365,
      "Ġkit": 4366,
      "Ġalike": 4367,
      "emark": 4368,
      "Ġspan": 4369,
      "Ġtransform": 4370,
      "Ġbridge": 4371,
      "Ġmulti": 4372,
      "Ġfewer": 4373,
      "Ġerror": 4374,
      "Ġmeaning": 4375,
      "Ġprivacy": 4376,
      "Ġgerman": 4377,
      "words": 4378,
      "Ġbeyond": 4379,
      "equ": 4380,
      "Ġast": 4381,
      "Ġfruit": 4382,
      "Ġfrench": 4383,
      "Ġdut": 4384,
      "cel": 4385,
      "opath": 4386,
      "oshi": 4387,
      "Ġscen": 4388,
      "Ġoutcome": 4389,
      "Ġchanged": 4390,
      "Ġcommunities": 4391,
      "Ġlayer": 4392,
      "ochond": 4393,
      "Ġproportion": 4394,
      "Ġcommercial": 4395,
      "Ġsafety": 4396,
      "ania": 4397,
      "ĠĊĠÂłĠ": 4398,
      "Ġtold": 4399,
      "Ġlos": 4400,
      "Ġharm": 4401,
      "Ġstem": 4402,
      "Ġrise": 4403,
      "Ġjp": 4404,
      "Ġib": 4405,
      "Ġdescription": 4406,
      "Ġmaemo": 4407,
      "Ġsmaller": 4408,
      "Ġprocessing": 4409,
      "Ġpathways": 4410,
      "Ġlibreoffice": 4411,
      "Ġconstant": 4412,
      "Ġfurthermore": 4413,
      "public": 4414,
      "Ġpictures": 4415,
      "Ġquickly": 4416,
      "Ġdespite": 4417,
      "nam": 4418,
      "vs": 4419,
      "Ġmental": 4420,
      "Ġconver": 4421,
      "ager": 4422,
      "Ġunf": 4423,
      "Ġenh": 4424,
      "Ġenjoy": 4425,
      "Ġelev": 4426,
      "Ġcombination": 4427,
      "Ġmolecules": 4428,
      "Ġrepresented": 4429,
      "Ġpersons": 4430,
      "Ġmechanisms": 4431,
      "Ġchalleng": 4432,
      "Ġstrength": 4433,
      "bu": 4434,
      "gl": 4435,
      "ini": 4436,
      "Ġcort": 4437,
      "icles": 4438,
      "Ġthrow": 4439,
      "Ġcove": 4440,
      "Ġlocations": 4441,
      "Ġsuppl": 4442,
      "Ġformat": 4443,
      "Ġaustralian": 4444,
      "Ġcounter": 4445,
      "Ġsurgery": 4446,
      "Ġmoment": 4447,
      "Ġexercise": 4448,
      "ael": 4449,
      "tw": 4450,
      "Ġé": 4451,
      "Ġsant": 4452,
      "Ġsound": 4453,
      "Ġnit": 4454,
      "ulin": 4455,
      "Ġshared": 4456,
      "Ġinterp": 4457,
      "Ġsupple": 4458,
      "Ġplayers": 4459,
      "Ġsolid": 4460,
      "Ġimmune": 4461,
      "Ġfriendly": 4462,
      "Ġmaps": 4463,
      "Ġmiles": 4464,
      "Ġsuccessful": 4465,
      "Ġruff": 4466,
      "Ġcollabor": 4467,
      "Ġcommunication": 4468,
      "Ġbeautiful": 4469,
      "ibliography": 4470,
      "Ġsurround": 4471,
      "lim": 4472,
      "Ġmd": 4473,
      "Ġlik": 4474,
      "Ġgro": 4475,
      "Ġkh": 4476,
      "Ġunits": 4477,
      "Ġgenomic": 4478,
      "Ġperhaps": 4479,
      "Ġactual": 4480,
      "Ġattribut": 4481,
      "Ġcharge": 4482,
      "Ġserver": 4483,
      "Ġinternal": 4484,
      "Ġbelong": 4485,
      "Ġlibert": 4486,
      "Ġhypothes": 4487,
      "Ġefforts": 4488,
      "Ġphilos": 4489,
      "ball": 4490,
      "gan": 4491,
      "Ġtick": 4492,
      "Ġsr": 4493,
      "Ġsar": 4494,
      "Ġcs": 4495,
      "Ġwit": 4496,
      "Ġwang": 4497,
      "Ġstor": 4498,
      "Ġclosed": 4499,
      "ender": 4500,
      "Ġmarkers": 4501,
      "Ġveget": 4502,
      "Ġrequires": 4503,
      "Ġcontrols": 4504,
      "Ġpeter": 4505,
      "Ġsummary": 4506,
      "Ġhybrid": 4507,
      "Ġtb": 4508,
      "icip": 4509,
      "Ġjl": 4510,
      "Ġadult": 4511,
      "arian": 4512,
      "Ġstudied": 4513,
      "Ġprotection": 4514,
      "Ġinfo": 4515,
      "Ġexamples": 4516,
      "Ġlabel": 4517,
      "Ġtrees": 4518,
      "Ġseparate": 4519,
      "Ġmembrane": 4520,
      "brow": 4521,
      "cis": 4522,
      "ev": 4523,
      "Ġpul": 4524,
      "Ġfields": 4525,
      "Ġdied": 4526,
      "Ġrepl": 4527,
      "Ġrs": 4528,
      "agen": 4529,
      "Ġpretty": 4530,
      "Ġincidence": 4531,
      "Ġviewed": 4532,
      "Ġaccom": 4533,
      "Ġgluc": 4534,
      "Ġmarketing": 4535,
      "Ġbegan": 4536,
      "Ġtrademark": 4537,
      "Ġconsistent": 4538,
      "location": 4539,
      "Ġcomponent": 4540,
      "Ġrecommend": 4541,
      "Ġassembly": 4542,
      "asion": 4543,
      "olf": 4544,
      "Ġyes": 4545,
      "aya": 4546,
      "Ġalco": 4547,
      "Ġgov": 4548,
      "apter": 4549,
      "Ġspecifically": 4550,
      "Ġapproved": 4551,
      "Ġremain": 4552,
      "Ġmainly": 4553,
      "Ġtemple": 4554,
      "Ġadvant": 4555,
      "after": 4556,
      "Ġoxygen": 4557,
      "Ġengineering": 4558,
      "Ġbrown": 4559,
      "Ġanalyzed": 4560,
      "Ġbehaviour": 4561,
      "gal": 4562,
      "rate": 4563,
      "Ġpap": 4564,
      "Ġupper": 4565,
      "olic": 4566,
      "Ġchance": 4567,
      "Ġincome": 4568,
      "Ġattention": 4569,
      "Ġdepression": 4570,
      "Ġgrowing": 4571,
      "Ġcustomers": 4572,
      "Ġaffected": 4573,
      "Ġminister": 4574,
      "Ġearlier": 4575,
      "Ġexcellent": 4576,
      "tit": 4577,
      "wide": 4578,
      "ona": 4579,
      "entions": 4580,
      "Ġvi": 4581,
      "ila": 4582,
      "Ġcellular": 4583,
      "Ġcorpor": 4584,
      "Ġdistinct": 4585,
      "Ġentry": 4586,
      "Ġterrit": 4587,
      "Ġcopied": 4588,
      "Ġmessage": 4589,
      "Ġgarden": 4590,
      "Ġmachine": 4591,
      "Ġinjury": 4592,
      "Ġencyclopedia": 4593,
      "Ġsort": 4594,
      "roid": 4595,
      "oto": 4596,
      "Ġrhe": 4597,
      "ibly": 4598,
      "click": 4599,
      "Ġscores": 4600,
      "Ġampl": 4601,
      "Ġspring": 4602,
      "Ġrain": 4603,
      "Ġmodified": 4604,
      "Ġgets": 4605,
      "Ġconfidence": 4606,
      "Ġleaders": 4607,
      "Ġannual": 4608,
      "Ġregulatory": 4609,
      "Ġdemonstrated": 4610,
      "Ġconfirmed": 4611,
      "Ġcryst": 4612,
      "aign": 4613,
      "ĊĠÂł": 4614,
      "Ġmist": 4615,
      "Ġhund": 4616,
      "Ġreasons": 4617,
      "Ġjack": 4618,
      "Ġmostly": 4619,
      "Ġdiet": 4620,
      "Ġconflict": 4621,
      "Ġstructures": 4622,
      "ogenesis": 4623,
      "Ġsuggested": 4624,
      "Ġwalking": 4625,
      "Ġphoto": 4626,
      "Ġmitochond": 4627,
      "Ġprepared": 4628,
      "Ġaffiliations": 4629,
      "pi": 4630,
      "ued": 4631,
      "onia": 4632,
      "Ġpt": 4633,
      "Ġgun": 4634,
      "Ġforces": 4635,
      "ulate": 4636,
      "Ġblocks": 4637,
      "Ġentrep": 4638,
      "Ġsetting": 4639,
      "Ġdefic": 4640,
      "Ġhospitals": 4641,
      "Ġiii": 4642,
      "Ġagreement": 4643,
      "Ġdigital": 4644,
      "Ġvictor": 4645,
      "bmc": 4646,
      "Ġtips": 4647,
      "Ġthin": 4648,
      "omal": 4649,
      "rays": 4650,
      "Ġrules": 4651,
      "Ġhem": 4652,
      "Ġhealthy": 4653,
      "Ġhands": 4654,
      "while": 4655,
      "ĠâĪ": 4656,
      "Ġcere": 4657,
      "Ġattacks": 4658,
      "rief": 4659,
      "Ġresponses": 4660,
      "Ġeye": 4661,
      "ocytes": 4662,
      "onymous": 4663,
      "citation": 4664,
      "top": 4665,
      "vious": 4666,
      "Ġfresh": 4667,
      "Ġdivid": 4668,
      "rog": 4669,
      "ented": 4670,
      "cture": 4671,
      "omin": 4672,
      "Ġisn": 4673,
      "pling": 4674,
      "Ġconsult": 4675,
      "Ġdowntown": 4676,
      "Ġgreatest": 4677,
      "airs": 4678,
      "Ġmutations": 4679,
      "ĠÙĦ": 4680,
      "Ġtagged": 4681,
      "Ġplanning": 4682,
      "Ġsensit": 4683,
      "matthew": 4684,
      "Ġentreprene": 4685,
      "rew": 4686,
      "Ġmes": 4687,
      "Ġdie": 4688,
      "Ġsymb": 4689,
      "Ġimproved": 4690,
      "Ġmatrix": 4691,
      "Ġincorpor": 4692,
      "cut": 4693,
      "hs": 4694,
      "life": 4695,
      "Ġhr": 4696,
      "Ġgate": 4697,
      "abil": 4698,
      "Ġagency": 4699,
      "Ġtransm": 4700,
      "issions": 4701,
      "Ġprediction": 4702,
      "Ġdraft": 4703,
      "Ġiniti": 4704,
      "Ġstrains": 4705,
      "Ġprocedure": 4706,
      "Ġprotocol": 4707,
      "methods": 4708,
      "Ġhundred": 4709,
      "rum": 4710,
      "Ġtask": 4711,
      "onic": 4712,
      "enue": 4713,
      "ani": 4714,
      "alm": 4715,
      "room": 4716,
      "Ġgain": 4717,
      "Ġmexic": 4718,
      "Ġinde": 4719,
      "aceut": 4720,
      "Ġplei": 4721,
      "Ġvirgin": 4722,
      "Ġcampaign": 4723,
      "cence": 4724,
      "min": 4725,
      "sub": 4726,
      "Ġbd": 4727,
      "Ġbond": 4728,
      "Ġburn": 4729,
      "Ġnode": 4730,
      "Ġnodes": 4731,
      "otide": 4732,
      "Ġjose": 4733,
      "Ġatm": 4734,
      "Ġadults": 4735,
      "Ġarr": 4736,
      "ĠÃ¤": 4737,
      "Ġworkers": 4738,
      "ĠÎ³": 4739,
      "Ġstatement": 4740,
      "Ġleads": 4741,
      "Ġadvance": 4742,
      "ophy": 4743,
      "Ġdestroy": 4744,
      "Ġresearchers": 4745,
      "last": 4746,
      "wers": 4747,
      "Ġpas": 4748,
      "Ġbrought": 4749,
      "ander": 4750,
      "Ġads": 4751,
      "Ġsoil": 4752,
      "Ġmarked": 4753,
      "Ġcultural": 4754,
      "copy": 4755,
      "Ġindustrial": 4756,
      "Ġimplementation": 4757,
      "Ġeffort": 4758,
      "Ġbacteria": 4759,
      "Ġpermits": 4760,
      "bar": 4761,
      "dy": 4762,
      "ny": 4763,
      "your": 4764,
      "Ġtro": 4765,
      "Ġtel": 4766,
      "Ġaer": 4767,
      "Ġfine": 4768,
      "Ġmt": 4769,
      "Ġabund": 4770,
      "Ġresort": 4771,
      "Ġcompos": 4772,
      "Ġroot": 4773,
      "Ġjoined": 4774,
      "Ġrevisions": 4775,
      "Ġtechniques": 4776,
      "Ġcycl": 4777,
      "ogenic": 4778,
      "Ġmotor": 4779,
      "Ġbudget": 4780,
      "Ġhabitat": 4781,
      "Ġframework": 4782,
      "Ġconcentrations": 4783,
      "Ġtemplate": 4784,
      "ĠâĪĴ": 4785,
      "Ġah": 4786,
      "Ġneut": 4787,
      "Ġeditors": 4788,
      "Ġsmith": 4789,
      "Ġserve": 4790,
      "Ġtechnologies": 4791,
      "ĠÏĦ": 4792,
      "Ġiran": 4793,
      "Ġsituation": 4794,
      "ih": 4795,
      "suc": 4796,
      "Ġaa": 4797,
      "orial": 4798,
      "Ġdry": 4799,
      "ingu": 4800,
      "Ġgast": 4801,
      "tery": 4802,
      "Ġcoh": 4803,
      "Ġexpand": 4804,
      "Ġfamilysearch": 4805,
      "cape": 4806,
      "Ġhenry": 4807,
      "Ġclaims": 4808,
      "Ġchannel": 4809,
      "Ġslightly": 4810,
      "zo": 4811,
      "Ġwrote": 4812,
      "Ġdun": 4813,
      "under": 4814,
      "Ġplus": 4815,
      "ĊĠĠĠĠ": 4816,
      "Ġapproaches": 4817,
      "Ġeastern": 4818,
      "Ġchristian": 4819,
      "Ġconsumption": 4820,
      "Ġimmediately": 4821,
      "Ġinterpret": 4822,
      "Ġalcohol": 4823,
      "aceutical": 4824,
      "current": 4825,
      "fast": 4826,
      "gra": 4827,
      "erior": 4828,
      "Ġfixed": 4829,
      "Ġmary": 4830,
      "Ġeight": 4831,
      "stream": 4832,
      "Ġsave": 4833,
      "Ġobvious": 4834,
      "Ġviewer": 4835,
      "Ġgeographic": 4836,
      "Ġgiving": 4837,
      "Ġdeli": 4838,
      "Ġlinux": 4839,
      "Ġsubjects": 4840,
      "Ġmarriage": 4841,
      "arent": 4842,
      "page": 4843,
      "Ġ×": 4844,
      "Ġbes": 4845,
      "anks": 4846,
      "Ġgel": 4847,
      "Ġreplic": 4848,
      "lls": 4849,
      "iling": 4850,
      "Ġreserv": 4851,
      "Ġmoving": 4852,
      "Ġidentif": 4853,
      "Ġconstruction": 4854,
      "Ġdoub": 4855,
      "Ġwait": 4856,
      "Ġparents": 4857,
      "Ġopportunity": 4858,
      "download": 4859,
      "Ġepidem": 4860,
      "Ġpermanent": 4861,
      "cks": 4862,
      "Ġak": 4863,
      "Ġfol": 4864,
      "Ġbp": 4865,
      "Ġbab": 4866,
      "Ġhop": 4867,
      "Ġnc": 4868,
      "ctic": 4869,
      "imb": 4870,
      "Ġhel": 4871,
      "ogene": 4872,
      "Ġquarter": 4873,
      "Ġcold": 4874,
      "Ġsmash": 4875,
      "Ġleader": 4876,
      "Ġmicrosoft": 4877,
      "Ġsales": 4878,
      "Ġholy": 4879,
      "prover": 4880,
      "Ġbenefits": 4881,
      "Ġfloor": 4882,
      "Ġhouses": 4883,
      "pic": 4884,
      "atin": 4885,
      "Ġny": 4886,
      "Ġnative": 4887,
      "otes": 4888,
      "seud": 4889,
      "osh": 4890,
      "Ġimag": 4891,
      "Ġprison": 4892,
      "Ġapopt": 4893,
      "Ġmicrob": 4894,
      "Ġcommonly": 4895,
      "Ġpleiades": 4896,
      "gon": 4897,
      "lam": 4898,
      "Ġsj": 4899,
      "Ġpil": 4900,
      "Ġring": 4901,
      "uses": 4902,
      "Ġrace": 4903,
      "Ġflag": 4904,
      "Ġcreation": 4905,
      "added": 4906,
      "Ġarchite": 4907,
      "Ġkilled": 4908,
      "Ġefficiency": 4909,
      "Ġoriginally": 4910,
      "Ġcandidate": 4911,
      "Ġexchange": 4912,
      "success": 4913,
      "fa": 4914,
      "xas": 4915,
      "Ġtv": 4916,
      "Ġsong": 4917,
      "Ġbow": 4918,
      "Ġmixed": 4919,
      "Ġhun": 4920,
      "Ġrm": 4921,
      "rill": 4922,
      "pel": 4923,
      "Ġarray": 4924,
      "Ġmodifications": 4925,
      "ĠÎµ": 4926,
      "Ġcharles": 4927,
      "Ġprevention": 4928,
      "Ġimportance": 4929,
      "ĠâĤ": 4930,
      "awa": 4931,
      "Ġsilver": 4932,
      "Ġinnov": 4933,
      "Ġsubstant": 4934,
      "Ġkilomet": 4935,
      "gers": 4936,
      "isa": 4937,
      "Ġwine": 4938,
      "Ġwife": 4939,
      "ora": 4940,
      "Ġdiversity": 4941,
      "aria": 4942,
      "oul": 4943,
      "Ġlig": 4944,
      "urance": 4945,
      "Ġkg": 4946,
      "Ġkern": 4947,
      "Ġwaste": 4948,
      "Ġinterview": 4949,
      "Ġagent": 4950,
      "cons": 4951,
      "ĠÎ´": 4952,
      "Ġaccur": 4953,
      "central": 4954,
      "Ġclinic": 4955,
      "Ġcreating": 4956,
      "Ġwidely": 4957,
      "Ġpharmaceutical": 4958,
      "Ġalignment": 4959,
      "Ġalex": 4960,
      "Ġmp": 4961,
      "Ġanth": 4962,
      "Ġrib": 4963,
      "Ġwel": 4964,
      "ube": 4965,
      "about": 4966
    },
    "merges": [
      [
        "Ġ",
        "t"
      ],
      [
        "Ġ",
        "a"
      ],
      [
        "i",
        "n"
      ],
      [
        "h",
        "e"
      ],
      [
        "r",
        "e"
      ],
      [
        "o",
        "n"
      ],
      [
        "Ġ",
        "s"
      ],
      [
        "Ġ",
        "."
      ],
      [
        "Ġ",
        ","
      ],
      [
        "Ġt",
        "he"
      ],
      [
        "Ġ",
        "c"
      ],
      [
        "e",
        "r"
      ],
      [
        "a",
        "t"
      ],
      [
        "Ġ",
        "o"
      ],
      [
        "Ġ",
        "p"
      ],
      [
        "e",
        "n"
      ],
      [
        "i",
        "s"
      ],
      [
        "Ġ",
        "w"
      ],
      [
        "e",
        "s"
      ],
      [
        "Ġ",
        "f"
      ],
      [
        "Ġ",
        "b"
      ],
      [
        "i",
        "t"
      ],
      [
        "e",
        "d"
      ],
      [
        "Ġ",
        "-"
      ],
      [
        "Ġ",
        "m"
      ],
      [
        "a",
        "n"
      ],
      [
        "o",
        "r"
      ],
      [
        "a",
        "l"
      ],
      [
        "Ġa",
        "n"
      ],
      [
        "Ġ",
        "Ġ"
      ],
      [
        "Ġ",
        "in"
      ],
      [
        "Ġ",
        "d"
      ],
      [
        "a",
        "r"
      ],
      [
        "Ġo",
        "f"
      ],
      [
        "i",
        "on"
      ],
      [
        "i",
        "c"
      ],
      [
        "Ġ",
        "Ċ"
      ],
      [
        "Ġ",
        "1"
      ],
      [
        "o",
        "u"
      ],
      [
        "Ġan",
        "d"
      ],
      [
        "in",
        "g"
      ],
      [
        "Ġt",
        "o"
      ],
      [
        "Ġ",
        "l"
      ],
      [
        "r",
        "o"
      ],
      [
        "Ġ",
        "0"
      ],
      [
        "Ġ",
        "h"
      ],
      [
        "Ġ",
        "n"
      ],
      [
        "a",
        "s"
      ],
      [
        "Ġ",
        "2"
      ],
      [
        "l",
        "e"
      ],
      [
        "Ġt",
        "h"
      ],
      [
        "en",
        "t"
      ],
      [
        "Ġ",
        "e"
      ],
      [
        "Ġ",
        "g"
      ],
      [
        "Ġ",
        "re"
      ],
      [
        "c",
        "t"
      ],
      [
        "l",
        "l"
      ],
      [
        "o",
        "m"
      ],
      [
        "s",
        "t"
      ],
      [
        "Ġ",
        ":"
      ],
      [
        "v",
        "e"
      ],
      [
        "o",
        "t"
      ],
      [
        "at",
        "ion"
      ],
      [
        "e",
        "t"
      ],
      [
        "Ġ",
        "|"
      ],
      [
        "Ġ",
        "u"
      ],
      [
        "Ġ",
        "is"
      ],
      [
        "Ġ",
        "3"
      ],
      [
        "l",
        "y"
      ],
      [
        "Ġ",
        ")"
      ],
      [
        "Ġ",
        "("
      ],
      [
        "i",
        "d"
      ],
      [
        "r",
        "a"
      ],
      [
        "Ġ",
        "on"
      ],
      [
        "Ġf",
        "or"
      ],
      [
        "o",
        "l"
      ],
      [
        "i",
        "m"
      ],
      [
        "i",
        "g"
      ],
      [
        "u",
        "t"
      ],
      [
        "Ġs",
        "t"
      ],
      [
        "c",
        "e"
      ],
      [
        "s",
        "e"
      ],
      [
        "Â",
        "ł"
      ],
      [
        "Ġ",
        "5"
      ],
      [
        "Ġb",
        "e"
      ],
      [
        "Ġ",
        "v"
      ],
      [
        "c",
        "h"
      ],
      [
        "Ġ",
        "4"
      ],
      [
        "Ġ",
        "y"
      ],
      [
        "Ġ",
        "9"
      ],
      [
        "ĠĊ",
        "Ċ"
      ],
      [
        "o",
        "w"
      ],
      [
        "i",
        "l"
      ],
      [
        "a",
        "m"
      ],
      [
        "u",
        "r"
      ],
      [
        "â",
        "Ģ"
      ],
      [
        "i",
        "f"
      ],
      [
        "u",
        "l"
      ],
      [
        "Ġ",
        "6"
      ],
      [
        "Ġ",
        "âĢ"
      ],
      [
        "it",
        "h"
      ],
      [
        "Ġc",
        "on"
      ],
      [
        "Ġp",
        "ro"
      ],
      [
        "a",
        "y"
      ],
      [
        "Ġ",
        "r"
      ],
      [
        "Ġ",
        "8"
      ],
      [
        "Ġa",
        "s"
      ],
      [
        "Ġ",
        "7"
      ],
      [
        "he",
        "r"
      ],
      [
        "Ġw",
        "e"
      ],
      [
        "er",
        "s"
      ],
      [
        "Ġw",
        "ith"
      ],
      [
        "a",
        "d"
      ],
      [
        "Ġth",
        "at"
      ],
      [
        "i",
        "r"
      ],
      [
        "Ġd",
        "e"
      ],
      [
        "Ġ",
        "j"
      ],
      [
        "q",
        "u"
      ],
      [
        "Ġs",
        "e"
      ],
      [
        "Ġy",
        "ou"
      ],
      [
        "a",
        "g"
      ],
      [
        "Ġ",
        "he"
      ],
      [
        "Ġ",
        "Âł"
      ],
      [
        "Ġ",
        "k"
      ],
      [
        "Ġ",
        "it"
      ],
      [
        "o",
        "p"
      ],
      [
        "Ġ",
        "/"
      ],
      [
        "r",
        "i"
      ],
      [
        "o",
        "d"
      ],
      [
        "u",
        "m"
      ],
      [
        "t",
        "h"
      ],
      [
        "u",
        "b"
      ],
      [
        "Ġ",
        "'"
      ],
      [
        "Ġc",
        "om"
      ],
      [
        "u",
        "s"
      ],
      [
        "is",
        "t"
      ],
      [
        "v",
        "er"
      ],
      [
        "Ġ",
        "\""
      ],
      [
        "a",
        "b"
      ],
      [
        "Ġa",
        "re"
      ],
      [
        "es",
        "t"
      ],
      [
        "Ġo",
        "r"
      ],
      [
        "re",
        "s"
      ],
      [
        "Ġw",
        "h"
      ],
      [
        "Ġth",
        "is"
      ],
      [
        "at",
        "e"
      ],
      [
        "Ġ",
        ">"
      ],
      [
        "Ġe",
        "x"
      ],
      [
        "ro",
        "m"
      ],
      [
        "Ġ",
        "<"
      ],
      [
        "o",
        "s"
      ],
      [
        "Ġa",
        "t"
      ],
      [
        "t",
        "er"
      ],
      [
        "Ġb",
        "y"
      ],
      [
        "Ċ",
        "Ċ"
      ],
      [
        "a",
        "c"
      ],
      [
        "o",
        "c"
      ],
      [
        "p",
        "e"
      ],
      [
        "m",
        "ent"
      ],
      [
        "Ġc",
        "h"
      ],
      [
        "Ġ",
        "["
      ],
      [
        "it",
        "y"
      ],
      [
        "Ġ",
        "]"
      ],
      [
        "u",
        "n"
      ],
      [
        "Ġn",
        "e"
      ],
      [
        "Ġa",
        "l"
      ],
      [
        "i",
        "v"
      ],
      [
        "o",
        "g"
      ],
      [
        "an",
        "d"
      ],
      [
        "i",
        "ll"
      ],
      [
        "an",
        "t"
      ],
      [
        "i",
        "ve"
      ],
      [
        "e",
        "m"
      ],
      [
        "ou",
        "n"
      ],
      [
        "es",
        "s"
      ],
      [
        "Ġf",
        "rom"
      ],
      [
        "Ġu",
        "n"
      ],
      [
        "o",
        "re"
      ],
      [
        "Ġa",
        "b"
      ],
      [
        "e",
        "l"
      ],
      [
        "Ġw",
        "as"
      ],
      [
        "Ġs",
        "h"
      ],
      [
        "a",
        "in"
      ],
      [
        "Ġn",
        "ot"
      ],
      [
        "or",
        "t"
      ],
      [
        "f",
        "e"
      ],
      [
        "i",
        "es"
      ],
      [
        "Ġ",
        "i"
      ],
      [
        "at",
        "ed"
      ],
      [
        "u",
        "re"
      ],
      [
        "re",
        "n"
      ],
      [
        "a",
        "k"
      ],
      [
        "ct",
        "ion"
      ],
      [
        "ar",
        "t"
      ],
      [
        "ig",
        "h"
      ],
      [
        "Ġh",
        "a"
      ],
      [
        "l",
        "d"
      ],
      [
        "p",
        "p"
      ],
      [
        "ĠĠ",
        "Âł"
      ],
      [
        "Ġp",
        "ub"
      ],
      [
        "Ġ",
        "en"
      ],
      [
        "u",
        "d"
      ],
      [
        "Ġu",
        "s"
      ],
      [
        "ic",
        "al"
      ],
      [
        "p",
        "t"
      ],
      [
        "Ġa",
        "d"
      ],
      [
        "Ġc",
        "an"
      ],
      [
        "Ġa",
        "r"
      ],
      [
        "Ġt",
        "e"
      ],
      [
        "Ġ",
        "qu"
      ],
      [
        "Ġs",
        "u"
      ],
      [
        "t",
        "e"
      ],
      [
        "an",
        "s"
      ],
      [
        "ou",
        "r"
      ],
      [
        "Ġl",
        "e"
      ],
      [
        "i",
        "a"
      ],
      [
        "in",
        "e"
      ],
      [
        "p",
        "l"
      ],
      [
        "o",
        "st"
      ],
      [
        "Ġp",
        "l"
      ],
      [
        "Ġg",
        "en"
      ],
      [
        "i",
        "al"
      ],
      [
        "i",
        "e"
      ],
      [
        "g",
        "e"
      ],
      [
        "ag",
        "e"
      ],
      [
        "Ġcon",
        "t"
      ],
      [
        "Ġha",
        "ve"
      ],
      [
        "re",
        "d"
      ],
      [
        "Ġre",
        "s"
      ],
      [
        "al",
        "l"
      ],
      [
        "Ġ",
        ";"
      ],
      [
        "i",
        "k"
      ],
      [
        "Ġcom",
        "p"
      ],
      [
        "Ġa",
        "ll"
      ],
      [
        "u",
        "st"
      ],
      [
        "id",
        "e"
      ],
      [
        "Ġa",
        "c"
      ],
      [
        "as",
        "t"
      ],
      [
        "ar",
        "d"
      ],
      [
        "Ġc",
        "l"
      ],
      [
        "t",
        "her"
      ],
      [
        "Ġ",
        "im"
      ],
      [
        "i",
        "b"
      ],
      [
        "p",
        "er"
      ],
      [
        "igh",
        "t"
      ],
      [
        "ic",
        "h"
      ],
      [
        "Ġwe",
        "re"
      ],
      [
        "t",
        "he"
      ],
      [
        "om",
        "e"
      ],
      [
        "i",
        "p"
      ],
      [
        "o",
        "k"
      ],
      [
        "i",
        "z"
      ],
      [
        "ĠâĢ",
        "¢"
      ],
      [
        "f",
        "or"
      ],
      [
        "Ġ",
        "ed"
      ],
      [
        "Ġw",
        "or"
      ],
      [
        "oun",
        "d"
      ],
      [
        "Ġg",
        "o"
      ],
      [
        "ation",
        "s"
      ],
      [
        "as",
        "e"
      ],
      [
        "a",
        "ct"
      ],
      [
        "x",
        "t"
      ],
      [
        "Ġm",
        "e"
      ],
      [
        "ou",
        "t"
      ],
      [
        "ve",
        "l"
      ],
      [
        "ul",
        "t"
      ],
      [
        "ab",
        "le"
      ],
      [
        "c",
        "l"
      ],
      [
        "Ġt",
        "r"
      ],
      [
        "b",
        "er"
      ],
      [
        "m",
        "ed"
      ],
      [
        "Ġb",
        "ut"
      ],
      [
        "ou",
        "s"
      ],
      [
        "Ġd",
        "is"
      ],
      [
        "ou",
        "ld"
      ],
      [
        "Ġw",
        "ill"
      ],
      [
        "res",
        "s"
      ],
      [
        "g",
        "h"
      ],
      [
        "ion",
        "s"
      ],
      [
        "en",
        "d"
      ],
      [
        "Ġd",
        "o"
      ],
      [
        "Ġw",
        "he"
      ],
      [
        "ar",
        "y"
      ],
      [
        "Ġs",
        "c"
      ],
      [
        "Ġh",
        "as"
      ],
      [
        "l",
        "is"
      ],
      [
        "a",
        "re"
      ],
      [
        "u",
        "ll"
      ],
      [
        "Ġp",
        "er"
      ],
      [
        "d",
        "u"
      ],
      [
        "Ġa",
        "m"
      ],
      [
        "ig",
        "n"
      ],
      [
        "on",
        "g"
      ],
      [
        "en",
        "ce"
      ],
      [
        "a",
        "p"
      ],
      [
        "an",
        "g"
      ],
      [
        "a",
        "v"
      ],
      [
        "Ġp",
        "h"
      ],
      [
        "p",
        "h"
      ],
      [
        "d",
        "er"
      ],
      [
        "ra",
        "ct"
      ],
      [
        "e",
        "ll"
      ],
      [
        "Ġ",
        "ro"
      ],
      [
        "Ġn",
        "o"
      ],
      [
        "ĠĊ",
        "ĠĠ"
      ],
      [
        "Ġm",
        "an"
      ],
      [
        "Ġwh",
        "ich"
      ],
      [
        "en",
        "s"
      ],
      [
        "ent",
        "s"
      ],
      [
        "Ġon",
        "e"
      ],
      [
        "ĠĊĊ",
        "ĠĠ"
      ],
      [
        "c",
        "es"
      ],
      [
        "ic",
        "e"
      ],
      [
        "on",
        "e"
      ],
      [
        "ar",
        "k"
      ],
      [
        "s",
        "o"
      ],
      [
        "Ġin",
        "d"
      ],
      [
        "ou",
        "gh"
      ],
      [
        "fe",
        "ren"
      ],
      [
        "Ġthe",
        "y"
      ],
      [
        "Ġs",
        "pe"
      ],
      [
        "y",
        "s"
      ],
      [
        "ar",
        "ch"
      ],
      [
        "in",
        "d"
      ],
      [
        "Ġte",
        "xt"
      ],
      [
        "Ġed",
        "it"
      ],
      [
        "Ġo",
        "ther"
      ],
      [
        "Ġyou",
        "r"
      ],
      [
        "Ġf",
        "ull"
      ],
      [
        "ar",
        "i"
      ],
      [
        "o",
        "ok"
      ],
      [
        "ac",
        "k"
      ],
      [
        "ow",
        "n"
      ],
      [
        "f",
        "f"
      ],
      [
        "re",
        "e"
      ],
      [
        "am",
        "e"
      ],
      [
        "Ġthe",
        "re"
      ],
      [
        "Ġp",
        "at"
      ],
      [
        "Ġin",
        "t"
      ],
      [
        "Ġm",
        "ore"
      ],
      [
        "an",
        "ce"
      ],
      [
        "Ġs",
        "p"
      ],
      [
        "Ġp",
        "re"
      ],
      [
        "or",
        "y"
      ],
      [
        "it",
        "e"
      ],
      [
        "u",
        "e"
      ],
      [
        "re",
        "at"
      ],
      [
        "Ġc",
        "o"
      ],
      [
        "if",
        "ic"
      ],
      [
        "a",
        "ch"
      ],
      [
        "Ġre",
        "c"
      ],
      [
        "Ġne",
        "w"
      ],
      [
        "r",
        "y"
      ],
      [
        "Ġad",
        "d"
      ],
      [
        "r",
        "u"
      ],
      [
        "a",
        "il"
      ],
      [
        "Ġ",
        "if"
      ],
      [
        "w",
        "e"
      ],
      [
        "or",
        "s"
      ],
      [
        "Ġp",
        "art"
      ],
      [
        "ĊĊ",
        "ĠĠ"
      ],
      [
        "Ġu",
        "p"
      ],
      [
        "Ġs",
        "o"
      ],
      [
        "ol",
        "og"
      ],
      [
        "Ġo",
        "ut"
      ],
      [
        "Ġin",
        "ter"
      ],
      [
        "Ġthe",
        "ir"
      ],
      [
        "Ġe",
        "v"
      ],
      [
        "or",
        "d"
      ],
      [
        "Ġs",
        "y"
      ],
      [
        "p",
        "ort"
      ],
      [
        "Ġt",
        "im"
      ],
      [
        "Ġcom",
        "m"
      ],
      [
        "Ġal",
        "so"
      ],
      [
        "ie",
        "w"
      ],
      [
        "for",
        "m"
      ],
      [
        "Ġpub",
        "lis"
      ],
      [
        "it",
        "ion"
      ],
      [
        "oun",
        "t"
      ],
      [
        "er",
        "v"
      ],
      [
        "Ġa",
        "g"
      ],
      [
        "at",
        "es"
      ],
      [
        "ĠĠÂł",
        "ĠĠÂł"
      ],
      [
        "ri",
        "b"
      ],
      [
        "u",
        "al"
      ],
      [
        "Ġab",
        "out"
      ],
      [
        "Ġp",
        "e"
      ],
      [
        "i",
        "re"
      ],
      [
        "Ġre",
        "g"
      ],
      [
        "Ġ",
        "?"
      ],
      [
        "Ġwh",
        "o"
      ],
      [
        "Ġpub",
        "med"
      ],
      [
        "Ġqu",
        "ot"
      ],
      [
        "i",
        "le"
      ],
      [
        "Ġa",
        "pp"
      ],
      [
        "Ġf",
        "e"
      ],
      [
        "Ġb",
        "l"
      ],
      [
        "Ġ",
        "%"
      ],
      [
        "Ġst",
        "ud"
      ],
      [
        "Ġd",
        "if"
      ],
      [
        "Ġ",
        "ra"
      ],
      [
        "c",
        "ess"
      ],
      [
        "l",
        "p"
      ],
      [
        "ak",
        "e"
      ],
      [
        "ĠĊĊĠĠ",
        "Ġ"
      ],
      [
        "Ġg",
        "r"
      ],
      [
        "Ġb",
        "et"
      ],
      [
        "a",
        "ce"
      ],
      [
        "as",
        "s"
      ],
      [
        "Ġd",
        "at"
      ],
      [
        "k",
        "s"
      ],
      [
        "Ġa",
        "f"
      ],
      [
        "Ġt",
        "ra"
      ],
      [
        "Ġc",
        "ell"
      ],
      [
        "Ġh",
        "is"
      ],
      [
        "o",
        "se"
      ],
      [
        "Ġas",
        "s"
      ],
      [
        "Ġpublis",
        "her"
      ],
      [
        "Ġth",
        "an"
      ],
      [
        "ĠâĢ",
        "Ļ"
      ],
      [
        "i",
        "an"
      ],
      [
        "Ġ",
        "Ã"
      ],
      [
        "c",
        "on"
      ],
      [
        "Ġ",
        "_"
      ],
      [
        "Ġm",
        "ay"
      ],
      [
        "st",
        "ract"
      ],
      [
        "n",
        "e"
      ],
      [
        "Ġb",
        "i"
      ],
      [
        "Ġspe",
        "c"
      ],
      [
        "ic",
        "t"
      ],
      [
        "ik",
        "e"
      ],
      [
        "Ġs",
        "ome"
      ],
      [
        "Ġhe",
        "lp"
      ],
      [
        "Ġa",
        "ct"
      ],
      [
        "Ġm",
        "ed"
      ],
      [
        "a",
        "u"
      ],
      [
        "Ġc",
        "ent"
      ],
      [
        "Ġh",
        "ow"
      ],
      [
        "Ġt",
        "w"
      ],
      [
        "Ġm",
        "et"
      ],
      [
        "Ġp",
        "o"
      ],
      [
        "Ġtr",
        "ans"
      ],
      [
        "Ġcon",
        "s"
      ],
      [
        "f",
        "ul"
      ],
      [
        "fe",
        "ct"
      ],
      [
        "Ġ",
        "Â"
      ],
      [
        "Ġab",
        "stract"
      ],
      [
        "Ġe",
        "m"
      ],
      [
        "Ġre",
        "l"
      ],
      [
        "Ġf",
        "o"
      ],
      [
        "Ġl",
        "oc"
      ],
      [
        "ro",
        "w"
      ],
      [
        "m",
        "s"
      ],
      [
        "Ġp",
        "r"
      ],
      [
        "Ġin",
        "c"
      ],
      [
        "e",
        "ar"
      ],
      [
        "ĠâĢ",
        "ľ"
      ],
      [
        "on",
        "s"
      ],
      [
        "Ġbe",
        "en"
      ],
      [
        "Ġd",
        "es"
      ],
      [
        "Ġthe",
        "se"
      ],
      [
        "i",
        "ed"
      ],
      [
        "Ġs",
        "ub"
      ],
      [
        "Ġf",
        "l"
      ],
      [
        "Ġo",
        "ver"
      ],
      [
        "Ġwhe",
        "n"
      ],
      [
        "Ġan",
        "y"
      ],
      [
        "e",
        "p"
      ],
      [
        "Ġex",
        "p"
      ],
      [
        "Ġu",
        "se"
      ],
      [
        "u",
        "c"
      ],
      [
        "Ġm",
        "od"
      ],
      [
        "Ġn",
        "um"
      ],
      [
        "Ġk",
        "n"
      ],
      [
        "Ġdif",
        "feren"
      ],
      [
        "Ġtim",
        "e"
      ],
      [
        "ic",
        "s"
      ],
      [
        "at",
        "ive"
      ],
      [
        "in",
        "t"
      ],
      [
        "ul",
        "ar"
      ],
      [
        "Ġar",
        "t"
      ],
      [
        "in",
        "k"
      ],
      [
        "Ġ",
        "="
      ],
      [
        "Ġs",
        "a"
      ],
      [
        "Ċ",
        "ĠĠ"
      ],
      [
        "Ġc",
        "ol"
      ],
      [
        "w",
        "ay"
      ],
      [
        "Ġun",
        "der"
      ],
      [
        "Ġm",
        "o"
      ],
      [
        "as",
        "ed"
      ],
      [
        "ĠâĢ",
        "Ŀ"
      ],
      [
        "Ġof",
        "f"
      ],
      [
        "r",
        "al"
      ],
      [
        "Ġm",
        "y"
      ],
      [
        "p",
        "le"
      ],
      [
        "Ġs",
        "ign"
      ],
      [
        "ag",
        "es"
      ],
      [
        "Ġquot",
        "e"
      ],
      [
        "Ġthe",
        "m"
      ],
      [
        "l",
        "ic"
      ],
      [
        "Ġwor",
        "k"
      ],
      [
        "ut",
        "ion"
      ],
      [
        "Ġm",
        "ost"
      ],
      [
        "Ġon",
        "ly"
      ],
      [
        "at",
        "er"
      ],
      [
        "cl",
        "ud"
      ],
      [
        "Ġ",
        "Î"
      ],
      [
        "e",
        "ct"
      ],
      [
        "ic",
        "k"
      ],
      [
        "Ġo",
        "b"
      ],
      [
        "Ġat",
        "t"
      ],
      [
        "ation",
        "al"
      ],
      [
        "al",
        "th"
      ],
      [
        "we",
        "en"
      ],
      [
        "Ġdat",
        "a"
      ],
      [
        "ing",
        "s"
      ],
      [
        "Ġtw",
        "o"
      ],
      [
        "Ġbet",
        "ween"
      ],
      [
        "Ġy",
        "ear"
      ],
      [
        "Ġo",
        "ur"
      ],
      [
        "il",
        "d"
      ],
      [
        "Ġs",
        "m"
      ],
      [
        "Ġ",
        "es"
      ],
      [
        "Ġit",
        "s"
      ],
      [
        "he",
        "d"
      ],
      [
        "c",
        "ed"
      ],
      [
        "le",
        "ct"
      ],
      [
        "l",
        "o"
      ],
      [
        "Ġl",
        "ike"
      ],
      [
        "Ġp",
        "res"
      ],
      [
        "r",
        "it"
      ],
      [
        "Ġb",
        "ook"
      ],
      [
        "Ġa",
        "p"
      ],
      [
        "Ġm",
        "a"
      ],
      [
        "Ġan",
        "al"
      ],
      [
        "Ġbe",
        "c"
      ],
      [
        "is",
        "s"
      ],
      [
        "n",
        "a"
      ],
      [
        "p",
        "s"
      ],
      [
        "al",
        "ly"
      ],
      [
        "Ġwh",
        "at"
      ],
      [
        "op",
        "le"
      ],
      [
        "Ġint",
        "o"
      ],
      [
        "ant",
        "s"
      ],
      [
        "er",
        "y"
      ],
      [
        "Ġpro",
        "v"
      ],
      [
        "w",
        "n"
      ],
      [
        "id",
        "ent"
      ],
      [
        "Ġg",
        "et"
      ],
      [
        "Ġ",
        "!"
      ],
      [
        "Ġv",
        "iew"
      ],
      [
        "vel",
        "op"
      ],
      [
        "i",
        "ent"
      ],
      [
        "Ġpe",
        "ople"
      ],
      [
        "Ġin",
        "clud"
      ],
      [
        "Ġa",
        "ut"
      ],
      [
        "Ġin",
        "v"
      ],
      [
        "Ġf",
        "ir"
      ],
      [
        "Ġim",
        "p"
      ],
      [
        "Ġpro",
        "te"
      ],
      [
        "th",
        "is"
      ],
      [
        "Ġ",
        "+"
      ],
      [
        "Ġnum",
        "ber"
      ],
      [
        "st",
        "em"
      ],
      [
        "ction",
        "s"
      ],
      [
        "er",
        "m"
      ],
      [
        "ol",
        "d"
      ],
      [
        "c",
        "y"
      ],
      [
        "f",
        "t"
      ],
      [
        "Ġc",
        "ar"
      ],
      [
        "is",
        "h"
      ],
      [
        "Ġde",
        "velop"
      ],
      [
        "Ġus",
        "ed"
      ],
      [
        "Ġv",
        "ot"
      ],
      [
        "Ġac",
        "c"
      ],
      [
        "Ġ",
        "z"
      ],
      [
        "Ġhe",
        "alth"
      ],
      [
        "it",
        "ed"
      ],
      [
        "Ġm",
        "in"
      ],
      [
        "Ġc",
        "or"
      ],
      [
        "ment",
        "s"
      ],
      [
        "Ġs",
        "ur"
      ],
      [
        "ce",
        "pt"
      ],
      [
        "Ġaf",
        "ter"
      ],
      [
        "l",
        "and"
      ],
      [
        "at",
        "ing"
      ],
      [
        "Ġh",
        "ad"
      ],
      [
        "Ġpro",
        "du"
      ],
      [
        "Ġp",
        "os"
      ],
      [
        "Ġf",
        "ound"
      ],
      [
        "Ġs",
        "erv"
      ],
      [
        "r",
        "ough"
      ],
      [
        "in",
        "s"
      ],
      [
        "Ġa",
        "v"
      ],
      [
        "ot",
        "h"
      ],
      [
        "l",
        "es"
      ],
      [
        "il",
        "ity"
      ],
      [
        "Ġsu",
        "pp"
      ],
      [
        "Ġd",
        "ist"
      ],
      [
        "se",
        "arch"
      ],
      [
        "Ġus",
        "ing"
      ],
      [
        "Ġh",
        "igh"
      ],
      [
        "Ġde",
        "p"
      ],
      [
        "Ġw",
        "ould"
      ],
      [
        "Ġm",
        "on"
      ],
      [
        "Ġj",
        "o"
      ],
      [
        "Ġfir",
        "st"
      ],
      [
        "ro",
        "s"
      ],
      [
        "j",
        "ect"
      ],
      [
        "Ġsy",
        "stem"
      ],
      [
        "Ġw",
        "ik"
      ],
      [
        "Ġv",
        "al"
      ],
      [
        "Ġne",
        "ed"
      ],
      [
        "Ġc",
        "he"
      ],
      [
        "Ġgen",
        "er"
      ],
      [
        "al",
        "s"
      ],
      [
        "Ġstud",
        "y"
      ],
      [
        "Ġin",
        "form"
      ],
      [
        "Ġart",
        "ic"
      ],
      [
        "s",
        "h"
      ],
      [
        "Ġd",
        "et"
      ],
      [
        "ers",
        "on"
      ],
      [
        "er",
        "t"
      ],
      [
        "Ġn",
        "or"
      ],
      [
        "olog",
        "y"
      ],
      [
        "Ġre",
        "p"
      ],
      [
        "Ġb",
        "u"
      ],
      [
        "Ġwe",
        "ll"
      ],
      [
        "Ġc",
        "ount"
      ],
      [
        "t",
        "t"
      ],
      [
        "Ġgr",
        "ou"
      ],
      [
        "Ġsu",
        "ch"
      ],
      [
        "ĠâĢ",
        "ĵ"
      ],
      [
        "pe",
        "ct"
      ],
      [
        "Ġs",
        "im"
      ],
      [
        "Ġse",
        "e"
      ],
      [
        "u",
        "res"
      ],
      [
        "Ġor",
        "g"
      ],
      [
        "on",
        "d"
      ],
      [
        "ĠĠÂłĠĠÂł",
        "ĠĊĊ"
      ],
      [
        "Ġf",
        "un"
      ],
      [
        "it",
        "ies"
      ],
      [
        "Ġd",
        "ay"
      ],
      [
        "f",
        "fect"
      ],
      [
        "o",
        "x"
      ],
      [
        "Ġres",
        "ult"
      ],
      [
        "Ġre",
        "v"
      ],
      [
        "oc",
        "i"
      ],
      [
        "Ġc",
        "a"
      ],
      [
        "i",
        "ly"
      ],
      [
        "Ġsh",
        "ow"
      ],
      [
        "ren",
        "t"
      ],
      [
        "is",
        "e"
      ],
      [
        "Ġp",
        "a"
      ],
      [
        "Ġanal",
        "ys"
      ],
      [
        "ib",
        "le"
      ],
      [
        "Ġdifferen",
        "t"
      ],
      [
        "g",
        "et"
      ],
      [
        "Ġd",
        "i"
      ],
      [
        "ver",
        "y"
      ],
      [
        "ur",
        "ing"
      ],
      [
        "Ġe",
        "ffect"
      ],
      [
        "Ġen",
        "g"
      ],
      [
        "ll",
        "ow"
      ],
      [
        "au",
        "se"
      ],
      [
        "ress",
        "ion"
      ],
      [
        "Ġse",
        "arch"
      ],
      [
        "Ġinform",
        "ation"
      ],
      [
        "at",
        "h"
      ],
      [
        "Ġwhe",
        "re"
      ],
      [
        "Ġ",
        "ent"
      ],
      [
        "an",
        "ge"
      ],
      [
        "i",
        "ous"
      ],
      [
        "o",
        "v"
      ],
      [
        "in",
        "al"
      ],
      [
        "Ġsh",
        "ould"
      ],
      [
        "Ġman",
        "y"
      ],
      [
        "Ġf",
        "ind"
      ],
      [
        "Ġch",
        "ar"
      ],
      [
        "Ġb",
        "r"
      ],
      [
        "Ġl",
        "a"
      ],
      [
        "f",
        "ore"
      ],
      [
        "Ġin",
        "f"
      ],
      [
        "Ġth",
        "rough"
      ],
      [
        "i",
        "ents"
      ],
      [
        "o",
        "od"
      ],
      [
        "ad",
        "e"
      ],
      [
        "Ġo",
        "p"
      ],
      [
        "Ġin",
        "st"
      ],
      [
        "Ġt",
        "y"
      ],
      [
        "Ġs",
        "et"
      ],
      [
        "Ġe",
        "ach"
      ],
      [
        "ra",
        "m"
      ],
      [
        "Ġfor",
        "m"
      ],
      [
        "Ġp",
        "op"
      ],
      [
        "Ġg",
        "u"
      ],
      [
        "in",
        "es"
      ],
      [
        "Ġd",
        "own"
      ],
      [
        "Ġhelp",
        "ful"
      ],
      [
        "Ġpre",
        "v"
      ],
      [
        "he",
        "s"
      ],
      [
        "Ġp",
        "ol"
      ],
      [
        "Ġwe",
        "b"
      ],
      [
        "ul",
        "ation"
      ],
      [
        "ow",
        "er"
      ],
      [
        "Ġh",
        "ist"
      ],
      [
        "c",
        "k"
      ],
      [
        "Ġp",
        "ar"
      ],
      [
        "Ġan",
        "t"
      ],
      [
        "Ġthe",
        "n"
      ],
      [
        "Ġv",
        "ari"
      ],
      [
        "Ġm",
        "ark"
      ],
      [
        "Ġpro",
        "b"
      ],
      [
        "Ġle",
        "vel"
      ],
      [
        "Ġl",
        "ar"
      ],
      [
        "Ġst",
        "r"
      ],
      [
        "Ġf",
        "am"
      ],
      [
        "Ġartic",
        "le"
      ],
      [
        "Ġ",
        "x"
      ],
      [
        "Ġb",
        "us"
      ],
      [
        "ig",
        "ation"
      ],
      [
        "as",
        "es"
      ],
      [
        "Ġex",
        "t"
      ],
      [
        "Ġfo",
        "llow"
      ],
      [
        "Ġvot",
        "es"
      ],
      [
        "Ġwor",
        "ld"
      ],
      [
        "er",
        "n"
      ],
      [
        "Ġ",
        "est"
      ],
      [
        "Ġh",
        "im"
      ],
      [
        "Ġh",
        "um"
      ],
      [
        "Ġl",
        "ist"
      ],
      [
        "it",
        "s"
      ],
      [
        "Ġex",
        "per"
      ],
      [
        "ig",
        "ure"
      ],
      [
        "at",
        "ure"
      ],
      [
        "Ġf",
        "act"
      ],
      [
        "m",
        "an"
      ],
      [
        "if",
        "ied"
      ],
      [
        "r",
        "ic"
      ],
      [
        "Ġe",
        "ar"
      ],
      [
        "Ġw",
        "ay"
      ],
      [
        "ĠĠ",
        "ĠÂł"
      ],
      [
        "Ġde",
        "c"
      ],
      [
        "Ġes",
        "v"
      ],
      [
        "Ġj",
        "ust"
      ],
      [
        "Ġcell",
        "s"
      ],
      [
        "iv",
        "ers"
      ],
      [
        "Ġen",
        "d"
      ],
      [
        "Ġinc",
        "re"
      ],
      [
        "Ġc",
        "ur"
      ],
      [
        "Ġm",
        "u"
      ],
      [
        "Ġin",
        "te"
      ],
      [
        "u",
        "es"
      ],
      [
        "ical",
        "ly"
      ],
      [
        "Ġm",
        "em"
      ],
      [
        "if",
        "e"
      ],
      [
        "Ġs",
        "our"
      ],
      [
        "ro",
        "l"
      ],
      [
        "r",
        "on"
      ],
      [
        "Ġm",
        "ar"
      ],
      [
        "Ġp",
        "age"
      ],
      [
        "Ġpat",
        "ients"
      ],
      [
        "am",
        "es"
      ],
      [
        "Ġmet",
        "h"
      ],
      [
        "n",
        "ing"
      ],
      [
        "Ġt",
        "est"
      ],
      [
        "Ġb",
        "oth"
      ],
      [
        "Ġh",
        "y"
      ],
      [
        "Ġpro",
        "g"
      ],
      [
        "al",
        "e"
      ],
      [
        "ac",
        "es"
      ],
      [
        "Ġapp",
        "ro"
      ],
      [
        "Ġe",
        "t"
      ],
      [
        "Ġs",
        "er"
      ],
      [
        "se",
        "l"
      ],
      [
        "Ġre",
        "m"
      ],
      [
        "Ġch",
        "ang"
      ],
      [
        "Ġs",
        "ch"
      ],
      [
        "Ġgen",
        "e"
      ],
      [
        "ri",
        "pt"
      ],
      [
        "Ġg",
        "reat"
      ],
      [
        "Ġde",
        "f"
      ],
      [
        "Ġb",
        "ased"
      ],
      [
        "Ġre",
        "port"
      ],
      [
        "Ġkn",
        "ow"
      ],
      [
        "Ġact",
        "iv"
      ],
      [
        "v",
        "ed"
      ],
      [
        "is",
        "m"
      ],
      [
        "ĠĠÂł",
        "Ġ"
      ],
      [
        "Ġ",
        "her"
      ],
      [
        "Ġc",
        "ould"
      ],
      [
        "Ġv",
        "ers"
      ],
      [
        "iz",
        "ed"
      ],
      [
        "k",
        "e"
      ],
      [
        "Ġanalys",
        "is"
      ],
      [
        "Ġex",
        "am"
      ],
      [
        "Ġgo",
        "od"
      ],
      [
        "e",
        "ver"
      ],
      [
        "Ġpart",
        "ic"
      ],
      [
        "s",
        "w"
      ],
      [
        "al",
        "k"
      ],
      [
        "h",
        "ing"
      ],
      [
        "w",
        "ard"
      ],
      [
        "ol",
        "s"
      ],
      [
        "iz",
        "e"
      ],
      [
        "Ġcomp",
        "le"
      ],
      [
        "c",
        "c"
      ],
      [
        "d",
        "e"
      ],
      [
        "Ġf",
        "ree"
      ],
      [
        "ic",
        "es"
      ],
      [
        "Ġd",
        "uring"
      ],
      [
        "Ġk",
        "e"
      ],
      [
        "o",
        "ve"
      ],
      [
        "Ġm",
        "ake"
      ],
      [
        "g",
        "g"
      ],
      [
        "t",
        "s"
      ],
      [
        "rib",
        "ut"
      ],
      [
        "Ġl",
        "ong"
      ],
      [
        "act",
        "er"
      ],
      [
        "d",
        "s"
      ],
      [
        "y",
        "l"
      ],
      [
        "Ġd",
        "on"
      ],
      [
        "av",
        "igation"
      ],
      [
        "ter",
        "n"
      ],
      [
        "ĠĠ",
        "âĢ"
      ],
      [
        "Ġaut",
        "h"
      ],
      [
        "c",
        "ent"
      ],
      [
        "Ġn",
        "et"
      ],
      [
        "Ġhe",
        "re"
      ],
      [
        "ra",
        "ph"
      ],
      [
        "re",
        "st"
      ],
      [
        "Ġv",
        "ery"
      ],
      [
        "ĠĠâĢ",
        "ī"
      ],
      [
        "t",
        "y"
      ],
      [
        "ot",
        "her"
      ],
      [
        "ru",
        "ct"
      ],
      [
        "i",
        "o"
      ],
      [
        "w",
        "or"
      ],
      [
        "Ġc",
        "ity"
      ],
      [
        "Ġqu",
        "est"
      ],
      [
        "Ġm",
        "ain"
      ],
      [
        "Ġth",
        "ose"
      ],
      [
        "Ġc",
        "are"
      ],
      [
        "in",
        "ed"
      ],
      [
        "Ġcent",
        "ral"
      ],
      [
        "c",
        "ript"
      ],
      [
        "Ġop",
        "en"
      ],
      [
        "Ġres",
        "p"
      ],
      [
        "Ġe",
        "very"
      ],
      [
        "Ġs",
        "he"
      ],
      [
        "er",
        "g"
      ],
      [
        "t",
        "o"
      ],
      [
        "Ġs",
        "ou"
      ],
      [
        "en",
        "se"
      ],
      [
        "Ġs",
        "am"
      ],
      [
        "Ġ",
        "ident"
      ],
      [
        "Ġinter",
        "n"
      ],
      [
        "Ġb",
        "o"
      ],
      [
        "Ġp",
        "ost"
      ],
      [
        "Ġdis",
        "c"
      ],
      [
        "t",
        "ing"
      ],
      [
        "Ġse",
        "qu"
      ],
      [
        "i",
        "ence"
      ],
      [
        "is",
        "ion"
      ],
      [
        "a",
        "x"
      ],
      [
        "i",
        "el"
      ],
      [
        "Ġbe",
        "l"
      ],
      [
        "Ġbec",
        "ause"
      ],
      [
        "Ġst",
        "at"
      ],
      [
        "ch",
        "n"
      ],
      [
        "Ġg",
        "row"
      ],
      [
        "Ġar",
        "ound"
      ],
      [
        "Ġm",
        "ic"
      ],
      [
        "tt",
        "p"
      ],
      [
        "Ġyear",
        "s"
      ],
      [
        "Ġre",
        "search"
      ],
      [
        "Ġgen",
        "es"
      ],
      [
        "Ġass",
        "oci"
      ],
      [
        "iz",
        "ation"
      ],
      [
        "g",
        "r"
      ],
      [
        "Ġb",
        "ack"
      ],
      [
        "i",
        "er"
      ],
      [
        "Ġs",
        "l"
      ],
      [
        "Ġl",
        "ic"
      ],
      [
        "Ġs",
        "ame"
      ],
      [
        "Ġr",
        "ight"
      ],
      [
        "Ġb",
        "ar"
      ],
      [
        "Ġan",
        "sw"
      ],
      [
        "Ġre",
        "st"
      ],
      [
        "Ġ",
        "ve"
      ],
      [
        "oc",
        "k"
      ],
      [
        "he",
        "n"
      ],
      [
        "ar",
        "m"
      ],
      [
        "Ġc",
        "re"
      ],
      [
        "Ġst",
        "art"
      ],
      [
        "c",
        "er"
      ],
      [
        "Ġpl",
        "ay"
      ],
      [
        "Ġhow",
        "ever"
      ],
      [
        "Ġin",
        "s"
      ],
      [
        "Ġsupp",
        "ort"
      ],
      [
        "Ġne",
        "ar"
      ],
      [
        "Ġf",
        "ans"
      ],
      [
        "Ġre",
        "qu"
      ],
      [
        "Ġav",
        "ail"
      ],
      [
        "ur",
        "n"
      ],
      [
        "Ġl",
        "ook"
      ],
      [
        "a",
        "red"
      ],
      [
        "a",
        "h"
      ],
      [
        "Ġgrou",
        "p"
      ],
      [
        "i",
        "x"
      ],
      [
        "Ġc",
        "al"
      ],
      [
        "ir",
        "on"
      ],
      [
        "Ġrec",
        "ord"
      ],
      [
        "Ġhum",
        "an"
      ],
      [
        "i",
        "um"
      ],
      [
        "er",
        "ic"
      ],
      [
        "Ġprov",
        "id"
      ],
      [
        "t",
        "en"
      ],
      [
        "Ġk",
        "m"
      ],
      [
        "Ġcon",
        "f"
      ],
      [
        "Ġo",
        "wn"
      ],
      [
        "Ġbe",
        "ing"
      ],
      [
        "n",
        "er"
      ],
      [
        "Ġadd",
        "ition"
      ],
      [
        "Ġwh",
        "ile"
      ],
      [
        "Ġst",
        "ate"
      ],
      [
        "Ġsa",
        "id"
      ],
      [
        "in",
        "ation"
      ],
      [
        "Ġn",
        "on"
      ],
      [
        "Ġmod",
        "el"
      ],
      [
        "t",
        "on"
      ],
      [
        "Ġn",
        "ow"
      ],
      [
        "Ġd",
        "ire"
      ],
      [
        "ur",
        "al"
      ],
      [
        "al",
        "ity"
      ],
      [
        "Ġag",
        "ain"
      ],
      [
        "Ġv",
        "ol"
      ],
      [
        "Ġth",
        "ree"
      ],
      [
        "Ġsm",
        "all"
      ],
      [
        "ate",
        "g"
      ],
      [
        "Ġev",
        "en"
      ],
      [
        "t",
        "le"
      ],
      [
        "um",
        "p"
      ],
      [
        "Ġsign",
        "ific"
      ],
      [
        "Ġimp",
        "ro"
      ],
      [
        "Ġs",
        "ay"
      ],
      [
        "Ġst",
        "ates"
      ],
      [
        "Ġpres",
        "ent"
      ],
      [
        "Ġs",
        "ol"
      ],
      [
        "Ġdis",
        "e"
      ],
      [
        "n",
        "ess"
      ],
      [
        "Ġm",
        "ade"
      ],
      [
        "od",
        "e"
      ],
      [
        "Ġpub",
        "lic"
      ],
      [
        "o",
        "b"
      ],
      [
        "Ġcomm",
        "un"
      ],
      [
        "Ġre",
        "t"
      ],
      [
        "it",
        "al"
      ],
      [
        "d",
        "ay"
      ],
      [
        "in",
        "ess"
      ],
      [
        "ent",
        "ly"
      ],
      [
        "Ġl",
        "ife"
      ],
      [
        "og",
        "le"
      ],
      [
        "ent",
        "ion"
      ],
      [
        "Ġt",
        "ri"
      ],
      [
        "Ġmeth",
        "od"
      ],
      [
        "Ġm",
        "at"
      ],
      [
        "Ġavail",
        "able"
      ],
      [
        "Ġexp",
        "ression"
      ],
      [
        "v",
        "ing"
      ],
      [
        "Ġg",
        "e"
      ],
      [
        "Ġte",
        "chn"
      ],
      [
        "Ġpro",
        "cess"
      ],
      [
        "Ġ",
        "$"
      ],
      [
        "y",
        "m"
      ],
      [
        "om",
        "et"
      ],
      [
        "Ġl",
        "ink"
      ],
      [
        "ivers",
        "ity"
      ],
      [
        "Ġf",
        "re"
      ],
      [
        "ou",
        "se"
      ],
      [
        "iv",
        "id"
      ],
      [
        "Ġr",
        "un"
      ],
      [
        "Ġdo",
        "es"
      ],
      [
        "e",
        "x"
      ],
      [
        "r",
        "an"
      ],
      [
        "u",
        "g"
      ],
      [
        "Ġhist",
        "ory"
      ],
      [
        "ual",
        "ly"
      ],
      [
        "Ġe",
        "l"
      ],
      [
        "in",
        "ce"
      ],
      [
        "at",
        "her"
      ],
      [
        "c",
        "om"
      ],
      [
        "h",
        "n"
      ],
      [
        "Ġt",
        "em"
      ],
      [
        "Ġre",
        "ad"
      ],
      [
        "ver",
        "n"
      ],
      [
        "us",
        "s"
      ],
      [
        "Ġc",
        "y"
      ],
      [
        "Ġpo",
        "int"
      ],
      [
        "Ġchang",
        "es"
      ],
      [
        "Ġim",
        "port"
      ],
      [
        "Ġgo",
        "ogle"
      ],
      [
        "Ġs",
        "w"
      ],
      [
        "Ġp",
        "ri"
      ],
      [
        "Ġg",
        "od"
      ],
      [
        "Ġpos",
        "s"
      ],
      [
        "og",
        "raph"
      ],
      [
        "Ġcont",
        "rol"
      ],
      [
        "Ġpat",
        "h"
      ],
      [
        "Ġc",
        "all"
      ],
      [
        "ain",
        "ed"
      ],
      [
        "Ġcont",
        "ent"
      ],
      [
        "Ġt",
        "reat"
      ],
      [
        "en",
        "cy"
      ],
      [
        "ut",
        "e"
      ],
      [
        "lo",
        "ad"
      ],
      [
        "Ġt",
        "er"
      ],
      [
        "an",
        "y"
      ],
      [
        "Ġbe",
        "fore"
      ],
      [
        "Ġph",
        "ys"
      ],
      [
        "Ġn",
        "ame"
      ],
      [
        "Ġresult",
        "s"
      ],
      [
        "Ġ",
        "&"
      ],
      [
        "Ġvers",
        "ion"
      ],
      [
        "Ġre",
        "f"
      ],
      [
        "o",
        "y"
      ],
      [
        "Ġl",
        "it"
      ],
      [
        "Ġspec",
        "ific"
      ],
      [
        "Ġfam",
        "ily"
      ],
      [
        "n",
        "ot"
      ],
      [
        "l",
        "ed"
      ],
      [
        "Ġde",
        "m"
      ],
      [
        "Ġ",
        "*"
      ],
      [
        "l",
        "ine"
      ],
      [
        "Ġle",
        "ad"
      ],
      [
        "Ġme",
        "as"
      ],
      [
        "Ġb",
        "re"
      ],
      [
        "iv",
        "ed"
      ],
      [
        "Ġsignific",
        "ant"
      ],
      [
        "c",
        "o"
      ],
      [
        "Ġch",
        "ild"
      ],
      [
        "ros",
        "s"
      ],
      [
        "Ġorg",
        "an"
      ],
      [
        "ĠÂ",
        "·"
      ],
      [
        "Ġmu",
        "ch"
      ],
      [
        "Ġv",
        "is"
      ],
      [
        "Ġen",
        "v"
      ],
      [
        "u",
        "p"
      ],
      [
        "Ġl",
        "ib"
      ],
      [
        "Ġg",
        "iv"
      ],
      [
        "Ġansw",
        "er"
      ],
      [
        "Ġloc",
        "ated"
      ],
      [
        "ist",
        "s"
      ],
      [
        "Ġcl",
        "ass"
      ],
      [
        "rib",
        "ution"
      ],
      [
        "Ġn",
        "ational"
      ],
      [
        "Ġcl",
        "in"
      ],
      [
        "Ġad",
        "v"
      ],
      [
        "Ġf",
        "ore"
      ],
      [
        "Ġw",
        "ater"
      ],
      [
        "Ġdevelop",
        "ment"
      ],
      [
        "Ġt",
        "ak"
      ],
      [
        "Ġp",
        "le"
      ],
      [
        "Ġf",
        "igure"
      ],
      [
        "Ġto",
        "ols"
      ],
      [
        "ent",
        "ial"
      ],
      [
        "Ġun",
        "ited"
      ],
      [
        "en",
        "e"
      ],
      [
        "Ġgo",
        "vern"
      ],
      [
        "Ġor",
        "ig"
      ],
      [
        "Ġare",
        "a"
      ],
      [
        "s",
        "on"
      ],
      [
        "Ġm",
        "ult"
      ],
      [
        "ff",
        "ic"
      ],
      [
        "Ġto",
        "p"
      ],
      [
        "t",
        "ed"
      ],
      [
        "Ġo",
        "ld"
      ],
      [
        "Ġd",
        "id"
      ],
      [
        "Ġpro",
        "f"
      ],
      [
        "Ġw",
        "ar"
      ],
      [
        "os",
        "p"
      ],
      [
        "Ġt",
        "ake"
      ],
      [
        "o",
        "id"
      ],
      [
        "Ġap",
        "pe"
      ],
      [
        "Ġh",
        "ttp"
      ],
      [
        "olog",
        "ical"
      ],
      [
        "Ġam",
        "eric"
      ],
      [
        "t",
        "al"
      ],
      [
        "v",
        "es"
      ],
      [
        "Ġg",
        "ra"
      ],
      [
        "Ġc",
        "le"
      ],
      [
        "Ġo",
        "cc"
      ],
      [
        "ari",
        "o"
      ],
      [
        "Ġlar",
        "ge"
      ],
      [
        "Ġkn",
        "own"
      ],
      [
        "Ġm",
        "en"
      ],
      [
        "Ġst",
        "and"
      ],
      [
        "Ġmic",
        "ro"
      ],
      [
        "Ġa",
        "ir"
      ],
      [
        "Ġl",
        "ine"
      ],
      [
        "Ġpr",
        "im"
      ],
      [
        "ain",
        "s"
      ],
      [
        "Ġac",
        "cess"
      ],
      [
        "Ġ",
        "#"
      ],
      [
        "b",
        "e"
      ],
      [
        "Ġb",
        "as"
      ],
      [
        "Ġde",
        "l"
      ],
      [
        "Ġh",
        "ot"
      ],
      [
        "m",
        "ark"
      ],
      [
        "Ġse",
        "con"
      ],
      [
        "Ġl",
        "og"
      ],
      [
        "Ġs",
        "ite"
      ],
      [
        "Ġc",
        "reat"
      ],
      [
        "Ġr",
        "is"
      ],
      [
        "r",
        "ation"
      ],
      [
        "w",
        "are"
      ],
      [
        "feren",
        "ces"
      ],
      [
        "Ġenv",
        "iron"
      ],
      [
        "Ġc",
        "op"
      ],
      [
        "ab",
        "ility"
      ],
      [
        "erson",
        "al"
      ],
      [
        "Ġg",
        "l"
      ],
      [
        "Ġprote",
        "in"
      ],
      [
        "it",
        "ions"
      ],
      [
        "Ġpro",
        "ject"
      ],
      [
        "Ġinclud",
        "ing"
      ],
      [
        "i",
        "qu"
      ],
      [
        "i",
        "ver"
      ],
      [
        "Ġf",
        "il"
      ],
      [
        "Ġl",
        "ab"
      ],
      [
        "Ġdes",
        "ign"
      ],
      [
        "Ġinte",
        "rest"
      ],
      [
        "Ġl",
        "ow"
      ],
      [
        "Ġpl",
        "ace"
      ],
      [
        "m",
        "al"
      ],
      [
        "Ġam",
        "ong"
      ],
      [
        "Ġf",
        "ile"
      ],
      [
        "Ġh",
        "and"
      ],
      [
        "Ġo",
        "pt"
      ],
      [
        "a",
        "z"
      ],
      [
        "Ġw",
        "ant"
      ],
      [
        "Ġm",
        "ak"
      ],
      [
        "en",
        "g"
      ],
      [
        "Ġw",
        "est"
      ],
      [
        "Ġl",
        "ast"
      ],
      [
        "Ġcon",
        "st"
      ],
      [
        "Ġf",
        "ri"
      ],
      [
        "Ġwith",
        "in"
      ],
      [
        "Ġind",
        "ivid"
      ],
      [
        "Ġdire",
        "ct"
      ],
      [
        "g",
        "en"
      ],
      [
        "i",
        "red"
      ],
      [
        "u",
        "ro"
      ],
      [
        "Ġs",
        "it"
      ],
      [
        "Ġb",
        "est"
      ],
      [
        "Ġwith",
        "out"
      ],
      [
        "Ġprodu",
        "ct"
      ],
      [
        "b",
        "ers"
      ],
      [
        "Ġc",
        "our"
      ],
      [
        "le",
        "ction"
      ],
      [
        "ific",
        "ation"
      ],
      [
        "in",
        "a"
      ],
      [
        "Ġex",
        "pl"
      ],
      [
        "Ġcan",
        "cer"
      ],
      [
        "Ġc",
        "ap"
      ],
      [
        "Ġfun",
        "ction"
      ],
      [
        "Ġcur",
        "rent"
      ],
      [
        "Ġfe",
        "w"
      ],
      [
        "m",
        "e"
      ],
      [
        "am",
        "p"
      ],
      [
        "ag",
        "n"
      ],
      [
        "Ġe",
        "lect"
      ],
      [
        "ĠÂ",
        "°"
      ],
      [
        "Ġh",
        "ig"
      ],
      [
        "Ġauth",
        "or"
      ],
      [
        "Ġindivid",
        "ual"
      ],
      [
        "a",
        "ctions"
      ],
      [
        "Ġre",
        "du"
      ],
      [
        "Ġbus",
        "iness"
      ],
      [
        "c",
        "ial"
      ],
      [
        "Ġs",
        "k"
      ],
      [
        "ĠÂł",
        "Ġ"
      ],
      [
        "Ġf",
        "ur"
      ],
      [
        "Ġp",
        "ower"
      ],
      [
        "en",
        "ces"
      ],
      [
        "Ġs",
        "ing"
      ],
      [
        "im",
        "ate"
      ],
      [
        "Ġp",
        "ark"
      ],
      [
        "c",
        "rib"
      ],
      [
        "Ġre",
        "le"
      ],
      [
        "re",
        "ad"
      ],
      [
        "Ġsecon",
        "d"
      ],
      [
        "Ġw",
        "om"
      ],
      [
        "Ġrel",
        "ated"
      ],
      [
        "Ġprob",
        "le"
      ],
      [
        "r",
        "ict"
      ],
      [
        "Ġun",
        "iversity"
      ],
      [
        "Ġp",
        "ages"
      ],
      [
        "Ġp",
        "ot"
      ],
      [
        "id",
        "ence"
      ],
      [
        "v",
        "en"
      ],
      [
        "Ġpop",
        "ulation"
      ],
      [
        "Ġquest",
        "ion"
      ],
      [
        "c",
        "ul"
      ],
      [
        "w",
        "h"
      ],
      [
        "Ġp",
        "red"
      ],
      [
        "Ġimpro",
        "ve"
      ],
      [
        "Ġenviron",
        "ment"
      ],
      [
        "ed",
        "ia"
      ],
      [
        "pl",
        "ay"
      ],
      [
        "od",
        "y"
      ],
      [
        "Ġma",
        "j"
      ],
      [
        "Ġse",
        "c"
      ],
      [
        "wor",
        "k"
      ],
      [
        "Ġcon",
        "d"
      ],
      [
        "Ġchar",
        "acter"
      ],
      [
        "Ġstud",
        "ies"
      ],
      [
        "re",
        "en"
      ],
      [
        "os",
        "is"
      ],
      [
        "Ġloc",
        "al"
      ],
      [
        "at",
        "or"
      ],
      [
        "et",
        "s"
      ],
      [
        "sel",
        "f"
      ],
      [
        "Ġserv",
        "ice"
      ],
      [
        "Ġw",
        "w"
      ],
      [
        "Ġgener",
        "al"
      ],
      [
        "Ġl",
        "ess"
      ],
      [
        "Ġsy",
        "n"
      ],
      [
        "Ġsu",
        "per"
      ],
      [
        "iel",
        "d"
      ],
      [
        "g",
        "ed"
      ],
      [
        "a",
        "ve"
      ],
      [
        "Ġd",
        "om"
      ],
      [
        "Ġsour",
        "ce"
      ],
      [
        "Ġe",
        "as"
      ],
      [
        "Ġim",
        "m"
      ],
      [
        "Ġst",
        "re"
      ],
      [
        "ro",
        "p"
      ],
      [
        "Ġm",
        "ust"
      ],
      [
        "Ġor",
        "der"
      ],
      [
        "Ġspec",
        "ies"
      ],
      [
        "ang",
        "u"
      ],
      [
        "Ġty",
        "pe"
      ],
      [
        "os",
        "ed"
      ],
      [
        "ar",
        "s"
      ],
      [
        "Ġth",
        "ough"
      ],
      [
        "Ġse",
        "ver"
      ],
      [
        "Ġfollow",
        "ing"
      ],
      [
        "Ġl",
        "im"
      ],
      [
        "an",
        "k"
      ],
      [
        "l",
        "ess"
      ],
      [
        "it",
        "ive"
      ],
      [
        "or",
        "n"
      ],
      [
        "gg",
        "est"
      ],
      [
        "Ġp",
        "ur"
      ],
      [
        "Ġde",
        "v"
      ],
      [
        "Ġcont",
        "ribut"
      ],
      [
        "Ġob",
        "s"
      ],
      [
        "Ġb",
        "ro"
      ],
      [
        "Ġl",
        "and"
      ],
      [
        "op",
        "h"
      ],
      [
        "at",
        "ory"
      ],
      [
        "Ġm",
        "ight"
      ],
      [
        "Ġle",
        "ar"
      ],
      [
        "a",
        "ir"
      ],
      [
        "Ġd",
        "oc"
      ],
      [
        "Ġu",
        "r"
      ],
      [
        "g",
        "er"
      ],
      [
        "Ġt",
        "able"
      ],
      [
        "Ġn",
        "avigation"
      ],
      [
        "iv",
        "es"
      ],
      [
        "Ġn",
        "at"
      ],
      [
        "um",
        "ent"
      ],
      [
        "way",
        "s"
      ],
      [
        "pl",
        "es"
      ],
      [
        "Ġp",
        "m"
      ],
      [
        "Ġe",
        "p"
      ],
      [
        "il",
        "ar"
      ],
      [
        "Ġfur",
        "ther"
      ],
      [
        "Ġe",
        "qu"
      ],
      [
        "Ġst",
        "ruct"
      ],
      [
        "at",
        "ic"
      ],
      [
        "c",
        "ing"
      ],
      [
        "Ġimport",
        "ant"
      ],
      [
        "is",
        "ed"
      ],
      [
        "Ġc",
        "ost"
      ],
      [
        "Ġnor",
        "th"
      ],
      [
        "n",
        "al"
      ],
      [
        "v",
        "iew"
      ],
      [
        "et",
        "ic"
      ],
      [
        "Ġ",
        "Ð"
      ],
      [
        "is",
        "on"
      ],
      [
        "Ġinv",
        "est"
      ],
      [
        "Ġs",
        "ince"
      ],
      [
        "Ġdise",
        "ase"
      ],
      [
        "Ġmaj",
        "or"
      ],
      [
        "Ġto",
        "wn"
      ],
      [
        "Ġf",
        "in"
      ],
      [
        "Ġtim",
        "es"
      ],
      [
        "og",
        "en"
      ],
      [
        "Ġla",
        "w"
      ],
      [
        "Ġinf",
        "l"
      ],
      [
        "Ġ",
        "er"
      ],
      [
        "Ġ",
        "â"
      ],
      [
        "os",
        "s"
      ],
      [
        "Ġc",
        "ase"
      ],
      [
        "as",
        "h"
      ],
      [
        "Ġww",
        "w"
      ],
      [
        "a",
        "i"
      ],
      [
        "uc",
        "le"
      ],
      [
        "Ġa",
        "ge"
      ],
      [
        "Ġth",
        "ink"
      ],
      [
        "i",
        "ans"
      ],
      [
        "Ġcont",
        "in"
      ],
      [
        "Ġsou",
        "th"
      ],
      [
        "Ġis",
        "s"
      ],
      [
        "a",
        "ut"
      ],
      [
        "Ġmon",
        "th"
      ],
      [
        "Ġall",
        "ow"
      ],
      [
        "Ġcomm",
        "on"
      ],
      [
        "Ġm",
        "us"
      ],
      [
        "Ġsu",
        "ggest"
      ],
      [
        "Ġsim",
        "ilar"
      ],
      [
        "Ġd",
        "r"
      ],
      [
        "Ġo",
        "per"
      ],
      [
        "Ġfri",
        "end"
      ],
      [
        "Ġpol",
        "ic"
      ],
      [
        "Ġt",
        "ar"
      ],
      [
        "Ġris",
        "k"
      ],
      [
        "Ġa",
        "way"
      ],
      [
        "Ġagain",
        "st"
      ],
      [
        "Ġl",
        "et"
      ],
      [
        "Ġst",
        "ill"
      ],
      [
        "Ġbe",
        "h"
      ],
      [
        "Ġwe",
        "e"
      ],
      [
        "Ġtreat",
        "ment"
      ],
      [
        "as",
        "on"
      ],
      [
        "Ġpro",
        "m"
      ],
      [
        "ri",
        "es"
      ],
      [
        "Ġind",
        "ic"
      ],
      [
        "Ġnew",
        "s"
      ],
      [
        "om",
        "ic"
      ],
      [
        "Ġp",
        "p"
      ],
      [
        "Ġreg",
        "ion"
      ],
      [
        "an",
        "n"
      ],
      [
        "t",
        "il"
      ],
      [
        "Ġp",
        "ass"
      ],
      [
        "Ġt",
        "erm"
      ],
      [
        "Ġdis",
        "play"
      ],
      [
        "Ġjo",
        "hn"
      ],
      [
        "Ġassoci",
        "ated"
      ],
      [
        "Ġc",
        "at"
      ],
      [
        "pl",
        "ic"
      ],
      [
        "a",
        "ff"
      ],
      [
        "ĠâĢ",
        "Ķ"
      ],
      [
        "Ġro",
        "ad"
      ],
      [
        "Ġm",
        "ario"
      ],
      [
        "if",
        "y"
      ],
      [
        "Ġmeas",
        "ure"
      ],
      [
        "Ġs",
        "al"
      ],
      [
        "er",
        "ing"
      ],
      [
        "Ġprog",
        "ram"
      ],
      [
        "et",
        "y"
      ],
      [
        "Ġh",
        "our"
      ],
      [
        "Ġch",
        "ange"
      ],
      [
        "h",
        "ip"
      ],
      [
        "Ġdif",
        "f"
      ],
      [
        "f",
        "rom"
      ],
      [
        "un",
        "e"
      ],
      [
        "Ġph",
        "one"
      ],
      [
        "ĠÂł",
        "ĠĊ"
      ],
      [
        "an",
        "e"
      ],
      [
        "le",
        "y"
      ],
      [
        "Ġsever",
        "al"
      ],
      [
        "j",
        "ump"
      ],
      [
        "Ġ",
        "q"
      ],
      [
        "Ġl",
        "at"
      ],
      [
        "Ġadd",
        "ress"
      ],
      [
        "Ġrep",
        "res"
      ],
      [
        "i",
        "or"
      ],
      [
        "m",
        "b"
      ],
      [
        "b",
        "y"
      ],
      [
        "Ġexam",
        "ple"
      ],
      [
        "Ġintern",
        "ational"
      ],
      [
        "id",
        "es"
      ],
      [
        "Ġcor",
        "re"
      ],
      [
        "Ġp",
        "s"
      ],
      [
        "Ġpl",
        "aces"
      ],
      [
        "im",
        "ent"
      ],
      [
        "Ġe",
        "le"
      ],
      [
        "Ġan",
        "other"
      ],
      [
        "om",
        "s"
      ],
      [
        "iss",
        "ion"
      ],
      [
        "Ġgovern",
        "ment"
      ],
      [
        "Ġc",
        "r"
      ],
      [
        "Ġfre",
        "qu"
      ],
      [
        "Ġhot",
        "el"
      ],
      [
        "Ġb",
        "ra"
      ],
      [
        "it",
        "her"
      ],
      [
        "Ġl",
        "angu"
      ],
      [
        "un",
        "d"
      ],
      [
        "Ġo",
        "pp"
      ],
      [
        "Ġpartic",
        "ip"
      ],
      [
        "c",
        "ular"
      ],
      [
        "Ġbu",
        "ild"
      ],
      [
        "erg",
        "y"
      ],
      [
        "ro",
        "du"
      ],
      [
        "Ġpro",
        "per"
      ],
      [
        "ra",
        "p"
      ],
      [
        "un",
        "g"
      ],
      [
        "feren",
        "ce"
      ],
      [
        "c",
        "le"
      ],
      [
        "ive",
        "ly"
      ],
      [
        "Ġres",
        "pect"
      ],
      [
        "Ġc",
        "ult"
      ],
      [
        "Ġobs",
        "erv"
      ],
      [
        "m",
        "a"
      ],
      [
        "Ġl",
        "o"
      ],
      [
        "Ġ",
        "Ø"
      ],
      [
        "Ġl",
        "in"
      ],
      [
        "Ġh",
        "ome"
      ],
      [
        "id",
        "s"
      ],
      [
        "lis",
        "h"
      ],
      [
        "Ġcom",
        "b"
      ],
      [
        "ru",
        "g"
      ],
      [
        "Ġso",
        "ft"
      ],
      [
        "Ġche",
        "m"
      ],
      [
        "b",
        "r"
      ],
      [
        "Ġe",
        "con"
      ],
      [
        "Ġinv",
        "ol"
      ],
      [
        "Ġv",
        "ir"
      ],
      [
        "Ġj",
        "our"
      ],
      [
        "Ġra",
        "d"
      ],
      [
        "Ġmed",
        "ic"
      ],
      [
        "i",
        "od"
      ],
      [
        "Ġc",
        "rit"
      ],
      [
        "art",
        "ment"
      ],
      [
        "p",
        "ersonal"
      ],
      [
        "Ġmed",
        "ical"
      ],
      [
        "p",
        "ar"
      ],
      [
        "Ġto",
        "tal"
      ],
      [
        "Ġab",
        "le"
      ],
      [
        "Ġp",
        "ress"
      ],
      [
        "Ġbook",
        "mark"
      ],
      [
        "Ġmark",
        "et"
      ],
      [
        "Ġlevel",
        "s"
      ],
      [
        "Ġchild",
        "ren"
      ],
      [
        "Ġposs",
        "ible"
      ],
      [
        "Ġs",
        "oc"
      ],
      [
        "Ġrev",
        "iew"
      ],
      [
        "Ġt",
        "re"
      ],
      [
        "Ġgiv",
        "en"
      ],
      [
        "Ġg",
        "ame"
      ],
      [
        "Ġmo",
        "ve"
      ],
      [
        "Ġval",
        "ue"
      ],
      [
        "Ġs",
        "omet"
      ],
      [
        "Ġm",
        "ap"
      ],
      [
        "Ġme",
        "an"
      ],
      [
        "ĠÃ",
        "©"
      ],
      [
        "Ġtar",
        "get"
      ],
      [
        "Ġa",
        "ust"
      ],
      [
        "Ġactiv",
        "ity"
      ],
      [
        "Ġem",
        "ail"
      ],
      [
        "Ġm",
        "or"
      ],
      [
        "Ġre",
        "ce"
      ],
      [
        "Ġsh",
        "ort"
      ],
      [
        "p",
        "es"
      ],
      [
        "Ġp",
        "ract"
      ],
      [
        "Ġdep",
        "end"
      ],
      [
        "b",
        "ox"
      ],
      [
        "Ġreport",
        "ed"
      ],
      [
        "c",
        "he"
      ],
      [
        "Ġ",
        "ide"
      ],
      [
        "Ġd",
        "ue"
      ],
      [
        "for",
        "med"
      ],
      [
        "b",
        "s"
      ],
      [
        "Ġf",
        "our"
      ],
      [
        "Ġh",
        "ouse"
      ],
      [
        "Ġv",
        "er"
      ],
      [
        "Ġpro",
        "p"
      ],
      [
        "h",
        "ib"
      ],
      [
        "Ġfo",
        "od"
      ],
      [
        "r",
        "ist"
      ],
      [
        "at",
        "s"
      ],
      [
        "ol",
        "ution"
      ],
      [
        "Ġprev",
        "ious"
      ],
      [
        "a",
        "w"
      ],
      [
        "Ġw",
        "rit"
      ],
      [
        "Ġs",
        "um"
      ],
      [
        "Ġb",
        "it"
      ],
      [
        "ur",
        "y"
      ],
      [
        "Ġapp",
        "lic"
      ],
      [
        "y",
        "r"
      ],
      [
        "m",
        "ber"
      ],
      [
        "Ġm",
        "ill"
      ],
      [
        "ain",
        "ing"
      ],
      [
        "Ġcomp",
        "ar"
      ],
      [
        "Ġpred",
        "ict"
      ],
      [
        "Ġwom",
        "en"
      ],
      [
        "v",
        "ari"
      ],
      [
        "ver",
        "age"
      ],
      [
        "Ġne",
        "xt"
      ],
      [
        "ord",
        "ing"
      ],
      [
        "Ġd",
        "ri"
      ],
      [
        "Ġhig",
        "her"
      ],
      [
        "Ġd",
        "na"
      ],
      [
        "Ġlic",
        "ense"
      ],
      [
        "Ġp",
        "erson"
      ],
      [
        "st",
        "and"
      ],
      [
        "Ġdet",
        "erm"
      ],
      [
        "Ġst",
        "e"
      ],
      [
        "Ġhe",
        "art"
      ],
      [
        "Ġen",
        "ergy"
      ],
      [
        "Ġday",
        "s"
      ],
      [
        "Ġ",
        "Ï"
      ],
      [
        "Ġn",
        "ucle"
      ],
      [
        "Ġserv",
        "ices"
      ],
      [
        "Ġre",
        "al"
      ],
      [
        "lo",
        "b"
      ],
      [
        "Ġcre",
        "ate"
      ],
      [
        "Ġar",
        "m"
      ],
      [
        "Ġper",
        "iod"
      ],
      [
        "Ġsing",
        "le"
      ],
      [
        "Ġaddition",
        "al"
      ],
      [
        "Ġde",
        "ath"
      ],
      [
        "Ġcomp",
        "any"
      ],
      [
        "y",
        "n"
      ],
      [
        "Ġc",
        "e"
      ],
      [
        "em",
        "s"
      ],
      [
        "re",
        "t"
      ],
      [
        "Ġsh",
        "own"
      ],
      [
        "Ġpot",
        "ential"
      ],
      [
        "Ġh",
        "osp"
      ],
      [
        "Ġof",
        "ten"
      ],
      [
        "Ġth",
        "ings"
      ],
      [
        "cl",
        "us"
      ],
      [
        "Ġacc",
        "ount"
      ],
      [
        "Ġd",
        "ra"
      ],
      [
        "Ġe",
        "c"
      ],
      [
        "Ġhe",
        "ad"
      ],
      [
        "ra",
        "y"
      ],
      [
        "Ġbook",
        "s"
      ],
      [
        "Ġwik",
        "ip"
      ],
      [
        "Ġl",
        "l"
      ],
      [
        "ur",
        "s"
      ],
      [
        "ot",
        "s"
      ],
      [
        "Ġm",
        "id"
      ],
      [
        "Ġstat",
        "ist"
      ],
      [
        "Ġd",
        "rug"
      ],
      [
        "Ġgrou",
        "ps"
      ],
      [
        "Ġeffect",
        "s"
      ],
      [
        "Ġbet",
        "ter"
      ],
      [
        "Ġm",
        "ut"
      ],
      [
        "Ġf",
        "oc"
      ],
      [
        "Ġ",
        "ir"
      ],
      [
        "Ġsu",
        "c"
      ],
      [
        "Ġ",
        "à"
      ],
      [
        "Ġsour",
        "ces"
      ],
      [
        "Ġ",
        "å"
      ],
      [
        "Ġrecord",
        "s"
      ],
      [
        "Ġbe",
        "g"
      ],
      [
        "b",
        "le"
      ],
      [
        "Ġus",
        "ers"
      ],
      [
        "cript",
        "ion"
      ],
      [
        "Ġe",
        "uro"
      ],
      [
        "Ġle",
        "g"
      ],
      [
        "p",
        "or"
      ],
      [
        "Ġis",
        "land"
      ],
      [
        "Ġcon",
        "ne"
      ],
      [
        "Ġp",
        "ut"
      ],
      [
        "Ġle",
        "ft"
      ],
      [
        "Ġc",
        "ust"
      ],
      [
        "Ġr",
        "ate"
      ],
      [
        "Ġc",
        "ode"
      ],
      [
        "Ġcommun",
        "ity"
      ],
      [
        "Ġin",
        "it"
      ],
      [
        "Ġdes",
        "crib"
      ],
      [
        "ert",
        "ain"
      ],
      [
        "or",
        "ies"
      ],
      [
        "p",
        "r"
      ],
      [
        "Ġorig",
        "inal"
      ],
      [
        "Ġ",
        "Ù"
      ],
      [
        "Ġw",
        "alk"
      ],
      [
        "Ġf",
        "ac"
      ],
      [
        "Ġstand",
        "ard"
      ],
      [
        "Ġas",
        "k"
      ],
      [
        "op",
        "s"
      ],
      [
        "Ġres",
        "our"
      ],
      [
        "Ġtr",
        "y"
      ],
      [
        "Ġt",
        "ag"
      ],
      [
        "Ġt",
        "alk"
      ],
      [
        "Ġh",
        "ar"
      ],
      [
        "Ġadd",
        "ed"
      ],
      [
        "Ġmo",
        "le"
      ],
      [
        "c",
        "op"
      ],
      [
        "Ġc",
        "d"
      ],
      [
        "Ġass",
        "ess"
      ],
      [
        "he",
        "re"
      ],
      [
        "Ġrepres",
        "ent"
      ],
      [
        "c",
        "a"
      ],
      [
        "id",
        "er"
      ],
      [
        "Ġcent",
        "er"
      ],
      [
        "Ġper",
        "form"
      ],
      [
        "ad",
        "d"
      ],
      [
        "Ġcomple",
        "te"
      ],
      [
        "Ġcreat",
        "ive"
      ],
      [
        "Ġcall",
        "ed"
      ],
      [
        "Ġst",
        "aff"
      ],
      [
        "Ġcount",
        "ry"
      ],
      [
        "Ġweb",
        "s"
      ],
      [
        "Ġm",
        "il"
      ],
      [
        "le",
        "t"
      ],
      [
        "Ġwik",
        "i"
      ],
      [
        "Ġple",
        "ase"
      ],
      [
        "Ġl",
        "ight"
      ],
      [
        "Ġnet",
        "work"
      ],
      [
        "Ġind",
        "ust"
      ],
      [
        "a",
        "f"
      ],
      [
        "Ġspec",
        "ial"
      ],
      [
        "Ġl",
        "ord"
      ],
      [
        "Ġad",
        "m"
      ],
      [
        "g",
        "o"
      ],
      [
        "Ġclin",
        "ical"
      ],
      [
        "in",
        "ing"
      ],
      [
        "Ġsh",
        "are"
      ],
      [
        "Ġameric",
        "an"
      ],
      [
        "Ġs",
        "ide"
      ],
      [
        "Ġab",
        "s"
      ],
      [
        "Ġto",
        "o"
      ],
      [
        "Ġcom",
        "e"
      ],
      [
        "Ġm",
        "al"
      ],
      [
        "c",
        "r"
      ],
      [
        "Ġf",
        "ar"
      ],
      [
        "Ġs",
        "ize"
      ],
      [
        "Ġc",
        "ir"
      ],
      [
        "Ġpl",
        "an"
      ],
      [
        "Ġfoc",
        "us"
      ],
      [
        "Ġo",
        "x"
      ],
      [
        "Ġare",
        "as"
      ],
      [
        "Ġbel",
        "ie"
      ],
      [
        "a",
        "ction"
      ],
      [
        "Ġan",
        "n"
      ],
      [
        "pl",
        "oy"
      ],
      [
        "Ġsoft",
        "ware"
      ],
      [
        "n",
        "ames"
      ],
      [
        "o",
        "ol"
      ],
      [
        "ip",
        "le"
      ],
      [
        "Ġacc",
        "ording"
      ],
      [
        "th",
        "ough"
      ],
      [
        "Ġbi",
        "om"
      ],
      [
        "Ġcomp",
        "ared"
      ],
      [
        "Ġtra",
        "d"
      ],
      [
        "Ġfact",
        "ors"
      ],
      [
        "Ġst",
        "ep"
      ],
      [
        "Ġter",
        "ms"
      ],
      [
        "Ġob",
        "t"
      ],
      [
        "p",
        "ub"
      ],
      [
        "Ġar",
        "ch"
      ],
      [
        "a",
        "e"
      ],
      [
        "Ġh",
        "o"
      ],
      [
        "ot",
        "y"
      ],
      [
        "ab",
        "ly"
      ],
      [
        "Ġsequ",
        "ence"
      ],
      [
        "a",
        "im"
      ],
      [
        "ot",
        "t"
      ],
      [
        "i",
        "ol"
      ],
      [
        "Ġch",
        "o"
      ],
      [
        "Ġdisc",
        "uss"
      ],
      [
        "Ġlear",
        "n"
      ],
      [
        "Ġjour",
        "nal"
      ],
      [
        "et",
        "h"
      ],
      [
        "Ġcomm",
        "ons"
      ],
      [
        "Ġlit",
        "tle"
      ],
      [
        "Ġp",
        "et"
      ],
      [
        "Ġe",
        "ither"
      ],
      [
        "Ġne",
        "ver"
      ],
      [
        "Ġte",
        "am"
      ],
      [
        "Ġcust",
        "om"
      ],
      [
        "Ġbl",
        "ood"
      ],
      [
        "Ġt",
        "ax"
      ],
      [
        "Ġg",
        "ive"
      ],
      [
        "Ġc",
        "ard"
      ],
      [
        "st",
        "r"
      ],
      [
        "Ġinclud",
        "e"
      ],
      [
        "Ġ",
        "ã"
      ],
      [
        "Ġin",
        "du"
      ],
      [
        "Ġgen",
        "ome"
      ],
      [
        "Ġe",
        "ast"
      ],
      [
        "sh",
        "are"
      ],
      [
        "Ġch",
        "rist"
      ],
      [
        "Ġsc",
        "ience"
      ],
      [
        "Ġpartic",
        "ular"
      ],
      [
        "e",
        "red"
      ],
      [
        "Ġre",
        "d"
      ],
      [
        "am",
        "m"
      ],
      [
        "l",
        "f"
      ],
      [
        "m",
        "ore"
      ],
      [
        "Ġs",
        "n"
      ],
      [
        "Ġcomp",
        "ut"
      ],
      [
        "Ġaust",
        "ral"
      ],
      [
        "f",
        "ace"
      ],
      [
        "con",
        "t"
      ],
      [
        "Ġear",
        "ly"
      ],
      [
        "Ġp",
        "ort"
      ],
      [
        "Ġpri",
        "v"
      ],
      [
        "Ġt",
        "urn"
      ],
      [
        "Ġs",
        "ens"
      ],
      [
        "Ġexp",
        "ress"
      ],
      [
        "Ġest",
        "im"
      ],
      [
        "n",
        "avigation"
      ],
      [
        "al",
        "u"
      ],
      [
        "ow",
        "s"
      ],
      [
        "Ġal",
        "ong"
      ],
      [
        "Ġle",
        "ast"
      ],
      [
        "Ġw",
        "ind"
      ],
      [
        "Ġal",
        "though"
      ],
      [
        "l",
        "er"
      ],
      [
        "it",
        "or"
      ],
      [
        "Ġl",
        "ove"
      ],
      [
        "Ġunder",
        "stand"
      ],
      [
        "Ġb",
        "ir"
      ],
      [
        "Ġun",
        "til"
      ],
      [
        "Ġed",
        "uc"
      ],
      [
        "Ġman",
        "age"
      ],
      [
        "y",
        "ou"
      ],
      [
        "c",
        "her"
      ],
      [
        "Ġm",
        "ot"
      ],
      [
        "Ġthere",
        "fore"
      ],
      [
        "o",
        "res"
      ],
      [
        "Ġw",
        "at"
      ],
      [
        "ct",
        "ed"
      ],
      [
        "Ġatt",
        "ack"
      ],
      [
        "Ġj",
        "an"
      ],
      [
        "Ġsuc",
        "cess"
      ],
      [
        "ĠĠĠÂł",
        "Ġ"
      ],
      [
        "Ġsoc",
        "ial"
      ],
      [
        "re",
        "v"
      ],
      [
        "Ġb",
        "at"
      ],
      [
        "Ġreg",
        "ul"
      ],
      [
        "a",
        "ur"
      ],
      [
        "re",
        "g"
      ],
      [
        "Ġr",
        "ange"
      ],
      [
        "Ġsum",
        "m"
      ],
      [
        "Ġp",
        "ay"
      ],
      [
        "Ġi",
        "i"
      ],
      [
        "Ġeuro",
        "pe"
      ],
      [
        "p",
        "aces"
      ],
      [
        "Ġst",
        "ra"
      ],
      [
        "Ġk",
        "ing"
      ],
      [
        "y",
        "ch"
      ],
      [
        "Ġstr",
        "ong"
      ],
      [
        "Ġgrow",
        "th"
      ],
      [
        "Ġrec",
        "ently"
      ],
      [
        "vari",
        "ants"
      ],
      [
        "Ġwikip",
        "edia"
      ],
      [
        "Ġinst",
        "it"
      ],
      [
        "Ġlook",
        "ing"
      ],
      [
        "Ġf",
        "r"
      ],
      [
        "Ġqu",
        "ality"
      ],
      [
        "gr",
        "ound"
      ],
      [
        "Ġex",
        "pect"
      ],
      [
        "Ġro",
        "le"
      ],
      [
        "names",
        "paces"
      ],
      [
        "f",
        "igure"
      ],
      [
        "l",
        "i"
      ],
      [
        "Ġl",
        "ower"
      ],
      [
        "Ġh",
        "ard"
      ],
      [
        "it",
        "ud"
      ],
      [
        "ed",
        "s"
      ],
      [
        "f",
        "er"
      ],
      [
        "Ġth",
        "us"
      ],
      [
        "Ġpl",
        "ant"
      ],
      [
        "Ġreg",
        "ist"
      ],
      [
        "en",
        "n"
      ],
      [
        "op",
        "e"
      ],
      [
        "Ġprote",
        "ins"
      ],
      [
        "Ġdep",
        "artment"
      ],
      [
        "Ġse",
        "ction"
      ],
      [
        "Ġke",
        "ep"
      ],
      [
        "Ġw",
        "r"
      ],
      [
        "Ġen",
        "c"
      ],
      [
        "Ġlic",
        "ens"
      ],
      [
        "lis",
        "hed"
      ],
      [
        "led",
        "ge"
      ],
      [
        "Ġd",
        "er"
      ],
      [
        "Ġstr",
        "ateg"
      ],
      [
        "the",
        "re"
      ],
      [
        "Ġa",
        "ug"
      ],
      [
        "th",
        "ing"
      ],
      [
        "Ġex",
        "ist"
      ],
      [
        "m",
        "ost"
      ],
      [
        "Ġal",
        "ways"
      ],
      [
        "Ġpo",
        "ly"
      ],
      [
        "Ġse",
        "en"
      ],
      [
        "Ġind",
        "ex"
      ],
      [
        "Ġ",
        "á"
      ],
      [
        "in",
        "o"
      ],
      [
        "Ġcon",
        "c"
      ],
      [
        "Ġca",
        "us"
      ],
      [
        "u",
        "x"
      ],
      [
        "he",
        "m"
      ],
      [
        "Ġd",
        "a"
      ],
      [
        "ide",
        "red"
      ],
      [
        "Ġeng",
        "ine"
      ],
      [
        "Ġincre",
        "ased"
      ],
      [
        "it",
        "ra"
      ],
      [
        "Ġsh",
        "all"
      ],
      [
        "Ġdifferen",
        "ce"
      ],
      [
        "Ġeng",
        "lish"
      ],
      [
        "Ġear",
        "th"
      ],
      [
        "Ġpolic",
        "y"
      ],
      [
        "i",
        "ation"
      ],
      [
        "u",
        "k"
      ],
      [
        "Ġ",
        "ill"
      ],
      [
        "Ġstruct",
        "ure"
      ],
      [
        "Ġh",
        "al"
      ],
      [
        "Ġcomple",
        "x"
      ],
      [
        "on",
        "se"
      ],
      [
        "Ġs",
        "un"
      ],
      [
        "at",
        "ors"
      ],
      [
        "Ġh",
        "ost"
      ],
      [
        "Ġpro",
        "t"
      ],
      [
        "Ġpat",
        "ient"
      ],
      [
        "Ġcons",
        "idered"
      ],
      [
        "Ġan",
        "c"
      ],
      [
        "Ġd",
        "am"
      ],
      [
        "Ġy",
        "et"
      ],
      [
        "Ġs",
        "il"
      ],
      [
        "Ġm",
        "ass"
      ],
      [
        "Ġm",
        "ater"
      ],
      [
        "Ġre",
        "cept"
      ],
      [
        "Ġphys",
        "ical"
      ],
      [
        "Ġha",
        "pp"
      ],
      [
        "Ġrec",
        "ent"
      ],
      [
        "Ġmem",
        "bers"
      ],
      [
        "Ġt",
        "iss"
      ],
      [
        "at",
        "ures"
      ],
      [
        "ac",
        "y"
      ],
      [
        "Ġo",
        "s"
      ],
      [
        "om",
        "es"
      ],
      [
        "Ġus",
        "a"
      ],
      [
        "Ġincre",
        "ase"
      ],
      [
        "el",
        "s"
      ],
      [
        "lect",
        "ed"
      ],
      [
        "ograph",
        "y"
      ],
      [
        "Ġon",
        "line"
      ],
      [
        "Ġprov",
        "ide"
      ],
      [
        "n",
        "g"
      ],
      [
        "is",
        "f"
      ],
      [
        "one",
        "y"
      ],
      [
        "Ġnor",
        "mal"
      ],
      [
        "v",
        "ers"
      ],
      [
        "y",
        "t"
      ],
      [
        "Ġab",
        "ove"
      ],
      [
        "end",
        "ed"
      ],
      [
        "Ġm",
        "r"
      ],
      [
        "ch",
        "an"
      ],
      [
        "Ġt",
        "our"
      ],
      [
        "ĠĠâĢī",
        "Ġ"
      ],
      [
        "Ġresp",
        "onse"
      ],
      [
        "Ġappe",
        "ar"
      ],
      [
        "Ġdoc",
        "ument"
      ],
      [
        "Ġwee",
        "k"
      ],
      [
        "Ġc",
        "amp"
      ],
      [
        "Ġr",
        "u"
      ],
      [
        "p",
        "ro"
      ],
      [
        "Ġwebs",
        "ite"
      ],
      [
        "Ġc",
        "ases"
      ],
      [
        "Ġb",
        "ig"
      ],
      [
        "iv",
        "ing"
      ],
      [
        "Ġj",
        "e"
      ],
      [
        "Ġnat",
        "ural"
      ],
      [
        "Ġre",
        "ferences"
      ],
      [
        "Ġr",
        "at"
      ],
      [
        "Ġac",
        "cept"
      ],
      [
        "c",
        "hes"
      ],
      [
        "itra",
        "vel"
      ],
      [
        "Ġm",
        "ount"
      ],
      [
        "Ġj",
        "u"
      ],
      [
        "ne",
        "w"
      ],
      [
        "Ġd",
        "ate"
      ],
      [
        "ol",
        "box"
      ],
      [
        "Ġcle",
        "ar"
      ],
      [
        "on",
        "es"
      ],
      [
        "ate",
        "ly"
      ],
      [
        "Ġsit",
        "es"
      ],
      [
        "Ġac",
        "ross"
      ],
      [
        "l",
        "ing"
      ],
      [
        "er",
        "al"
      ],
      [
        "Ġp",
        "d"
      ],
      [
        "Ġf",
        "a"
      ],
      [
        "Ġb",
        "ur"
      ],
      [
        "ne",
        "y"
      ],
      [
        "ot",
        "e"
      ],
      [
        "Ġl",
        "ater"
      ],
      [
        "Ġrel",
        "ations"
      ],
      [
        "Ġwik",
        "itravel"
      ],
      [
        "yr",
        "ight"
      ],
      [
        "Ġan",
        "g"
      ],
      [
        "Ġlike",
        "ly"
      ],
      [
        "b",
        "o"
      ],
      [
        "Ġc",
        "oun"
      ],
      [
        "Ġfore",
        "st"
      ],
      [
        "an",
        "ces"
      ],
      [
        "ron",
        "ic"
      ],
      [
        "Ġmult",
        "iple"
      ],
      [
        "ĠÎ",
        "¼"
      ],
      [
        "o",
        "f"
      ],
      [
        "Ġwhe",
        "ther"
      ],
      [
        "Ġsystem",
        "s"
      ],
      [
        "Ġproble",
        "m"
      ],
      [
        "Ġps",
        "ych"
      ],
      [
        "r",
        "or"
      ],
      [
        "Ġgo",
        "ing"
      ],
      [
        "Ġph",
        "ot"
      ],
      [
        "Ġsub",
        "ject"
      ],
      [
        "Ġmethod",
        "s"
      ],
      [
        "Ġan",
        "im"
      ],
      [
        "Ġcl",
        "ose"
      ],
      [
        "Ġbec",
        "ome"
      ],
      [
        "m",
        "l"
      ],
      [
        "Ġo",
        "ct"
      ],
      [
        "Ġf",
        "em"
      ],
      [
        "Ġne",
        "g"
      ],
      [
        "Ġev",
        "alu"
      ],
      [
        "Ġn",
        "ight"
      ],
      [
        "Ġke",
        "y"
      ],
      [
        "Ġa",
        "ff"
      ],
      [
        "om",
        "y"
      ],
      [
        "Ġme",
        "et"
      ],
      [
        "as",
        "ter"
      ],
      [
        "Ġon",
        "ce"
      ],
      [
        "Ġinfl",
        "u"
      ],
      [
        "b",
        "ack"
      ],
      [
        "o",
        "ver"
      ],
      [
        "Ġp",
        "ain"
      ],
      [
        "Ġb",
        "ind"
      ],
      [
        "Ġm",
        "m"
      ],
      [
        "Ġcl",
        "ust"
      ],
      [
        "ward",
        "s"
      ],
      [
        "Ġrequ",
        "ired"
      ],
      [
        "Ġstre",
        "et"
      ],
      [
        "Ġmanage",
        "ment"
      ],
      [
        "uc",
        "k"
      ],
      [
        "Ġtem",
        "per"
      ],
      [
        "Ġocc",
        "ur"
      ],
      [
        "Ġd",
        "est"
      ],
      [
        "to",
        "olbox"
      ],
      [
        "iqu",
        "e"
      ],
      [
        "lob",
        "al"
      ],
      [
        "Ġdat",
        "ab"
      ],
      [
        "Ġrel",
        "ative"
      ],
      [
        "Ġche",
        "ck"
      ],
      [
        "Ġwork",
        "ing"
      ],
      [
        "Ġlib",
        "r"
      ],
      [
        "Ġdi",
        "agn"
      ],
      [
        "Ġhour",
        "s"
      ],
      [
        "z",
        "e"
      ],
      [
        "Ġus",
        "er"
      ],
      [
        "Ġde",
        "g"
      ],
      [
        "ab",
        "et"
      ],
      [
        "em",
        "ber"
      ],
      [
        "Ġper",
        "formed"
      ],
      [
        "Ġval",
        "ues"
      ],
      [
        "in",
        "c"
      ],
      [
        "Ġc",
        "ateg"
      ],
      [
        "ens",
        "ive"
      ],
      [
        "Ġbl",
        "og"
      ],
      [
        "Ġauth",
        "ors"
      ],
      [
        "Ġf",
        "ive"
      ],
      [
        "Ġac",
        "id"
      ],
      [
        "Ġf",
        "ut"
      ],
      [
        "Ġmonth",
        "s"
      ],
      [
        "s",
        "u"
      ],
      [
        "im",
        "e"
      ],
      [
        "os",
        "ph"
      ],
      [
        "iv",
        "al"
      ],
      [
        "Ġcont",
        "act"
      ],
      [
        "Ġdet",
        "ail"
      ],
      [
        "Ġcount",
        "y"
      ],
      [
        "it",
        "ation"
      ],
      [
        "Ġother",
        "s"
      ],
      [
        "Ġatt",
        "ribution"
      ],
      [
        "Ġpol",
        "it"
      ],
      [
        "Ġp",
        "ast"
      ],
      [
        "Ġwh",
        "y"
      ],
      [
        "Ġbeh",
        "av"
      ],
      [
        "Ġp",
        "ers"
      ],
      [
        "Ġha",
        "ving"
      ],
      [
        "ep",
        "end"
      ],
      [
        "Ġc",
        "ross"
      ],
      [
        "Ġre",
        "ally"
      ],
      [
        "am",
        "et"
      ],
      [
        "ore",
        "d"
      ],
      [
        "pt",
        "ion"
      ],
      [
        "Ġhosp",
        "ital"
      ],
      [
        "Ġcon",
        "cent"
      ],
      [
        "Ġsch",
        "ool"
      ],
      [
        "Ġappro",
        "ach"
      ],
      [
        "m",
        "it"
      ],
      [
        "p",
        "ut"
      ],
      [
        "Ġs",
        "oci"
      ],
[...]
